{
  "version": "1.0",
  "truncation": null,
  "padding": null,
  "added_tokens": [
    {
      "id": 0,
      "content": "<s>",
      "single_word": false,
      "lstrip": false,
      "rstrip": false,
      "normalized": false,
      "special": true
    },
    {
      "id": 1,
      "content": "<pad>",
      "single_word": false,
      "lstrip": false,
      "rstrip": false,
      "normalized": false,
      "special": true
    },
    {
      "id": 2,
      "content": "</s>",
      "single_word": false,
      "lstrip": false,
      "rstrip": false,
      "normalized": false,
      "special": true
    },
    {
      "id": 3,
      "content": "<unk>",
      "single_word": false,
      "lstrip": false,
      "rstrip": false,
      "normalized": false,
      "special": true
    },
    {
      "id": 4,
      "content": "<mask>",
      "single_word": false,
      "lstrip": false,
      "rstrip": false,
      "normalized": false,
      "special": true
    }
  ],
  "normalizer": {
    "type": "NFKC"
  },
  "pre_tokenizer": {
    "type": "ByteLevel",
    "add_prefix_space": true,
    "trim_offsets": true,
    "use_regex": true
  },
  "post_processor": {
    "type": "TemplateProcessing",
    "single": [
      {
        "SpecialToken": {
          "id": "<s>",
          "type_id": 0
        }
      },
      {
        "Sequence": {
          "id": "A",
          "type_id": 0
        }
      },
      {
        "SpecialToken": {
          "id": "</s>",
          "type_id": 0
        }
      }
    ],
    "pair": [
      {
        "Sequence": {
          "id": "A",
          "type_id": 0
        }
      },
      {
        "Sequence": {
          "id": "B",
          "type_id": 1
        }
      }
    ],
    "special_tokens": {
      "</s>": {
        "id": "</s>",
        "ids": [
          2
        ],
        "tokens": [
          "</s>"
        ]
      },
      "<mask>": {
        "id": "<mask>",
        "ids": [
          50264
        ],
        "tokens": [
          "<mask>"
        ]
      },
      "<pad>": {
        "id": "<pad>",
        "ids": [
          1
        ],
        "tokens": [
          "<pad>"
        ]
      },
      "<s>": {
        "id": "<s>",
        "ids": [
          0
        ],
        "tokens": [
          "<s>"
        ]
      },
      "<unk>": {
        "id": "<unk>",
        "ids": [
          3
        ],
        "tokens": [
          "<unk>"
        ]
      }
    }
  },
  "decoder": {
    "type": "ByteLevel",
    "add_prefix_space": true,
    "trim_offsets": true,
    "use_regex": true
  },
  "model": {
    "type": "BPE",
    "dropout": null,
    "unk_token": "<unk>",
    "continuing_subword_prefix": null,
    "end_of_word_suffix": null,
    "fuse_unk": false,
    "byte_fallback": false,
    "vocab": {
      "<s>": 0,
      "<pad>": 1,
      "</s>": 2,
      "<unk>": 3,
      "<mask>": 4,
      "!": 5,
      "\"": 6,
      "#": 7,
      "$": 8,
      "%": 9,
      "&": 10,
      "'": 11,
      "(": 12,
      ")": 13,
      "*": 14,
      "+": 15,
      ",": 16,
      "-": 17,
      ".": 18,
      "/": 19,
      "0": 20,
      "1": 21,
      "2": 22,
      "3": 23,
      "4": 24,
      "5": 25,
      "6": 26,
      "7": 27,
      "8": 28,
      "9": 29,
      ":": 30,
      ";": 31,
      "<": 32,
      "=": 33,
      ">": 34,
      "?": 35,
      "@": 36,
      "A": 37,
      "B": 38,
      "C": 39,
      "D": 40,
      "E": 41,
      "F": 42,
      "G": 43,
      "H": 44,
      "I": 45,
      "J": 46,
      "K": 47,
      "L": 48,
      "M": 49,
      "N": 50,
      "O": 51,
      "P": 52,
      "Q": 53,
      "R": 54,
      "S": 55,
      "T": 56,
      "U": 57,
      "V": 58,
      "W": 59,
      "X": 60,
      "Y": 61,
      "Z": 62,
      "[": 63,
      "\\": 64,
      "]": 65,
      "^": 66,
      "_": 67,
      "`": 68,
      "a": 69,
      "b": 70,
      "c": 71,
      "d": 72,
      "e": 73,
      "f": 74,
      "g": 75,
      "h": 76,
      "i": 77,
      "j": 78,
      "k": 79,
      "l": 80,
      "m": 81,
      "n": 82,
      "o": 83,
      "p": 84,
      "q": 85,
      "r": 86,
      "s": 87,
      "t": 88,
      "u": 89,
      "v": 90,
      "w": 91,
      "x": 92,
      "y": 93,
      "z": 94,
      "{": 95,
      "|": 96,
      "}": 97,
      "~": 98,
      "¡": 99,
      "¢": 100,
      "£": 101,
      "¤": 102,
      "¥": 103,
      "¦": 104,
      "§": 105,
      "¨": 106,
      "©": 107,
      "ª": 108,
      "«": 109,
      "¬": 110,
      "®": 111,
      "¯": 112,
      "°": 113,
      "±": 114,
      "²": 115,
      "³": 116,
      "´": 117,
      "µ": 118,
      "¶": 119,
      "·": 120,
      "¸": 121,
      "¹": 122,
      "º": 123,
      "»": 124,
      "¼": 125,
      "½": 126,
      "¾": 127,
      "¿": 128,
      "Â": 129,
      "Ã": 130,
      "Ä": 131,
      "Å": 132,
      "Æ": 133,
      "Ç": 134,
      "È": 135,
      "É": 136,
      "Ê": 137,
      "Ë": 138,
      "Ì": 139,
      "Í": 140,
      "Î": 141,
      "Ï": 142,
      "Ð": 143,
      "Ñ": 144,
      "Ò": 145,
      "Ó": 146,
      "Ô": 147,
      "Õ": 148,
      "Ö": 149,
      "×": 150,
      "Ø": 151,
      "Ù": 152,
      "Ú": 153,
      "Û": 154,
      "Ü": 155,
      "Þ": 156,
      "à": 157,
      "á": 158,
      "â": 159,
      "ã": 160,
      "ä": 161,
      "å": 162,
      "æ": 163,
      "ç": 164,
      "è": 165,
      "é": 166,
      "ê": 167,
      "ë": 168,
      "ì": 169,
      "í": 170,
      "î": 171,
      "ï": 172,
      "ð": 173,
      "ĉ": 174,
      "Ġ": 175,
      "Ģ": 176,
      "ģ": 177,
      "Ĥ": 178,
      "ĥ": 179,
      "Ħ": 180,
      "ħ": 181,
      "Ĩ": 182,
      "ĩ": 183,
      "Ī": 184,
      "ī": 185,
      "Ĭ": 186,
      "ĭ": 187,
      "Į": 188,
      "į": 189,
      "İ": 190,
      "ı": 191,
      "Ĳ": 192,
      "ĳ": 193,
      "Ĵ": 194,
      "ĵ": 195,
      "Ķ": 196,
      "ķ": 197,
      "ĸ": 198,
      "Ĺ": 199,
      "ĺ": 200,
      "Ļ": 201,
      "ļ": 202,
      "Ľ": 203,
      "ľ": 204,
      "Ŀ": 205,
      "ŀ": 206,
      "Ł": 207,
      "ł": 208,
      "Ń": 209,
      "à®": 210,
      "à¯": 211,
      "à¯į": 212,
      "Ġà®": 213,
      "à¯ģ": 214,
      "à®¿": 215,
      "à®ķ": 216,
      "à®¤": 217,
      "à®°": 218,
      "à®¾": 219,
      "à®Ł": 220,
      "à®©": 221,
      "à®®": 222,
      "à®ª": 223,
      "à®²": 224,
      "à®³": 225,
      "à¯Ī": 226,
      "à®±": 227,
      "à®¯": 228,
      "à®µ": 229,
      "Ġà®ª": 230,
      "Ġà®ķ": 231,
      "à®ķà®³": 232,
      "Ġà®ħ": 233,
      "Ġà®®": 234,
      "à®ļ": 235,
      "Ġà®µ": 236,
      "à®¨": 237,
      "à¯ĩ": 238,
      "Ġà®ĩ": 239,
      "Ġà®¤": 240,
      "Ġà®ļ": 241,
      "à®£": 242,
      "à¯Ĩ": 243,
      "Ġà®¨": 244,
      "à¯ĭ": 245,
      "à¯į.": 246,
      "Ġà®İ": 247,
      "à®Ļ": 248,
      "à¯Ĭ": 249,
      "à®ªà®Ł": 250,
      "à®´": 251,
      "à¯Ģ": 252,
      "à®µà®°": 253,
      "Ġà®ī": 254,
      "à¯Ĥ": 255,
      "à¯į,": 256,
      "à¯ģ.": 257,
      "Ġà®İà®©": 258,
      "Ġà®Ĩ": 259,
      "Ġà®ĩà®°": 260,
      "Ġà®ħà®¤": 261,
      "Ġà®ĩà®¤": 262,
      "Ġà®Ĵ": 263,
      "à®¸": 264,
      "Ġà®ĩà®¨": 265,
      "Ġà®ħà®µà®°": 266,
      "âĢ": 267,
      "à®©à®°": 268,
      "à®Łà®¤": 269,
      "à®ªà®¤": 270,
      "à®µà®¤": 271,
      "à®±à®¤": 272,
      "à®ķà®ª": 273,
      "Ġà®µà®°": 274,
      "ĠâĢ": 275,
      "Ġà®®à®±": 276,
      "à®¤à®²": 277,
      "Ġà®°": 278,
      "à®Łà®®": 279,
      "à®ķà®µ": 280,
      "Ġà®ķà®Ł": 281,
      "à®³à®¤": 282,
      "à®¤à®¤": 283,
      "à®ķà®®": 284,
      "Ġà®Ĵà®°": 285,
      "à®¯à®®": 286,
      "Ġà®ı": 287,
      "Ġ1": 288,
      "Ġà®¨à®Ł": 289,
      "à®¤à®®": 290,
      "à®ķà®°": 291,
      "à¯ģ,": 292,
      "à®Łà®©": 293,
      "à®°à®ļ": 294,
      "à®µà®©": 295,
      "à®¯à®¤": 296,
      "Ġ(": 297,
      "Ġà®īà®³": 298,
      "Ġà®ħà®®": 299,
      "à¯Ī.": 300,
      "à®ķà®¤": 301,
      "à®Łà®°": 302,
      "à®¯à®²": 303,
      "à®ľ": 304,
      "à®·": 305,
      "à®°à®®": 306,
      "\"\"": 307,
      "Ġ2": 308,
      "Ġà®Ł": 309,
      "Ġà®ħà®©": 310,
      "Ġà®µà®´": 311,
      "Ġà®¯": 312,
      "à®©à®¤": 313,
      "à®¯à®°": 314,
      "Ġà®ľ": 315,
      "à®°à®£": 316,
      "Ġà®ªà®²": 317,
      "Ġà®ªà®Ł": 318,
      "Ġà®ļà®®": 319,
      "à®¤à®µ": 320,
      "Ġà®ħà®°à®ļ": 321,
      "à®¤à®ª": 322,
      "à®³à®°": 323,
      "Ġà®ĩà®²": 324,
      "Ġà®ħà®Ł": 325,
      "Ġà®İà®¤": 326,
      "Ġà®ħà®±": 327,
      "Ġà®Ĩà®©": 328,
      "Ġà®ħà®²": 329,
      "à®¤à®°": 330,
      "à®¤à®©": 331,
      "Ġà®ıà®±": 332,
      "à®²à®¤": 333,
      "Ġà®ªà®¯": 334,
      "à®²à®®": 335,
      "Ġà®®à®ķ": 336,
      "Ġà®Ĩà®ķ": 337,
      "à®°à®¤": 338,
      "à®Łà®Ļ": 339,
      "Ġà®ħà®µ": 340,
      "00": 341,
      "Ġà®ħà®¨": 342,
      "Ġà®ķà®£": 343,
      "à®ªà®°": 344,
      "à®ŀ": 345,
      "Ġà®ķà®²": 346,
      "Ġà®²": 347,
      "à®ļà®®": 348,
      "Ġà®¤à®²": 349,
      "Ġà®īà®£": 350,
      "ĠâĢľ": 351,
      "Ġà®®à®©": 352,
      "Ġà®ħà®ª": 353,
      "à®¯à®ª": 354,
      "Ġà®®à®¤": 355,
      "à®ķà®²": 356,
      "à®¿,": 357,
      "Ġà®ħà®³": 358,
      "à®µà®®": 359,
      "Ġà®ªà®£": 360,
      "à®±à®©": 361,
      "Ġà®¨à®®": 362,
      "Ġà®ªà®°": 363,
      "Ġà®ĩà®©": 364,
      "Ġà®ªà®¤": 365,
      "à®ļà®°": 366,
      "à®µà®Ł": 367,
      "Ġ-": 368,
      "Ġà®ķà®°": 369,
      "Ġà®¤à®®": 370,
      "Ġà®īà®±": 371,
      "Ġà®ĩà®¤à®©": 372,
      "Ġà®ĩà®¯": 373,
      "Ġà®ªà®ķ": 374,
      "Ġà®¤à®©": 375,
      "à®¯à®µ": 376,
      "Ġà®īà®°": 377,
      "Ġà®Ĩà®£": 378,
      "Ġà®®à®°": 379,
      "ĠâĢĿ": 380,
      "à®¤à®ķ": 381,
      "Ġà®İà®Ł": 382,
      "à®±à®ª": 383,
      "Ġà®īà®Ļ": 384,
      "à®İ": 385,
      "à®Łà®²": 386,
      "Ġà®µà®¨": 387,
      "à®©à®®": 388,
      "à®²à®ķ": 389,
      "à®¹": 390,
      "à®Łà®ª": 391,
      "à®¿.": 392,
      "Ġà®ļà®°": 393,
      "Ġà®Ĭ": 394,
      "Ġ\"\"": 395,
      "Ġ3": 396,
      "à®¾?": 397,
      "à®±à®©à®°": 398,
      "à®µà®²": 399,
      "à¯į?": 400,
      "à¯į)": 401,
      "à®®à®²": 402,
      "Ġà®ħà®£": 403,
      "Ġà®ĵ": 404,
      "à®ħ": 405,
      "à®µà®¤à®±": 406,
      "Ġà®ħà®¤à®©": 407,
      "à®¾à¯į": 408,
      "à®³à®©à®°": 409,
      "à®¤à®©à®°": 410,
      "Ġà®µà®´à®Ļ": 411,
      "à¯Ī,": 412,
      "Ġà®ªà®±": 413,
      "Ġà®ĩà®µà®°": 414,
      "Ġà®ļà®¨": 415,
      "à®®à®©": 416,
      "à®ļà®¤": 417,
      "Ġà®ħà®°": 418,
      "à®Łà®ķ": 419,
      "Ġà®¹": 420,
      "à®®à®¤": 421,
      "Ġà®ĩà®ª": 422,
      "Ġà®İà®²": 423,
      "Ġà®Ĳ": 424,
      "Ġà®Ĵà®©": 425,
      "à®±à®®": 426,
      "à®ĩ": 427,
      "Ġ20": 428,
      "Ġà®¸": 429,
      "à®ķà®´": 430,
      "à®³à®®": 431,
      "Ġà®ĩà®µ": 432,
      "à®³à®©": 433,
      "à®°à®¤à®®": 434,
      "à®ķà®ķ": 435,
      "Ġ.": 436,
      "à®´à®¨": 437,
      "Ġà®ħà®´": 438,
      "Ġà®ªà®¯à®©": 439,
      "Ġà®ĩà®±": 440,
      "Ġà®ħà®µà®©": 441,
      "Ġ5": 442,
      "à®³à®µ": 443,
      "à®°à®£à®®": 444,
      "Ġà®µà®ķ": 445,
      "à®¯à®Ļ": 446,
      "à®°à®¤à®®à®°": 447,
      "à®ķà®Ł": 448,
      "Ġà®ļà®Ł": 449,
      "à®¯à®©": 450,
      "Ġà®İà®ª": 451,
      "à¯Ĥ.": 452,
      "Ġà®¨à®Łà®¤": 453,
      "Ġà®īà®¤à®µ": 454,
      "Ġà®ĩà®£": 455,
      "à®¤à®µà®°": 456,
      "Ġà®İà®´": 457,
      "Ġà®Ĩà®°": 458,
      "Ġà®¤à®Ļ": 459,
      "Ġà®¤à®°": 460,
      "à®£à®®": 461,
      "à®²à®µ": 462,
      "Ġà®ĩà®°à®£": 463,
      "Ġà®İà®©à®ķ": 464,
      "Ġà®Ī": 465,
      "Ġ4": 466,
      "Ġà®İà®£": 467,
      "à®ļà®©": 468,
      "à¯į:": 469,
      "ĠâĢĺ": 470,
      "à®¯à®±": 471,
      "à®¾,": 472,
      "Ġà®İà®¨": 473,
      "Ġà®īà®¯": 474,
      "Ġà®¤à®µ": 475,
      "Ġà®µà®´à®ķ": 476,
      "Ġà®ħà®³à®µ": 477,
      "Ġà®¨à®²": 478,
      "Ġà®Ĩà®Ł": 479,
      "Ġ\"": 480,
      "Ġà®¤à®±": 481,
      "Ġà®¤à®Ł": 482,
      "Ġà®İà®Ļ": 483,
      "à®±à®µ": 484,
      "à®ķà®©": 485,
      "Ġà®®à®Ł": 486,
      "Ġà®ĩà®¯à®ķ": 487,
      "Ġà®Ĩà®¯": 488,
      "Ġà®ħà®Ļ": 489,
      "à®ķà®µà®²": 490,
      "Ġà®ĩà®Ł": 491,
      "à®ªà®®": 492,
      "Ġà®īà®¤": 493,
      "Ġ'": 494,
      "Ġà®µà®²": 495,
      "Ġà®¨à®©": 496,
      "à¯ĩ,": 497,
      "..": 498,
      "Ġà®ªà®Ļ": 499,
      "à®Ĩ": 500,
      "Ġà®ħà®¤à®±": 501,
      "Ġà®¤à®ķà®µà®²": 502,
      "Ġà®Ĵà®ª": 503,
      "à®ļà®²": 504,
      "ĥà®ª": 505,
      "à®±à®ķ": 506,
      "Ġà®¨à®Łà®µà®Ł": 507,
      "à¯į.\"": 508,
      "Ġà®īà®¯à®°": 509,
      "à®¯à®Ł": 510,
      "à®±à®¨": 511,
      "à®´à®ķ": 512,
      "à®ªà®µ": 513,
      "à®µà®ķ": 514,
      "Ġà®ªà®Łà®¤": 515,
      "Ġ19": 516,
      "Ġà®ļà®ķ": 517,
      "Ġà®µà®³à®°": 518,
      "Ġà®¨à®Łà®¨": 519,
      "Ġà®ĩà®¤à®±": 520,
      "Ġà®ıà®©": 521,
      "à®ªà®¤à®±": 522,
      "à®°à®ª": 523,
      "à®°à®¸": 524,
      "à®°à®°": 525,
      "ĠâĢĶ": 526,
      "à®Łà®©à®°": 527,
      "Ġ201": 528,
      "Ġà®ķà®Łà®µ": 529,
      "à®ªà®±": 530,
      "Ġà®Ĩà®ļ": 531,
      "Ġ6": 532,
      "Ġà®¤à®¯": 533,
      "à®²à®°": 534,
      "Ġà®īà®Ł": 535,
      "à®ªà®©": 536,
      "Ġà®īà®²à®ķ": 537,
      "à¯į!": 538,
      "à¯įâĢ": 539,
      "Ġà®¨à®ķà®°": 540,
      "à¯ģ?": 541,
      "à®µà®ļ": 542,
      "à®ªà®ķ": 543,
      "à®¯à®ķ": 544,
      "à®ªà®¨": 545,
      "à®²à®Ļ": 546,
      "à®Łà®µ": 547,
      "à®°à®ķ": 548,
      "à®¤à®°à®µ": 549,
      "à®¾à¯į.": 550,
      "à®ļà®¯à®®": 551,
      "à®ªà®µà®°": 552,
      "à®°à®Ļ": 553,
      "ĠâĢĻ": 554,
      "Ġ\"\"\"": 555,
      "Ġà®²à®Ł": 556,
      "Ġà®ħà®ķ": 557,
      "Ġà®ķà®²à®¨": 558,
      "Ġà®īà®Łà®©": 559,
      "à®ķà®Ļ": 560,
      "Ġà®ĩà®Ļ": 561,
      "Ġà®µà®Ł": 562,
      "20": 563,
      "à®µà®©à®®": 564,
      "à®ªà®Łà®µ": 565,
      "Ġ7": 566,
      "à®®à®°": 567,
      "Ġà®İà®©à®µ": 568,
      "à¯ģ:": 569,
      "à®ķà®£": 570,
      "à®°à®µ": 571,
      "Ġà®ľà®©": 572,
      "Ġà®Ĵà®¤": 573,
      "Ġà®ĩà®ļ": 574,
      "à®©à®µ": 575,
      "à®ķà®ļ": 576,
      "Ġ10": 577,
      "Ġà®ķà®¤": 578,
      "à®µà®®à®©": 579,
      "à®²à®ª": 580,
      "à¯ĩ.": 581,
      "à®¤à®Ļ": 582,
      "Ġ8": 583,
      "Ġà®·": 584,
      "Ġà®ĩà®Łà®¤": 585,
      "Ġà®ªà®³": 586,
      "000": 587,
      "Ġà®ħà®ļ": 588,
      "Ġà®ķà®±": 589,
      "à®£à®ª": 590,
      "Ġà®īà®²": 591,
      "Ġà®Ĩà®®": 592,
      "à®®à®ķ": 593,
      "Ġà®®à®£": 594,
      "à¯į\"\"": 595,
      "Ġà®īà®Łà®²": 596,
      "Ġà®ķà®Łà®¨": 597,
      "Ġà®¤à®©à®¤": 598,
      "à¯į-": 599,
      "Ġà®¤à®£": 600,
      "à®³à®ķ": 601,
      "à®°à®Ł": 602,
      "à®±à®µà®°": 603,
      "Ġà®İà®µ": 604,
      "Ġà®ħà®µà®°à®¤": 605,
      "Ġà®µà®Ļ": 606,
      "Ġà®ĩà®Łà®®": 607,
      "Ġà®Īà®Ł": 608,
      "à®İà®©": 609,
      "Ġà®ªà®Łà®®": 610,
      "Ġà®Ĩà®¤": 611,
      "à®ªà®µà®®": 612,
      "à®³à®ª": 613,
      "Ġà®Ĵà®µ": 614,
      "à®ĥà®ª": 615,
      "Ġà®ļà®¤à®µ": 616,
      "Ġà®ļà®¤": 617,
      "à®¾.": 618,
      "Ġà®Ĩà®²": 619,
      "à¯ģ)": 620,
      "Ġà®īà®£à®µ": 621,
      "Ġà®µà®°à®µ": 622,
      "Ġà®µà®¯à®¤": 623,
      "Ġà®ĵà®Ł": 624,
      "Ġà®Ĩà®°à®®": 625,
      "Ġà®µà®£": 626,
      "à®£à®µà®°": 627,
      "Ġà®ªà®´": 628,
      "Ġà®Ĩà®µ": 629,
      "Ġà®Ĩà®±": 630,
      "Ġ15": 631,
      "Ġà®®à®²": 632,
      "Ġ9": 633,
      "à®ªà®Łà®¤": 634,
      "Ġà®ħà®µà®³": 635,
      "à®£à®µ": 636,
      "à®³à®Ļ": 637,
      "à®°à®²": 638,
      "an": 639,
      "à®ŀà®°": 640,
      "à®£à®¤": 641,
      "à®ªà®²": 642,
      "Ġ,": 643,
      "Ġà®īà®£à®°": 644,
      "Ġà®¤à®µà®±": 645,
      "à¯ĩ!": 646,
      "in": 647,
      "Ġà®ķà®©": 648,
      "Ġà®ĵà®°": 649,
      "à®Łà®µà®°": 650,
      "Ġà®İà®°": 651,
      "ÂŃ": 652,
      "à®ī": 653,
      "Ġ12": 654,
      "Ġà®ļà®Ļ": 655,
      "âģ": 656,
      "à®¯à®µà®°": 657,
      "Ġà®Ĭà®´": 658,
      "à®±à®Ļ": 659,
      "Ġà®īà®©": 660,
      "Ġà®ĩà®Łà®Ļ": 661,
      "âģł": 662,
      "Ġà®İà®®": 663,
      "Ġà®ħà®µà®±": 664,
      "Ġà®ĩà®³": 665,
      "à®¨à®°": 666,
      "Ġà®İà®¸": 667,
      "er": 668,
      "Ġà®¨à®Łà®ķ": 669,
      "à®¯à®µà®±": 670,
      "à®©à®µà®°": 671,
      "Ġà®µà®ļà®¤": 672,
      "à®Ĳ": 673,
      "à®ļà®ª": 674,
      "à®µà®©à®Ļ": 675,
      "Ġà®ķà®´": 676,
      "on": 677,
      "Ġà®Ĩà®ª": 678,
      "à®ªà®£": 679,
      "à®¤à®¨": 680,
      "à®µà®©à®¤": 681,
      "Ġà®¤à®ķ": 682,
      "Ġà®ıà®¤": 683,
      "ĠâĢĵ": 684,
      "à®´à®ª": 685,
      "à¯įâĢĿ": 686,
      "à¯ĭ,": 687,
      "Ġà®¨à®°": 688,
      "Ġà®Ĩà®¤à®°à®µ": 689,
      "Ġà®µà®ļ": 690,
      "Ġà®ļà®ª": 691,
      "à®·à®©": 692,
      "à®µà®°à®¤": 693,
      "Ġà®ĥà®ª": 694,
      "Ġà®ķà®£à®ķ": 695,
      "Ġ200": 696,
      "à®£à®Ļ": 697,
      "à®£à®°": 698,
      "âĢĿ": 699,
      "Ġà®Ĭà®°": 700,
      "à®ļà®Ļ": 701,
      "Ġà®īà®ļ": 702,
      "à®µà®¨": 703,
      "Ġ11": 704,
      "Ġà®ıà®°": 705,
      "âĢĻ": 706,
      "à®©à®Ļ": 707,
      "à®ľà®ķ": 708,
      "à®°à®©": 709,
      "à®±à®²": 710,
      "Ġà®¤à®¨": 711,
      "Ġà®Ĩà®³": 712,
      "à®ķà®±": 713,
      "Ġà®®à®´": 714,
      "à®ķà®³à®¤": 715,
      "à®µà®³à®µ": 716,
      "Ġà®ªà®²à®°": 717,
      "Ġà®ªà®¤à®µ": 718,
      "Ġà®ĩà®¸": 719,
      "à®İà®¸": 720,
      "à®ªà®Ļ": 721,
      "Ġà®¨à®®à®ķ": 722,
      "à®ļà®ķ": 723,
      "à®ªà®ª": 724,
      "à¯į'": 725,
      "Ġà®ħà®µà®ļ": 726,
      "at": 727,
      "Ġà®°à®ļ": 728,
      "Ġà®ªà®Łà®Ļ": 729,
      "à®¤à®ļ": 730,
      "à®ªà®Łà®®": 731,
      "à¯ģ!": 732,
      "Ġà®İà®ļ": 733,
      "à®´à®²": 734,
      "Ġà®°à®¯": 735,
      "Ġà®Ĩà®ķà®µ": 736,
      "à®Ĩà®®": 737,
      "Ġà®İà®©à®¤": 738,
      "ar": 739,
      "Ġà®®à®ķà®³": 740,
      "Ġà®īà®±à®µ": 741,
      "Ġà®µà®°à®²": 742,
      "à®°à®³": 743,
      "Ġ14": 744,
      "Ġ''": 745,
      "al": 746,
      "à®ħà®¤": 747,
      "Ġà®ķà®®": 748,
      "en": 749,
      "à®¾à®¾à¯į": 750,
      "Ġ18": 751,
      "à®µà®±": 752,
      "à®©à®£": 753,
      "Ġà®İà®µà®°": 754,
      "Ġà®ķà®µ": 755,
      "Ġ:": 756,
      "ĠâĢĭ": 757,
      "à®µà®Ļ": 758,
      "à®ĩà®¤": 759,
      "à®¨à®ķà®°": 760,
      "Ġà®Īà®°": 761,
      "Ġà®Ĵà®´": 762,
      "Ġ13": 763,
      "Ġà®īà®ª": 764,
      "Ġà®¨à®ªà®°": 765,
      "Ġ25": 766,
      "Ġà®¨à®®à®¤": 767,
      "Ġà®®à®ķà®©": 768,
      "Ġ50": 769,
      "Ġà®ķà®Łà®²": 770,
      "à®ªà®°à®ª": 771,
      "Ġà®¤à®³": 772,
      "Ġà®īà®Łà®©à®Ł": 773,
      "Ġ?": 774,
      "Ġà®ķà®ª": 775,
      "Ġà®ļà®µ": 776,
      "es": 777,
      "201": 778,
      "Ġà®ķà®Łà®©": 779,
      "à®µà®ª": 780,
      "à®¯à®®à®Ł": 781,
      "Ġà®¨à®£": 782,
      "Ġà®ĩà®²à®ķ": 783,
      "à®ľà®¯": 784,
      "Ġà®ªà®ļ": 785,
      "Ġà®ªà®¯à®£": 786,
      "à®©à®ª": 787,
      "Ġà®İà®³": 788,
      "Ġà®Ĵà®Ł": 789,
      "Ġà®ĩà®²à®Ļ": 790,
      "or": 791,
      "à®¯à®°à®ļ": 792,
      "à¯įâĢĻ": 793,
      "à®¤à®Ł": 794,
      "à®²à®©": 795,
      "Ġà®ªà®©": 796,
      "ĠC": 797,
      "Ġà®ķà®µà®©": 798,
      "Ġ16": 799,
      "Ġà®µà®³": 800,
      "ĠS": 801,
      "Ġà®ķà®³": 802,
      "à¯Ī)": 803,
      "Ġà®ĩà®±à®¨": 804,
      "à®ı": 805,
      "Ġà®¤à®ª": 806,
      "à®ľà®°": 807,
      "Ġ[": 808,
      "Ġà®Ĩà®¸": 809,
      "Ġ17": 810,
      "à®°à®£à®¤": 811,
      "Ġà®īà®®": 812,
      "à®Łà®£": 813,
      "Ġà®ªà®µ": 814,
      "Ġ100": 815,
      "Ġà®®à®©à®¤": 816,
      "Ġà®ĩà®¯à®²": 817,
      "ĠâĢĶâģł": 818,
      "Ġà®¤à®°à®ª": 819,
      "à®¿:": 820,
      "à®ķà®£à®ķ": 821,
      "Ġà®ķà®µà®²": 822,
      "Ġà®ŀ": 823,
      "\"\"\"": 824,
      "à®¿)": 825,
      "à®µà®²à®°": 826,
      "Ġà®İà®ķ": 827,
      "19": 828,
      "à¯į...": 829,
      "Ġ30": 830,
      "Ġà®Ĭà®ķ": 831,
      "à®¯à®ļ": 832,
      "à®³à®µà®°": 833,
      "à®İà®®": 834,
      "Ġà®°à®©": 835,
      "Ġà®µà®©": 836,
      "à®ļà®¨": 837,
      "Ġà®ıà®´": 838,
      "à®ħà®µà®°": 839,
      "Ġà®ĩà®®": 840,
      "à¯ģ.\"": 841,
      "à®ĩà®¨": 842,
      "à®ķà®°à®®": 843,
      "Ġà®Ĳà®¨": 844,
      "Ġà®°à®¤": 845,
      "à®¾à®¾à¯į.": 846,
      "Ġ/": 847,
      "Ġà®Ĵà®³": 848,
      "à®®à®£": 849,
      "Ġà®ĩà®¯à®±": 850,
      "à®´à®®": 851,
      "à®®à®£à®®": 852,
      "Ġà®ªà®°à®µ": 853,
      "à¯įÂŃ": 854,
      "à®®à®®": 855,
      "Ġà®ľà®©à®¨": 856,
      "am": 857,
      "à¯Ī:": 858,
      "Ġà®ªà®£à®®": 859,
      "à®ļà®ķà®®": 860,
      "à®ķà®³à®µ": 861,
      "à®µà®³": 862,
      "à®¤à®±": 863,
      "Ġà®µà®Łà®ķ": 864,
      "ĠA": 865,
      "à®·à®®": 866,
      "Ġà®ķà®µà®©à®®": 867,
      "à®Ĵ": 868,
      "Ġà®ĩà®ķ": 869,
      "à®ªà®µà®¤": 870,
      "Ġà®ĵà®¯": 871,
      "à®¤à®ķà®®": 872,
      "à®¤à®ªà®Ł": 873,
      "à®ªà®³": 874,
      "Ġà®¨à®±": 875,
      "Ġà®īà®²à®ķà®®": 876,
      "it": 877,
      "ĠP": 878,
      "à®¯à®£": 879,
      "ĠM": 880,
      "Ġà®Ĳà®ķ": 881,
      "ĠN": 882,
      "Ġ24": 883,
      "Ġà®ĩà®µà®±": 884,
      "Ġà®ħà®´à®ķ": 885,
      "à®Łà®±": 886,
      "à®®à®±": 887,
      "Ġà®ªà®²à®©": 888,
      "Ġà®ªà®¯à®Ļ": 889,
      "Ġ0": 890,
      "à®µà®´": 891,
      "Ġà®ªà®¨": 892,
      "50": 893,
      "à®¨à®Ł": 894,
      "Ġ!": 895,
      "Ġà®Ĳà®°": 896,
      "ion": 897,
      "à®±à®ļ": 898,
      "à®ªà®Łà®Ļ": 899,
      "à®°à®£à®Ļ": 900,
      "Ġ22": 901,
      "ic": 902,
      "...": 903,
      "à®İà®²": 904,
      "à®Łà®³": 905,
      "Ġ21": 906,
      "st": 907,
      "ĠT": 908,
      "Ġà®Ĭà®Ł": 909,
      "Ġà®ħà®ŀ": 910,
      "à®¤à®²à®®": 911,
      "à¯Į": 912,
      "Ġ199": 913,
      "à®µà®°à®®": 914,
      "Ġà®ĩà®±à®ķ": 915,
      "),": 916,
      "à®ļà®°à®µ": 917,
      "à®´à®ķà®¤": 918,
      "à®µà®°à®Ļ": 919,
      "à®¤à®°à®°": 920,
      "Ġà®¨à®µ": 921,
      "Ġà®µà®±": 922,
      "ĠI": 923,
      "à¯į(": 924,
      "à®ķà®ªà®Ł": 925,
      "Ġà®ĩà®°à®µ": 926,
      "à®ľà®©": 927,
      "Ġà®ĩà®²à®Ł": 928,
      "Ġ40": 929,
      "Ġà®Ĩà®Ļ": 930,
      "à®¤à®°à®ª": 931,
      "il": 932,
      "Ġt": 933,
      ".\"": 934,
      "Ġà®ªà®ŀ": 935,
      "à®·à®¯à®®": 936,
      "Ġà®©": 937,
      "à®·à®¯à®Ļ": 938,
      "Ġà®ªà®¯à®£à®®": 939,
      "Ġà®Ĩà®ªà®¤": 940,
      "à®Łà®ļ": 941,
      "Ġà®ĩà®´à®¨": 942,
      "à®Ĩà®°": 943,
      "à®ªà®¯": 944,
      "à®ķà®©à®µ": 945,
      "Ġà®®à®¨": 946,
      "Ġà®¨à®²à®©": 947,
      "Ġà®ļà®²": 948,
      "à¯ģ-": 949,
      "à¯į..": 950,
      "à®µà®¤à®©": 951,
      "à®¯à®³": 952,
      "Ġà®ªà®²à®¤": 953,
      "Ġà®ħà®Łà®Ļ": 954,
      "Ġà®İà®ŀ": 955,
      "Ġà®īà®´": 956,
      "à®¤à®µà®©": 957,
      "à®©à®²": 958,
      "à®©à®ķ": 959,
      "Ġà®®à®ļ": 960,
      "à®®à®Ļ": 961,
      "à®®à®Ł": 962,
      "à®ªà®µà®©": 963,
      "Ġà®Ĵà®²": 964,
      "Ġà®®à®°à®£à®®": 965,
      "Ġà®ĩà®´à®ª": 966,
      "Ġà®ªà®°à®ªà®°à®ª": 967,
      "Ġà®ĩà®°à®¤": 968,
      "à®ķà®°à®µ": 969,
      "à®³à®²": 970,
      "à¯Ī!": 971,
      "re": 972,
      "à®¤à®´": 973,
      "Ġ2018": 974,
      "Ġà®Ĩà®´": 975,
      "à®¨à®ª": 976,
      "Ġ23": 977,
      "Ġà®ªà®´à®Ļ": 978,
      "Ġà®ķà®Łà®±": 979,
      "ĠB": 980,
      "Ġà®ħà®®à®²": 981,
      "Ġà®ªà®´à®ķ": 982,
      "om": 983,
      "Ġà®¹à®°": 984,
      "à®ļà®Ł": 985,
      "Ġà®ĩà®¯à®Ļ": 986,
      "à®¤à®©à®®": 987,
      "à®·à®¯à®¤": 988,
      "à®ļà®©à®Ļ": 989,
      "Ġ-âģł": 990,
      "à¯Ī?": 991,
      "à®ķà®©à®Ļ": 992,
      "à®²à®Ł": 993,
      "Ġà®°à®·": 994,
      "à¯ĩ!)": 995,
      "ĠR": 996,
      "el": 997,
      "Ġà®ĩà®³à®®": 998,
      "Ġà®ľà®®": 999,
      "Ġà®ĩà®µà®°à®¤": 1000,
      "à®¯à®¨": 1001,
      "ĠD": 1002,
      "à®ĥ": 1003,
      "à®ªà®µà®Ļ": 1004,
      "Ġà®ªà®Łà®ª": 1005,
      "Ġà®ªà®²à®®": 1006,
      "''": 1007,
      "Ġà®ħà®®à®°": 1008,
      "Ġà®ĩà®´": 1009,
      "Ġà®®à®©à®®": 1010,
      "Ġà®¨à®Łà®ª": 1011,
      "à®¤à®ķà®¤": 1012,
      "Ġ|": 1013,
      "Ġà®ļà®£": 1014,
      "à®£à®©": 1015,
      "à®Łà®£à®®": 1016,
      "Ġà®°à®ľ": 1017,
      "à®ľà®ķà®µ": 1018,
      "à®¤à®³à®Ļ": 1019,
      "Ġà®īà®²à®ķà®¤": 1020,
      "à®®à®ª": 1021,
      "Ġ2020": 1022,
      "à¯ģ\"\"": 1023,
      "Ġà®®à®¹": 1024,
      "à®¿-": 1025,
      "Ġâ": 1026,
      "Ġ`": 1027,
      "is": 1028,
      "Ġ28": 1029,
      "Ġà®ªà®°à®ª": 1030,
      "à®¿?": 1031,
      "Ġà®ıà®ķ": 1032,
      "ur": 1033,
      "Ġà®ļà®±": 1034,
      "Ġà®ķà®µà®°": 1035,
      "Ġ60": 1036,
      "à®ħà®²": 1037,
      "Ġà®ĩà®°à®Ł": 1038,
      "Ġà®Ĵà®±": 1039,
      "Ġà®°à®µ": 1040,
      "à¯ĩ?": 1041,
      "à®®à®¨": 1042,
      "à®ªà®¤à®©": 1043,
      "à®ªà®°à®®": 1044,
      "ch": 1045,
      "à®ķà®¨": 1046,
      "Ġà®ļà®®à®¯à®¤": 1047,
      "Ġ2017": 1048,
      "Ġà®ķà®£à®µà®°": 1049,
      "Ġà®ķà®Łà®®": 1050,
      "Ġ500": 1051,
      "as": 1052,
      "Ġà®Ĩà®¨": 1053,
      "Ġà®ľà®ª": 1054,
      "à®ĩà®©": 1055,
      "à®°à®¯": 1056,
      "ol": 1057,
      "ent": 1058,
      "Ġ31": 1059,
      "ed": 1060,
      "à¯į/": 1061,
      "à®ħà®ª": 1062,
      "à®Łà®®à®©": 1063,
      "à®ļà®µ": 1064,
      "Ġà®Ĭà®Łà®ķ": 1065,
      "à¯ĭà¯į": 1066,
      "à®°à®ļà®Ļ": 1067,
      "à®²à®³": 1068,
      "à®ļà®©à®®": 1069,
      "à¯ģâĢĿ": 1070,
      "à®ķà®®à®¤": 1071,
      "Ġà®¤à®®à®¤": 1072,
      "Ġ26": 1073,
      "Ġà®İà®©à®ª": 1074,
      "à®µà®£": 1075,
      "ing": 1076,
      "Ġà®ķà®·": 1077,
      "Ġà®¤à®°à®®": 1078,
      "Ġ27": 1079,
      "Ġ2019": 1080,
      "à¯į),": 1081,
      "à®£à®²": 1082,
      "à®·à®°": 1083,
      "Ġà®¤à®°à®µ": 1084,
      "à®Ĵà®°": 1085,
      "ĠG": 1086,
      "et": 1087,
      "Ġà®¨à®ķà®°à®®": 1088,
      "à®ķà®µà®°": 1089,
      "Ġà®ľà®©à®¤": 1090,
      "Ġà®¨à®ķà®°à®Ļ": 1091,
      "à®³à®Łà®ķ": 1092,
      "à®ªà®Łà®²": 1093,
      "ĠH": 1094,
      "Ġo": 1095,
      "Ġà®ıà®®": 1096,
      "à®¿!": 1097,
      "à®¤à®³à®µ": 1098,
      "ĠF": 1099,
      "à®¤à®³": 1100,
      "à®©à®Ł": 1101,
      "Ġà®īà®©à®ķ": 1102,
      "Ġà®ħà®µà®¤": 1103,
      "à®īà®Ļ": 1104,
      "à¯į]": 1105,
      "à®°à®¨": 1106,
      "di": 1107,
      "à®£à®ķ": 1108,
      "Ġ198": 1109,
      "à®£à®¯": 1110,
      "Ġà®ķà®®à®²": 1111,
      "Ġà®ªà®£à®¤": 1112,
      "Ġà®Ĭà®¤": 1113,
      "Ġà®ĩà®±à®Ļ": 1114,
      "Ġc": 1115,
      "Ġà®µà®°à®®": 1116,
      "Ġà®ķà®©à®µ": 1117,
      "à®ľà®¸": 1118,
      "Ġà®İà®¤à®±": 1119,
      "à®ĩà®²": 1120,
      "Ġà®¤à®©à®ķ": 1121,
      "Ġà®ĩà®¤à®°": 1122,
      "Ġà®ªà®°à®µà®²": 1123,
      "Ġà®®à®©à®¨": 1124,
      "10": 1125,
      "ĠL": 1126,
      "Ġà®ľà®©à®Ļ": 1127,
      "and": 1128,
      "Ġà®¨à®ķ": 1129,
      "à®ļà®ķà®°": 1130,
      "à®Ĩà®©": 1131,
      "Ġ29": 1132,
      "Ġà®ķà®Łà®¤": 1133,
      "Ġ2016": 1134,
      "ation": 1135,
      "Ġà®Ĩà®¤à®°": 1136,
      "Ġà®¤à®¤": 1137,
      "ro": 1138,
      "Ġ35": 1139,
      "à®ķà®¤à®°": 1140,
      "à®´à®°": 1141,
      "le": 1142,
      "Ġà®ıà®ª": 1143,
      "à®¨à®Łà®¤": 1144,
      "à¯Ī\"\"": 1145,
      "à®¯à®ķà®®": 1146,
      "Ġà®Ĭà®°à®ķ": 1147,
      "à®¯à®µà®©": 1148,
      "Ġf": 1149,
      "à®µà®²à®ķà®®": 1150,
      "à®¯à®²à®²": 1151,
      "Ġ%": 1152,
      "à®µà®²à®ķ": 1153,
      "Ġà®Īà®®": 1154,
      "Ġà®ļà®©": 1155,
      "Ġà®ķà®©à®®": 1156,
      "à®ħà®µ": 1157,
      "ĠE": 1158,
      "Ġà®ķà®µà®©à®¤": 1159,
      "Ġs": 1160,
      "à®¤à®ķà®Ļ": 1161,
      "Ġà®ļà®ļ": 1162,
      "à®Łà®¨": 1163,
      "Ġà®µà®£à®Ļ": 1164,
      "un": 1165,
      "30": 1166,
      "à®¾-": 1167,
      "he": 1168,
      "à®Łà®ļà®ª": 1169,
      "à®°à®ªà®²": 1170,
      "à®¾!": 1171,
      "Ġ300": 1172,
      "Ġà®ªà®µà®°": 1173,
      "ad": 1174,
      "18": 1175,
      "Ġà®ªà®¯à®®": 1176,
      "à®¤à®°à®®": 1177,
      "à®°à®ªà®²à®®": 1178,
      "ĠĠ": 1179,
      "Ġ70": 1180,
      "ĠK": 1181,
      "Ġà®ħà®µà®ļà®°": 1182,
      "Ġà®ĩà®°à®Ļ": 1183,
      "um": 1184,
      "id": 1185,
      "Ġ\"\"\"\"\"": 1186,
      "à®©à®©": 1187,
      "Ġà®Ĭà®±": 1188,
      "Ġà®¨à®¤": 1189,
      "Ġà®®à®¤à®¤": 1190,
      "Ġof": 1191,
      "à®ķà®´à®ķà®¤": 1192,
      "à®±à®µà®±": 1193,
      "à®ªà®ļ": 1194,
      "à®İà®Ļ": 1195,
      "à®ªà®Łà®ķ": 1196,
      "à¯Ĭ.": 1197,
      "à®Łà®¯à®®": 1198,
      "Ġ)": 1199,
      "Ġ37": 1200,
      "âĢĺ": 1201,
      "à®ľà®®": 1202,
      "Ġà®¨à®²à®¤": 1203,
      "Ġà®®à®°à®£à®¤": 1204,
      "Ġà®ķà®ļ": 1205,
      "à¯ģ...": 1206,
      "200": 1207,
      "à®¯à®ķà®¤": 1208,
      "Ġ32": 1209,
      "à®İà®ļ": 1210,
      "à®®à®³à®µ": 1211,
      "Ġà®ĩà®¯à®¨": 1212,
      "à®Łà®©à®®": 1213,
      "à¯ĪâĢĿ": 1214,
      "à¯į''": 1215,
      "Ġà®ķà®£à®µà®©": 1216,
      "à®ļà®ķà®¤": 1217,
      "Ġp": 1218,
      "Ġ\"(": 1219,
      "Ġà®Ĭà®Łà®ķà®Ļ": 1220,
      "15": 1221,
      "Ġà®ıà®µ": 1222,
      "ĠW": 1223,
      "Ġà®ħà®Łà®ķ": 1224,
      "à®£à®±": 1225,
      "12": 1226,
      "à®¿à®¾à¯į": 1227,
      "Ġà®ªà®²à®ª": 1228,
      "Ġ80": 1229,
      "à®ķà®®à®®": 1230,
      "Ġ2014": 1231,
      "Ġâĸ": 1232,
      "ct": 1233,
      "Ġà®ªà®¯à®ª": 1234,
      "Ġà®ªà®Łà®ķ": 1235,
      "Ġà®¨à®ķà®°à®¤": 1236,
      "Ġà®ħà®ľ": 1237,
      "Ġà®µà®£à®ķ": 1238,
      "à¯ĭ?": 1239,
      "Ġà®ªà®²à®µ": 1240,
      "Ġà®®à®ŀ": 1241,
      "Ġin": 1242,
      "Ġ2015": 1243,
      "Ġà®µà®°à®ª": 1244,
      "Ġ150": 1245,
      "à®²à®²": 1246,
      "à®ħà®®": 1247,
      "Ġà®Ĭà®´à®²": 1248,
      "Ġà®īà®ªà®¯": 1249,
      "Ġà®ħà®¸": 1250,
      "à®ļà®©à®¤": 1251,
      "us": 1252,
      "ut": 1253,
      "Ġà®ķà®³à®®": 1254,
      "à®ķà®Łà®²": 1255,
      "Ġà®µà®ļà®©à®Ļ": 1256,
      "à®²à®¨": 1257,
      "ĠU": 1258,
      "Ġ197": 1259,
      "à®±à®µà®©": 1260,
      "à®´à®±": 1261,
      "ra": 1262,
      "Ġà®ļà®®à®®": 1263,
      "à®©à®¨": 1264,
      "à®¤à®²à®°": 1265,
      "Ġà®ıà®ļ": 1266,
      "Ġà®ħà®ķà®±": 1267,
      "à®ļà®³": 1268,
      "Ġà®°à®ķ": 1269,
      "à®¤à®¤à®±": 1270,
      "Ġm": 1271,
      "Ġà®ħà®ªà®°": 1272,
      "14": 1273,
      "Ġà®ªà®°à®²": 1274,
      "à®ĵ": 1275,
      "500": 1276,
      "à¯į).": 1277,
      "ri": 1278,
      "à®·à®¤": 1279,
      "Ġà®ªà®¤à®±": 1280,
      "em": 1281,
      "à®¤à®¯à®¤": 1282,
      "ĠâĢĺâĢĺ": 1283,
      "Ġ33": 1284,
      "ĠV": 1285,
      "Ġà®ªà®¸": 1286,
      "ĠO": 1287,
      "à®¯à®¸": 1288,
      "à¯į.\"\"\"": 1289,
      "Ġà®¤à®³à®®": 1290,
      "Ġà®Łà®©": 1291,
      "Ġà®ħà®°à®Ļ": 1292,
      "17": 1293,
      "à®¤à®°à®Ļ": 1294,
      "Ġà®ķà®©à®®à®´": 1295,
      "Ġà®¤à®¯à®µ": 1296,
      "à®²à®ļ": 1297,
      "à¤": 1298,
      "Ġà®®à®©à®ļ": 1299,
      "Ġà®®à®ķà®¤": 1300,
      "à®ĩà®µ": 1301,
      "25": 1302,
      "à®¤à®²à®©": 1303,
      "Ġ&": 1304,
      "Ġà®µà®¤": 1305,
      "60": 1306,
      "Ġà®ªà®¯à®£à®¤": 1307,
      "Ġà®µà®²à®¤": 1308,
      "Ġà®¨à®²à®®": 1309,
      "Ġà®Ĳà®ª": 1310,
      "à®ªà®´": 1311,
      "Ġà®ªà®±à®µ": 1312,
      "Ġà®īà®²à®ķà®ª": 1313,
      "ĠIn": 1314,
      "ag": 1315,
      "Ġà®ĩà®ŀ": 1316,
      "Ġ``": 1317,
      "à¯ģâĢĻ": 1318,
      "Ġà®İà®®à®¤": 1319,
      "à®¤à®³à®¤": 1320,
      "à®ĥà®®": 1321,
      "Ġà®īà®®à®ķ": 1322,
      "Ġà®®à®¤à®®": 1323,
      "à®ħà®©": 1324,
      "21": 1325,
      "à®¨à®®": 1326,
      "âĢĮ": 1327,
      "à®İà®©à®ķ": 1328,
      "Ġà®ķà®Ļ": 1329,
      "Ġà®®à®©à®ª": 1330,
      "Ġà®Ĩà®©à®¤": 1331,
      "à®ķà®´à®ķà®®": 1332,
      "Ġb": 1333,
      "à¯Ī-": 1334,
      "Ġà®ĩà®±à®ª": 1335,
      "Ġà®²à®£": 1336,
      "à®ħà®¨": 1337,
      "à¯Ī.\"": 1338,
      "à®®à®¤à®®": 1339,
      "à¯į.)": 1340,
      "à®²à®µà®°": 1341,
      "Ġà®ªà®´à®®": 1342,
      "Ġ194": 1343,
      "Ġà®Ĩà®©à®¨": 1344,
      "Ġà®®à®±à®¨": 1345,
      "à¯ĭ.": 1346,
      "Ġà®°à®¹": 1347,
      "à®±à®°": 1348,
      "à®©à®¸": 1349,
      "à®©à®µà®©": 1350,
      "Ġà®īà®Łà®±": 1351,
      "Ġà®ĵà®µà®°": 1352,
      "Ġ45": 1353,
      "ul": 1354,
      "16": 1355,
      "Ġà®ķà®©à®Ł": 1356,
      "Ġw": 1357,
      "à®´à®ķà®®": 1358,
      "Ġd": 1359,
      "à®¯à®ķà®©": 1360,
      "Ġà®ļà®®à®¯à®®": 1361,
      "Ġ75": 1362,
      "à®ħà®µà®©": 1363,
      "Ġà®ħà®²à®ķ": 1364,
      "ay": 1365,
      "Ġ34": 1366,
      "Ġà®ķà®¤à®µ": 1367,
      "Ġà®°à®®": 1368,
      "Ġà®®à®°à®ª": 1369,
      "à®µà®²à®ķà®¤": 1370,
      "à¯ģà®¾": 1371,
      "Ġà®µà®¤à®ķ": 1372,
      "à®ħà®¤à®±": 1373,
      "Ġà®ļà®°à®ķ": 1374,
      "Ġà®¤à®³à®¤": 1375,
      "Ġà®ķà®´à®ķà®®": 1376,
      "Ġà®®à®°à®Ļ": 1377,
      "ot": 1378,
      "à®ªà®°à®Ļ": 1379,
      "Ġà®Ĩà®µà®£à®Ļ": 1380,
      "âĢľ": 1381,
      "Ġà®¤à®ķà®°": 1382,
      "est": 1383,
      "Ġà®µà®¯": 1384,
      "Ġà®Ĩà®ľà®°": 1385,
      "à®¯à®µà®¨": 1386,
      "Ġ90": 1387,
      "à®°à®µà®°": 1388,
      "à®Łà®Ł": 1389,
      "Ġà®¨à®µà®®": 1390,
      "à®²à®¸": 1391,
      "à¯įâĢĮ": 1392,
      "Ġà®ļà®®à®¯à®Ļ": 1393,
      "Ġà®Ĩà®´à®®": 1394,
      "ce": 1395,
      "22": 1396,
      "Ġà®ħà®¯": 1397,
      "à®²à®¨à®Ł": 1398,
      "à®Ĩà®ķ": 1399,
      "à®®à®£à®¤": 1400,
      "Ġà®ªà®¤à®ķ": 1401,
      "à®ĩà®±": 1402,
      "Ġà®¤à®Łà®µ": 1403,
      "Ġà®īà®²à®ķà®ķ": 1404,
      "Ġà®ħà®ķà®°": 1405,
      "Ġà®®à®°à®£": 1406,
      "Ġà®ľà®©à®µà®°": 1407,
      "Ġà®¤à®°à®¤": 1408,
      "Ġà®īà®²à®ķà®³": 1409,
      "à®ķà®©à®®": 1410,
      "à®¿ÂŃ": 1411,
      "Ġà®¤à®³à®ªà®¤": 1412,
      "Ġà®¤à®ķà®ª": 1413,
      "Ġà®¨à®ª": 1414,
      "à¯ĭà®¾à¯į": 1415,
      "à®°à®´": 1416,
      "Ġà®®à®±à®ķ": 1417,
      "à®ķà®²à®®": 1418,
      "à®Łà®²à®¤": 1419,
      "Ġà®ļà®ķà®²": 1420,
      "ĠNW": 1421,
      "11": 1422,
      "à®ªà®³à®®": 1423,
      "à®¿'": 1424,
      "Ġà®ħà®µà®Ļ": 1425,
      "Ġ400": 1426,
      "Ġà®¤à®ŀ": 1427,
      "Ġ36": 1428,
      "à®ľà®ªà®ķ": 1429,
      "Ġà®Ĩà®ĥà®ª": 1430,
      "à®¯à®²à®°": 1431,
      "lo": 1432,
      "ir": 1433,
      "à®¤à®°à®¤": 1434,
      "Ġ2011": 1435,
      "Ġà®İà®±": 1436,
      "à®¤à®µà®±": 1437,
      ").": 1438,
      "à®¤à®®à®Ł": 1439,
      "à®°à®°à®ļ": 1440,
      "/-": 1441,
      "à¯Ģ.": 1442,
      "à¯ģ'": 1443,
      "Ġà®¨à®ļ": 1444,
      "à®¨à®²": 1445,
      "Ġà®ªà®ķà®²": 1446,
      "2018": 1447,
      "Ġà®Ĩà®ķà®¸": 1448,
      "à¯Ģà®¾à¯į": 1449,
      "Ġà®ļà®ŀ": 1450,
      "à®ķà®´à®ķ": 1451,
      "à®ĩà®ª": 1452,
      "Ġà®¨à®·": 1453,
      "Ġà®ĵà®µ": 1454,
      "Ġà®İà®¯": 1455,
      "à¯ģ:-": 1456,
      "à®ķà®³à®®": 1457,
      "Ġ195": 1458,
      "Ġà®ªà®°à®¨": 1459,
      "à®ĩà®°": 1460,
      "Ġà®µà®³à®®": 1461,
      "Ġà®ļà®®à®¨": 1462,
      "Ġ196": 1463,
      "Ġà®®à®Łà®Ļ": 1464,
      "Ġà®¤à®´": 1465,
      "Ġ+": 1466,
      "Ġà®ķà®´à®ķà®¤": 1467,
      "Ġà®ĩà®µà®©": 1468,
      "à®ħà®°à®ļ": 1469,
      "à®¤à®³à®®": 1470,
      "à®£à®®à®Ł": 1471,
      "iv": 1472,
      "Ġà®µà®®": 1473,
      "à®¯à®²à®®": 1474,
      "Ġà®ªà®´à®©": 1475,
      "Ġà®īà®¯à®°à®®": 1476,
      "à®µà®ļà®®": 1477,
      "à®ķà®°à®©": 1478,
      "Ġà®ļà®®à®°": 1479,
      "Ġà®ªà®¯à®¨": 1480,
      "ĠJ": 1481,
      "à®¾)": 1482,
      "Ġâĸ¡": 1483,
      "Ġà®ĩà®°à®ķ": 1484,
      "à®®à®¸": 1485,
      "à®µà®°à®ª": 1486,
      "Ġ2013": 1487,
      "Ġà®®à®²à®°": 1488,
      "40": 1489,
      "Ġà®ªà®¯à®©à®Ł": 1490,
      "Ġà®ķà®²à®ķ": 1491,
      "à®±à®ªà®Ł": 1492,
      "99": 1493,
      "à®Łà®ķà®®": 1494,
      "ers": 1495,
      "ame": 1496,
      "Ġà®¤à®ļ": 1497,
      "à®¨à®ªà®°": 1498,
      "à®ķà®°à®¤": 1499,
      "Ġ38": 1500,
      "à®´à®Ļ": 1501,
      "ov": 1502,
      "à®Łà®µà®£": 1503,
      "Ġ250": 1504,
      "ab": 1505,
      "à®µà®°à®µ": 1506,
      "Ġà®ĩà®¤à®´": 1507,
      "II": 1508,
      "hi": 1509,
      "à®¤à®£": 1510,
      "à®İà®ª": 1511,
      "à®ļà®¯": 1512,
      "à®Ī": 1513,
      "à®©à®Łà®®": 1514,
      "à¯į).\"": 1515,
      "à®·à®©à®°": 1516,
      "à®¤à®¸": 1517,
      "Ġà®®à®Ļ": 1518,
      "od": 1519,
      "Ġà®ħà®°à®µ": 1520,
      "Ġà®·à®°": 1521,
      "à®ªà®ķà®®": 1522,
      "à®µà®²à®ķà®Ļ": 1523,
      "à®¯à®ķà®°": 1524,
      "Ġn": 1525,
      "Ġà®ħà®°à®ª": 1526,
      "à®Łà®£à®¤": 1527,
      "à®²à®¯": 1528,
      "à¯į....": 1529,
      "à®·à®ª": 1530,
      "à®²à®ķà®Ł": 1531,
      "»¿": 1532,
      "ï»¿": 1533,
      "à®¯à®ķà®ķ": 1534,
      "à®°à®®à®£": 1535,
      "Ġà®īà®³à®µ": 1536,
      "op": 1537,
      "à®ķà®©à®¤": 1538,
      "à®¾à¯į,": 1539,
      "à®µà®ķà®Ļ": 1540,
      "à®ħà®Ł": 1541,
      "à®İà®¤": 1542,
      "ig": 1543,
      "13": 1544,
      "à®®à®ļ": 1545,
      "Ġà®Ĭà®°à®Łà®Ļ": 1546,
      "à®Łà®¤à®±": 1547,
      "os": 1548,
      "Ġà®Ĳà®¸": 1549,
      "Ġ48": 1550,
      "Ġà®Ĳà®ļ": 1551,
      "Ġà®Ĩà®µà®²": 1552,
      "Ġà®İà®¤à®©": 1553,
      "à®©à®ļ": 1554,
      "Ġà®İà®µà®©": 1555,
      "Ġa": 1556,
      "à¯ĪâĢĻ": 1557,
      "Ġà®ªà®°à®¤": 1558,
      "à®¯à®³à®µ": 1559,
      "à¯ĩ)": 1560,
      "Ġà®ĩà®°à®ķà®ļ": 1561,
      "à®¤à®¯": 1562,
      "Ġ39": 1563,
      "im": 1564,
      "à®ļà®®à®¯à®®": 1565,
      "Ġà®ĩà®²à®µà®ļ": 1566,
      "Ġà®®à®£à®®": 1567,
      "Ġà®®à®®": 1568,
      "à®°à®®à®®": 1569,
      "à®Łà®²à®Ļ": 1570,
      "Ġg": 1571,
      "à®°à®ķà®®": 1572,
      "à¯ģ(": 1573,
      "Ġà®±": 1574,
      "Ġà®¨à®¯à®©": 1575,
      "à®¤à®°à®©": 1576,
      "Ġà®ªà®¯à®©à®°": 1577,
      "Ġ42": 1578,
      "Ġà®ªà®°à®®": 1579,
      "Ġà®ļà®®à®¤": 1580,
      "à®±à®´": 1581,
      "Ġà®īà®ªà®ķà®°": 1582,
      "à®ªà®µà®±": 1583,
      "ak": 1584,
      "Ġà®ĩà®©à®¤": 1585,
      "à®Łà®¯à®¤": 1586,
      "à®Łà®Łà®®": 1587,
      "Ġà®ĵà®°à®³à®µ": 1588,
      "ess": 1589,
      "Ġ2012": 1590,
      "Ġ:âģł": 1591,
      "Ġthe": 1592,
      "24": 1593,
      "à®±à®Ł": 1594,
      "Ġ=": 1595,
      "à®ıà®©": 1596,
      "à®Łà®Łà®Ļ": 1597,
      "Ġà®ķà®²à®µ": 1598,
      "Ġ65": 1599,
      "à®Łà®¯à®Ļ": 1600,
      "Ġà®īà®ªà®¤": 1601,
      "à®Łà®²à®®": 1602,
      "Ġ44": 1603,
      "Ġà®ĩà®©à®Ļ": 1604,
      "Ġà®Łà®°": 1605,
      "à®Łà®µà®©": 1606,
      "à®¯à®ªà®Ł": 1607,
      "th": 1608,
      "ment": 1609,
      "2017": 1610,
      "Ġà®ľà®µ": 1611,
      "à®²à®±": 1612,
      "à®¹à®°": 1613,
      "à®¨à®ķà®°à®®": 1614,
      "à®¤à®©à®Ļ": 1615,
      "ĠX": 1616,
      "\\\"\"": 1617,
      "ate": 1618,
      "âĢĵ": 1619,
      "Ġà®¤à®³à®°": 1620,
      "Ġà®İà®®à®ķ": 1621,
      "à®Łà®ķà®¤": 1622,
      "Ġà®²à®ķ": 1623,
      "Ġ125": 1624,
      "Ġà®īà®ķ": 1625,
      "ist": 1626,
      "Ġà®ļà®°à®£": 1627,
      "Ġà®ħà®²à®Ļ": 1628,
      "à¯Ī(": 1629,
      "amil": 1630,
      "Ġand": 1631,
      "23": 1632,
      "Ġà®İà®Łà®ª": 1633,
      "Ġ2000": 1634,
      "oc": 1635,
      "à®¤à®©à®¤": 1636,
      "Ġà®ĩà®²à®µà®ļà®®": 1637,
      "à®°à®µà®¤": 1638,
      "Ġà®ħà®ķà®¤": 1639,
      "Ġto": 1640,
      "à®µà®ļà®¤": 1641,
      "à®²à®ªà®®": 1642,
      "à®¤à®ķà®°": 1643,
      "Ġ#": 1644,
      "à®¯à®¤à®±": 1645,
      "à¯Ĥà®¾à¯į": 1646,
      "Ġà®īà®¯à®°à®¤": 1647,
      "ter": 1648,
      "à¯Ī'": 1649,
      "à®¸à®°": 1650,
      "Ġà®°à®ķà®ļ": 1651,
      "Ġà®Ĩà®²à®¯à®¤": 1652,
      "à®©à®°à®²": 1653,
      "80": 1654,
      "à®®à®ķà®©": 1655,
      "à®¿(": 1656,
      "Ġà®ıà®±à®ķ": 1657,
      "à®ŀà®©": 1658,
      "35": 1659,
      "Ġh": 1660,
      "ap": 1661,
      "à®²à®µà®±": 1662,
      "à®·à®Ļ": 1663,
      "à®²à®£": 1664,
      "à¯įâĢĻâĢĻ": 1665,
      "à®ļà®£": 1666,
      "à®¿âĢĻ": 1667,
      "Ġà®·à®Ļ": 1668,
      "Ġà®®à®°à®¤": 1669,
      "ity": 1670,
      "ew": 1671,
      "Ġà®īà®¨": 1672,
      "à®©à®±": 1673,
      "Ġà®ĩà®°à®¯": 1674,
      "dia": 1675,
      "à¯Ĩ.": 1676,
      "Ġà®ķà®´à®ķ": 1677,
      "à®¤à®¤à®©": 1678,
      "à®°à®®à®¤": 1679,
      "à®ªà®³à®µ": 1680,
      "à®Łà®¸": 1681,
      "Ġ...": 1682,
      "90": 1683,
      "à®¤à®¯à®®": 1684,
      "à®¾'": 1685,
      "à®ħà®¤à®©": 1686,
      "Ġà®İà®²à®ķ": 1687,
      "Ġ43": 1688,
      "à®¾?\"": 1689,
      "Ġà®ħà®ļà®¤": 1690,
      "à®ªà®¸": 1691,
      "Ġà®ħà®ķà®®à®¤": 1692,
      "à®¯à®®à®©à®®": 1693,
      "à®¾:": 1694,
      "Ġà®°à®£": 1695,
      "Ġà®ħà®°à®ļà®°": 1696,
      "à®ªà®ķà®¤": 1697,
      "Ġà®ĩà®´à®ķ": 1698,
      "Ġà®Ĩà®¯à®¤": 1699,
      "Ġ55": 1700,
      "2016": 1701,
      "à®ªà®¯à®£à®®": 1702,
      "Ġà®ªà®°à®¸": 1703,
      "à®¯à®¤à®³à®¤": 1704,
      "Ġà®īà®ªà®ķà®°à®£à®Ļ": 1705,
      "Ġà®¤à®®à®ķ": 1706,
      "Ġà®ĩà®³à®µà®°": 1707,
      "Ġk": 1708,
      "à®ķà®Łà®µ": 1709,
      "03": 1710,
      "Ġà®ļà®°à®¤": 1711,
      "à®Ĩà®Ļ": 1712,
      "ac": 1713,
      "à®¤à®µà®³": 1714,
      "Ġ1000": 1715,
      "Ġà®¤à®³à®Ļ": 1716,
      "Ġà®Ĵà®£": 1717,
      "à®ľà®²": 1718,
      "Ġ47": 1719,
      "2019": 1720,
      "qu": 1721,
      "Ġà®Ĳà®¤à®°": 1722,
      "ine": 1723,
      "Ġà®µà®³à®Ļ": 1724,
      "à®ĩà®µà®°": 1725,
      "Ġà®µà®Łà®®": 1726,
      "à®¯à®°à®Ļ": 1727,
      "av": 1728,
      "à®²à®ķà®®": 1729,
      "à®³à®ļ": 1730,
      "Ġà®ħà®Łà®°": 1731,
      "Ġà®¤à®ķà®µà®²à®±": 1732,
      "à®£à®¯à®®": 1733,
      "ĠĠĠĠ": 1734,
      "Ġ49": 1735,
      "à¯į,\"\"": 1736,
      "Ġ600": 1737,
      "à®İà®ĥà®ª": 1738,
      "Ġv": 1739,
      "à®ķà®¸": 1740,
      "Ġà®Łà®ª": 1741,
      "ia": 1742,
      "Ġà®®à®¯": 1743,
      "à®İà®ķ": 1744,
      "75": 1745,
      "à®Łà®ªà®Ł": 1746,
      "Name": 1747,
      "à®³à®µà®©": 1748,
      "à®²à®ķà®¤": 1749,
      "à®µà®¯à®¤": 1750,
      "ec": 1751,
      "art": 1752,
      "à®ķà®®à®³": 1753,
      "Ġà®ķà®³à®¤": 1754,
      "à®·à®²": 1755,
      "70": 1756,
      "44": 1757,
      "--": 1758,
      "à®Łà®°à®ª": 1759,
      "à®īà®£": 1760,
      "à®°à®®à®ļ": 1761,
      "à®Łà®µà®ļà®®": 1762,
      "à¯ģÂŃ": 1763,
      "à¯į,''": 1764,
      "og": 1765,
      "Ġà®ªà®ľ": 1766,
      "ow": 1767,
      "Ġà®µà®ļà®©à®®": 1768,
      "Ġ193": 1769,
      "à¯Ī...": 1770,
      "Ġà®ħà®µà®ķ": 1771,
      "à®©à®ŀ": 1772,
      "Ġà®Ĩà®µà®°": 1773,
      "Ġ120": 1774,
      "Ġà®İà®ĥà®ª": 1775,
      "Ġx": 1776,
      "Ġà®ļà®Łà®²à®®": 1777,
      "Ġà®ħà®¯à®²": 1778,
      "Ġà®¨à®Łà®©à®®": 1779,
      "2020": 1780,
      "Ġà®ļà®Łà®²à®¤": 1781,
      "Ġà®īà®ķà®¨": 1782,
      "à®ķà®°à®£": 1783,
      "2014": 1784,
      "05": 1785,
      "à®¾?\"\"": 1786,
      "à®ķà®Łà®©": 1787,
      "28": 1788,
      "Ġà®ķà®²à®ª": 1789,
      "Ġà®ªà®¯à®¤": 1790,
      "à®´à®µ": 1791,
      "Ġà®µà®©à®¤": 1792,
      "Ġï»¿": 1793,
      "Ġà®®à®°à®®": 1794,
      "à¯ģ''": 1795,
      "à®®à®¯à®®": 1796,
      "2015": 1797,
      "Ġà®ªà®¯à®ªà®ķ": 1798,
      "Ġà®ħà®¯à®°": 1799,
      "à®īà®©": 1800,
      "Ġà®ĩà®¤à®¯à®¤": 1801,
      "à®ļà®¸": 1802,
      "all": 1803,
      "à®Łà®ķà®°": 1804,
      "Ġà®īà®®à®¤": 1805,
      "à®¿\"\"": 1806,
      "ĠSt": 1807,
      "à®¸à®©": 1808,
      "Ġà®ħà®±à®ķ": 1809,
      "up": 1810,
      "à®©à®ļà®°": 1811,
      "à®Łà®£à®Ļ": 1812,
      "Ġà®Ĳà®¯": 1813,
      "ĠTamil": 1814,
      "Ġ800": 1815,
      "Ġà®ıà®Ł": 1816,
      "Ġà®ªà®£à®ķ": 1817,
      "à®ªà®°à®¤": 1818,
      "à®ķà®µà®©": 1819,
      "à®ķà®²à®ª": 1820,
      "ran": 1821,
      "Ġà®¤à®µà®£": 1822,
      "Ġ64": 1823,
      "26": 1824,
      "Ġ46": 1825,
      "ĠÂ": 1826,
      "Ġà®¨à®Łà®®": 1827,
      "à®ķà®¯": 1828,
      "Ġ54": 1829,
      "ort": 1830,
      "à®¾âĢĻ": 1831,
      "à®²à®µà®´": 1832,
      "Ġà®Ĵà®¯": 1833,
      "à®´à®©": 1834,
      "Ġà®¾": 1835,
      "Ġà®®à®°à®£à®®à®Ł": 1836,
      "ev": 1837,
      "Ġà®µà®²à®®": 1838,
      "Ġà®ªà®£à®ª": 1839,
      "Ġfor": 1840,
      "à®Ĭ": 1841,
      "Ġà®ªà®²à®ķ": 1842,
      "Ġà®īà®²à®ķà®³à®µ": 1843,
      "....": 1844,
      "Ġà®ªà®®": 1845,
      "Ġà®Ĳà®Ł": 1846,
      "à®¤à®®à®²": 1847,
      "Ġà®°à®ª": 1848,
      "Ġ52": 1849,
      "Ġ2005": 1850,
      "à®°à®ķà®¤": 1851,
      "04": 1852,
      "à®¤à®°à®ķ": 1853,
      "à®©à®µà®±": 1854,
      "Ġ2001": 1855,
      "Ġ\\\"\"": 1856,
      "à®ļà®²à®ª": 1857,
      "Ġl": 1858,
      "ww": 1859,
      "à®ħà®°": 1860,
      "ĠCh": 1861,
      "Ġà®ªà®¤à®ª": 1862,
      "à¯ģ.\"\"\"": 1863,
      "à®°à®ªà®²à®Ļ": 1864,
      "à®·à®©à®²": 1865,
      "à®Ĳà®Ł": 1866,
      "à¯į\"": 1867,
      "Ġà®®à®°à®ªà®£": 1868,
      "à¯į,âĢĿ": 1869,
      "Ġà®ħà®°à®£": 1870,
      "à¯į?\"": 1871,
      "à®±à®¤à®±": 1872,
      "à®īà®³": 1873,
      "à®¯à®¤à®©": 1874,
      "Ġ$": 1875,
      "à®ħà®±": 1876,
      "à®¿à¯į": 1877,
      "à®¯à®®à®Ļ": 1878,
      "Ġà®ĵà®ļ": 1879,
      "Ġ41": 1880,
      "à®ªà®£à®®": 1881,
      "Ġ2006": 1882,
      "à®ĩà®Ļ": 1883,
      "Ġà®¨à®ķà®²": 1884,
      "Ġà®ĩà®·": 1885,
      "Ġà®ļà®ªà®°": 1886,
      "à¯ĭ!": 1887,
      "à®ĩà®¤à®©": 1888,
      "Ġâĸª": 1889,
      "Ġà®ļà®®à®©": 1890,
      "Ġà®ħà®²à®Ł": 1891,
      "Ġà®ĩà®©à®®": 1892,
      "Ġ2008": 1893,
      "ant": 1894,
      "300": 1895,
      "Ġà®µà®¤à®¨": 1896,
      "Ġà®¤à®°à®ķ": 1897,
      "à®ķà®´à®ķà®Ļ": 1898,
      "à®¸à®²": 1899,
      "Ġ56": 1900,
      "à®°à®µà®®": 1901,
      "Ġà®ªà®±à®ķ": 1902,
      "Ġà®ħà®°à®ļà®©": 1903,
      "Ġà®ļà®®à®°à®ļ": 1904,
      "Ġà®ħà®µà®©à®¤": 1905,
      "à®ıà®ķ": 1906,
      "à®Łà®µà®Ł": 1907,
      "ep": 1908,
      "Ġ2007": 1909,
      "Ġà®ľà®²": 1910,
      "45": 1911,
      "Ġà®ĥ": 1912,
      "ill": 1913,
      "Ġà®ķà®²à®Ļ": 1914,
      "06": 1915,
      "à®ļà®®à®Ł": 1916,
      "ect": 1917,
      "ang": 1918,
      "29": 1919,
      "27": 1920,
      "à®·à®¯": 1921,
      "à®±à®ŀ": 1922,
      "01": 1923,
      "Ġà®ªà®¤à®Ł": 1924,
      "ĠY": 1925,
      "Ġ2004": 1926,
      "ric": 1927,
      "à®Ĩà®¯": 1928,
      "à®ĩà®¤à®±": 1929,
      "Ġà®ħà®µà®®": 1930,
      "à®¤à®¯à®Ļ": 1931,
      "Ġ58": 1932,
      "ah": 1933,
      "Ġ350": 1934,
      "à®°à®ļà®©": 1935,
      "à®°à®¹": 1936,
      "à®µà®µ": 1937,
      "Ġà®°à®ŀ": 1938,
      "Ġà®®à®¯à®Ļ": 1939,
      "Ġà®¨à®¨": 1940,
      "à®¤à®ķà®µà®²": 1941,
      "Ġ53": 1942,
      "à®Łà®ķà®Ļ": 1943,
      "Ġà®µà®°à®ķ": 1944,
      "ik": 1945,
      "à®¨à®©": 1946,
      "à®³à®¸": 1947,
      "100": 1948,
      "à®µà®°à®ķ": 1949,
      "Ġà®īà®Łà®®": 1950,
      "02": 1951,
      "à¯ģ]": 1952,
      "à®ªà®¯à®©": 1953,
      "à®ªà®Łà®ª": 1954,
      "Ġ2003": 1955,
      "Ġ370": 1956,
      "à®°à®±": 1957,
      "à®ľà®©à®®": 1958,
      "Ġà®®à®¤à®Ļ": 1959,
      "Ġ2002": 1960,
      "09": 1961,
      "Ġà®®à®²à®ķ": 1962,
      "Ġ63": 1963,
      "ational": 1964,
      "à¯ģ),": 1965,
      "à®īà®®": 1966,
      "Ġà®ļà®Łà®Ļ": 1967,
      "Ġà®ħà®µà®ļà®°à®®": 1968,
      "Ġà®µà®¯à®²": 1969,
      "à®Łà®¤à®©": 1970,
      "Ġ(_": 1971,
      "à®Ĩà®µà®¤": 1972,
      "Ġre": 1973,
      "à¯ĭ-": 1974,
      "ore": 1975,
      "à®ĥà®ķ": 1976,
      "Ġà®Īà®¸": 1977,
      "ĠâĢĻâĢĻ": 1978,
      "63": 1979,
      "à®ĩà®Ł": 1980,
      "ain": 1981,
      "Ġà®ĵà®¤": 1982,
      "Ġà®¨à®°à®®": 1983,
      "Ġ51": 1984,
      "Ġà®īà®µ": 1985,
      "à®°à®®à®Ł": 1986,
      "if": 1987,
      "Ġà®ªà®¯à®£à®Ļ": 1988,
      "Ġà®¤à®¯à®Ļ": 1989,
      "ph": 1990,
      "Ġà®¤à®°à®µà®°": 1991,
      "à®¯à®®à®±": 1992,
      "ress": 1993,
      "Ġà®µà®±à®Ł": 1994,
      "à®£à®µà®©": 1995,
      "Ġ2009": 1996,
      "Ġà®ªà®ª": 1997,
      "à®±à®³": 1998,
      "Ġà®ĩà®¯à®²à®µ": 1999,
      "à®±à®¨à®ķà®°": 2000,
      "Ġà®¹à®µ": 2001,
      "ib": 2002,
      "Ġà®ĩà®¤à®¯": 2003,
      "Ġ--": 2004,
      "07": 2005,
      "Ġà®Ĭà®Łà®ķà®®": 2006,
      "à®Łà®Łà®¤": 2007,
      "à®³à®¨": 2008,
      "à¯ģ/": 2009,
      "Ġ2010": 2010,
      "Ġ1990": 2011,
      "our": 2012,
      "Ġ85": 2013,
      "à®ªà®ķà®²": 2014,
      "Ġ01": 2015,
      "ure": 2016,
      "Ġà®Ĩà®¤à®°à®µà®³": 2017,
      "Ġà®ĩà®£à®ķ": 2018,
      "Ġà®²à®¤": 2019,
      "Ġà®®à®µ": 2020,
      "95": 2021,
      "Ġ130": 2022,
      "ex": 2023,
      "à®²à®µà®°à®®": 2024,
      "à®³à®±": 2025,
      "Ġà®µà®°à®¤": 2026,
      "Ġà®ħà®©à®²": 2027,
      "low": 2028,
      "à®¿...": 2029,
      "à®µà®´à®ķ": 2030,
      "65": 2031,
      "Ġà®ªà®±à®¨": 2032,
      "ard": 2033,
      "à®±à®©à®µ": 2034,
      "Ġ]": 2035,
      "Ġà®¯à®¤": 2036,
      "Ġà®Ĩà®¤à®²": 2037,
      "Ġà®®à®¯à®ķ": 2038,
      "85": 2039,
      "à®©à®°à®®": 2040,
      "à®µà®ķà®®": 2041,
      "oun": 2042,
      "ub": 2043,
      "ht": 2044,
      "33": 2045,
      "à®µà®®à®´": 2046,
      "âĢĭ": 2047,
      "à®Ĩà®£": 2048,
      "Ġà®ĩà®£à®Ļ": 2049,
      "à®¯à®¤à®³à®®": 2050,
      "ass": 2051,
      "Ġà®Ĭà®Łà®ķà®µ": 2052,
      "64": 2053,
      "à®¯à®ķà®ª": 2054,
      "Ġà®Īà®ķ": 2055,
      "Ġà®®à®¤à®ļ": 2056,
      "Ġà®®à®°à®ķ": 2057,
      "à®īà®²à®ķ": 2058,
      "à®©à®ªà®Ł": 2059,
      "Ġà®ĩà®³à®µà®°à®ļà®°": 2060,
      "ont": 2061,
      "à¯ģ....": 2062,
      "Ġà®³": 2063,
      "08": 2064,
      "Ġà®ķà®¯": 2065,
      "600": 2066,
      "Ġà®īà®·": 2067,
      "Ġ72": 2068,
      "ai": 2069,
      "Ġà®Ĩà®µà®¤": 2070,
      "Ġ110": 2071,
      "à®°à®ŀ": 2072,
      "ud": 2073,
      "ĠIndia": 2074,
      "à®µà®³à®°": 2075,
      "Ġà®ķà®¨": 2076,
      "Ġ2021": 2077,
      "Ġà®¨à®³": 2078,
      "Ġ95": 2079,
      "Ġà®ħà®µà®®à®¤": 2080,
      "Ġà®ĩà®©à®µ": 2081,
      "à®±à®±": 2082,
      "Ġ67": 2083,
      "Ġ700": 2084,
      "à®ķà®Łà®¤": 2085,
      "Ġà®īà®²à®°": 2086,
      "Ġà®¹à®®": 2087,
      "à®µà®©à®°": 2088,
      "à®³à®Ł": 2089,
      "Ġà®ĩà®°à®ļ": 2090,
      "Ġà®ľà®ķ": 2091,
      "à®µà®°à®©": 2092,
      "à®İà®¨": 2093,
      "à®±à®®à®Ł": 2094,
      "à®µà®²à®®": 2095,
      "Ġ||": 2096,
      "Ġà®®à®Łà®ķ": 2097,
      "à®ħà®ķ": 2098,
      "à®¯à®£à®©": 2099,
      "Ġà®µà®ŀ": 2100,
      "à®¤à®®à®¤": 2101,
      "Ġà®ıà®±à®¤": 2102,
      "à®¿âĢĿ": 2103,
      "Ġà®ªà®µà®©": 2104,
      "Ġà®ħà®µà®°à®µà®°": 2105,
      "à®°à®ľ": 2106,
      "à®µà®©à®¨": 2107,
      "ide": 2108,
      "ail": 2109,
      "Ġà®µà®¯à®ļ": 2110,
      "à®Ĩà®ķà®µ": 2111,
      "Ġà®ĩà®©à®ª": 2112,
      "Ġà®¿": 2113,
      "à®¨à®²à®®": 2114,
      "Ġst": 2115,
      "77": 2116,
      "Ġà®ļà®¤à®®": 2117,
      "à®ķà®®à®±": 2118,
      "Ġà®µà®°à®µà®´": 2119,
      "à®ĥà®ªà®°": 2120,
      "Ġ59": 2121,
      "Ġà®Ĩà®°à®ŀ": 2122,
      "'s": 2123,
      "à®Ĩà®ª": 2124,
      "à®¿),": 2125,
      "In": 2126,
      "89": 2127,
      "Ġ73": 2128,
      "Ġ2022": 2129,
      "à®²à®¤à®©": 2130,
      "Ġà®ıà®µà®ª": 2131,
      "Ġà®ªà®²à®©à®³": 2132,
      "à®µà®³à®¤": 2133,
      "Ġà®Ĩà®µà®£à®®": 2134,
      "eg": 2135,
      "ug": 2136,
      "ath": 2137,
      "à®¯à®®à®²": 2138,
      "à®ļà®ķà®Ļ": 2139,
      "ond": 2140,
      "ĠNew": 2141,
      "à®ħà®´": 2142,
      "Ġà®ªà®Łà®µ": 2143,
      "Ġà®İà®ľà®®": 2144,
      "à®¾ÂŃ": 2145,
      "end": 2146,
      "umb": 2147,
      "Ġà®ĩà®³à®Ļ": 2148,
      "à®¯à®®à®°": 2149,
      "à¯Ī''": 2150,
      "Ġà®ľà®¸": 2151,
      "à®Łà®µà®±": 2152,
      "à®©à®ķà®°à®©": 2153,
      "à¯į.\"\"": 2154,
      "Ġà®µà®ļà®©à®¤": 2155,
      "à®³à®µà®±": 2156,
      "à®²à®¯à®®": 2157,
      "ach": 2158,
      "à®¨à®µ": 2159,
      "à®Łà®©à®¤": 2160,
      "à®ľà®¯à®®": 2161,
      "Ġà®ªà®¯à®©à®³": 2162,
      "86": 2163,
      "NA": 2164,
      "87": 2165,
      "à®İà®©à®µ": 2166,
      "à®©à®¤à®²": 2167,
      "Ġà®ĩà®µà®³": 2168,
      "à®Ĩà®¤": 2169,
      "à®²à®ľ": 2170,
      "Ġ57": 2171,
      "à®²à®¯à®¤": 2172,
      "Ġà®ĩà®¤à®¯à®®": 2173,
      "Ġà®¹à®ľ": 2174,
      "Ġ99": 2175,
      "à®¿/": 2176,
      "Ġ66": 2177,
      "à®ľà®¯à®©": 2178,
      "Ġà®īà®µà®®": 2179,
      "Ġà®¯à®®": 2180,
      "2013": 2181,
      "Ġà®®à®¸": 2182,
      "à®ķà®Łà®¨": 2183,
      "Ġ74": 2184,
      "Ġà®Ĭà®Łà®ķà®¤": 2185,
      "han": 2186,
      "à¥": 2187,
      "Ġ00": 2188,
      "Ġà®ªà®£à®µ": 2189,
      "Ġà®īà®°à®Ļ": 2190,
      "ef": 2191,
      "à®ķà®¨à®ªà®°": 2192,
      "à®¤à®µà®ķ": 2193,
      "Ġ62": 2194,
      "Ġà®®à®©à®ķ": 2195,
      "Ġà®ĵà®ª": 2196,
      "IC": 2197,
      "à®ħà®Ļ": 2198,
      "Ġà®¤à®¯à®ķ": 2199,
      "enc": 2200,
      "Ġà®¨à®°à®ķà®¤": 2201,
      "à®ľà®¯à®ķ": 2202,
      "ial": 2203,
      "Ġà®ĵà®®": 2204,
      "Ġ160": 2205,
      "Ġ1995": 2206,
      "Ġ1999": 2207,
      "Ġ1994": 2208,
      "Ġà®ıà®²à®®": 2209,
      "Ġà®ħà®²à®±": 2210,
      "Ġà®ħà®ļà®®": 2211,
      "Ġà®ķà®´à®ķà®Ļ": 2212,
      "ST": 2213,
      "Ġà®ªà®²à®µà®±": 2214,
      "Ġà®Ĩà®·": 2215,
      "à®°à®®à®Ļ": 2216,
      "à®Ĳà®ļ": 2217,
      "à®ķà®²à®©": 2218,
      "Ġà®¹à®©": 2219,
      "ha": 2220,
      "à®ľà®¤": 2221,
      "88": 2222,
      "à¯ģ).": 2223,
      "à®®à®µ": 2224,
      "ase": 2225,
      "à¦": 2226,
      "Ġà®µà®ļà®®": 2227,
      "Ġr": 2228,
      "à®īà®±": 2229,
      "Ġà®ķà®°à®®": 2230,
      "à®¨à®±": 2231,
      "à®°à®®à®³": 2232,
      "ell": 2233,
      "ue": 2234,
      "Ġà®ħà®ķà®²à®®": 2235,
      "Ġà®µà®³à®¤": 2236,
      "Ġ1914": 2237,
      "Ġà®ķà®ŀ": 2238,
      "Ġà®ĩà®¤à®¯à®Ļ": 2239,
      "à®¤à®²à®¤": 2240,
      "Ġà®²à®µ": 2241,
      "à®¯à®²à®±": 2242,
      "à®īà®°": 2243,
      "à®¾...": 2244,
      "Ġà®ķà®ļà®ª": 2245,
      "har": 2246,
      "à®®à®¯": 2247,
      "à¯įâĢľ": 2248,
      "Ġà®¨à®©à®µ": 2249,
      "34": 2250,
      "rom": 2251,
      "Ġth": 2252,
      "à®²à®°à®ļ": 2253,
      "à®£à®ļ": 2254,
      "Ġà®Ĩà®ļà®°": 2255,
      "Ġ1996": 2256,
      "à®¿]": 2257,
      "à®ķà®®à®Ł": 2258,
      "Ġ68": 2259,
      "Ġà®·à®®": 2260,
      "ip": 2261,
      "Ġà®²à®ŀ": 2262,
      "Ġà®®à®£à®²": 2263,
      "Ġà®ķà®©à®ķà®°": 2264,
      "Ġà®µà®©à®ª": 2265,
      "Ġà®ĩà®Łà®°": 2266,
      "Ġà®Łà®µ": 2267,
      "Ġà®µà®¸": 2268,
      "à®µà®°à®°": 2269,
      "ian": 2270,
      "ust": 2271,
      "à¯į.,": 2272,
      "Ġà®ķà®¤à®±": 2273,
      "AT": 2274,
      "tur": 2275,
      "Ĥ¹": 2276,
      "à®·à®£": 2277,
      "400": 2278,
      "Ġà®ļà®¯": 2279,
      "à®ķà®°à®Ļ": 2280,
      "32": 2281,
      "Ġà®ĩà®³à®¨": 2282,
      "age": 2283,
      "à®ķà®Łà®®": 2284,
      "Ġ108": 2285,
      "Ġà®ĩà®Łà®ª": 2286,
      "94": 2287,
      "à®µà®°à®ļ": 2288,
      "ĠZ": 2289,
      "Ġà®¨à®Łà®µ": 2290,
      "67": 2291,
      "97": 2292,
      "ob": 2293,
      "Ġ[âĢľ": 2294,
      "AN": 2295,
      "ary": 2296,
      "Ġ180": 2297,
      "ction": 2298,
      "Ġà®ĩà®Łà®®à®³": 2299,
      "Ġà®ıà®ľ": 2300,
      "Ġ105": 2301,
      "à®©à®¯": 2302,
      "test": 2303,
      "Ġ140": 2304,
      "2012": 2305,
      "à®ļà®ļ": 2306,
      "à®°à®³à®¤": 2307,
      "St": 2308,
      "Ġà®ļà®®à®¯": 2309,
      "à´": 2310,
      "Ġà®®à®¯à®®": 2311,
      "à®¯à®¤à®³": 2312,
      "Ġ1998": 2313,
      "96": 2314,
      "ast": 2315,
      "ry": 2316,
      "Ġà®ħà®ļà®Ł": 2317,
      "Ġà®ĥà®ªà®°": 2318,
      "55": 2319,
      "ID": 2320,
      "à®³à®°à®¤": 2321,
      "Ġ1991": 2322,
      "ĠâĤ¹": 2323,
      "Com": 2324,
      "Ġ76": 2325,
      "à®°à®°à®ļà®°": 2326,
      "Ġà®ħà®ľà®¯": 2327,
      "Ġà®ħà®µà®ļà®°à®ķ": 2328,
      "Ġà®ħà®¯à®©": 2329,
      "à®ªà®®à®Ł": 2330,
      "à®¯à®²à®ķà®®": 2331,
      "ne": 2332,
      "Ġà®ķà®Łà®ķ": 2333,
      "Ġà®µà®ļà®¨": 2334,
      "ram": 2335,
      "à¯į?\"\"": 2336,
      "Ġà®¹à®ļ": 2337,
      "à®ĩà®£": 2338,
      "ge": 2339,
      "à®³à®©à®®": 2340,
      "Ø§": 2341,
      "à®ªà®©à®µ": 2342,
      "Ġwww": 2343,
      "à®µà®²à®©": 2344,
      "Ġà®ķà®°à®£": 2345,
      "à®ļà®±": 2346,
      "Ġà®Ĩà®µà®£à®¤": 2347,
      "Ġà®ľà®Ł": 2348,
      "91": 2349,
      "Ġà®¤à®²à®Ļ": 2350,
      "à®®à®°à®ª": 2351,
      "Ġà®®à®£à®µ": 2352,
      "à®°à®ķà®Ļ": 2353,
      "Ġà®¤à®Łà®®": 2354,
      "à¯ĪÂŃ": 2355,
      "à®ľà®ª": 2356,
      "com": 2357,
      "37": 2358,
      "Ġ1997": 2359,
      "CO": 2360,
      "à®®à®´": 2361,
      "à®¯à®°à®¤": 2362,
      "à®Ĵà®µ": 2363,
      "ĠCom": 2364,
      "Ġà®ħà®·": 2365,
      "Ġà®Ĩà®Łà®®": 2366,
      "à®®à®ķà®³": 2367,
      "31": 2368,
      "à®ªà®¯à®Ļ": 2369,
      "Ġà®¨à®°à®ķ": 2370,
      "ĠAn": 2371,
      "à®ĩà®¸": 2372,
      "Ġà®ĵà®ªà®©": 2373,
      "47": 2374,
      "ive": 2375,
      "à®ļà®¯à®¤": 2376,
      "à¯ĩ:": 2377,
      "Ġ'%": 2378,
      "Ġà®ķà®¸": 2379,
      "Ġà®ħà®Łà®²": 2380,
      "Ġà®ķà®²à®µà®°à®®": 2381,
      "ok": 2382,
      "à®³à®Łà®Ļ": 2383,
      "Ġà®ķà®ľ": 2384,
      "à®°à®ªà®Ł": 2385,
      "à®®à®©à®¤": 2386,
      "à®ķà®³à®ª": 2387,
      "Ġ>": 2388,
      "Ġà®¤à®®à®©": 2389,
      "Ġà®®à®£à®¨": 2390,
      "à®³à®ªà®Ł": 2391,
      "à®ħà®£": 2392,
      "Ġ1993": 2393,
      "IS": 2394,
      ".)": 2395,
      "36": 2396,
      "pl": 2397,
      "Ġà®ļà®Łà®²à®Ļ": 2398,
      "à®³à®³à®µ": 2399,
      "ence": 2400,
      "Ġ1980": 2401,
      "à®ļà®®à®¯à®¤": 2402,
      "Ġ77": 2403,
      "à®²à®ķà®Ļ": 2404,
      "98": 2405,
      "à®Ĵà®©": 2406,
      "Ġà®ıà®²à®ķ": 2407,
      "Ġà®Ĩà®²à®¯à®®": 2408,
      "à®¤à®ķà®ª": 2409,
      "à®¾âĢĿ": 2410,
      "AR": 2411,
      "à®īà®¤à®µ": 2412,
      "Ġ_": 2413,
      "Ġi": 2414,
      "à®µà®ŀ": 2415,
      "ish": 2416,
      "à®Łà®¯": 2417,
      "ack": 2418,
      "Ġ1992": 2419,
      "à®ªà®´à®ķ": 2420,
      "à¯ĩ\"\"": 2421,
      "à¯ĭ:": 2422,
      "Ġ91": 2423,
      "à¯Ĥ,": 2424,
      "Ġà®Łà®ķ": 2425,
      "à®¹à®®": 2426,
      "à®µà®ķà®¤": 2427,
      "à®´à®¤": 2428,
      "Ġà®ħà®µà®ļà®°à®ª": 2429,
      "à®µà®ªà®ķ": 2430,
      "Ġà®ĵà®ķ": 2431,
      "Ġà®İà®©à®ļ": 2432,
      "Ġà®ıà®ķà®ª": 2433,
      "Ġà®®à®¤à®ķ": 2434,
      "Ġà®Ĳà®®": 2435,
      "erv": 2436,
      "ĠPro": 2437,
      "à¯Ģ,": 2438,
      "Ġà®ħà®µà®³à®¤": 2439,
      "ala": 2440,
      "ens": 2441,
      "à®ªà®´à®®": 2442,
      "Ġà®¨à®Łà®©": 2443,
      "Ġà®Īà®ļ": 2444,
      "Ġà®Ĭà®©à®®": 2445,
      "Ġà®İà®ĥà®ķ": 2446,
      "Ġà®Łà®µà®°": 2447,
      "Ġ78": 2448,
      "ind": 2449,
      "Ġ96": 2450,
      "Ġà®ļà®³": 2451,
      "Ġ69": 2452,
      "Ġà®īà®£à®µà®³": 2453,
      "Ġ84": 2454,
      "Ġà®µà®±à®£": 2455,
      "Ġà®µà®¹": 2456,
      "Ġà®ļà®¸": 2457,
      "à®¤à®ķà®ķ": 2458,
      "Ġà®īà®±à®Ļ": 2459,
      "à®ĩà®°à®£": 2460,
      "Ġ104": 2461,
      "à®°à®ªà®ŀ": 2462,
      "à®īà®¯": 2463,
      "Ġon": 2464,
      "à®µà®©à®ªà®¤": 2465,
      "Ġà®Ĭà®°à®ķà®ª": 2466,
      "ss": 2467,
      "uc": 2468,
      "à®°à®¤à®¤": 2469,
      "Ġ650": 2470,
      "ff": 2471,
      "Ġà®ıà®¨": 2472,
      "à®¿.\"": 2473,
      "aj": 2474,
      "Ġ1989": 2475,
      "Ġà®ıà®ŀ": 2476,
      "Ġà®ļà®®à®°à®ļà®®": 2477,
      "à®¾\"\"": 2478,
      "ank": 2479,
      "Ġà®¤à®³à®µ": 2480,
      "Ġà®īà®¸": 2481,
      "ey": 2482,
      "Ġ*": 2483,
      "à®īà®¤": 2484,
      "ho": 2485,
      "à¯ĭ)": 2486,
      "Ġà®ļà®®à®ļ": 2487,
      "Ġà®ĩà®¯à®©": 2488,
      "Ġà®ķà®²à®µà®°à®¤": 2489,
      "84": 2490,
      "à¯ĩâĢĿ": 2491,
      "are": 2492,
      "à®ļà®²à®®": 2493,
      "Ġà®Īà®µ": 2494,
      "à®ķà®²à®¤": 2495,
      "ld": 2496,
      "Ġà®ħà®°à®ļà®®": 2497,
      "Ġà®īà®´à®µà®°": 2498,
      "Ġà®ħà®¹": 2499,
      "à®ªà®¤à®ķ": 2500,
      "Ġà®ħà®ļà®²": 2501,
      "ĠĠĠĠĠĠĠĠ": 2502,
      "à®Ĩà®Ł": 2503,
      "Ġ61": 2504,
      "à¯į!\"": 2505,
      "à®ªà®²à®ķ": 2506,
      "93": 2507,
      "Ġà®īà®°à®®": 2508,
      "à®Ĳà®ķ": 2509,
      "ĠNews": 2510,
      "à¯Ī]": 2511,
      "Ġà®ļà®°à®®": 2512,
      "Ġà®ħà®±à®µ": 2513,
      "ear": 2514,
      "Ġà®ħà®©à®¨": 2515,
      "à®¯à®°à®®": 2516,
      "à®¹à®²": 2517,
      "over": 2518,
      "Ġà®ļà®®à®µ": 2519,
      "à®¯à®µà®´": 2520,
      "à®ħà®µà®±": 2521,
      "ome": 2522,
      "à®°à®®à®ª": 2523,
      "à®¤à®µà®®à®£": 2524,
      "92": 2525,
      "à®¨à®Łà®ª": 2526,
      "flow": 2527,
      "à®ħà®ļ": 2528,
      "à®īà®©à®ķ": 2529,
      "Ġ{": 2530,
      "à®Ĵà®¤": 2531,
      "!\"": 2532,
      "à®µà®³à®®": 2533,
      "à®ıà®±": 2534,
      "Ġà®Łà®ļ": 2535,
      "à®°à®ķà®Łà®©à®®": 2536,
      "ies": 2537,
      "man": 2538,
      "AS": 2539,
      "Ġà®ķà®°à®Ł": 2540,
      "ical": 2541,
      "ement": 2542,
      "Ġà®Łà®®": 2543,
      "Ġ\"\"(": 2544,
      "à®Ĩà®²": 2545,
      "Ġà®µà®©à®µ": 2546,
      "ong": 2547,
      "Ġà®īà®ªà®°": 2548,
      "pp": 2549,
      "Ġà®Łà®¯à®°": 2550,
      "Ġ71": 2551,
      "Ġà®Ĭà®ļ": 2552,
      "ĠThe": 2553,
      "ĠEn": 2554,
      "à®°à®®à®±": 2555,
      "à®İà®µà®°": 2556,
      "ly": 2557,
      "iss": 2558,
      "à®°à®£à®ª": 2559,
      "ite": 2560,
      "ith": 2561,
      "à®ªà®²à®®": 2562,
      "à®ªà®³à®¤": 2563,
      "ĠAl": 2564,
      "Ġà¤": 2565,
      "à®²à®ķà®²": 2566,
      "Ġà®°à®Ļ": 2567,
      "46": 2568,
      "Ġch": 2569,
      "Ġà®īà®¤à®µà®²": 2570,
      "Ġà¯Ĩ": 2571,
      "Ġ450": 2572,
      "à¯ģ?\"": 2573,
      "à¯įâĢĻ.": 2574,
      "à®®à®Łà®Ļ": 2575,
      "à®İà®©à®¤": 2576,
      "Ġ83": 2577,
      "57": 2578,
      "pt": 2579,
      "2011": 2580,
      "odi": 2581,
      "Ġ89": 2582,
      "Ġà®ıà®²à®¤": 2583,
      "à®¤à®µà®¤": 2584,
      "Ġy": 2585,
      "à®ķà®²à®Ļ": 2586,
      "Ġ86": 2587,
      "Ġtest": 2588,
      "à®¨à®°à®ķ": 2589,
      "à®®à®°à®¤": 2590,
      "à®¯à®ļà®ª": 2591,
      "ord": 2592,
      "ition": 2593,
      "Ġà®®à®ķà®°": 2594,
      "Ġà®ªà®¯à®±": 2595,
      "Ġ1970": 2596,
      "à®ħà®³à®µ": 2597,
      "ice": 2598,
      "800": 2599,
      "Ġ97": 2600,
      "à®ħà®µà®³": 2601,
      "ĠUn": 2602,
      "à®ªà®²à®©": 2603,
      "Ġà®¨à®°à®ķà®®": 2604,
      "und": 2605,
      "66": 2606,
      "Ġà®ıà®¯": 2607,
      "Ġ\"\"\"(": 2608,
      "ft": 2609,
      "à®£à®Ł": 2610,
      "Ġ98": 2611,
      "ee": 2612,
      "Ġà®ªà®²à®µà®ķ": 2613,
      "Ġà®ĵà®²": 2614,
      "à®ªà®´à®Ļ": 2615,
      "ER": 2616,
      "Ġà®®à®ķà®ª": 2617,
      "ace": 2618,
      "lu": 2619,
      "à®ķà®µà®ļà®®": 2620,
      "Ġà®ľà®µà®¹à®°": 2621,
      "!\"\"": 2622,
      "38": 2623,
      "à®·à®µ": 2624,
      "à®Īà®°": 2625,
      "Ġà®Ĳà®İà®¸": 2626,
      "à®µà®¸": 2627,
      "Ġà®Ĩà®µà®£à®ª": 2628,
      "tt": 2629,
      "PA": 2630,
      "rol": 2631,
      "à®°à®·": 2632,
      "int": 2633,
      "à¯ĩ...": 2634,
      "à®¤à®®à®±": 2635,
      "à®©à®Łà®¤": 2636,
      "à®Ĳà®¯": 2637,
      "oh": 2638,
      "?\"": 2639,
      "Ġ900": 2640,
      "dian": 2641,
      "ED": 2642,
      "ost": 2643,
      "à®¨à®²à®¤": 2644,
      "à¯ĩ-": 2645,
      "ood": 2646,
      "à®¤à®Łà®Ļ": 2647,
      "ult": 2648,
      "Ġ1950": 2649,
      "à®ªà®ķà®°à®®": 2650,
      "Ġà®µà®ļà®ª": 2651,
      "Ġà®īà®¤à®Ł": 2652,
      "pro": 2653,
      "à¯ģ\"": 2654,
      "Ġà®Ĵà®ķ": 2655,
      "Comment": 2656,
      "Ġà®®à®¤à®ª": 2657,
      "à®ķà®±à®¤": 2658,
      "à¯ģâĢĻâĢĻ": 2659,
      "48": 2660,
      "Ġà®¯à®®à®¹": 2661,
      "rand": 2662,
      "orm": 2663,
      "MS": 2664,
      "aw": 2665,
      "à®ļà®¯à®Ļ": 2666,
      "Ġà®ļà®°à®£à®Ł": 2667,
      "CR": 2668,
      "Ġà®ħà®ķà®´": 2669,
      "Ġà®®à®©à®µ": 2670,
      "Ġà®Ļ": 2671,
      "tern": 2672,
      "IN": 2673,
      "Ġ(\"\"": 2674,
      "ĠÂ°": 2675,
      "Ġà®Ĩà®¤à®°à®µà®±": 2676,
      "olog": 2677,
      "Ġ\"\"\"\"": 2678,
      "à¯ĩ!\"": 2679,
      "Ġà®¤à®µà®±à®µ": 2680,
      "à®Ĩà®ļ": 2681,
      "Ġ750": 2682,
      "IA": 2683,
      "Ġà®ıà®²": 2684,
      "ps": 2685,
      "à®²à®¤à®©à®®": 2686,
      "ium": 2687,
      "Ġà®ıà®Ļ": 2688,
      "à®¯à®¤à®°": 2689,
      "à¯į\"\",": 2690,
      "42": 2691,
      "Ġpro": 2692,
      "))": 2693,
      "Ġà®¤à®°à®Ļ": 2694,
      "PS": 2695,
      "à®µà®²à®¤": 2696,
      "à®¨à®²à®ķ": 2697,
      "Ġà®¤à®Łà®Ļ": 2698,
      "Ġà®ķà®©à®°": 2699,
      "Ġ1960": 2700,
      "à®¯à®ķà®Ļ": 2701,
      "Ġ82": 2702,
      "ĠAr": 2703,
      "Ġà®ļà®®à®¸": 2704,
      "ns": 2705,
      "Ġà®ªà®ķà®¤": 2706,
      "Ġà®Īà®°à®ª": 2707,
      "à®¯à®ķà®°à®®": 2708,
      "Ġà®īà®ªà®ļà®°": 2709,
      "à®ªà®¤à®®": 2710,
      "62": 2711,
      "ous": 2712,
      "à®¤à®ķà®Ł": 2713,
      "ME": 2714,
      "à¯Ī/": 2715,
      "à®¨à®ķà®°à®Ļ": 2716,
      "iz": 2717,
      "à®ķà®£à®®": 2718,
      "Ġor": 2719,
      "Ġ87": 2720,
      "Ġà®ªà®¯à®°": 2721,
      "à®©à®¤à®®": 2722,
      "à®Ĳà®ª": 2723,
      "Ġ04": 2724,
      "à¯į:-": 2725,
      "ert": 2726,
      ")-": 2727,
      "à¯įâĢĿ.": 2728,
      "eb": 2729,
      "à¯į\"\".\"": 2730,
      "Ġ92": 2731,
      "ĠII": 2732,
      "Cl": 2733,
      "ech": 2734,
      "ark": 2735,
      "39": 2736,
      "à®µà®£à®©": 2737,
      "à®©à®µà®³": 2738,
      "Ġà®£": 2739,
      "à¯į,...": 2740,
      "à®°à®£à®°": 2741,
      "yst": 2742,
      "à®ķà®Łà®µà®©": 2743,
      "rans": 2744,
      "à®²à®ŀ": 2745,
      "Ġà®¨à®°à®ļ": 2746,
      "à¯Ģ-": 2747,
      "Ġà®Ĩà®Łà®µà®°": 2748,
      "%)": 2749,
      "Ġà®ªà®²à®¤à®°à®ª": 2750,
      "Ġà®Ĩà®´à®¤": 2751,
      "Ġcom": 2752,
      "à®ªà®²à®ª": 2753,
      "Ġà®īà®°à®¤": 2754,
      "Ġà®ľà®©à®®": 2755,
      "Ġà®²à®²": 2756,
      "à®ĩà®ļ": 2757,
      "DA": 2758,
      "SS": 2759,
      "à®¯à®¤à®²": 2760,
      "The": 2761,
      "à®¾à®¾à¯į,": 2762,
      "à®Łà®³à®µ": 2763,
      "||": 2764,
      "Ġà®ķà®µà®ļ": 2765,
      "à®·à®ķ": 2766,
      "à®ķà®´à®µ": 2767,
      "à®°à®®à®ķ": 2768,
      "Ġ81": 2769,
      "à®±à®ľ": 2770,
      "Ġà®®à®©à®Ļ": 2771,
      "ĠMore": 2772,
      "DP": 2773,
      "MA": 2774,
      "Ġà®ķà®²à®ķà®®": 2775,
      "Ġ?\"": 2776,
      "à®¨à®®à®¤": 2777,
      "Ġà®ħà®±à®¨": 2778,
      "à®ĩà®®": 2779,
      "82": 2780,
      "ox": 2781,
      "Ġà®ķà®³à®Ļ": 2782,
      "III": 2783,
      "à®¨à®ķà®°à®¤": 2784,
      "out": 2785,
      "ead": 2786,
      "à®İà®£": 2787,
      "ĠÎ": 2788,
      "à®ļà®®à®¯à®Ļ": 2789,
      "Ġà®ĩà®³à®ŀ": 2790,
      "ory": 2791,
      "à¯į,,": 2792,
      "Ġà®ªà®¹": 2793,
      "à®ķà®µà®´à®ķ": 2794,
      "Ġà®®à®°à®£à®Ļ": 2795,
      "Ġdi": 2796,
      "Ġ115": 2797,
      "Ġ144": 2798,
      "Ġà®Ĳà®¤": 2799,
      "à®¹à®©": 2800,
      "à®İà®Ł": 2801,
      "Ġà®¹à®²": 2802,
      "à®ªà®ķà®ª": 2803,
      "Ġà®ļà®ķà®ľà®®": 2804,
      "orld": 2805,
      "ĠâĢĺâĢĻ": 2806,
      "Ġà®Ĭà®©": 2807,
      "Ġà®ªà®´à®¤": 2808,
      "à®²à®µà®°à®ª": 2809,
      "à¯įâĢĿ,": 2810,
      "Ġ170": 2811,
      "MP": 2812,
      "Ġà¯ģ": 2813,
      "à®¯à®¤à®³à®Ļ": 2814,
      "à®ªà®µà®³": 2815,
      "81": 2816,
      "res": 2817,
      "ork": 2818,
      "CC": 2819,
      "Ġà®¤à®²à®®": 2820,
      "Ġà®ľà®°": 2821,
      "Ġà®Ĳà®¯à®ª": 2822,
      "):": 2823,
      "Ġà®¤à®¸": 2824,
      "à¯į!\"\"": 2825,
      "ĪĴ": 2826,
      "à®²à®ķà®ª": 2827,
      "à®Łà®®à®³": 2828,
      "Ġ79": 2829,
      "à®ķà®ŀ": 2830,
      "Ġà®ªà®¯à®©à®±": 2831,
      "49": 2832,
      "Ġ03": 2833,
      "Ġà®¨à®²à®ķ": 2834,
      "Ġà®ħà®®à®³": 2835,
      "ons": 2836,
      "Ġ1986": 2837,
      "ays": 2838,
      "à®¨à®¤": 2839,
      "Ġ..": 2840,
      "à®²à®ļà®®à®¯à®Ļ": 2841,
      "à®İà®´": 2842,
      "Ġ119": 2843,
      "Ġà®ķà®µà®ļà®®": 2844,
      "56": 2845,
      "à®®à®²à®°": 2846,
      "Ġ94": 2847,
      "700": 2848,
      "ĠUS": 2849,
      "Ġ5000": 2850,
      "à®Ĵà®´": 2851,
      "hy": 2852,
      "Ġ88": 2853,
      "76": 2854,
      "à®ĩà®²à®Ļ": 2855,
      "à®¨à®°à®ķà®¤": 2856,
      "mer": 2857,
      "Â°": 2858,
      "ĠQ": 2859,
      "à¯į\"\"\"": 2860,
      "Ġà®ªà®¯à®£à®ķ": 2861,
      "EC": 2862,
      "à®ĩà®³": 2863,
      "stit": 2864,
      "press": 2865,
      "à®¯à®µà®³": 2866,
      "Ġà®°à®¸": 2867,
      "à®ľà®ļ": 2868,
      "Ġà®Ĩà®ªà®°": 2869,
      "Ġà®ĵà®Ļ": 2870,
      "à®¾.\"": 2871,
      "Ġà®ļà®²à®ļà®²à®ª": 2872,
      "vel": 2873,
      "old": 2874,
      "ire": 2875,
      "à®µà®²à®ķà®ķ": 2876,
      "Ġà®ħà®ķà®²": 2877,
      "à®Łà®©à®Ļ": 2878,
      "port": 2879,
      "Ã©": 2880,
      "à®ķà®³à®²": 2881,
      "Ġ93": 2882,
      "pe": 2883,
      "250": 2884,
      "Ġat": 2885,
      "à®ªà®©à®¤": 2886,
      "à®±à®³à®µ": 2887,
      "Ġà®ħà®´à®±": 2888,
      "land": 2889,
      "Ġ08": 2890,
      "Ġ1983": 2891,
      "Ġà®ķà®³à®ª": 2892,
      "à®µà®°à®²": 2893,
      "ĠTag": 2894,
      "ystem": 2895,
      "IT": 2896,
      "Ġà®ķà®²à®°": 2897,
      "72": 2898,
      "ĠCO": 2899,
      "Ġà®ĩà®³à®µà®°à®ļ": 2900,
      "43": 2901,
      "à®²à®¯à®Ļ": 2902,
      "à¯Ī),": 2903,
      "à®¾),": 2904,
      "à¯ģ,\"\"": 2905,
      "one": 2906,
      "83": 2907,
      "PP": 2908,
      "Ġà®¨à®´": 2909,
      "ight": 2910,
      "Ġà®ķà®©à®¤": 2911,
      "Ġà®ħà®²à®ļ": 2912,
      "79": 2913,
      "Ġis": 2914,
      "à®²à®µà®©": 2915,
      "ata": 2916,
      "à®Łà®°à®µ": 2917,
      "me": 2918,
      "à®Łà®¯à®ª": 2919,
      "à®²à®¤à®©à®¤": 2920,
      "Ġà®īà®£à®°à®µ": 2921,
      "à®ıà®ª": 2922,
      "Ch": 2923,
      "ral": 2924,
      "ÙĦ": 2925,
      "Ġà®ħà®Łà®®": 2926,
      "à®ªà®®à®£": 2927,
      "Ġà®Ĩà®ķà®ķ": 2928,
      "ance": 2929,
      "ari": 2930,
      "ash": 2931,
      "à¯į.)\"": 2932,
      "Ġtesting": 2933,
      "à®Łà®ķà®©": 2934,
      "Ġ1947": 2935,
      "Ġ175": 2936,
      "Ġ1988": 2937,
      "à®®à®¤à®¤": 2938,
      "Ġ1945": 2939,
      "Ġà®µà®©à®®": 2940,
      "à®Łà®ªà®®": 2941,
      "Ġà®ħà®ķà®µ": 2942,
      "à®£à®¯à®Ļ": 2943,
      "Ġà®µà®´à®®": 2944,
      "à®ķà®ķà®®": 2945,
      "à®¾(": 2946,
      "Ġà®ĩà®Łà®Ĵà®¤": 2947,
      "Ġ1987": 2948,
      "Ġ1985": 2949,
      "sh": 2950,
      "à®±à®®à®±": 2951,
      "Ġà®Ĩà®°à®µ": 2952,
      "az": 2953,
      "per": 2954,
      "ann": 2955,
      "41": 2956,
      "Ġà®ķà®ķ": 2957,
      "à®°à®®à®²": 2958,
      "Ġà®Ĳà®Ĳà®Ł": 2959,
      "à®ķà®³à®©": 2960,
      "Ġà®°à®ĥà®ª": 2961,
      "à®ķà®®à®²": 2962,
      "ated": 2963,
      "ĠâĹ": 2964,
      "rig": 2965,
      "ver": 2966,
      "Ġà®ħà®ķà®ª": 2967,
      "Ġà®µà®°à®²à®Ł": 2968,
      "Ġde": 2969,
      "à¯ģâĢľ": 2970,
      "à®¨à®¨": 2971,
      ".,": 2972,
      "DD": 2973,
      "à®ªà®ŀ": 2974,
      "Ġà®²à®Ļ": 2975,
      "Ġthumb": 2976,
      "evel": 2977,
      "//": 2978,
      "ax": 2979,
      "Ġà®ķà®£à®®": 2980,
      "als": 2981,
      "Ġ05": 2982,
      "Ġà®ħà®°à®ķ": 2983,
      "à¤¾": 2984,
      "Ġ1956": 2985,
      "2006": 2986,
      "ount": 2987,
      "à®ľà®¤à®¨": 2988,
      "Ġà®ļà®®à®ķ": 2989,
      "Ġà®Ĳà®µà®°": 2990,
      "Ġà®ªà®¯à®£à®ļ": 2991,
      "ontrol": 2992,
      "à®±à®¤à®²": 2993,
      "à®¨à®°à®ķà®®": 2994,
      "Ġà®īà®®à®°": 2995,
      "li": 2996,
      "Ġà®ĩà®©à®ķ": 2997,
      "ĠSc": 2998,
      "à®°à®¯à®®": 2999,
      "à®ļà®©à®ª": 3000,
      "ĠØ": 3001,
      "Ġà®¨à®²à®µ": 3002,
      "à®Łà®©à®ª": 3003,
      "à®²à®°à®Ļ": 3004,
      "à¯į',": 3005,
      "ron": 3006,
      "Ġà®®à®©à®¨à®²": 3007,
      "à®ļà®µà®°à®®": 3008,
      "Ġà®īà®£à®°à®ª": 3009,
      "Ġà®ĵà®Łà®µ": 3010,
      "uk": 3011,
      "à®¯à®²à®ķà®¤": 3012,
      "Ġ2030": 3013,
      "ile": 3014,
      "Ġà®ļà®¹": 3015,
      "à®©à®®à®¯à®®": 3016,
      "à®¯à®¨à®²à®®": 3017,
      "her": 3018,
      "à®²à®ªà®Ł": 3019,
      "Ġà®µà®°à®Ł": 3020,
      "à®µà®´à®Ļ": 3021,
      "à®£à®¯à®¤": 3022,
      "à®ľà®¯à®¤": 3023,
      "india": 3024,
      "CS": 3025,
      "IP": 3026,
      "IV": 3027,
      "Ġà®¤à®°à®¨": 3028,
      "ign": 3029,
      "flu": 3030,
      "Ġà®Ĩà®µà®£": 3031,
      "à®¨à®ķ": 3032,
      "\"\".\"": 3033,
      "à¯įâĢĭ": 3034,
      "Ġ113": 3035,
      "58": 3036,
      "à¯į|": 3037,
      "à®ļà®°à®£": 3038,
      "Ġà®ĩà®¤à®®": 3039,
      "Ġ\"\"%": 3040,
      "Ġà®¨à®²à®ª": 3041,
      "à®īà®Łà®©": 3042,
      "://": 3043,
      "Ġ1930": 3044,
      "à®Īà®Ł": 3045,
      "SL": 3046,
      "RL": 3047,
      "Ġà®ĩà®³à®µ": 3048,
      "ĠMan": 3049,
      "Ġà®ľà®µà®Ł": 3050,
      "Ġà®ķà®°à®Ļ": 3051,
      "à®¯à®©à®µ": 3052,
      "à®Ĳà®°": 3053,
      "à®¤à®Łà®¤": 3054,
      "Ġà®Ĩà®µà®¤à®±": 3055,
      "ana": 3056,
      "à®ªà®¯à®£à®¤": 3057,
      "Ġ230": 3058,
      "Ġ1500": 3059,
      "999": 3060,
      "à®Łà®ªà®¤": 3061,
      "Ġà¯Ģ": 3062,
      "à®°à®³à®µ": 3063,
      "à®µà®£à®Ļ": 3064,
      "à¯ģ,âĢĿ": 3065,
      "Ġ02": 3066,
      "Ġas": 3067,
      "à®¸à®®": 3068,
      "Ġ107": 3069,
      "Ġà®ĩà®²à®¤": 3070,
      "ils": 3071,
      "SA": 3072,
      "gram": 3073,
      "à®®à®£à®Ļ": 3074,
      "Ġ:-": 3075,
      "ĠVik": 3076,
      "IB": 3077,
      "Ġ}": 3078,
      "``": 3079,
      "ĠSh": 3080,
      "Ġà®ķà®³à®ŀ": 3081,
      "EP": 3082,
      "Ġj": 3083,
      "à®ªà®¤à®µ": 3084,
      "à®ķà®®à®£": 3085,
      "à®¿.,": 3086,
      "Ġ1975": 3087,
      "52": 3088,
      "à®°à®ľà®©": 3089,
      "Ġà®īà®±à®ķ": 3090,
      "atan": 3091,
      "à®ıà®¤": 3092,
      "ics": 3093,
      "ML": 3094,
      "à®¿âĢĮ": 3095,
      "à®°à®¤à®ª": 3096,
      "à®¨à®Ļ": 3097,
      "Ġ(%": 3098,
      "Ġ1948": 3099,
      "NW": 3100,
      "à®³à®°à®Ļ": 3101,
      "à®ķà®ķà®¤": 3102,
      "Ġà®Ĳà®¯à®°": 3103,
      "PD": 3104,
      "ĠâĢĿâĢľ": 3105,
      "Ġà®¹à®Ļ": 3106,
      "Ġà®Ĳà®¯à®®": 3107,
      "à®¯à®ŀ": 3108,
      "à®¨à®Łà®µà®Ł": 3109,
      "69": 3110,
      "yn": 3111,
      "à®©à®²à®®": 3112,
      "Ġà®ªà®ķà®µ": 3113,
      "Ġà®¨à®Łà®°": 3114,
      "Ġà®®à®ľ": 3115,
      "à®¤à®µà®®": 3116,
      "61": 3117,
      "AC": 3118,
      "Ġà¯ĩ": 3119,
      "à®°à®ļà®®": 3120,
      "à®Ĳà®İà®¸": 3121,
      "Ġ07": 3122,
      "Ġà®µà®µ": 3123,
      "à®Łà®µà®³": 3124,
      "Ġ1984": 3125,
      "able": 3126,
      "Ġà®ħà®ªà®¤": 3127,
      "à®£à®±à®²": 3128,
      "à®¯à®£à®ļ": 3129,
      "68": 3130,
      "Ġà¯Ĭ": 3131,
      "à®µà®¯": 3132,
      "2007": 3133,
      "à®®à®°à®®": 3134,
      "à®¤à®µà®ļà®©à®Ļ": 3135,
      "Ġà®ħà®²à®°": 3136,
      "Ġà®¹à®ķ": 3137,
      "ines": 3138,
      "ology": 3139,
      "à®µà®ķà®°": 3140,
      "Ġcase": 3141,
      "Ġà®ķà®Łà®ª": 3142,
      "ou": 3143,
      "Ġà®®à®¤à®°": 3144,
      "à®¤à®°à®ķà®®": 3145,
      "Ġà®ħà®³à®ª": 3146,
      "Ġ103": 3147,
      "Ġhtt": 3148,
      "Ġà®ľà®²à®ª": 3149,
      "à®³à®±à®µ": 3150,
      "Ġà®Ĳà®İà®©": 3151,
      "59": 3152,
      "IR": 3153,
      "à²": 3154,
      "Ġà®ªà®¤à®©": 3155,
      "Ġà®īà®¤à®¯": 3156,
      "ĠPl": 3157,
      "ĠÂ»": 3158,
      "Ġà®®à®®à®¤": 3159,
      "à®¨à®²à®©": 3160,
      "à¯ĩ'": 3161,
      "à®¤à®°à®ķà®¤": 3162,
      "54": 3163,
      "à®ķà®ľ": 3164,
      "à®¯à®ľ": 3165,
      "à¯ĩâĢĻ": 3166,
      "à®©à®¤à®±": 3167,
      "Ġ1971": 3168,
      "73": 3169,
      "à®ĩà®¯": 3170,
      "à®ªà®ķà®±": 3171,
      "gm": 3172,
      "à®¯à®ļà®ķ": 3173,
      "2005": 3174,
      "74": 3175,
      "Th": 3176,
      "à®²à®µà®°à®¤": 3177,
      "Ġà®¨à®ŀ": 3178,
      "Ġà®ļà®°à®µà®£à®©": 3179,
      "78": 3180,
      "à®µà®£à®ķ": 3181,
      "An": 3182,
      "ber": 3183,
      "Ġà®ħà®°à®µà®£": 3184,
      "Ġ106": 3185,
      "Ġ240": 3186,
      "ĠâĹĨ": 3187,
      "à®ĩà®Łà®¤": 3188,
      "à¯į'.": 3189,
      "Ġà®ķà®©à®°à®ķ": 3190,
      "PM": 3191,
      "à®°à®³à®®": 3192,
      "Ġà®ķà®¤à®°": 3193,
      "à®¤à®²à®³": 3194,
      "ors": 3195,
      "à®µà®©à®µ": 3196,
      "à®µà®®à®±": 3197,
      "ĠComm": 3198,
      "eh": 3199,
      "à®ªà®ķà®Ļ": 3200,
      "à¯į...!": 3201,
      "à¯ģ,''": 3202,
      "à®ĩà®ķ": 3203,
      "Ġà®®à®£à®¤": 3204,
      "ii": 3205,
      "Ġe": 3206,
      "Ġà®īà®ľ": 3207,
      "Ġ126": 3208,
      "ute": 3209,
      "act": 3210,
      "rad": 3211,
      "Ġ220": 3212,
      "à®µà®ļà®ª": 3213,
      "Ġà®ķà®®à®°": 3214,
      "Ġ112": 3215,
      "eal": 3216,
      "Ġà®ªà®¤à®®": 3217,
      "Ġà®ħà®ķà®©": 3218,
      "enn": 3219,
      "71": 3220,
      "ĠSch": 3221,
      "BI": 3222,
      "SO": 3223,
      "à¯Ī....": 3224,
      "ĠRes": 3225,
      "ism": 3226,
      "à®ªà®´à®¤": 3227,
      "ya": 3228,
      "Ġ06": 3229,
      "ternational": 3230,
      "Ġà®Ĵà®ļ": 3231,
      "echn": 3232,
      "PI": 3233,
      "à®Łà®°à®²": 3234,
      "Ġà®īà®£à®µà®ķà®Ļ": 3235,
      "TT": 3236,
      "à¯ĩ(": 3237,
      "ĠÐ": 3238,
      "evelop": 3239,
      "à®°à®µà®©": 3240,
      "à®¤à®©à®©": 3241,
      "Ġà®¹à®ª": 3242,
      "encils": 3243,
      "te": 3244,
      "à®®à®ŀ": 3245,
      "Ġà®ªà®²à®¹": 3246,
      "à®ķà®©à®©": 3247,
      "ple": 3248,
      "à¶": 3249,
      "ĠEx": 3250,
      "53": 3251,
      "IF": 3252,
      "Sh": 3253,
      "à®¯à®©à®®": 3254,
      "Ġà®®à®£à®ª": 3255,
      "Ġ128": 3256,
      "CH": 3257,
      "Ġ3000": 3258,
      "Ġ.\"": 3259,
      "à®īà®¯à®°": 3260,
      "ocity": 3261,
      ".\"\"\"": 3262,
      "Ġ@": 3263,
      "à®İà®°": 3264,
      "Ġà®ĩà®µà®Ļ": 3265,
      "ĠVikatan": 3266,
      "Ġà®īà®µà®°": 3267,
      "à®ªà®°à®¸": 3268,
      "à®±à®µà®³": 3269,
      "ower": 3270,
      "Ġ109": 3271,
      "turb": 3272,
      "National": 3273,
      "Ġà®µà®¯à®¨": 3274,
      "à¯ĭ...": 3275,
      "à®¤à®²à®Ļ": 3276,
      "à®Ĩà®µ": 3277,
      "Ġà®¤à®Łà®ķà®³": 3278,
      "à®īà®²": 3279,
      "à¯į,)": 3280,
      "à®Łà®°à®Ļ": 3281,
      "AD": 3282,
      "Ġà®ķà®ªà®Ł": 3283,
      "à®¯à®µà®ŀ": 3284,
      "Ġ101": 3285,
      "Ġà®ªà®³à®ª": 3286,
      "Ġà®Ĭà®Łà®ķà®ª": 3287,
      "à¯ģ%": 3288,
      "Ġà®İà®©à®²": 3289,
      "ĠCol": 3290,
      "la": 3291,
      "line": 3292,
      "Ġà®ķà®²à®ķà®¤": 3293,
      "Ġà®Īà®°à®®": 3294,
      "Ġà®µà®²à®ª": 3295,
      "Ġ1982": 3296,
      "à¯ģ..": 3297,
      "Â·": 3298,
      "Ġbe": 3299,
      "51": 3300,
      "OR": 3301,
      "gov": 3302,
      "ru": 3303,
      "Ø±": 3304,
      "à®ªà®¯à®£": 3305,
      "Ġà®®à®¤à®µ": 3306,
      "Ġà®¤à®ķà®Ł": 3307,
      "Ġac": 3308,
      "Ġà®Ĩà®¤à®Ļ": 3309,
      "à®Łà®®à®Ł": 3310,
      "ater": 3311,
      "à®ķà®Łà®Ļ": 3312,
      "à®İà®µ": 3313,
      "ĠCent": 3314,
      "ĠSp": 3315,
      "olum": 3316,
      "à®©à®Łà®ķ": 3317,
      "Ġà®ªà®ķà®µà®¤": 3318,
      "Ġà®īà®°à®ķ": 3319,
      "à®ĩà®µà®±": 3320,
      "à®®à®³": 3321,
      "Ġà®ļà®ķà®°": 3322,
      "ck": 3323,
      "à®ªà®©à®®": 3324,
      "Ġà®®à®²à®ª": 3325,
      "à®°à®®à®°à®£à®®": 3326,
      "âģĦ": 3327,
      "Ġby": 3328,
      "à®ħà®µà®°à®¤": 3329,
      "à¯įâĢĵ": 3330,
      "à®°à®³à®¯à®¤": 3331,
      "ject": 3332,
      "Ġà®ķà®³à®µ": 3333,
      "à®°à®ļà®µ": 3334,
      "Ġ145": 3335,
      "Ġ09": 3336,
      "Ð°": 3337,
      "à®¤à®ŀ": 3338,
      "à®ķà®³à®ŀ": 3339,
      "Ġà®ħà®³à®µà®±": 3340,
      "Ġà®īà®²à®ķà®ļ": 3341,
      "ie": 3342,
      "Ġà®¤à®ļà®®": 3343,
      "à®µà®©à®ª": 3344,
      "à¯ģ:âĢĵ": 3345,
      "Ġà®ħà®¤à®©à®Ł": 3346,
      "Ġ102": 3347,
      "Ġ1940": 3348,
      "af": 3349,
      "Ġà®µà®°à®¤à®Ł": 3350,
      "Ġà®İà®µà®±": 3351,
      "Ġ117": 3352,
      "à®¯à®®à®¤": 3353,
      "à®µà®Łà®ķ": 3354,
      "Ġ114": 3355,
      "org": 3356,
      "Ġ360": 3357,
      "Ġà®īà®Łà®¨": 3358,
      "ump": 3359,
      "DE": 3360,
      "à®ªà®±à®µ": 3361,
      "Ġà®ıà®İà®®": 3362,
      "à®¤à®®à®°": 3363,
      "à®ķà®©à®ª": 3364,
      "ans": 3365,
      "ency": 3366,
      "à®µà®²à®ª": 3367,
      "à®Łà®¨à®®": 3368,
      "à®ľà®¯à®ª": 3369,
      "à®ıà®´": 3370,
      "ivers": 3371,
      "Ġkgm": 3372,
      "Ġvs": 3373,
      "à¥į": 3374,
      "Ġà¯ĭ": 3375,
      "à®ªà®£à®¤": 3376,
      "Ġà®ļà®¯à®©": 3377,
      "ĠâĢ¢": 3378,
      "anc": 3379,
      "à¯ĩ!\"\"": 3380,
      "Ġ390": 3381,
      "âĪĴ": 3382,
      "Ġà®¤à®ķà®©": 3383,
      "Ġà®¹à®Ł": 3384,
      "amb": 3385,
      "ĠOne": 3386,
      "Ġ1961": 3387,
      "à¯Ģ)": 3388,
      "Ġà®Ĩà®ķà®²": 3389,
      "à®Ĩà®¸": 3390,
      "att": 3391,
      "ener": 3392,
      "fluid": 3393,
      "control": 3394,
      "Ġà®ĵà®°à®Ļ": 3395,
      "à®´à®ļ": 3396,
      "Ġ320": 3397,
      "Ġ135": 3398,
      "à®¤à®Łà®®": 3399,
      "Ġà®µà®°à®ļ": 3400,
      "Al": 3401,
      "à¨": 3402,
      "à¯Ī.\"\"\"": 3403,
      "à®ľà®©à®¤": 3404,
      "à®¤à®©à®ª": 3405,
      "rit": 3406,
      "Ġ),": 3407,
      "ĠIndian": 3408,
      "à®Ĭà®°": 3409,
      "Ġra": 3410,
      "à¯į%": 3411,
      "à®ļà®®à®±": 3412,
      "ations": 3413,
      "BC": 3414,
      "à®°à®ĥà®ª": 3415,
      "ook": 3416,
      "à®³à®°à®®": 3417,
      "à®ķà®µà®ļà®Ļ": 3418,
      "Ġwith": 3419,
      "à®¤à®µà®Ļ": 3420,
      "Ġà®ħà®ķà®¨": 3421,
      "eter": 3422,
      "olume": 3423,
      "900": 3424,
      "JP": 3425,
      "OS": 3426,
      "Ġà®®à®Łà®¤": 3427,
      "à®Ĵà®ª": 3428,
      "ode": 3429,
      "ission": 3430,
      "CI": 3431,
      "ma": 3432,
      "Ġà®Łà®¯": 3433,
      "px": 3434,
      "à®¨à®®à®ķ": 3435,
      "à®ķà®ļà®ª": 3436,
      "à®Ĵà®³": 3437,
      "Ġ1978": 3438,
      "Ġ((": 3439,
      "Ġà®īà®¤à®±": 3440,
      "Ġà®īà®¤à®¯à®®": 3441,
      "Ġà®®à®²à®ļ": 3442,
      "Ġà®ķà®´à®±": 3443,
      "...]": 3444,
      "evelopment": 3445,
      "à®¯à®¯": 3446,
      "Ġà®Ĩà®ķà®ª": 3447,
      "à®³à®µà®³": 3448,
      "Ġ124": 3449,
      "ĠPM": 3450,
      "HO": 3451,
      "Ġà®¨à®Łà®©à®¤": 3452,
      "Ġà®ĩà®®à®¯à®®à®²": 3453,
      "à®²à®¤à®²": 3454,
      "à®±à®®à®³": 3455,
      "Ġà®īà®¯à®°à®Ł": 3456,
      "Ġà®¨à®ķà®°à®ª": 3457,
      "Ġ1979": 3458,
      "Ġ1972": 3459,
      "à®¤à®°à®ļ": 3460,
      "à®īà®²à®ķà®¤": 3461,
      "à®ªà®ľà®©": 3462,
      "Ġà®®à®³à®®": 3463,
      "à®©à®®à®Ł": 3464,
      "Ġà®īà®¤à®µà®ķ": 3465,
      "Ġà®īà®¤à®µà®µ": 3466,
      "à®¯à®´": 3467,
      "Ġà®¸à®²": 3468,
      "à®ķà®Łà®µà®¤": 3469,
      "Ġ1919": 3470,
      "Ġ[...]": 3471,
      "ick": 3472,
      "lass": 3473,
      "Ġ1981": 3474,
      "right": 3475,
      "Ġ121": 3476,
      "2008": 3477,
      "ĠÃ": 3478,
      "Ġà®ļà®°à®¸": 3479,
      "Ġà®¹à®¸": 3480,
      "ins": 3481,
      "eng": 3482,
      "à¤°": 3483,
      "ime": 3484,
      "NS": 3485,
      "se": 3486,
      "à®±à®¤à®©": 3487,
      "Ġ1200": 3488,
      "Ġ142": 3489,
      "amp": 3490,
      "à®Ĳà®ı": 3491,
      "à®ĵà®¯": 3492,
      "CT": 3493,
      "à®£à®®à®²": 3494,
      "à®ľà®©à®¨": 3495,
      "Ġà®®à®©à®¨à®²à®®": 3496,
      "ock": 3497,
      "Ġà®ħà®ļà®°": 3498,
      "Ġà®¨à®µà®°": 3499,
      "ates": 3500,
      "ĠTh": 3501,
      "à®¯à®®à®©": 3502,
      "Ġà®¨à®Łà®©à®ķ": 3503,
      "Ġà®®à®ķà®ļ": 3504,
      "à®¤à®µà®£": 3505,
      "Ġà®¹à®ļà®©": 3506,
      "à®µà®ķà®©": 3507,
      "Ġ2023": 3508,
      "Ġà®ķà®£à®µ": 3509,
      "use": 3510,
      "à¯į--": 3511,
      "à®¯à®µà®°à®µ": 3512,
      "ĠâĢĭâĢĭ": 3513,
      "à®®à®µà®°": 3514,
      "Ġà®İà®´à®µ": 3515,
      "Ġ190": 3516,
      "Ġle": 3517,
      "Ġà®ĵà®°à®®": 3518,
      "ild": 3519,
      "ÙĨ": 3520,
      "à®¤à®®à®®": 3521,
      "ets": 3522,
      "ys": 3523,
      "au": 3524,
      "Ġà®ħà®¤à®©à®¤": 3525,
      "à®°à®¤à®ļ": 3526,
      "Ġà®ªà®ķà®Ł": 3527,
      "à®¯à®©à®Ļ": 3528,
      "ree": 3529,
      "Ġà®®à®³à®®à®³à®µ": 3530,
      "à®ļà®®à®®": 3531,
      "elect": 3532,
      "CD": 3533,
      "fo": 3534,
      "Ġà®®à®²à®®": 3535,
      "Ġà®ļà®µà®°à®©": 3536,
      "à®ķà®²à®µ": 3537,
      "ĠâĢĿ,": 3538,
      "Ġà®Ĩà®²à®¯à®Ļ": 3539,
      "ĠGood": 3540,
      "à®ªà®Łà®ļ": 3541,
      "Ġ122": 3542,
      "ĠAg": 3543,
      "overn": 3544,
      "velocity": 3545,
      "AM": 3546,
      "à®²à®ķà®ķ": 3547,
      "inist": 3548,
      "à®ĵà®Ł": 3549,
      "Stencils": 3550,
      "BS": 3551,
      "ae": 3552,
      "Ġà®µà®Łà®ª": 3553,
      "hat": 3554,
      "à®ļà®¯à®ª": 3555,
      "à®´à®Ł": 3556,
      "à®¯à®®à®®": 3557,
      "à®¤à®©à®ķ": 3558,
      "ise": 3559,
      "RI": 3560,
      "io": 3561,
      "àµ": 3562,
      "Ġà®¨à®¯": 3563,
      "ĠOneindia": 3564,
      "Ġà®ħà®µà®¨à®®": 3565,
      "Ġà®®à®©à®®à®ķ": 3566,
      "Ġà®Ĳà®¤à®°à®ļà®©": 3567,
      "Ġà®¨à®ľ": 3568,
      "ĠWorld": 3569,
      "ĠInd": 3570,
      "ĠEng": 3571,
      "à·": 3572,
      "Ġ118": 3573,
      "Ġà®ªà®¯à®£à®ª": 3574,
      "Ġà®²à®®": 3575,
      "à®³à®©à®µ": 3576,
      "Ġgov": 3577,
      "ET": 3578,
      "val": 3579,
      "à®ĩà®¯à®ķ": 3580,
      "de": 3581,
      "les": 3582,
      "à®¤à®¯à®ª": 3583,
      "à®ķà®ªà®²à®®": 3584,
      "Ġà®ıà®³à®©à®®": 3585,
      "ĠAs": 3586,
      "itt": 3587,
      "Ġlo": 3588,
      "à¯ģ.\"\"": 3589,
      "ĠâĢĮ": 3590,
      "Ġà®ļà®ķà®²à®¤": 3591,
      "Ġà®·à®ķ": 3592,
      "ĠLe": 3593,
      "à¯ĪâĢĻâĢĻ": 3594,
      "ĠĠĠĠĠĠĠĠĠĠĠĠĠĠĠĠ": 3595,
      "FC": 3596,
      "à®®à®©à®®": 3597,
      "Ġà®īà®³à®®": 3598,
      "----": 3599,
      "âĢ²": 3600,
      "à®ıà®ı": 3601,
      "à®¾?)": 3602,
      "à®ķà®´à®ª": 3603,
      "à®°à®ķà®Łà®©à®ª": 3604,
      "à®īà®£à®µ": 3605,
      "Ġex": 3606,
      "Ġ1974": 3607,
      "form": 3608,
      "Ġà®®à®³": 3609,
      "Ġ550": 3610,
      "pen": 3611,
      "ËĪ": 3612,
      "Ġà®ħà®ķà®®": 3613,
      "Ġà®ıà®ķà®®": 3614,
      "Ġ1976": 3615,
      "à®Łà®¯à®ķ": 3616,
      "à¯ĭ'": 3617,
      "Ġ111": 3618,
      "stitute": 3619,
      "150": 3620,
      "ĠCo": 3621,
      "pressure": 3622,
      "Ġà®°à®ķà®®": 3623,
      "à®¯à®²à®ķ": 3624,
      "à®ªà®°à®©": 3625,
      "à®°à®ķà®£à®®": 3626,
      "ĠServ": 3627,
      "www": 3628,
      "ourt": 3629,
      "IM": 3630,
      "OH": 3631,
      "esh": 3632,
      "à®¯à®°à®ļà®°": 3633,
      "Ġ1955": 3634,
      "Ġ1969": 3635,
      "à®ªà®¯à®ª": 3636,
      "atch": 3637,
      "DM": 3638,
      "Ġal": 3639,
      "à®³à®¤à®±": 3640,
      "à®®à®¤à®ª": 3641,
      "Ġ138": 3642,
      "oci": 3643,
      "Ġà®¯à®·": 3644,
      "2010": 3645,
      "ions": 3646,
      "Ġcon": 3647,
      "Ġmi": 3648,
      "à¯Ī,âĢĿ": 3649,
      "WS": 3650,
      "à®ķà®³à®±": 3651,
      "à®°à®®à®¯à®®": 3652,
      "Ġà®Ĩà®²à®¯": 3653,
      "ĠAd": 3654,
      "ton": 3655,
      "âĢĻâĢĻ": 3656,
      "à®²à®ķà®µ": 3657,
      "Ġà®ķà®±à®µ": 3658,
      "Ġà®µà®²à®ķ": 3659,
      "Ġ()": 3660,
      "à®¹à®µ": 3661,
      "ich": 3662,
      "à®¾!\"": 3663,
      "2004": 3664,
      "Ùħ": 3665,
      "Ġà®īà®¤à®¯à®¨": 3666,
      "ung": 3667,
      "Ġà®ķà®µà®ļà®Ļ": 3668,
      "Ġà®ħà®µà®²": 3669,
      "à®īà®²à®ķà®®": 3670,
      "Ġà®µà®°à®©": 3671,
      "Ġà®ķà®°à®©": 3672,
      "Ġà®ħà®µà®©à®µà®©": 3673,
      "Ġnot": 3674,
      "so": 3675,
      "yl": 3676,
      "à®Łà®°à®ļ": 3677,
      "Ġà®¤à®µà®³": 3678,
      "ĠMar": 3679,
      "à¯ĩ?\"": 3680,
      "Ġ4000": 3681,
      "à®Ĩà®±": 3682,
      "ĠAss": 3683,
      "ital": 3684,
      "adu": 3685,
      "Ġ1962": 3686,
      "Ġ1965": 3687,
      "CP": 3688,
      "à®Łà®Łà®ķ": 3689,
      "Ġà®®à®¤à®©": 3690,
      "à¯ģ.)": 3691,
      "Ġà®Łà®¸": 3692,
      "con": 3693,
      "à®¯à®Łà®ķ": 3694,
      "ĠâĢľ[": 3695,
      "Ġsp": 3696,
      "Ġag": 3697,
      "à®µà®µà®²": 3698,
      "Ġà®īà®ªà®ķ": 3699,
      "ional": 3700,
      "à®°à®ªà®²à®ª": 3701,
      "Ġ001": 3702,
      "à®ļà®ķà®Ł": 3703,
      "à®°à®ļà®°": 3704,
      "à®°à®®à®©": 3705,
      "Ġà®Ĭà®®": 3706,
      "ited": 3707,
      "Un": 3708,
      "à®ļà®®à®¯": 3709,
      "ica": 3710,
      "ident": 3711,
      "Ġ1967": 3712,
      "ake": 3713,
      "Ġ1939": 3714,
      "turns": 3715,
      "à¯Ĥ-": 3716,
      "Ġà®Ĩà®ķà®®": 3717,
      "ĠHome": 3718,
      "SC": 3719,
      "à®¤à®®à®©": 3720,
      "Ġà®ħà®±à®®": 3721,
      "Ġà®¨à®ķà®°à®µ": 3722,
      "ern": 3723,
      "ĠRo": 3724,
      "ual": 3725,
      "à¯į,'": 3726,
      "Ġà®Ĩà®³à®ª": 3727,
      "Ġà®ıà®£": 3728,
      "Ġà®²à®·": 3729,
      "Ġà®ļà®£à®²": 3730,
      "ĠTr": 3731,
      "GB": 3732,
      "eam": 3733,
      "à®°à®ªà®¤": 3734,
      "à®ļà®Łà®Ļ": 3735,
      "Ġà®ªà®²à®°à®¤": 3736,
      "à®¿.)": 3737,
      "Ġà®ĵà®®à®©": 3738,
      "Ġà®®à®©à®¤à®³à®µ": 3739,
      "ĠDevelopment": 3740,
      "à®²à®ļà®®à®¯à®®": 3741,
      "Ġà®ªà®¯à®ķ": 3742,
      "Ġà®ķà®²à®©": 3743,
      "à®±à®µà®´": 3744,
      "à®¤à®¤à®²": 3745,
      "\"\",": 3746,
      "à®ļà®¯à®®à®±": 3747,
      "Äģ": 3748,
      "à®°à®ķà®°": 3749,
      "Ġà®ļà®ķà®µ": 3750,
      "its": 3751,
      "Ġ288": 3752,
      "GT": 3753,
      "rat": 3754,
      "yc": 3755,
      "à®±à®®à®¤": 3756,
      "Ġà®Ĩà®ļà®©à®Ļ": 3757,
      "à®ªà®¤à®²": 3758,
      "à®¯à®°à®³à®µ": 3759,
      "à®°à®¤à®Ļ": 3760,
      "Ġà®ªà®£à®®à®¤": 3761,
      "à¯Ī,''": 3762,
      "aram": 3763,
      "Ġ1977": 3764,
      "put": 3765,
      "way": 3766,
      "Ìģ": 3767,
      "à®ªà®ªà®Ł": 3768,
      "à®ļà®ªà®Ł": 3769,
      "à®Łà®¤à®²": 3770,
      "à®ķà®°à®ª": 3771,
      "ina": 3772,
      "ĠIs": 3773,
      "hip": 3774,
      "ound": 3775,
      "SP": 3776,
      "Ġ2025": 3777,
      "à®°à®µà®Ļ": 3778,
      "arn": 3779,
      "Ġà®ķà®µà®°à®ª": 3780,
      "à®ĵà®°": 3781,
      "Ġà®ļà®ľ": 3782,
      "à¯įâĢį": 3783,
      "Ġà®ķà®µà®©à®ķ": 3784,
      "Ġfrom": 3785,
      "à¯ĩ.\"": 3786,
      "à®¨à®ķà®°à®ª": 3787,
      "ĠIP": 3788,
      "Ġ1949": 3789,
      "Ġà®¤à®ķà®©à®ªà®²": 3790,
      "AI": 3791,
      "à¸": 3792,
      "Ġà®ħà®µà®²à®®": 3793,
      "Ġ1957": 3794,
      "Ġ1958": 3795,
      "à®¯à®ļà®°": 3796,
      "à®µà®¹": 3797,
      "Ġà®°à®®à®£": 3798,
      "Ġà®ħà®µà®ļà®°à®¤": 3799,
      "à¯Ī).": 3800,
      "ĠModi": 3801,
      "rict": 3802,
      "à®¤à®ķà®°à®®": 3803,
      "returns": 3804,
      "istan": 3805,
      "ondition": 3806,
      "Ġà®ªà®³à®ªà®³à®ª": 3807,
      "ĠGoodreturns": 3808,
      "NO": 3809,
      "ÙĪ": 3810,
      "à®ļà®ªà®ķ": 3811,
      "à®°à®£à®ķ": 3812,
      "à®°à®¤à®°": 3813,
      "à®®à®£à®ª": 3814,
      "Ġà®ļà®¤à®Ļ": 3815,
      "à®¯à®®à®©à®¤": 3816,
      "Ġà®ħà®³à®¨": 3817,
      "bl": 3818,
      "Ġï": 3819,
      "à¯įï»¿": 3820,
      "ĠAm": 3821,
      "ĠBJP": 3822,
      "à®¾...?": 3823,
      ").\"": 3824,
      "RO": 3825,
      "Ġà®¨à®¯à®µà®ŀ": 3826,
      "Ġà®ĩà®ļà®Ł": 3827,
      "ĠNational": 3828,
      "2009": 3829,
      "à¯ģà¯į": 3830,
      "Ġà®®à®Łà®®": 3831,
      "à®µà®¤à®²": 3832,
      "Ġ....": 3833,
      "Ġ127": 3834,
      "à®Ĳà®µ": 3835,
      "ett": 3836,
      "cri": 3837,
      "Ġà®ªà®¤à®¤": 3838,
      "ĠAir": 3839,
      "ES": 3840,
      "sp": 3841,
      "Ġà®Ĩà®£à®µà®®": 3842,
      "à®³à®®à®¯à®®": 3843,
      "Ġ139": 3844,
      "Ġpl": 3845,
      "ubl": 3846,
      "ool": 3847,
      "Ð¾": 3848,
      "à®ļà®¤à®µ": 3849,
      "Ġà®¸à®®": 3850,
      "||\"\"": 3851,
      "ype": 3852,
      "à®İà®¤à®±": 3853,
      "à®¹à®¤": 3854,
      "Ġ\"\"||\"\"": 3855,
      "à®ħà®ŀ": 3856,
      "ara": 3857,
      "à¯į...âĢĿ": 3858,
      "Ġ1920": 3859,
      "Ġ148": 3860,
      "ĠInternational": 3861,
      "2000": 3862,
      "rid": 3863,
      "Ġà®Ĵà®®": 3864,
      "Ġà®ĵà®ªà®°": 3865,
      "à¯į...?": 3866,
      "ĠIII": 3867,
      "ific": 3868,
      "brand": 3869,
      "à®©à®³à®µ": 3870,
      "à¯ģ,...": 3871,
      "Ġà®ķà®²à®ķà®ķ": 3872,
      "Ġà®ħà®ªà®ķà®°": 3873,
      "Ġà®ħà®µà®ļà®°à®ļ": 3874,
      "à®¤à®±à®Ł": 3875,
      "ĠURL": 3876,
      "CL": 3877,
      "Ġà®®à®ľà®¤": 3878,
      "ounc": 3879,
      "à®¾]": 3880,
      "Ġ116": 3881,
      "ĠFor": 3882,
      "irst": 3883,
      "Ġà®Ĩà®²à®Ļ": 3884,
      "à®°à®ļà®µà®¤": 3885,
      "à®ľà®©à®Ļ": 3886,
      "à®ªà®°à®µà®²": 3887,
      "row": 3888,
      "Ġsays": 3889,
      "ĠInstitute": 3890,
      "à®¯à®£à®®": 3891,
      "Ġà®¨à®Ļ": 3892,
      "Ġà®īà®´à®µ": 3893,
      "earch": 3894,
      "Ġhttps": 3895,
      "ean": 3896,
      "Ġà®Ĩà®¤à®®": 3897,
      "Ġà®µà®°à®£": 3898,
      "Ġà®Ĩà®²à®©": 3899,
      "ĠPS": 3900,
      "à®®à®ļà®Ļ": 3901,
      "Ġà®ĵà®°à®¤": 3902,
      "Ġà®īà®¤à®ķà®®à®£": 3903,
      "ĠâĢĻ?": 3904,
      "Ġvolume": 3905,
      "uck": 3906,
      "Ġar": 3907,
      "à®©à®´": 3908,
      "Ġ\"\"\"%": 3909,
      "à®īà®Łà®²": 3910,
      "Ġà®®à®ķà®°à®¨": 3911,
      "nic": 3912,
      "Ġà®ªà®Łà®°": 3913,
      "à¯Ī,\"\"": 3914,
      "Ġ1964": 3915,
      "Ph": 3916,
      "à®©à®®à®±": 3917,
      "à®ĩà®¯à®±": 3918,
      "Ġà®Īà®©": 3919,
      "erm": 3920,
      "ctor": 3921,
      "ext": 3922,
      "cess": 3923,
      "à®©à®ķà®¤": 3924,
      "à®¤à®°à®£": 3925,
      "Ġà®¤à®Łà®¤": 3926,
      "à¯Ģ?": 3927,
      "Ġà®ĵà®¨": 3928,
      "ĠSystem": 3929,
      "Ġ1973": 3930,
      "Ġ1963": 3931,
      "US": 3932,
      "à®¾à®¿": 3933,
      "à®¤à®®à®³": 3934,
      "à®¤à®°à®ķà®£": 3935,
      "ĠCIA": 3936,
      "ĠTR": 3937,
      "TP": 3938,
      "à®ıà®°": 3939,
      "TA": 3940,
      "Ġà®ħà®ķà®²à®ª": 3941,
      "à®ļà®¤à®®": 3942,
      "à®¸à®¸": 3943,
      "à®¯à®°à®ķà®®": 3944,
      "NH": 3945,
      "name": 3946,
      "Ġà®ħà®©à®°": 3947,
      "Ġà®¤à®°à®²": 3948,
      "ery": 3949,
      "Ġà®ĩà®³à®µà®¯à®¤": 3950,
      "Ġà®ħà®²à®±à®²": 3951,
      "à®ħà®´à®ķ": 3952,
      "ani": 3953,
      "ĠPIB": 3954,
      "Ġ1953": 3955,
      "ÙĬ": 3956,
      "Ġá": 3957,
      "à®ķà®¹": 3958,
      "Ġà®ªà®±à®ª": 3959,
      "Ġà®ĩà®²à®£": 3960,
      "Ġ133": 3961,
      "iversity": 3962,
      "à®ªà®²à®¤": 3963,
      "tr": 3964,
      "Ġan": 3965,
      "à®²à®ķà®°": 3966,
      "Ġà®µà®¯à®°": 3967,
      "Ġ123": 3968,
      "ĠNa": 3969,
      "ĠHead": 3970,
      "à¯Ĭ.)": 3971,
      "uth": 3972,
      "Ġ1951": 3973,
      "Ġà®İà®©à®¤à®°": 3974,
      "à®ªà®°à®²": 3975,
      "à®Ĳà®Ĩà®°": 3976,
      "Ġ147": 3977,
      "roup": 3978,
      "Ġ1952": 3979,
      "Ġ1968": 3980,
      "quart": 3981,
      "ks": 3982,
      "à¯ģ!\"": 3983,
      "Ġ1946": 3984,
      "Ġhe": 3985,
      "à®Łà®Īà®Ł": 3986,
      "Ġà®µà®©à®Ļ": 3987,
      "Ġà®Ĳà®ı": 3988,
      "Ġà®ķà®ļà®ķ": 3989,
      "Ġà®Ĩà®´à®ª": 3990,
      "Ġà®®à®©à®ħà®´": 3991,
      "à®¹à®ª": 3992,
      "à®īà®Ł": 3993,
      "Ġ225": 3994,
      "ings": 3995,
      "ij": 3996,
      "Ġà®ĩà®ķà®´": 3997,
      "Ġà®®à®©à®µà®³à®°": 3998,
      "Ġà®ļà®°à®³à®®": 3999,
      "à®®à®°à®©": 4000,
      "ĠCor": 4001,
      "Ġ1966": 4002,
      "own": 4003,
      "cript": 4004,
      "ix": 4005,
      "à®®à®°à®ķ": 4006,
      "Ġà®ħà®³à®ķ": 4007,
      "Ġ155": 4008,
      "Ġ243": 4009,
      "ict": 4010,
      "Ġ210": 4011,
      "NC": 4012,
      "à®¾âĢĮ": 4013,
      "à®ıà®µ": 4014,
      "ĠAb": 4015,
      "à®¯à®¨à®²": 4016,
      "Ġ280": 4017,
      "ugs": 4018,
      "fer": 4019,
      "Ġà®¶": 4020,
      "Ġà®ıà®Ĩà®°": 4021,
      "Ġà®¤à®©à®®": 4022,
      "à®īà®ļ": 4023,
      "Ġ146": 4024,
      "à®¿).": 4025,
      "red": 4026,
      "Ġ260": 4027,
      "2003": 4028,
      "ĠColle": 4029,
      "Ġà®īà®©à®¤": 4030,
      "Ġà®Łà®ľà®©": 4031,
      "Ġà®ªà®´à®ļ": 4032,
      "ĠCon": 4033,
      "ĠDel": 4034,
      "raph": 4035,
      "Ġ1942": 4036,
      "iew": 4037,
      "Ġà®ıà®®à®©": 4038,
      "ĠBo": 4039,
      "ĠâĿ": 4040,
      "à®¾/": 4041,
      "à®Łà®´": 4042,
      "Ġà®ļà®²à®µ": 4043,
      "à®ķà®°à®±": 4044,
      "ware": 4045,
      "Ġun": 4046,
      "à®£à®¨": 4047,
      "Ġà®®à®±à®ª": 4048,
      "Ġ270": 4049,
      "ular": 4050,
      "ier": 4051,
      "na": 4052,
      "Ġà®ĩà®Łà®µà®ļà®¤": 4053,
      "Ġà®ħà®ļà®¨": 4054,
      "quarters": 4055,
      "à®¤à®±à®²": 4056,
      "à®±à®¯": 4057,
      "ĠMah": 4058,
      "ren": 4059,
      "uv": 4060,
      "Ġà®ļà®©à®¤": 4061,
      "Ġà®°à®Ł": 4062,
      "à®ľà®µ": 4063,
      "à®ĩà®°à®µ": 4064,
      "Ġ310": 4065,
      "ott": 4066,
      "à®Īà®®": 4067,
      "à®¾?\"\"\"": 4068,
      "à®Ĳà®İà®®": 4069,
      "andhi": 4070,
      "ration": 4071,
      "à®²à®Łà®Ļ": 4072,
      "ĠBank": 4073,
      "à®ªà®´à®ķà®©": 4074,
      "350": 4075,
      "IL": 4076,
      "oz": 4077,
      "Ġà®ħà®µà®¸": 4078,
      "Ġ176": 4079,
      "Ġkm": 4080,
      "ĠØ§": 4081,
      "à®®à®£à®°": 4082,
      "à®ªà®ķà®Ł": 4083,
      "Ġà®ľà®¹": 4084,
      "à®¤à®©à®µ": 4085,
      "à®ĩà®µà®©": 4086,
      "Ġà®®à®´à®²": 4087,
      "à®Ĵà®Ł": 4088,
      "à®Ĵà®²": 4089,
      "ĠGu": 4090,
      "Ġinfo": 4091,
      "Ġà®īà®£à®°à®²": 4092,
      "à¯Įà®¿": 4093,
      "emple": 4094,
      "Ġ1959": 4095,
      "igh": 4096,
      "EF": 4097,
      "SE": 4098,
      "Ġà®ĵà®®à®¨": 4099,
      "Ġ1918": 4100,
      "ainst": 4101,
      "testing": 4102,
      "à®ļà®²à®Ł": 4103,
      "à®µà®³à®µà®©": 4104,
      "ĠPri": 4105,
      "ution": 4106,
      "ull": 4107,
      "oo": 4108,
      "Ġà®¨à®°à®ķà®µ": 4109,
      "ale": 4110,
      "Ġ234": 4111,
      "AP": 4112,
      "à®¿''": 4113,
      "à®©à®¤à®©": 4114,
      "à®ħà®¯": 4115,
      "Ġà®Ĩà®Łà®µ": 4116,
      "ĠAc": 4117,
      "ĠRaj": 4118,
      "TN": 4119,
      "ÉĻ": 4120,
      "Ġà®ĩà®°à®ķà®Ļ": 4121,
      "à®¤à®¤à®¤": 4122,
      "à®¤à®ªà®¯": 4123,
      "à®±à®µà®Ļ": 4124,
      "ĠPart": 4125,
      "ĠFran": 4126,
      "ĠHeadquarters": 4127,
      "RC": 4128,
      "à®Łà®¤à®ķ": 4129,
      "à®³à®°à®µ": 4130,
      "oll": 4131,
      "ĠGo": 4132,
      "Ġ1943": 4133,
      "?\"\"": 4134,
      "Ġà®´": 4135,
      "à®°à®ªà®²à®®à®Ł": 4136,
      "Ġà®®à®£à®®à®ķà®³": 4137,
      "à®Ĭà®¤": 4138,
      "rick": 4139,
      "Ġà®ľà®²à®¤": 4140,
      "à¯ģ\"\",": 4141,
      "Ġ1954": 4142,
      "air": 4143,
      "Ġà®¤à®µà®®": 4144,
      "Ġà®°à®ķà®¤": 4145,
      "à¯įâĢĻ,": 4146,
      "etw": 4147,
      "Ġà®ħà®µà®ļà®°à®¨": 4148,
      "à®®à®¹": 4149,
      "Ġà®Ĩà®²à®®": 4150,
      "\"\")": 4151,
      "Ġà®®à®©à®¸": 4152,
      "à¯į)-": 4153,
      "orth": 4154,
      "à®ķà®¨à®²": 4155,
      "aily": 4156,
      "umber": 4157,
      "à§": 4158,
      "à®¯à®±à®¤": 4159,
      "Ġà®µà®³à®ª": 4160,
      "Ġà®īà®ªà®µ": 4161,
      "à®ªà®¤à®¤": 4162,
      "Ġà®²à®¯à®©": 4163,
      "à®ĩà®¯à®²": 4164,
      "à®ķà®Łà®µà®°": 4165,
      "ĠCD": 4166,
      "che": 4167,
      "ush": 4168,
      "UN": 4169,
      "Ġà¯į": 4170,
      "à®µà®ķà®ª": 4171,
      "Ġà®ħà®¤à®°": 4172,
      "Ġ(-": 4173,
      "Ġà®Ĭà®ļà®²": 4174,
      "à®Ĩà®°à®®": 4175,
      "ere": 4176,
      "lor": 4177,
      "à®ķà®ķà®³": 4178,
      "à®ªà®²à®°": 4179,
      "à®µà®©à®ļ": 4180,
      "à¯ģ?\"\"": 4181,
      "ĠName": 4182,
      "Ġ1944": 4183,
      "akistan": 4184,
      "ÑĢ": 4185,
      "Ġà®ļà®¤à®¤": 4186,
      "ife": 4187,
      "ĠAnd": 4188,
      "1000": 4189,
      "750": 4190,
      "__": 4191,
      "à®ķà®µà®¤": 4192,
      "Ġà®ļà®¤à®®à®Ł": 4193,
      "Ġà®¨à®¸": 4194,
      "à¯ĭâĢĻ": 4195,
      "à®ķà®®à®©": 4196,
      "Ġà®ªà®°à®µà®ļ": 4197,
      "Ġà®®à®²à®Ł": 4198,
      "Ġà®µà®Łà®¤": 4199,
      "à®µà®©à®ķ": 4200,
      "à®©à®®à®£": 4201,
      "à®°à®ķà®Łà®©à®¤": 4202,
      "Ġ224": 4203,
      "eld": 4204,
      "ĠUN": 4205,
      "ival": 4206,
      "Ġà®ļà®®à®°à®ļà®¤": 4207,
      "SD": 4208,
      "Ļª": 4209,
      "à¤¿": 4210,
      "Ġà®ħà®¹à®®à®¤": 4211,
      "adi": 4212,
      "à¯ģâĢĮ": 4213,
      "Ġà®¤à®ķà®µ": 4214,
      "Ġà®¤à®²à®¤": 4215,
      "à¯į.âĢĿ": 4216,
      "à®°à®µà®ª": 4217,
      "à®İà®¯": 4218,
      "ĠPh": 4219,
      "ision": 4220,
      "Ġà®ļà®ķà®²à®µ": 4221,
      "Ġname": 4222,
      "RE": 4223,
      "à®ªà®©à®Ļ": 4224,
      "reat": 4225,
      "ublic": 4226,
      "pur": 4227,
      "ris": 4228,
      "yd": 4229,
      "Ġà®µà®¤à®Ļ": 4230,
      "Ġà®¯à®ĥà®ķ": 4231,
      "à®ĩà®µà®³": 4232,
      "Ġ1935": 4233,
      "Ġ044": 4234,
      "à¯ģ\"\".\"": 4235,
      "ortName": 4236,
      "co": 4237,
      "Ñģ": 4238,
      "à®¾....": 4239,
      "Ġà®¨à®²à®ļ": 4240,
      "esign": 4241,
      "2002": 4242,
      "Ġà®Łà®Ł": 4243,
      "Ġà®īà®¤à®¯à®ķ": 4244,
      "ĠPar": 4245,
      "Ġà®ªà®²à®©à®Ł": 4246,
      "ĠDay": 4247,
      "ĠKDE": 4248,
      "eat": 4249,
      "à®ļà®ŀ": 4250,
      "Ġà®°à®¸à®²": 4251,
      "à®¯à®®à®©à®Ļ": 4252,
      "à®µà®®à®£": 4253,
      "Ġ136": 4254,
      "ĠHT": 4255,
      "AL": 4256,
      "Ġà®ªà®·": 4257,
      "Ġà®¤à®¹": 4258,
      "Ġà®¨à®Łà®©à®Ļ": 4259,
      "Ġà®ļà®®à®ª": 4260,
      "Ġ850": 4261,
      "Ġà®Ĩà®ªà®°à®£à®Ļ": 4262,
      "ĠCl": 4263,
      "Ġà®ªà®°à®µà®ļà®®": 4264,
      "ingh": 4265,
      "Ġnew": 4266,
      "Ġà®ķà®²à®µà®°à®Ļ": 4267,
      "Ġ153": 4268,
      "Ġ177": 4269,
      "ĠDe": 4270,
      "overage": 4271,
      "%-": 4272,
      "du": 4273,
      "à¯į\\\"\"": 4274,
      "à®²à®ħà®³à®µ": 4275,
      "Ġà®ľà®Ļ": 4276,
      "Ġà®Ĩà®ķà®£": 4277,
      "à®Ĩà®³": 4278,
      "ink": 4279,
      "inal": 4280,
      "Ġ1800": 4281,
      "Ġ166": 4282,
      "mp": 4283,
      "ward": 4284,
      "à®°à®¯à®¤": 4285,
      "à®Łà®ķà®ļ": 4286,
      "Ġà®¤à®Łà®¯à®µ": 4287,
      "ĠLCR": 4288,
      "ada": 4289,
      "ts": 4290,
      "à®ħà®³": 4291,
      "Ġ303": 4292,
      "Ġà®®à®°à®£à®¤à®£": 4293,
      "turbine": 4294,
      "DI": 4295,
      "Ġhi": 4296,
      "à®µà®ľ": 4297,
      "Ġà®ªà®©à®Ļ": 4298,
      "à®¯à®®à®³": 4299,
      "Ġ129": 4300,
      "Ġ149": 4301,
      "Ġtrans": 4302,
      "reg": 4303,
      "Ġph": 4304,
      "Ġà®®à®£à®®à®ķà®©": 4305,
      "ave": 4306,
      "DF": 4307,
      "Ġqu": 4308,
      "Ġà®µà®ļà®©": 4309,
      "à®£à®¯à®ļ": 4310,
      "Ġà®°à®£à®µ": 4311,
      "Ġ182": 4312,
      "Ġ165": 4313,
      "unction": 4314,
      "rist": 4315,
      "sc": 4316,
      "ĠâĢľâĢĺ": 4317,
      "à®ķà®²à®¨": 4318,
      "à®Łà®²à®µ": 4319,
      "Ġ6000": 4320,
      "ator": 4321,
      "ĠTechn": 4322,
      "!)": 4323,
      "Ġà®µà®ľ": 4324,
      "Ġà®°à®ļà®©": 4325,
      "ĠCGT": 4326,
      "Ġà®®à®£à®®à®ķ": 4327,
      "Ar": 4328,
      "oot": 4329,
      "Ġà®ļà®ķà®¤": 4330,
      "à®ľà®¯à®µ": 4331,
      "Ġà®ķà®°à®ķ": 4332,
      "Ġà®ĩà®Łà®±à®²": 4333,
      "Ġ340": 4334,
      "Ġ1938": 4335,
      "DNA": 4336,
      "à®ķà®·": 4337,
      "Ġà®°à®®à®²": 4338,
      "Ġà®ªà®£à®µà®°à®µ": 4339,
      "Ġà®Ĳà®©": 4340,
      "Ġ2024": 4341,
      "ĠSab": 4342,
      "ĠTrans": 4343,
      "Ġ1941": 4344,
      "ka": 4345,
      "kar": 4346,
      "à®Łà®µà®®": 4347,
      "à¯Ī%": 4348,
      "à®¯à®©à®°": 4349,
      "à®¯à®īà®¤à®µ": 4350,
      "Ġà®ªà®°à®£": 4351,
      "à®Łà®©à®µ": 4352,
      "Ġà®Ĭà®±à®µ": 4353,
      "à®īà®£à®°": 4354,
      "Ġ134": 4355,
      "ĠCollege": 4356,
      "equ": 4357,
      "à®ķà®³à®Ļ": 4358,
      "à®ķà®¤à®µ": 4359,
      "Ġà®ĵà®©": 4360,
      "eration": 4361,
      "Ġflow": 4362,
      "ShortName": 4363,
      "110": 4364,
      "DL": 4365,
      "à®ķà®°à®ļ": 4366,
      "à®ľà®Ļ": 4367,
      "Ġà®ªà®²à®µà®¨": 4368,
      "à®īà®ª": 4369,
      "Ġà®©à®°": 4370,
      "Ġà®ĥà®ªà®Ł": 4371,
      "Ġà®ĩà®¤à®¯à®ª": 4372,
      "à®¯à®²à®Ł": 4373,
      "Ġà®ªà®²à®ļ": 4374,
      "Ġà®ļà®°à®³": 4375,
      "à®Łà®ķà®ķ": 4376,
      "Ġ132": 4377,
      "ĠIV": 4378,
      "à®²à®¤à®©à®ļ": 4379,
      "VID": 4380,
      "à®³à®©à®¤": 4381,
      "Ġà®Ĩà®°à®¤": 4382,
      "à®Łà®¤à®Ł": 4383,
      "Ġà®ħà®°à®ļà®ķà®°": 4384,
      "ĠNadu": 4385,
      "Ġà®ľà®µà®ķà®°": 4386,
      "DR": 4387,
      "oint": 4388,
      "àª": 4389,
      "Ġà®µà®°à®Ļ": 4390,
      "à®²à®®à®©": 4391,
      "Ġà®Ĩà®µà®£à®ķ": 4392,
      "ames": 4393,
      "romos": 4394,
      "ĠSci": 4395,
      "CF": 4396,
      "ve": 4397,
      "à®¤à®°à®ķà®°": 4398,
      "arend": 4399,
      "à®ıà®ļ": 4400,
      "program": 4401,
      "Ġagainst": 4402,
      "mon": 4403,
      "ËĲ": 4404,
      "à®µà®°à®£": 4405,
      "Ġà®ªà®²à®¨": 4406,
      "à®ªà®°à®µ": 4407,
      "à¯į)\"\"": 4408,
      "Ġ151": 4409,
      "Ġ256": 4410,
      "ĠOn": 4411,
      "à®¨à®²à®ª": 4412,
      "Ġà®Ĩà®ªà®ķ": 4413,
      "Ġà®ħà®ķà®¸": 4414,
      "err": 4415,
      "Ġ164": 4416,
      "Ġ172": 4417,
      "à®Ĵà®¯": 4418,
      "Ġà®®à®¹à®°": 4419,
      "ĠEd": 4420,
      "inister": 4421,
      "Ad": 4422,
      "SI": 4423,
      "bugs": 4424,
      "Ġà®Ĩà®Łà®²": 4425,
      "à®µà®²à®Ļ": 4426,
      "à¯ģ:%": 4427,
      "icle": 4428,
      "As": 4429,
      "PF": 4430,
      "ym": 4431,
      "à®°à®ļà®¤": 4432,
      "Ġà®¤à®ķà®©à®®": 4433,
      "ftware": 4434,
      "à®©à®²à®®à®±": 4435,
      "Pro": 4436,
      "Ġà®¯à®ª": 4437,
      "arb": 4438,
      "à®·à®¯à®®à®²": 4439,
      "à¯ģ--": 4440,
      "isc": 4441,
      "ÙĦØ": 4442,
      "ĠCentre": 4443,
      "por": 4444,
      "ta": 4445,
      "Ġà®ªà®ķà®°": 4446,
      "à¯Ĥà®¾à¯į,": 4447,
      "ĠâĢĿ?": 4448,
      "Ġà®ľà®©à®ķ": 4449,
      "icro": 4450,
      "ĠTra": 4451,
      "ilm": 4452,
      "outh": 4453,
      "à¯ĩ....": 4454,
      "âĢ¢": 4455,
      "Ġ168": 4456,
      "ĠRep": 4457,
      "unit": 4458,
      "uss": 4459,
      "app": 4460,
      "à®®à®°à®Ļ": 4461,
      "Ġà®ªà®ļà®Ļ": 4462,
      "à®ķà®µà®©à®®": 4463,
      "à®³à®¤à®©": 4464,
      "à®ĩà®±à®¨": 4465,
      "Ġ154": 4466,
      "ĠMed": 4467,
      "gan": 4468,
      "à¯Ī\"": 4469,
      "Ġà®ķà®°à®¤": 4470,
      "Ġà®Ĩà®µà®Ł": 4471,
      "Ġà®ħà®±à®ª": 4472,
      "Ġ2500": 4473,
      "Ġà®īà®²à®ķà®®à®¯à®®": 4474,
      "omen": 4475,
      "ents": 4476,
      "2001": 4477,
      "Ġà®¤à®ļà®®à®ª": 4478,
      "EA": 4479,
      "Ð¸": 4480,
      "à®ĩà®ļà®Ł": 4481,
      "ĠCP": 4482,
      "Ġà®Ĳà®ıà®İà®¸": 4483,
      "%,": 4484,
      "à°": 4485,
      "à®ļà®°à®¸": 4486,
      "imes": 4487,
      "---": 4488,
      "Br": 4489,
      "ault": 4490,
      "à®ªà®¯à®°": 4491,
      "anth": 4492,
      "Ġ1931": 4493,
      "GS": 4494,
      "OP": 4495,
      "RS": 4496,
      "ati": 4497,
      "anthi": 4498,
      "650": 4499,
      "à®®à®°à®£à®¤": 4500,
      "Ġà®īà®°à®ļ": 4501,
      "Ġà®ªà®¯à®¸": 4502,
      "que": 4503,
      "achines": 4504,
      "'.": 4505,
      "En": 4506,
      "Tamil": 4507,
      "gy": 4508,
      "Ã¼": 4509,
      "à®µà®©à®µà®±": 4510,
      "Ġà®ķà®²à®ķà®²à®ª": 4511,
      "onal": 4512,
      "Ġsh": 4513,
      "Ġ377": 4514,
      "à®°à®ķà®²": 4515,
      "Ġà®®à®±à®¤": 4516,
      "Ġà®ħà®¤à®Ł": 4517,
      "Ġà®īà®£à®µà®°": 4518,
      "Ġà®Īà®±": 4519,
      "ering": 4520,
      "Ġ325": 4521,
      "emb": 4522,
      "ĠResearch": 4523,
      "ras": 4524,
      "Ġà®Ĩà®ľ": 4525,
      "Ġà®Ĩà®®à®¤": 4526,
      "à®µà®¤à®®": 4527,
      "Ġà®ħà®®à®®": 4528,
      "Ġ189": 4529,
      "ĠWS": 4530,
      "Ġà®ªà®°à®¤à®¨": 4531,
      "].": 4532,
      "rate": 4533,
      "à®¨à®µà®®": 4534,
      "Ġà®Ĵà®®à®°": 4535,
      "Ġà®Īà®´à®¤": 4536,
      "à®ļà®©à®²": 4537,
      "Ġà®®à®£à®ķ": 4538,
      "Ġ143": 4539,
      "ĠRel": 4540,
      "rib": 4541,
      "ĠOpen": 4542,
      "ennai": 4543,
      "Ðµ": 4544,
      "Ġà®¤à®ľ": 4545,
      "Ġà®ķà®©à®ķ": 4546,
      "ative": 4547,
      "ĠPol": 4548,
      "à¯ģâĢĿ.": 4549,
      "Ġà®Ĭà®°à®ķà®ļ": 4550,
      "utation": 4551,
      "aka": 4552,
      "Ġ1933": 4553,
      "overnment": 4554,
      ",,": 4555,
      "Mo": 4556,
      "fter": 4557,
      "à®ļà®µà®¤": 4558,
      "Ġà®ļà®ĥà®ª": 4559,
      "à®İà®®à®¤": 4560,
      "à®ļà®©à®ķ": 4561,
      "AA": 4562,
      "ke": 4563,
      "oy": 4564,
      "ÏĤ": 4565,
      "à®²à®°à®¤": 4566,
      "Ġà®¤à®°à®£": 4567,
      "Ġà®¯à®Ļ": 4568,
      "Ġà®¤à®©à®ŀ": 4569,
      "Daily": 4570,
      "min": 4571,
      "pos": 4572,
      "Ġà®®à®Łà®²": 4573,
      "à®ļà®°à®ļà®®": 4574,
      "à¯į,.": 4575,
      "Ġà®Ĵà®¸": 4576,
      "à®ľà®©à®µà®°": 4577,
      "à®īà®®à®ķ": 4578,
      "orn": 4579,
      "ĠAp": 4580,
      "Ġ245": 4581,
      "à®¯à®¨à®²à®¤": 4582,
      "Co": 4583,
      "à®¤à®Łà®µ": 4584,
      "à®±à®£": 4585,
      "à®°à®ļà®µà®®": 4586,
      "à®Łà®²à®ª": 4587,
      "à®ĩà®²à®Ł": 4588,
      "Ġà®Īà®¤": 4589,
      "à®ªà®µà®¯": 4590,
      "arg": 4591,
      "ĠIm": 4592,
      "lect": 4593,
      "iver": 4594,
      "TE": 4595,
      "Î¿": 4596,
      "à®³à®ķà®°": 4597,
      "Ġà®ķà®ľà®ķ": 4598,
      "à®±à®©à®±": 4599,
      "ĠAct": 4600,
      "à®Īà®¸": 4601,
      "$$": 4602,
      "AB": 4603,
      "Ġà®®à®±à®µ": 4604,
      "à®ķà®°à®µà®£": 4605,
      "Ġà®¨à®ķà®°à®®à®¯à®®": 4606,
      "uts": 4607,
      "Ġres": 4608,
      "])": 4609,
      "Ġà®Ķ": 4610,
      "à®ļà®²à®ķ": 4611,
      "Ġà®Ĩà®©à®µà®°": 4612,
      "Ġà®²à®¯": 4613,
      "Ġà®ªà®£à®¯à®®": 4614,
      "à¯į\"\")": 4615,
      "erala": 4616,
      "Ġapp": 4617,
      "ogle": 4618,
      "à®ķà®Łà®ª": 4619,
      "à®°à®·à®°": 4620,
      "à¯į,\"": 4621,
      "Ġà®Ĩà®©à®ª": 4622,
      "ane": 4623,
      "Ġ162": 4624,
      "India": 4625,
      "Ġà®ķà®£à®¤": 4626,
      "Ġà®ĩà®¤à®©à®Ł": 4627,
      "à®°à®ķà®ļ": 4628,
      "ican": 4629,
      "à¯ģ...!": 4630,
      "ĠWSWS": 4631,
      "een": 4632,
      "à¯į):": 4633,
      "2021": 4634,
      "ĠMP": 4635,
      "ĠNo": 4636,
      "Ġco": 4637,
      "ĠOF": 4638,
      "udi": 4639,
      "Ġ×": 4640,
      "à®ªà®±à®®": 4641,
      "à®¤à®µà®ª": 4642,
      "ĠTo": 4643,
      "Ġsc": 4644,
      "Ġ).": 4645,
      "ally": 4646,
      "ricket": 4647,
      "rin": 4648,
      "Î±": 4649,
      "à®ªà®¯à®±": 4650,
      "à®¯à®²à®µ": 4651,
      "Ġà®ħà®ķà®²à®¤": 4652,
      "à¯ģ).\"": 4653,
      "Ġ137": 4654,
      "thers": 4655,
      "à¥Ģ": 4656,
      "for": 4657,
      "Ð½": 4658,
      "Ġab": 4659,
      "Ġà¦": 4660,
      "à®ªà®ķà®°": 4661,
      "Ġà®Łà®¯à®Ł": 4662,
      "à®ĩà®ĵ": 4663,
      "Ġ141": 4664,
      "eme": 4665,
      ")(": 4666,
      "ĠÏ": 4667,
      "à®°à®ªà®°": 4668,
      "Ġà®ªà®ļà®²": 4669,
      "à®ļà®²à®¤": 4670,
      "Ġà®¨à®ķà®Ļ": 4671,
      "à®ķà®°à®ķ": 4672,
      "ĠTemple": 4673,
      "ety": 4674,
      "Thanthi": 4675,
      "àµį": 4676,
      "DailyThanthi": 4677,
      "pib": 4678,
      "à®¯à®ķà®µ": 4679,
      "à®ķà®°à®µà®°": 4680,
      "à®¤à®ķà®©": 4681,
      "Ġà®Īà®°à®²": 4682,
      "à¯į:%": 4683,
      "Ġ192": 4684,
      "Ġà®·à®°à®¤": 4685,
      "Ġ178": 4686,
      "Ġcondition": 4687,
      "aint": 4688,
      "ĠUniversity": 4689,
      "à®ļà®ķà®©": 4690,
      "Ġà®ħà®ķà®ļ": 4691,
      "ĠCan": 4692,
      "ĠPakistan": 4693,
      "yan": 4694,
      "}}": 4695,
      "à®°à®ļà®ª": 4696,
      "Ġ(âĢľ": 4697,
      "Ġà®īà®²à®ķà®¨": 4698,
      "ĠCS": 4699,
      "ĠSec": 4700,
      "Ġ302": 4701,
      "itle": 4702,
      "à¤¤": 4703,
      "New": 4704,
      "à®Łà®°à®®": 4705,
      "Ġ330": 4706,
      "ali": 4707,
      "Ġ174": 4708,
      "ams": 4709,
      "ĠTest": 4710,
      "ocial": 4711,
      "DC": 4712,
      "IG": 4713,
      "PO": 4714,
      "rest": 4715,
      "Ġà®Ĩà®²à®ª": 4716,
      "Ġà®Ĳà®¯à®¤": 4717,
      "Ġ203": 4718,
      "à®®à®£à®©": 4719,
      "resident": 4720,
      "ĠHTML": 4721,
      "NP": 4722,
      "Ġà®ħà®°à®ļà®¤": 4723,
      "Ġà®ħà®²à®®": 4724,
      "Ġà®ħà®µà®®à®°": 4725,
      "Ġà®¤à®Łà®¯à®Ļ": 4726,
      "Ġ161": 4727,
      "Ġ215": 4728,
      "ĠRe": 4729,
      "ĠâĪĴ": 4730,
      "ouncil": 4731,
      "à®ªà®¨à®²à®¤": 4732,
      "eth": 4733,
      "Ġclass": 4734,
      "ĠVir": 4735,
      "ĠOr": 4736,
      "à¦¾": 4737,
      "LA": 4738,
      "Ã¨": 4739,
      "Ø¨": 4740,
      "Ġà®Łà®¤": 4741,
      "Ġà®¹à®¤": 4742,
      "à®ķà®©à®ļ": 4743,
      "Ġà®¨à®ķà®°à®ķ": 4744,
      "ĠCM": 4745,
      "ade": 4746,
      "à®¿',": 4747,
      "romosome": 4748,
      "RT": 4749,
      "eed": 4750,
      "à®£à®£": 4751,
      "Ġà®ľà®ķà®¤": 4752,
      "ĠâĢĿ.": 4753,
      "ars": 4754,
      "ĠSEP": 4755,
      "anka": 4756,
      "Ġà®ıà®ķà®®à®©à®¤": 4757,
      "Ġ\\": 4758,
      "à®®à®²à®ķ": 4759,
      "à®²à®¯à®©": 4760,
      "à®Łà®²à®ķ": 4761,
      "ĠAmer": 4762,
      "Ġ!\"": 4763,
      "Ðº": 4764,
      "Ġà®ħà®ĥà®ª": 4765,
      "à¯Ģà¯į": 4766,
      "à®ļà®°à®ķ": 4767,
      "Ġ235": 4768,
      "Ġà®ħà®¯à®²à®ķà®¤": 4769,
      "ĠCOVID": 4770,
      ",\"\"": 4771,
      "à®¤à®¯à®µ": 4772,
      "à®¤à®°à®ķà®Ļ": 4773,
      "Ġà®Ĭà®¤à®ª": 4774,
      "à®ªà®®à®¯à®®": 4775,
      "Ġ790": 4776,
      "à®Ĳà®¨": 4777,
      "ember": 4778,
      "face": 4779,
      "à®¤à®³à®ª": 4780,
      "à®³à®³": 4781,
      "à®ļà®£à®®": 4782,
      "à®³à®¤à®®": 4783,
      "Ġ158": 4784,
      "urg": 4785,
      "ĠLa": 4786,
      "Ġper": 4787,
      "Ġ1936": 4788,
      "Ġà®¤à®Łà®®à®±": 4789,
      "Ġ\"\"\"\"\"\"\"": 4790,
      "ĠDelhi": 4791,
      "Ġà®ķà®ĥà®ª": 4792,
      "à®ļà®µà®®": 4793,
      "Ġà®Ĩà®¹": 4794,
      "Ġà®°à®ķà®Ļ": 4795,
      "à®¯à®®à®¯à®®": 4796,
      "Ġà®ħà®±à®Ļ": 4797,
      "Ġà®Ĩà®ķà®Ł": 4798,
      "Ġà®ļà®°à®µ": 4799,
      "à®ĩà®Łà®®": 4800,
      "Ġà®Īà®¯": 4801,
      "Ġà®īà®£à®µà®ķà®®": 4802,
      "à®ıà®Ł": 4803,
      "à®°à®ķà®ª": 4804,
      "à®¨à®£": 4805,
      "Ġà®īà®£à®°à®®": 4806,
      "à®İà®µà®©": 4807,
      "Ġà®ĩà®Łà®±": 4808,
      "Ġà®µà®³à®°à®µ": 4809,
      "Ġà®ĥà®ªà®£": 4810,
      "reen": 4811,
      "omic": 4812,
      "Ġ607": 4813,
      "à®ľà®®à®µ": 4814,
      "ongress": 4815,
      "Am": 4816,
      "CM": 4817,
      "ler": 4818,
      "ze": 4819,
      "Ġ<": 4820,
      "à®¤à®ķà®µ": 4821,
      "Ġà®¤à®ļà®°": 4822,
      "à®ķà®²à®ķ": 4823,
      "à®ħà®µà®Ļ": 4824,
      "à®ĥà®ªà®©": 4825,
      "rev": 4826,
      "ĠKh": 4827,
      "agement": 4828,
      "EE": 4829,
      "Sp": 4830,
      "ÑĤ": 4831,
      "ÛĮ": 4832,
      "à¯į``": 4833,
      "à¯Ģ!": 4834,
      "à®¤à®®à®ķ": 4835,
      "à®²à®®à®±": 4836,
      "à®ħà®®à®°": 4837,
      "Ġ720": 4838,
      "Ġ152": 4839,
      "ility": 4840,
      "lob": 4841,
      "ield": 4842,
      "Ġà®Ĩà®°à®£": 4843,
      "Ġà®Łà®²": 4844,
      "Ġà®ļà®®à®£": 4845,
      "Ġà®ķà®£à®ªà®¤": 4846,
      "à®ªà®µà®ª": 4847,
      "Ġme": 4848,
      "Ġ1937": 4849,
      ".-": 4850,
      "HA": 4851,
      "OC": 4852,
      "à®´à®©à®©": 4853,
      "ĠâĢĽ": 4854,
      "Ġà®ħà®°à®Ł": 4855,
      "à¯Ī:%": 4856,
      "ĠFin": 4857,
      "à®²à®¹": 4858,
      "Ġà®ķà®¤à®ķ": 4859,
      "à®ķà®®à®Ļ": 4860,
      "à®İà®³": 4861,
      "à®ħà®¸": 4862,
      "à¯įâĢĺ": 4863,
      "Ġà®ķà®©à®ª": 4864,
      "ĠCourt": 4865,
      "ĠSup": 4866,
      "ices": 4867,
      "ĠTimes": 4868,
      "rop": 4869,
      "Ġpart": 4870,
      "opt": 4871,
      "641": 4872,
      "ugh": 4873,
      "+)": 4874,
      "NG": 4875,
      "gen": 4876,
      "à¯ģ\"\"\"": 4877,
      "à®¤à®£à®°": 4878,
      "Ġà®īà®£à®°à®ķ": 4879,
      "Ġà®İà®²à®©": 4880,
      "Ġ410": 4881,
      "ĠApp": 4882,
      "125": 4883,
      "Ġà®±à®£à®µ": 4884,
      "Ġà®ĩà®³à®µà®°à®ļà®©": 4885,
      "Ġla": 4886,
      "ealth": 4887,
      "AF": 4888,
      "à®Łà®ķà®ª": 4889,
      "à®¤à®µà®²": 4890,
      "Ġà®®à®©à®µà®°": 4891,
      "Ġà®Īà®ª": 4892,
      "Ġ1917": 4893,
      "ats": 4894,
      "Ġ131": 4895,
      "à®¿:-": 4896,
      "ĠRev": 4897,
      "ondu": 4898,
      "ĠTechnology": 4899,
      "PG": 4900,
      "à¯ģï»¿": 4901,
      "à®·à®µà®°": 4902,
      "à®®à®©à®ļ": 4903,
      "à®ĩà®°à®¤": 4904,
      "Ġteam": 4905,
      "Ġhttp": 4906,
      "Ġà®ķà®ľà®ķà®¸": 4907,
      "à®ķà®ªà®¤": 4908,
      "à®¨à®ķà®²": 4909,
      "Ġà®ħà®°à®ļà®µ": 4910,
      "à®³à®°à®µà®®": 4911,
      "à®¤à®ķà®ļ": 4912,
      "Ġ205": 4913,
      "Ġ157": 4914,
      "à®¨à®Łà®¨": 4915,
      "Ġà®¤à®°à®®à®£": 4916,
      "ĠOthers": 4917,
      "Ġà®īà®ªà®ķà®°à®£à®®": 4918,
      "Ġhas": 4919,
      "Sc": 4920,
      "Ġà®®à®©à®°": 4921,
      "à®ķà®°à®°": 4922,
      "Ġà®·à®ª": 4923,
      "à®ĥà®¤": 4924,
      "ĠGandhi": 4925,
      "à®¿!\"": 4926,
      "Ġà®ļà®©à®¨": 4927,
      "istrict": 4928,
      "Indian": 4929,
      "ohli": 4930,
      "oj": 4931,
      "Ġà®ħà®®à®°à®µ": 4932,
      "Ġà®ļà®®à®¯à®ª": 4933,
      "Ġà®Ĳà®Ĩà®°": 4934,
      "Ġà®ħà®ķà®Ļ": 4935,
      "Ġ304": 4936,
      "ased": 4937,
      "rav": 4938,
      "sk": 4939,
      "Ġit": 4940,
      "Ġad": 4941,
      "à®³à®¯": 4942,
      "à¯į,âĢľ": 4943,
      "à®Łà®°à®ķ": 4944,
      "Ġà®®à®°à®µà®³": 4945,
      "Ġà®¤à®µà®´": 4946,
      "ĠâĻª": 4947,
      "Ġover": 4948,
      "à¯į].": 4949,
      "Ġ290": 4950,
      "Ġ737": 4951,
      "ohn": 4952,
      "à®ªà®¯à®ªà®ķ": 4953,
      "OT": 4954,
      "der": 4955,
      "Ġà¯Ī": 4956,
      "à®ķà®³à®µà®°": 4957,
      "Ġ('": 4958,
      "Ġà®ħà®©à®©": 4959,
      "à®ªà®°à®ķ": 4960,
      "à®ĩà®²à®ķ": 4961,
      "à®Ĩà®¤à®®": 4962,
      "Ġà®ľà®©à®©": 4963,
      "ĠSe": 4964,
      "ĠIN": 4965,
      "ĠGe": 4966,
      "à¯į''.": 4967,
      "EL": 4968,
      "Ġup": 4969,
      "à®°à®µà®²à®©": 4970,
      "à®°à®ķà®£à®¤": 4971,
      "Ġ163": 4972,
      "ĠMet": 4973,
      "Ġ239": 4974,
      "oly": 4975,
      "Ġcoverage": 4976,
      "Ġà®ªà®°à®®à®ķ": 4977,
      "ĠParty": 4978,
      "%.": 4979,
      "DB": 4980,
      "SM": 4981,
      "lam": 4982,
      "à®¤à®ļà®°à®¸": 4983,
      "à®°à®ķà®©": 4984,
      "Ġà®¤à®°à®ļ": 4985,
      "Ġà®°à®¤à®°": 4986,
      "à®¹à®Ļ": 4987,
      "à®®à®©à®ª": 4988,
      "à®ĩà®±à®ķ": 4989,
      "à®²à®µà®ķ": 4990,
      "Ġ420": 4991,
      "ĠBe": 4992,
      "ĠHIV": 4993,
      "ĠWHO": 4994,
      "Ġ385": 4995,
      "ible": 4996,
      "uz": 4997,
      "ule": 4998,
      "vin": 4999,
      "Ġz": 5000,
      "à®µà®¯à®®": 5001,
      "à®ļà®µà®°": 5002,
      "à®ļà®°à®ļà®¤": 5003,
      "à®ĩà®´": 5004,
      "à®¯à®©à®ª": 5005,
      "Ġà®¤à®°à®ķà®°": 5006,
      "à®ķà®©à®ķ": 5007,
      "Ġà®µà®Łà®ļ": 5008,
      "Ġ159": 5009,
      "à®°à®³à®¯à®®": 5010,
      "Ġ167": 5011,
      "ĠSingh": 5012,
      "TTE": 5013,
      "ORS": 5014,
      "ijay": 5015,
      "!!": 5016,
      "of": 5017,
      "uel": 5018,
      "Ġro": 5019,
      "à®¤à®³à®°": 5020,
      "à®¿....": 5021,
      "à®µà®ļà®©à®¤": 5022,
      "Ġ183": 5023,
      "ĠSw": 5024,
      "rab": 5025,
      "à¤²": 5026,
      "Ġwill": 5027,
      "ahul": 5028,
      "DT": 5029,
      "à®ªà®°à®ļ": 5030,
      "Ġà®ħà®°à®®à®©": 5031,
      "à¯ĨÂŃ": 5032,
      "Ġà®®à®£à®±": 5033,
      "unch": 5034,
      "Ð»": 5035,
      "à®°à®¤à®©": 5036,
      "à®ªà®³à®Ļ": 5037,
      "à¯ĪâĢľ": 5038,
      "à¯ĭ\"\"": 5039,
      "Ġà®Ĩà®ŀ": 5040,
      "Ġà®µà®²à®¯à®®": 5041,
      "aran": 5042,
      "ĠSPD": 5043,
      "ĠLib": 5044,
      "Ġnumber": 5045,
      "ustral": 5046,
      "ĠProgram": 5047,
      "DS": 5048,
      "to": 5049,
      "à¯ģà®¾à¯į": 5050,
      "à®µà®µà®¯à®¤": 5051,
      "Ġà®Ĩà®¤à®©": 5052,
      "Ġà®ĩà®²à®ŀ": 5053,
      "Ġ185": 5054,
      "ĠIC": 5055,
      "urb": 5056,
      "Ġ275": 5057,
      "irc": 5058,
      "ograph": 5059,
      "hite": 5060,
      "Ġà®ķà®²à®®": 5061,
      "Ġà®Ĩà®ĥà®ªà®°": 5062,
      "à®µà®¤à®¤": 5063,
      "Ġà®ļà®®à®°à®µ": 5064,
      "à®²à®®à®Ł": 5065,
      "à®Ĵà®±": 5066,
      "ĠHar": 5067,
      "ĠÂ·": 5068,
      "Ġrate": 5069,
      "ĠTags": 5070,
      "useum": 5071,
      "ĠĠĠĠĠĠĠĠĠĠĠĠĠĠĠĠĠĠĠĠĠĠĠĠĠĠĠĠĠĠĠĠ": 5072,
      "EM": 5073,
      "RA": 5074,
      "eit": 5075,
      "à®®à®²à®¤": 5076,
      "à®¯à®ªà®°": 5077,
      "à®¸à®Ł": 5078,
      "Ġà®¤à®©à®ª": 5079,
      "Ġà®īà®£à®µà®ķà®¤": 5080,
      "ĠPark": 5081,
      "à¯Ī?\"": 5082,
      "ĠReg": 5083,
      "elf": 5084,
      "ĠUMP": 5085,
      "rice": 5086,
      "eneral": 5087,
      "120": 5088,
      "Ġare": 5089,
      "à®ļà®ķà®²": 5090,
      "Ġà®ļà®ªà®¤à®®": 5091,
      "à®¤à®µà®°à®®": 5092,
      "Ġ1900": 5093,
      "à®ķà®£à®¤": 5094,
      "ena": 5095,
      "ĠMy": 5096,
      "ĠMad": 5097,
      "ream": 5098,
      "ole": 5099,
      "ourn": 5100,
      "ĠAll": 5101,
      "ĠTRAN": 5102,
      "ĠâĿĳ": 5103,
      "ĠSabha": 5104,
      "Ø¯": 5105,
      "Ġà®īà®³à®±": 5106,
      "atement": 5107,
      "ĠCH": 5108,
      "ĠBl": 5109,
      "hem": 5110,
      "à¤¨": 5111,
      "formation": 5112,
      "error": 5113,
      "ball": 5114,
      "met": 5115,
      "pan": 5116,
      "Ġà®ļà®µà®ķ": 5117,
      "à®Łà®²à®Ł": 5118,
      "Ġtamil": 5119,
      "aya": 5120,
      "ecial": 5121,
      "ied": 5122,
      "à®³à®¯à®®": 5123,
      "à®¯à®©à®µà®±": 5124,
      "Ġà®µà®²à®¯à®ķ": 5125,
      "Ġ7000": 5126,
      "inn": 5127,
      "ĠST": 5128,
      "...?": 5129,
      "Ġà®ļà®²à®©à®®": 5130,
      "ural": 5131,
      "Ġ272": 5132,
      "ĠFund": 5133,
      "ange": 5134,
      "VP": 5135,
      "à®µà®³à®ª": 5136,
      "Ġà®İà®©à®°": 5137,
      "Ġà®ľà®¯à®ļ": 5138,
      "Ġà®²à®ļ": 5139,
      "à®ķà®´à®²": 5140,
      "à¯į\"\"\"\"": 5141,
      "Ġ156": 5142,
      "ination": 5143,
      "Ġ173": 5144,
      "ĠMinister": 5145,
      "ĠLim": 5146,
      "Ġdo": 5147,
      "Ġà®ļà®ķà®²à®°": 5148,
      "plate": 5149,
      "ruct": 5150,
      "160": 5151,
      "à®²à®Łà®®": 5152,
      "à®ļà®°à®®": 5153,
      "Ġà®ļà®ķà®²à®®": 5154,
      "Ġ188": 5155,
      "ĠDi": 5156,
      "à®¿?\"": 5157,
      "Ġfirst": 5158,
      "ATORS": 5159,
      "SLATORS": 5160,
      "ĠCorpor": 5161,
      "ĠTRANSLATORS": 5162,
      "FS": 5163,
      "net": 5164,
      "Ø©": 5165,
      "Ġà®İà®©à®±": 5166,
      "âĢĶ": 5167,
      "à®ķà®®à®°": 5168,
      "Ġà®¯à®ļ": 5169,
      "Ġà®īà®£à®°à®ļ": 5170,
      "à®°à®ªà®°à®£": 5171,
      "amal": 5172,
      "ĠRT": 5173,
      "à®Ĩà®ķà®¸": 5174,
      "Ġet": 5175,
      "à®ķà®³à®Łà®Ļ": 5176,
      "à®Łà®°à®Ł": 5177,
      "Ġà®¤à®²à®µ": 5178,
      "à®¹à®®à®Ł": 5179,
      "à®®à®£à®ļ": 5180,
      "ĠMission": 5181,
      "Ġft": 5182,
      "406": 5183,
      "ava": 5184,
      "ĠState": 5185,
      "ization": 5186,
      "FL": 5187,
      "Ġ000": 5188,
      "à¯į)\"": 5189,
      "à®±à®µà®ķ": 5190,
      "à®²à®ªà®®à®²": 5191,
      "Ġ184": 5192,
      "à®µà®ªà®¯à®®": 5193,
      "à®Ĩà®©à®¨": 5194,
      "ĠOff": 5195,
      "apt": 5196,
      "ouse": 5197,
      "!\"\"\"": 5198,
      "Ø³": 5199,
      "Ġus": 5200,
      "ĠÌģ": 5201,
      "à®ķà®ļà®®": 5202,
      "à®®à®ľ": 5203,
      "à®´à®°à®ļ": 5204,
      "Ġà®Ĩà®µà®©": 5205,
      "Ġà®ªà®Łà®²à®®": 5206,
      "Ġà®ªà®Łà®ªà®Łà®ª": 5207,
      "à®ĩà®³à®®": 5208,
      "Ġ208": 5209,
      "Ġà®Īà®¨": 5210,
      "ene": 5211,
      "edia": 5212,
      "ĠKhan": 5213,
      "],": 5214,
      "eop": 5215,
      "pump": 5216,
      "à³": 5217,
      "Ġim": 5218,
      "à®©à®ķà®°": 5219,
      "à®¸à®ª": 5220,
      "âĢį": 5221,
      "Ġà®Ĵà®°à®¤": 5222,
      "\"\".": 5223,
      "à®¤à®°à®²": 5224,
      "Ġà®ªà®£à®ļ": 5225,
      "Ġà®Ĭà®ķà®®": 5226,
      "Ġà®Ĭà®ķà®Ļ": 5227,
      "Ġà®ĵà®£à®®": 5228,
      "ini": 5229,
      "itation": 5230,
      "ĠâĨ": 5231,
      "à¯ģâĢĿ,": 5232,
      "Ġ298": 5233,
      "ument": 5234,
      "ĠVs": 5235,
      "Ġ1932": 5236,
      "à®Ĭà®´": 5237,
      "ĠAssoci": 5238,
      "à®¿âĢĭ": 5239,
      "Ġà®ķà®²à®¤": 5240,
      "à®ķà®°à®Ł": 5241,
      "à®¯à®°à®ª": 5242,
      "Ġ\"'": 5243,
      "ones": 5244,
      "arm": 5245,
      "osph": 5246,
      "integ": 5247,
      "oon": 5248,
      "à®²à®µà®°à®Ļ": 5249,
      "à®¨à®²à®µ": 5250,
      "à®£à®µà®®à®£": 5251,
      "à®ľà®ķà®¤": 5252,
      "à®°à®£à®®à®²": 5253,
      "Ġà®ªà®°à®µà®ķ": 5254,
      "à®µà®ļà®Ļ": 5255,
      "âĢĻ.": 5256,
      "ĠCup": 5257,
      "1999": 5258,
      "ĠPer": 5259,
      "ĠMi": 5260,
      "els": 5261,
      "ĠUA": 5262,
      "ĠInter": 5263,
      "Ġ480": 5264,
      "indow": 5265,
      "ĠCorporation": 5266,
      "Ah": 5267,
      "FP": 5268,
      "à®¾à®¾": 5269,
      "à®Łà®±à®¤": 5270,
      "à®ķà®³à®°": 5271,
      "à®ªà®Łà®Ł": 5272,
      "Ġà®µà®³à®°à®ķ": 5273,
      "ĠCouncil": 5274,
      "ĠSC": 5275,
      "ama": 5276,
      "ĠMal": 5277,
      "ĠIM": 5278,
      "ĠRiver": 5279,
      "ĠEl": 5280,
      "Ġafter": 5281,
      "Ġ1934": 5282,
      "ĠEngland": 5283,
      "software": 5284,
      ":-": 5285,
      "VD": 5286,
      "hu": 5287,
      "Ġelect": 5288,
      "à®¤à®¯à®ķ": 5289,
      "Ġà®Ĩà®±à®µ": 5290,
      "à®ķà®µà®³": 5291,
      "à®ŀà®°à®£": 5292,
      "à®ħà®°à®ª": 5293,
      "Ġ191": 5294,
      "ĠBi": 5295,
      "umar": 5296,
      "oto": 5297,
      "hen": 5298,
      "à®°à®µà®ķ": 5299,
      "à®©à®³": 5300,
      "Ġà®®à®¯à®©": 5301,
      "à®ªà®Łà®±": 5302,
      "à®¤à®²à®Ł": 5303,
      "Ġà®°à®¨": 5304,
      "à®Łà®®à®²": 5305,
      "à®ĩà®°à®Ł": 5306,
      "Ġà®Īà®´": 5307,
      "Ġ1923": 5308,
      "à®ĥà®ªà®¸": 5309,
      "Ġ187": 5310,
      "une": 5311,
      "ulf": 5312,
      "sur": 5313,
      "ti": 5314,
      "à¯Ī.)": 5315,
      "à®¹à®³": 5316,
      "ĠMS": 5317,
      "Ġ211": 5318,
      "Ġ401": 5319,
      "Ġà®©à®ķ": 5320,
      "à®ĥà®ļ": 5321,
      "Ġà®Ĩà®·à®¸": 5322,
      "LS": 5323,
      "MC": 5324,
      "cl": 5325,
      "vest": 5326,
      "à®¯à®©à®¤": 5327,
      "Ġà®ĩà®Łà®ķ": 5328,
      "à®£à®ļà®ª": 5329,
      "à¯į.'": 5330,
      "à®·à®£à®®": 5331,
      "Ġà®ĵà®¯à®µ": 5332,
      "Ġà®ħà®µà®©à®©": 5333,
      "Ġ911": 5334,
      "ĠIS": 5335,
      "oman": 5336,
      "ele": 5337,
      "Ġout": 5338,
      "bi": 5339,
      "ein": 5340,
      "mart": 5341,
      "Ġà®ĩà®³à®ķ": 5342,
      "Ġà®¯à®©": 5343,
      "Ġà®ĩà®²à®ļ": 5344,
      "Ġà®ªà®¤à®Ļ": 5345,
      "à®ıà®ľ": 5346,
      "amm": 5347,
      "omet": 5348,
      "ĠDo": 5349,
      "uld": 5350,
      "Ġ380": 5351,
      "short": 5352,
      "RR": 5353,
      "à®³à®£": 5354,
      "ĠSan": 5355,
      "olution": 5356,
      "Ġstation": 5357,
      "ĠiOS": 5358,
      "Ġrail": 5359,
      "ĠIndust": 5360,
      "TC": 5361,
      "uch": 5362,
      "Ġà®ªà®µà®²": 5363,
      "à¯ĩÂŃ": 5364,
      "à¯Ī.\"\"": 5365,
      "à®©à®¤à®¯": 5366,
      "Ġ430": 5367,
      "Ġ1928": 5368,
      "à®ªà®¨à®²": 5369,
      "à®¾.,": 5370,
      "à®¯à®°à®ļà®©": 5371,
      "Ġ214": 5372,
      "element": 5373,
      "urn": 5374,
      "ĠLab": 5375,
      "ĠĠĠ": 5376,
      "ĠKerala": 5377,
      "ĠWill": 5378,
      "stitu": 5379,
      "ĠÃĹ": 5380,
      "Ġà®µà®Łà®ªà®ķ": 5381,
      "GA": 5382,
      "Ġà®ªà®´à®¨": 5383,
      "à®ķà®³à®ķ": 5384,
      "Ġà®īà®²à®®": 5385,
      "Ġà®īà®µà®ķ": 5386,
      "à¯Ĥ!": 5387,
      "Ġ',": 5388,
      "Ġà®īà®¯à®°à®ķ": 5389,
      "ĠSam": 5390,
      "ĠDem": 5391,
      "chromosome": 5392,
      "à®Łà®¯à®®à®²": 5393,
      "ĠVid": 5394,
      "lock": 5395,
      "illa": 5396,
      "ĠTrump": 5397,
      "MR": 5398,
      "ON": 5399,
      "TO": 5400,
      "à®Łà®Łà®ª": 5401,
      "à®ļà®¯à®©": 5402,
      "Ġà®ĩà®¯à®°": 5403,
      "Ġà®ľà®²à®¨": 5404,
      "à®ªà®°à®¨": 5405,
      "Ġà®ªà®°à®µà®¤": 5406,
      "Ġà®Ĳà®İà®®": 5407,
      "Ġ1925": 5408,
      "à®īà®´": 5409,
      "Ġ171": 5410,
      "ĠMuseum": 5411,
      "ayam": 5412,
      "ments": 5413,
      "ineering": 5414,
      "eck": 5415,
      "harat": 5416,
      "ĠRoad": 5417,
      "cent": 5418,
      "uf": 5419,
      "Ïģ": 5420,
      "Ġà®ļà®·": 5421,
      "Ġà®ĩà®¤à®¯à®¨": 5422,
      "Ġà®°à®ļà®®": 5423,
      "à®ķà®µà®¨": 5424,
      "à®ľà®¯à®²à®Ł": 5425,
      "Ġà®²à®ª": 5426,
      "à®¹à®°à®©": 5427,
      "Ġ1929": 5428,
      "ĠMe": 5429,
      "à®¤à®³à®ªà®¤": 5430,
      "Ġcourt": 5431,
      "à¯Ī\"\",": 5432,
      "à®ĵà®ª": 5433,
      "636": 5434,
      "Ø§ÙĨ": 5435,
      "TM": 5436,
      "action": 5437,
      "Ġam": 5438,
      "Ġà´": 5439,
      "eral": 5440,
      "atic": 5441,
      "ities": 5442,
      "ĠPost": 5443,
      "ĠNH": 5444,
      "ĠDr": 5445,
      "ĠDin": 5446,
      "olar": 5447,
      "Ġà®ķà®®à®²à®¹": 5448,
      "emic": 5449,
      "ivalence": 5450,
      "CB": 5451,
      "City": 5452,
      "Ġà¯Ĥ": 5453,
      "à®°à®µà®²à®°": 5454,
      "à®¯à®µà®¤": 5455,
      "à¯į.''": 5456,
      "Ġà®ĩà®¤à®¯à®ķ": 5457,
      "Ġà®Łà®¯à®¸": 5458,
      "Ġà®ħà®²à®ª": 5459,
      "à®©à®®à®²": 5460,
      "à¯į))": 5461,
      "à®Ĩà®¤à®²": 5462,
      "Ġ1922": 5463,
      "à®Ĵà®£": 5464,
      "Ġ403": 5465,
      "à¯Ī!\"": 5466,
      "ĠGST": 5467,
      "Ġoff": 5468,
      "agar": 5469,
      "Ġdist": 5470,
      "Î½": 5471,
      "à®³à®¯à®¤": 5472,
      "à®¯à®£à®¤": 5473,
      "Ġà®ĩà®µà®©à®¤": 5474,
      "Ġà®Ĩà®¯à®°": 5475,
      "à®¯à®µà®Ļ": 5476,
      "Ġà®ħà®´à®¤": 5477,
      "Ġà®ħà®ķà®£": 5478,
      "à®īà®®à®¤": 5479,
      "ĠRE": 5480,
      "ĠWhat": 5481,
      "à®ĵà®İà®¸": 5482,
      "count": 5483,
      "Ê¹": 5484,
      "à®°à®´à®ķ": 5485,
      "à®²à®ļà®¨": 5486,
      "Ġà®ªà®°à®®à®£": 5487,
      "Ġà®ļà®µà®©à®ªà®¤": 5488,
      "Ġà®īà®ªà®¨": 5489,
      "à®ķà®ªà®ª": 5490,
      "Ġà®ªà®°à®ķ": 5491,
      "à®£à®®à®¯à®®": 5492,
      "à®Łà®£à®ļ": 5493,
      "Ġ213": 5494,
      "ley": 5495,
      "Ġpol": 5496,
      "Ġmachines": 5497,
      "à®°à®°à®ļà®©": 5498,
      "abad": 5499,
      "Ġ497": 5500,
      "angu": 5501,
      "à¥ģ": 5502,
      "etwork": 5503,
      "stituency": 5504,
      "HD": 5505,
      "MB": 5506,
      "dom": 5507,
      "Î¹": 5508,
      "à®°à®·à®©": 5509,
      "à®¯à®ķà®Ł": 5510,
      "Ġà®¨à®¯à®®": 5511,
      "Ġà®ĩà®°à®¤à®Ļ": 5512,
      "Ġà®¨à®®à®¸": 5513,
      "enu": 5514,
      "ĠSri": 5515,
      "à®ıà®¯": 5516,
      "ĠDistrict": 5517,
      "180": 5518,
      "oss": 5519,
      "apur": 5520,
      "ants": 5521,
      "ociety": 5522,
      "Cent": 5523,
      "Ge": 5524,
      "Wh": 5525,
      "aut": 5526,
      "à®ķà®¤à®²": 5527,
      "à®ķà®¤à®ķ": 5528,
      "à®Łà®°à®°": 5529,
      "à®²à®®à®²": 5530,
      "à®¹à®ļ": 5531,
      "Ġ8000": 5532,
      "à®ıà®®": 5533,
      "Ġ227": 5534,
      "Ġtechn": 5535,
      "Ġ264": 5536,
      "ube": 5537,
      "ARS": 5538,
      "tein": 5539,
      "Ġtransl": 5540,
      "310": 5541,
      "EO": 5542,
      "ble": 5543,
      "book": 5544,
      "my": 5545,
      "word": 5546,
      "à®¸à®¨": 5547,
      "à®µà®¤à®Ļ": 5548,
      "Ġà®Łà®Ļ": 5549,
      "Ġà®ľà®¨": 5550,
      "Ġà®®à®¤à®ļà®®": 5551,
      "à®İà®¤à®©": 5552,
      "à®ħà®µà®ļ": 5553,
      "Ġà®¨à®ķà®°à®ļà®ª": 5554,
      "ĠMO": 5555,
      "ication": 5556,
      "Ġ212": 5557,
      "uman": 5558,
      "Ġà®ķà®ļà®ķà®ļ": 5559,
      "ives": 5560,
      "Ġà®ĩà®²à®µà®ļà®ķ": 5561,
      "ĠServer": 5562,
      "450": 5563,
      "Ex": 5564,
      "à®µà®Łà®¤": 5565,
      "à®£à®¯à®ķ": 5566,
      "Ġà®īà®³à®¨": 5567,
      "Ġà®ļà®®à®ļà®®": 5568,
      "Ġà®Ĭà®°à®ķà®ķ": 5569,
      "ament": 5570,
      "ĠBh": 5571,
      "ĠWatch": 5572,
      "Ġmet": 5573,
      "Ġdes": 5574,
      "Ġdis": 5575,
      "Ġà®Ĩà®µà®£à®®à®±": 5576,
      "Ġacid": 5577,
      "625": 5578,
      "aul": 5579,
      "xy": 5580,
      "Ġà®īà®²à®µ": 5581,
      "Ġà®ªà®²à®Ļ": 5582,
      "à®ĩà®Ĩà®°": 5583,
      "à¯ģ!\"\"": 5584,
      "Ġ257": 5585,
      "statement": 5586,
      "ĠRec": 5587,
      "urs": 5588,
      "à®ĵà®ļ": 5589,
      "ques": 5590,
      "Ġïģ": 5591,
      "true": 5592,
      "ĠBoard": 5593,
      "Con": 5594,
      "Me": 5595,
      "TV": 5596,
      "Ġà®ļà®©à®µà®°": 5597,
      "Ġà®Ĩà®ķà®¤": 5598,
      "âĢİ": 5599,
      "à®·à®ķà®°": 5600,
      "Ġà®ĵà®¸": 5601,
      "Ġà®ĵà®°à®£": 5602,
      "erman": 5603,
      "ĠMark": 5604,
      "ĠTel": 5605,
      "ury": 5606,
      "ĠFilm": 5607,
      "Ġ543": 5608,
      "eff": 5609,
      "State": 5610,
      "ĠManagement": 5611,
      "ification": 5612,
      "620": 5613,
      "tn": 5614,
      "ĠÌ": 5615,
      "à®©à®ķà®²": 5616,
      "à®®à®ķà®µ": 5617,
      "à¯Ĥ)": 5618,
      "Ġà®īà®¯à®°à®Ļ": 5619,
      "ĠâĢĻ.": 5620,
      "Ġ10000": 5621,
      "ĠAf": 5622,
      "ĠMo": 5623,
      "ret": 5624,
      "ĠRahul": 5625,
      "ĠEU": 5626,
      "Ġsec": 5627,
      "à¯ģ...?": 5628,
      "/-(": 5629,
      "ose": 5630,
      "osp": 5631,
      "à®¿âĢĻ.": 5632,
      "524": 5633,
      ":%": 5634,
      "GP": 5635,
      "à¯ģ@": 5636,
      "à®©à®ķà®°à®®": 5637,
      "à®¤à®®à®¤à®¤": 5638,
      "Ġà®ªà®°à®Ļ": 5639,
      "à¯į?)": 5640,
      "Ġà®¹à®¯": 5641,
      "à®ķà®Łà®±": 5642,
      "enz": 5643,
      "ĠShar": 5644,
      "ĠAward": 5645,
      "omy": 5646,
      "ĠGroup": 5647,
      "Ġhis": 5648,
      "illed": 5649,
      "ika": 5650,
      "Ġconstituency": 5651,
      "%),": 5652,
      "Go": 5653,
      "ao": 5654,
      "ious": 5655,
      "ki": 5656,
      "Ġà®ļà®¤à®°": 5657,
      "Ġ202": 5658,
      "Ġ\"\"\"\\\"\"": 5659,
      "ĠCongress": 5660,
      "ĠKohli": 5661,
      "990": 5662,
      "Ġà®¤à®³à®°à®µ": 5663,
      "à®¿...!": 5664,
      "Ġ(-)": 5665,
      ".\"\"": 5666,
      "cyc": 5667,
      "à®ļà®ĥà®ª": 5668,
      "Ġà®°à®ķà®³": 5669,
      "à®¯à®®à®¨": 5670,
      "Ġà®ªà®²à®ªà®Ł": 5671,
      "Ġà®ªà®²à®ķà®¤": 5672,
      "à®¤à®ªà®°": 5673,
      "ĠâĢľ%": 5674,
      "Ġà®ħà®´à®µ": 5675,
      "Ġà®¤à®Łà®¯à®®": 5676,
      "ero": 5677,
      "ating": 5678,
      "ĠCar": 5679,
      "ĠAt": 5680,
      "ĠISO": 5681,
      "ray": 5682,
      "Ġman": 5683,
      "ection": 5684,
      "Ġà®³à®¤": 5685,
      "ittee": 5686,
      "ĠGoogle": 5687,
      ",''": 5688,
      "ling": 5689,
      "à©": 5690,
      "à®¾).": 5691,
      "Ġà®Ĵà®¹": 5692,
      "Ġà®µà®°à®¤à®°": 5693,
      "à®ķà®µà®ļ": 5694,
      "Ġà®ļà®®à®ªà®Ļ": 5695,
      "Ġà®®à®©à®īà®³": 5696,
      "à®±à®®à®¤à®¤": 5697,
      "à®Ĩà®´": 5698,
      "ĠCa": 5699,
      "ĠNorth": 5700,
      "reme": 5701,
      "urity": 5702,
      "ĠED": 5703,
      "ĠEcon": 5704,
      "à¤®": 5705,
      "Ġ365": 5706,
      "TTP": 5707,
      "Si": 5708,
      "Éª": 5709,
      "à®¾''": 5710,
      "Ġà®¤à®³à®ª": 5711,
      "Ġà®¤à®®à®¸": 5712,
      "Ġà®Ĩà®ªà®°à®£à®¤": 5713,
      "Ġà®ķà®µà®©à®ļ": 5714,
      "Ġ222": 5715,
      "ĠIA": 5716,
      "ĠGM": 5717,
      "riv": 5718,
      "à¯ģâĢĻ.": 5719,
      "turbo": 5720,
      "TAN": 5721,
      "aur": 5722,
      "Ġall": 5723,
      "à®®à®°à®£à®®": 5724,
      "Ġà®®à®°à®ļ": 5725,
      "à®Łà®®à®£": 5726,
      "à®ľà®ķà®®": 5727,
      "à®ħà®ľ": 5728,
      "era": 5729,
      "omb": 5730,
      "ĠHigh": 5731,
      "Ġà®®à®°à®£à®ļ": 5732,
      "ird": 5733,
      "ĠQu": 5734,
      "Ġrailway": 5735,
      "',": 5736,
      "WHO": 5737,
      "och": 5738,
      "we": 5739,
      "Ùİ": 5740,
      "à¯ģ|": 5741,
      "à¯ģâĢĭ": 5742,
      "à®°à®µà®²": 5743,
      "à¯ĭ),": 5744,
      "Ġà®ħà®©à®ķ": 5745,
      "Ġà®ļà®°à®Ļ": 5746,
      "à®ķà®ķà®ļ": 5747,
      "à®ªà®£à®ķ": 5748,
      "Ġtra": 5749,
      "ĠRam": 5750,
      "unn": 5751,
      "Ġmon": 5752,
      "rial": 5753,
      "à®¿'.": 5754,
      "oph": 5755,
      "Ġlab": 5756,
      "ulture": 5757,
      "ĠÎ±": 5758,
      "CN": 5759,
      "oor": 5760,
      "Ã¡": 5761,
      "à®¨à®¯à®µà®ŀ": 5762,
      "Ġà®¨à®ķà®®": 5763,
      "Ġà®¨à®µà®ķ": 5764,
      "Ġà®ĩà®°à®ª": 5765,
      "à®©à®¤à®ª": 5766,
      "Ġà®¸à®ľ": 5767,
      "Ġà®Ĩà®¯à®ķ": 5768,
      "Ġ186": 5769,
      "Ġ1600": 5770,
      "ĠMon": 5771,
      "left": 5772,
      "Ġsystem": 5773,
      "à®ĵà®µà®°": 5774,
      "à¤¦": 5775,
      "ope": 5776,
      "berg": 5777,
      "ĠSchool": 5778,
      "ĠCoop": 5779,
      "arendra": 5780,
      "cus": 5781,
      "mutation": 5782,
      "ux": 5783,
      "Ġass": 5784,
      "Ġà®¤à®µà®©": 5785,
      "à®¯à®²à®®à®°": 5786,
      "à®¯à®°à®²": 5787,
      "Ġà®¤à®µà®±à®²": 5788,
      "atus": 5789,
      "Ġà®µà®©à®ļ": 5790,
      "ĠPresident": 5791,
      "ĠMot": 5792,
      "ĠRh": 5793,
      "à¯ĪâĢĿ,": 5794,
      "oday": 5795,
      "ĠChennai": 5796,
      "Ġrho": 5797,
      "randShortName": 5798,
      "ĠCommun": 5799,
      "ĠIsland": 5800,
      "ĠØ§ÙĦØ": 5801,
      "ĠAssociation": 5802,
      "130": 5803,
      "Pl": 5804,
      "TR": 5805,
      "ms": 5806,
      "Ð²": 5807,
      "Ùĩ": 5808,
      "à®ļà®®à®²": 5809,
      "ĠâĢĿ)": 5810,
      "Ġà®Ĳà®¯à®Ļ": 5811,
      "à®ĩà®µà®°à®¤": 5812,
      "Ġà®¤à®Łà®¯": 5813,
      "à®¾.)": 5814,
      "Ġ255": 5815,
      "à®ľà®¯à®¨à®ķà®°": 5816,
      "ĠPower": 5817,
      "ĠHe": 5818,
      "ross": 5819,
      "Ġsur": 5820,
      "loss": 5821,
      "Ġgo": 5822,
      "à®¾âĢĻ.": 5823,
      "epend": 5824,
      "ysis": 5825,
      "BM": 5826,
      "à®©à®Łà®ª": 5827,
      "à®±à®®à®²": 5828,
      "à¯ĩ]": 5829,
      "à®©à®°à®¤": 5830,
      "Ġà®Ĩà®©à®µ": 5831,
      "Ġà®ķà®£à®Ļ": 5832,
      "à®ªà®°à®ŀ": 5833,
      "à®²à®ķà®£": 5834,
      "Ġà®ļà®°à®ª": 5835,
      "à®µà®²à®ķà®ª": 5836,
      "à¯į?\"\"\"": 5837,
      "Ġà®ħà®´à®ķà®ª": 5838,
      "Ġà®İà®´à®²": 5839,
      "à®īà®±à®µ": 5840,
      "ature": 5841,
      "ĠCU": 5842,
      "Ġ241": 5843,
      "Ġ248": 5844,
      "ĠTower": 5845,
      "ili": 5846,
      "Ġ265": 5847,
      "lood": 5848,
      "ĠChrist": 5849,
      "ĠPSG": 5850,
      "ootball": 5851,
      "onald": 5852,
      "ĠCanada": 5853,
      "Qu": 5854,
      "gh": 5855,
      "lish": 5856,
      "path": 5857,
      "td": 5858,
      "yal": 5859,
      "à®©à®ªà®²": 5860,
      "Ġà®ķà®ķà®©": 5861,
      "Ġà®ĩà®¹": 5862,
      "Ġà®¨à®µà®¨": 5863,
      "Ġà®İà®®à®°": 5864,
      "Ġ204": 5865,
      "Ġà®īà®²à®ķà®Ļ": 5866,
      "ony": 5867,
      "Ġ169": 5868,
      "ĠAustral": 5869,
      "à¯į..!": 5870,
      "ĠBar": 5871,
      "ĠHD": 5872,
      "Ġcont": 5873,
      "ocument": 5874,
      "ĠProject": 5875,
      "ĠScheme": 5876,
      "ĠVirat": 5877,
      "optional": 5878,
      "ojana": 5879,
      "ĠProgramme": 5880,
      "ĠLimited": 5881,
      "ĠâĨĴ": 5882,
      ")]": 5883,
      "CA": 5884,
      "light": 5885,
      "à¯į@": 5886,
      "à®¿\"": 5887,
      "à®ķà®¯à®®": 5888,
      "à®ķà®®à®¯à®®": 5889,
      "à®ļà®®à®¤": 5890,
      "à®ļà®©à®ķà®°à®®": 5891,
      "Ġà®ĩà®Łà®µ": 5892,
      "Ġ640": 5893,
      "à®ķà®ļà®Ļ": 5894,
      "Ġ950": 5895,
      "ority": 5896,
      "ĠSociety": 5897,
      "Ġà®ªà®µà®³à®ª": 5898,
      "1995": 5899,
      "Ġ305": 5900,
      "Ġ244": 5901,
      "isation": 5902,
      "ĠHist": 5903,
      "à®£à®±à®Ł": 5904,
      "Ġwas": 5905,
      "Ġdef": 5906,
      "ĠJean": 5907,
      "International": 5908,
      "Ġatt": 5909,
      "value": 5910,
      "NOME": 5911,
      "Ġnews": 5912,
      "ournal": 5913,
      "mit": 5914,
      "à®ªà®¯à®®": 5915,
      "Ġà®ªà®ľà®©": 5916,
      "Ġà®µà®¤à®±": 5917,
      "à®©à®¤à®°": 5918,
      "Ġà®ħà®Łà®Ł": 5919,
      "Ġà®Ĭà®©à®¤": 5920,
      "Ġà®Īà®°à®¤": 5921,
      "Ġ1924": 5922,
      "ĠCB": 5923,
      "Ġ242": 5924,
      "uring": 5925,
      "Ġà®Īà®®à®ļ": 5926,
      "à¤µ": 5927,
      "ector": 5928,
      "ude": 5929,
      "UL": 5930,
      "à®¿Â·": 5931,
      "à®®à®±à®¨": 5932,
      "à®ļà®±à®¤": 5933,
      "Ġà®ļà®°à®ļ": 5934,
      "à¯Ģ:": 5935,
      "à®¤à®®à®Ļ": 5936,
      "à®·à®ªà®®": 5937,
      "ĠâĢĿ!": 5938,
      "Ġà®ĵà®µà®²": 5939,
      "Ġà®Ĳà®µ": 5940,
      "Ġà®µà®²à®¯à®¤": 5941,
      "ataka": 5942,
      "Ġ226": 5943,
      "ĠRed": 5944,
      "Ġà®¤à®°à®®à®±": 5945,
      "à¯Ī\"\".\"": 5946,
      "à¤¯": 5947,
      "ĠInt": 5948,
      "ages": 5949,
      "ĠÂ©": 5950,
      "........": 5951,
      "Ġà®ĥà®ªà®¤": 5952,
      "ĠCommittee": 5953,
      "NL": 5954,
      "SPD": 5955,
      "ient": 5956,
      "lin": 5957,
      "mod": 5958,
      "system": 5959,
      "à®®à®¯à®ķ": 5960,
      "Ġà®ªà®°à®ļ": 5961,
      "à®£à®³à®µ": 5962,
      "à¯ĭâĢĿ": 5963,
      "Ġà®İà®©à®ªà®¤": 5964,
      "à¯ģ,,": 5965,
      "à®ľà®©à®ª": 5966,
      "Ġ209": 5967,
      "arri": 5968,
      "Ġà®ķà®µà®ļà®¤": 5969,
      "ĠSocial": 5970,
      "ĠTime": 5971,
      "ille": 5972,
      "ĠBS": 5973,
      "Ġ`%": 5974,
      "Ġ282": 5975,
      "ĠHealth": 5976,
      "Ġmod": 5977,
      "object": 5978,
      "iref": 5979,
      "De": 5980,
      "Hz": 5981,
      "VI": 5982,
      "à®¨à®¯": 5983,
      "Ġà®¯à®ķ": 5984,
      "Ġà®¯à®Ł": 5985,
      "à®¹à®ķ": 5986,
      "à®ĩà®°à®ķà®ļ": 5987,
      "Ġà®īà®Łà®²à®®": 5988,
      "à®°à®µà®³": 5989,
      "atory": 5990,
      "Ġà®µà®©à®ķ": 5991,
      "iles": 5992,
      "ĠDNA": 5993,
      "ĠHow": 5994,
      "ĠLi": 5995,
      "lear": 5996,
      "idae": 5997,
      "Ġ375": 5998,
      "ĠZeit": 5999,
      "ĠScience": 6000,
      "NE": 6001,
      "file": 6002,
      "now": 6003,
      "à¯į*": 6004,
      "Ġà®®à®ª": 6005,
      "à®¨à®Łà®ķ": 6006,
      "à®¤à®µà®ļ": 6007,
      "à®Łà®ªà®Ļ": 6008,
      "Ġà®ļà®µà®ª": 6009,
      "Ġà®Ĭà®Łà®ķà®ķ": 6010,
      "ĠForm": 6011,
      "Ġ353": 6012,
      "ther": 6013,
      "order": 6014,
      "ING": 6015,
      "arnataka": 6016,
      "irefox": 6017,
      "FI": 6018,
      "wo": 6019,
      "wal": 6020,
      "yt": 6021,
      "ðŁ": 6022,
      "à®ªà®³à®ª": 6023,
      "à®³à®µà®¤": 6024,
      "à®±à®ķà®Ł": 6025,
      "à®£à®ķà®¤": 6026,
      "Ġà®ªà®²à®¸": 6027,
      "à®Ĩà®¨": 6028,
      "Ġ1926": 6029,
      "Ġ251": 6030,
      "ĠCont": 6031,
      "ĠPT": 6032,
      "ĠLTTE": 6033,
      "roid": 6034,
      "ady": 6035,
      "Ġdec": 6036,
      "avi": 6037,
      "ucking": 6038,
      "eople": 6039,
      "à¯Ī\"\"\"": 6040,
      "à®µà®¯à®²": 6041,
      "Ġà®ħà®ķà®°à®®": 6042,
      "Ġà®®à®ļà®ķ": 6043,
      "à¯ĭÂŃ": 6044,
      "à®ķà®°à®ļà®°": 6045,
      "à¯ģ,)": 6046,
      "Ġà®ħà®®à®°à®°": 6047,
      "Ġà®ľà®ķà®°": 6048,
      "Ġà®ĩà®²à®¨": 6049,
      "à®¤à®©à®ļ": 6050,
      "Ġà®²à®µà®Ļ": 6051,
      "Ġ\"''": 6052,
      "Ġ1916": 6053,
      "Ġà®·à®¤": 6054,
      "Ġà®ķà®µà®©à®¯": 6055,
      "struct": 6056,
      "ĠID": 6057,
      "à¯Ī?\"\"": 6058,
      "ĠDep": 6059,
      "Ġcan": 6060,
      "Ġ326": 6061,
      "Ġ338": 6062,
      "oth": 6063,
      "ense": 6064,
      "ĠEngineering": 6065,
      "lobal": 6066,
      "Mar": 6067,
      "condition": 6068,
      "vir": 6069,
      "Øª": 6070,
      "à®ªà®¹": 6071,
      "à®ļà®©à®°": 6072,
      "Ġà®ļà®µà®°": 6073,
      "à¯Ĭà®¿": 6074,
      "à¯Ī..": 6075,
      "à®Ĩà®ªà®¤": 6076,
      "Ġ1927": 6077,
      "Ġ660": 6078,
      "Ġ9000": 6079,
      "iness": 6080,
      "Ġà®ĥà®ªà®¯à®°": 6081,
      "ĠSer": 6082,
      "ĠAuth": 6083,
      "ĠNPA": 6084,
      "ĠHTTP": 6085,
      "andard": 6086,
      "ĠWW": 6087,
      "ĠWork": 6088,
      "erson": 6089,
      "hyl": 6090,
      "Ã¨re": 6091,
      ",âĢĿ": 6092,
      "Ac": 6093,
      "On": 6094,
      "aid": 6095,
      "box": 6096,
      "ml": 6097,
      "ront": 6098,
      "à¯įà¯į": 6099,
      "à®ªà®²à®µ": 6100,
      "à®µà®ļà®©à®Ļ": 6101,
      "à®µà®¤à®°": 6102,
      "Ġà®ıà®µà®²": 6103,
      "Ġà®ħà®ªà®¯": 6104,
      "Ġà®ĩà®©à®ļ": 6105,
      "à®¯à®µà®ķ": 6106,
      "Ġ''\"": 6107,
      "ĠSS": 6108,
      "ĠSur": 6109,
      "Ġ179": 6110,
      "Ġ306": 6111,
      "ĠPay": 6112,
      "ĠNA": 6113,
      "ĠTe": 6114,
      "ĠRead": 6115,
      "à®®à®¨à®ªà®°": 6116,
      "Ġind": 6117,
      "à¤ķ": 6118,
      "Ġaction": 6119,
      "anguage": 6120,
      "LO": 6121,
      "ja": 6122,
      "war": 6123,
      "Ä«": 6124,
      "ĠÙħ": 6125,
      "à®®à®°à®£": 6126,
      "à¯į.-": 6127,
      "Ġà®ıà®İà®©": 6128,
      "Ġà®ļà®®à®£à®°": 6129,
      "à®¿..": 6130,
      "Ġà®Īà®¯à®®": 6131,
      "Ġ1100": 6132,
      "alam": 6133,
      "alysis": 6134,
      "ĠSouth": 6135,
      "1994": 6136,
      "à®®à®£à®ķ": 6137,
      "ĠMur": 6138,
      "ĠDis": 6139,
      "à®ĥà®®à®¤": 6140,
      "à¯ģ...âĢĿ": 6141,
      "ots": 6142,
      "à¯į,\"\"\"\"": 6143,
      "ĠYojana": 6144,
      "ource": 6145,
      "à¥ĩ": 6146,
      "Ġà®µà®Łà®ªà®´à®©": 6147,
      "KS": 6148,
      "ca": 6149,
      "à¯ĩ''": 6150,
      "Ġà®ħà®µà®¨": 6151,
      "Ġà®ĵà®¤à®ª": 6152,
      "Ġà®ĵà®®à®°": 6153,
      "Ġà®Īà®Łà®©": 6154,
      "Ġà®ļà®ķà®ľ": 6155,
      "Ġà®ĥà®ªà®µ": 6156,
      "Ġ181": 6157,
      "icy": 6158,
      "...!": 6159,
      "Ġtitle": 6160,
      "reet": 6161,
      "ĠBr": 6162,
      "eta": 6163,
      "ĠLtd": 6164,
      "Ġà®ļà®©à®ļà®®": 6165,
      "rak": 6166,
      "Ġà®ļà®®à®°à®ļà®ª": 6167,
      "rade": 6168,
      "etween": 6169,
      "ĠVidhan": 6170,
      "Gener": 6171,
      "NT": 6172,
      "OM": 6173,
      "Or": 6174,
      "RD": 6175,
      "be": 6176,
      "iy": 6177,
      "led": 6178,
      "à®ľà®Ł": 6179,
      "Ġà®ķà®£à®©": 6180,
      "ĠâĢĻ,": 6181,
      "input": 6182,
      "onav": 6183,
      "ĠSm": 6184,
      "ĠSo": 6185,
      "ĠSub": 6186,
      "ĠNarendra": 6187,
      "à®ľà®©à®ªà®²": 6188,
      "ĠBas": 6189,
      "ures": 6190,
      "Ġsup": 6191,
      "cept": 6192,
      "à®¾',": 6193,
      "Ġ537": 6194,
      "Ġreg": 6195,
      "ĠComment": 6196,
      "eyn": 6197,
      "ĠUSB": 6198,
      "alse": 6199,
      "Ġà®Ĩà®ķà®®à®Ļ": 6200,
      "360": 6201,
      "850": 6202,
      "BA": 6203,
      "aff": 6204,
      "class": 6205,
      "Ġart": 6206,
      "Ļ×": 6207,
      "à®®à®ķà®°": 6208,
      "Ġà®ķà®¤à®®": 6209,
      "Ġà®ķà®¹": 6210,
      "Ġà®Ĵà®Ļ": 6211,
      "à¯ģ,âĢľ": 6212,
      "Ġà®ªà®Łà®²": 6213,
      "Ġà®ķà®²à®µà®°à®ķ": 6214,
      "Ġà®ķà®°à®ª": 6215,
      "à®²à®ķà®©": 6216,
      "à®ķà®©à®Ł": 6217,
      "ĠChi": 6218,
      "ĠCPM": 6219,
      "ĠSM": 6220,
      "ĠPort": 6221,
      "ĠMc": 6222,
      "Ġ223": 6223,
      "ĠIG": 6224,
      "rem": 6225,
      "ĠWeb": 6226,
      "other": 6227,
      "ists": 6228,
      "à¯Ī...!": 6229,
      "ucation": 6230,
      "DAP": 6231,
      "ĠAmerican": 6232,
      "integration": 6233,
      "code": 6234,
      "par": 6235,
      "son": 6236,
      "wit": 6237,
      "à®°à®£à®µ": 6238,
      "à®ķà®ķà®Ļ": 6239,
      "alt": 6240,
      "à®ıà®Ĳ": 6241,
      "à®®à®£à®²": 6242,
      "Ġ216": 6243,
      "Ġbox": 6244,
      "à¯Ī--": 6245,
      "otype": 6246,
      "à¯ģ',": 6247,
      "ovid": 6248,
      "akk": 6249,
      "ocrat": 6250,
      "avid": 6251,
      "Ġthat": 6252,
      "Ġabout": 6253,
      "390": 6254,
      "PR": 6255,
      "cal": 6256,
      "rint": 6257,
      "ues": 6258,
      "à¯įà¯Ī": 6259,
      "à®©à®µà®²": 6260,
      "à®ļà®µà®©": 6261,
      "Ġà®ħà®¤à®²": 6262,
      "à®¸à®µ": 6263,
      "Ġà®ħà®µà®²à®Ļ": 6264,
      "001": 6265,
      "Ġà®ķà®°à®µ": 6266,
      "à®¹à®®à®¤": 6267,
      "Ġà®¹à®£": 6268,
      "Ġ560": 6269,
      "ĠSar": 6270,
      "1998": 6271,
      "à®ĥà®ªà®¤": 6272,
      "Ġ286": 6273,
      "Ġworld": 6274,
      "ĠXI": 6275,
      "ports": 6276,
      ",...": 6277,
      "LE": 6278,
      "mir": 6279,
      "ĠÙ": 6280,
      "Ġent": 6281,
      "Ġà¨": 6282,
      "à¯ĭ(": 6283,
      "à®Łà®©à®ķ": 6284,
      "Ġà®ľà®©à®°": 6285,
      "Ġà®ħà®²à®©": 6286,
      "à®¿,...": 6287,
      "à®ķà®´à®ŀ": 6288,
      "à®µà®ļà®©à®®": 6289,
      "Ġà®ĩà®ļà®ķ": 6290,
      "Ġà®ķà®´à®Ł": 6291,
      "à®³à®µà®°à®²": 6292,
      "ĠPat": 6293,
      "Ġ311": 6294,
      "Ġband": 6295,
      "ĠXML": 6296,
      "ape": 6297,
      "urbine": 6298,
      "Te": 6299,
      "UT": 6300,
      "dec": 6301,
      "false": 6302,
      "ÃĹ": 6303,
      "à®²à®Łà®ķ": 6304,
      "Ġà®ļà®©à®®": 6305,
      "à®¯à®²à®ķà®Ļ": 6306,
      "Ġà®²à®¹": 6307,
      "ĠâĢľâĢĿ": 6308,
      "à®®à®¤à®Ļ": 6309,
      "à®Ĳà®Ĳ": 6310,
      "à¯į......": 6311,
      "ederation": 6312,
      "ĠGeneral": 6313,
      "ĠWomen": 6314,
      "Ġà®īà®ªà®ķà®°à®£": 6315,
      "thumb": 6316,
      "ĠUnion": 6317,
      "Ġorg": 6318,
      "Ġà®ªà®³à®ªà®³à®ķ": 6319,
      "ĠServices": 6320,
      "6000": 6321,
      "GC": 6322,
      "Im": 6323,
      "ees": 6324,
      "ius": 6325,
      "rb": 6326,
      "vers": 6327,
      "à®ķà®ªà®Łà®µ": 6328,
      "à®®à®Łà®®": 6329,
      "Ġà®ªà®¤à®°": 6330,
      "Ġà®Ĵà®¨": 6331,
      "à®ķà®µà®ļà®¤": 6332,
      "à®ķà®¤à®ª": 6333,
      "à®·à®¨": 6334,
      "Ġà®¯à®°": 6335,
      "Ġà®Ĳà®ļà®ķ": 6336,
      "Ġà®īà®¤à®µà®ª": 6337,
      "Ġà®īà®¯à®°à®µ": 6338,
      "à®ªà®©à®µà®±": 6339,
      "Ġà®ĥà®ªà®ķ": 6340,
      "ĠGNOME": 6341,
      "Ġ295": 6342,
      "Ġflu": 6343,
      "ĠUPA": 6344,
      "ries": 6345,
      "agn": 6346,
      "alls": 6347,
      "ĠYork": 6348,
      "ike": 6349,
      "orea": 6350,
      "umbai": 6351,
      "aster": 6352,
      "CDU": 6353,
      "Ġarrest": 6354,
      "Ġdistrict": 6355,
      "Ab": 6356,
      "App": 6357,
      "Too": 6358,
      "_$$": 6359,
      "day": 6360,
      "xide": 6361,
      "à®ķà®ķà®ª": 6362,
      "à®°à®ķà®ķ": 6363,
      "à®µà®ķà®µ": 6364,
      "Ġà®µà®¯à®ª": 6365,
      "à®¨à®ļ": 6366,
      "à¯ĩâĢĮ": 6367,
      "à®£à®ķà®®": 6368,
      "Ġà®ĩà®°à®¤à®¤": 6369,
      "Ġà®ļà®®à®¯à®ļ": 6370,
      "Ġà®ħà®°à®ļà®ķ": 6371,
      "Ġà®Ĭà®°à®®": 6372,
      "Ġà®ĵà®Łà®¤": 6373,
      "à®®à®©à®¨": 6374,
      "Ġ1921": 6375,
      "arth": 6376,
      "ĠCF": 6377,
      "ĠPress": 6378,
      "ĠNi": 6379,
      "ĠNov": 6380,
      "ĠTV": 6381,
      "Ġà®Ĩà®´à®Ļ": 6382,
      "ĠBL": 6383,
      "Ġ287": 6384,
      "Ġcricket": 6385,
      "ĠElect": 6386,
      "ĠKar": 6387,
      "usiness": 6388,
      "rah": 6389,
      "à®ĵà®µ": 6390,
      "ove": 6391,
      "ĠStates": 6392,
      "ĠChina": 6393,
      "CCI": 6394,
      "ridge": 6395,
      "$$_": 6396,
      ")!\"": 6397,
      "Ag": 6398,
      "PE": 6399,
      "nail": 6400,
      "rish": 6401,
      "trans": 6402,
      "Â¢": 6403,
      "Ã´": 6404,
      "à®®à®¯à®°": 6405,
      "Ġà®°à®ļà®²": 6406,
      "Ġà®īà®³à®ª": 6407,
      "Ġ520": 6408,
      "Ġ512": 6409,
      "Ġà®Īà®¤à®°": 6410,
      "oride": 6411,
      "à¯į...\"": 6412,
      "itor": 6413,
      "ĠPDF": 6414,
      "ĠTow": 6415,
      "rim": 6416,
      "Ġwhat": 6417,
      "aks": 6418,
      "Ġà®ħà®¯à®²à®µà®°": 6419,
      "à®īà®Łà®©à®Ł": 6420,
      "ancial": 6421,
      "Ġà®¤à®ķà®µà®®": 6422,
      "050": 6423,
      "624": 6424,
      "HT": 6425,
      "World": 6426,
      "med": 6427,
      "vi": 6428,
      "ÃŃ": 6429,
      "Ñĥ": 6430,
      "Ġelement": 6431,
      "à®Łà®ĥà®ª": 6432,
      "Ġà®ļà®®à®¯à®ķ": 6433,
      "Ġà®ĵà®Łà®ķ": 6434,
      "Ġ2050": 6435,
      "à®ķà®´à®ķà®ª": 6436,
      "à®²à®µà®³": 6437,
      "à®²à®µà®³à®¤": 6438,
      "Ġ1908": 6439,
      "à®©à®µà®ª": 6440,
      "Ġ502": 6441,
      "ĠAB": 6442,
      "ĠDev": 6443,
      "Ġ285": 6444,
      "Ġà®Ĭà®Łà®ķà®ļ": 6445,
      "ĠFirst": 6446,
      "roph": 6447,
      "lex": 6448,
      "ĠWest": 6449,
      "ĠUK": 6450,
      "ĠVal": 6451,
      "Ġval": 6452,
      "ept": 6453,
      "back": 6454,
      "iques": 6455,
      "ky": 6456,
      "pi": 6457,
      "ÏĦ": 6458,
      "Ð±": 6459,
      "Ġà¶": 6460,
      "Ġà®¨à®ļà®°": 6461,
      "à¯ĭ....": 6462,
      "Ġà®ħà®®à®°à®©": 6463,
      "à®ķà®¤à®©": 6464,
      "Ġà®ľà®¯à®µà®°": 6465,
      "ergy": 6466,
      "1989": 6467,
      "Ġ307": 6468,
      "ĠAM": 6469,
      "ĠAR": 6470,
      "Ġ221": 6471,
      "stream": 6472,
      "à®Ĩà®°à®ŀ": 6473,
      "ases": 6474,
      "105": 6475,
      "Ġserv": 6476,
      "Ġsyn": 6477,
      "Ġ324": 6478,
      "à¯ĪâĢĿ.": 6479,
      "ract": 6480,
      "à¤¸": 6481,
      "Ġbetween": 6482,
      "Ġwe": 6483,
      "à®Ĭà®ķ": 6484,
      "under": 6485,
      "onserv": 6486,
      "IFA": 6487,
      "Ġà®ľà®©à®°à®ŀ": 6488,
      "GST": 6489,
      "HF": 6490,
      "OL": 6491,
      "\\\\": 6492,
      "ief": 6493,
      "top": 6494,
      "Ñı": 6495,
      "Ġà®¤à®©à®°": 6496,
      "Ġà®¨à®¹": 6497,
      "à¯ĭâĢĮ": 6498,
      "à®ķà®°à®²": 6499,
      "Ġà®ħà®²à®ļà®²": 6500,
      "Ġà®ıà®±à®µ": 6501,
      "à®µà®®à®²": 6502,
      "Ġà®ªà®°à®ªà®°": 6503,
      "Ġà®ħà®°à®µà®ķ": 6504,
      "à®ĩà®¤à®°": 6505,
      "à¯ĩ,...": 6506,
      "arter": 6507,
      "Ġ[[": 6508,
      "Ġà®ªà®°à®µà®ļà®¤": 6509,
      "Ġturbine": 6510,
      "urch": 6511,
      "Ġ277": 6512,
      "ete": 6513,
      "140": 6514,
      "ĠVijay": 6515,
      "175": 6516,
      "632": 6517,
      "udd": 6518,
      "ĠArt": 6519,
      "+)/": 6520,
      "emicondu": 6521,
      "112": 6522,
      "AY": 6523,
      "cel": 6524,
      "ois": 6525,
      "rary": 6526,
      "vent": 6527,
      "Ġann": 6528,
      "à®¯à®ķà®²": 6529,
      "à®µà®Łà®®": 6530,
      "Ġà®ķà®³à®ķ": 6531,
      "Ġà®¤à®µà®°": 6532,
      "à®µà®°à®Ł": 6533,
      "Ġà®īà®¤à®ķ": 6534,
      "à®¤à®µà®´": 6535,
      "Ġà®Ĩà®£à®µà®¤": 6536,
      "Ġà®Ĭà®ŀ": 6537,
      "Ġ207": 6538,
      "à®©à®µà®Ļ": 6539,
      "Ġà®ķà®¤à®±à®²": 6540,
      "à®Ĳà®¤à®°": 6541,
      "Ġ1857": 6542,
      "1990": 6543,
      "ĠMus": 6544,
      "icName": 6545,
      "stress": 6546,
      "ilip": 6547,
      "ential": 6548,
      "Ġ318": 6549,
      "Ġ354": 6550,
      "Ġ376": 6551,
      "ĠInformation": 6552,
      "ulation": 6553,
      "iii": 6554,
      "Ġlead": 6555,
      "uvri": 6556,
      "LC": 6557,
      "Script": 6558,
      "cy": 6559,
      "ng": 6560,
      "yp": 6561,
      "à¯į||": 6562,
      "Ġà®ļà®ķà®®": 6563,
      "à®¯à®²à®ļ": 6564,
      "Ġà®ĵà®·": 6565,
      "à®ħà®²à®ķ": 6566,
      "Ġà®¤à®Łà®ķà®³à®®": 6567,
      "à®Ĩà®¤à®°à®µ": 6568,
      "à¯į!\"\"\"": 6569,
      "âĢĿ,": 6570,
      "Ġ1700": 6571,
      "iti": 6572,
      "ĠMay": 6573,
      "ĠNe": 6574,
      "ĠBrit": 6575,
      "ĠBBC": 6576,
      "101": 6577,
      "Ġsch": 6578,
      "ĠWater": 6579,
      "Ġwork": 6580,
      "Ġà®ªà®°à®®à®¤": 6581,
      "ological": 6582,
      "à®¯à®¨à®²à®®à®±": 6583,
      "Ġà®ħà®¤à®©à®¤à®©": 6584,
      "ĠAsian": 6585,
      "610": 6586,
      "635": 6587,
      "DG": 6588,
      "Se": 6589,
      "si": 6590,
      "Ã¤": 6591,
      "Î¼": 6592,
      "à®ļà®¸à®°": 6593,
      "à®£à®°à®ª": 6594,
      "Ġà®¨à®Łà®©à®ª": 6595,
      "Ġà®ľà®¤": 6596,
      "Ġ740": 6597,
      "ino": 6598,
      "Ġà®ķà®´à®ķà®ª": 6599,
      "à®¨à®ķà®°à®ļà®ª": 6600,
      "ĠShi": 6601,
      "ĠMond": 6602,
      "ĠNT": 6603,
      "Ġtype": 6604,
      "ĠDC": 6605,
      "Ġ269": 6606,
      "ĠFA": 6607,
      "Ġmore": 6608,
      "ĠOld": 6609,
      "apital": 6610,
      "à®¾'.": 6611,
      "ences": 6612,
      "iance": 6613,
      "comb": 6614,
      "à®ľà®¯à®¤à®ļà®®": 6615,
      "ĠService": 6616,
      "Phone": 6617,
      "duct": 6618,
      "arendram": 6619,
      "UV": 6620,
      "ces": 6621,
      "df": 6622,
      "function": 6623,
      "his": 6624,
      "uit": 6625,
      "Ã¶": 6626,
      "Î»": 6627,
      "à¬": 6628,
      "Ġen": 6629,
      "à®¿à®¾à®¿": 6630,
      "à®³à®³à®¤": 6631,
      "Ġà®ħà®°à®®": 6632,
      "Ġà®ĩà®İà®¸": 6633,
      "Ġ1912": 6634,
      "Ġ630": 6635,
      "Ġà®Ĩà®®à®£à®ķ": 6636,
      "anj": 6637,
      "Ġà®Ĭà®°à®ķà®¤": 6638,
      "à®ĥà®ľ": 6639,
      "ask": 6640,
      "ĠGT": 6641,
      "ĠEmp": 6642,
      "ĠKumar": 6643,
      "loy": 6644,
      "Ġà®īà®ªà®ķà®°à®£à®¤": 6645,
      "ĠCDU": 6646,
      "utsche": 6647,
      "ĠHistory": 6648,
      "design": 6649,
      "get": 6650,
      "ness": 6651,
      "áĢ": 6652,
      "Ġà®ķà®ļà®¨": 6653,
      "Ġà®®à®ķà®°à®®": 6654,
      "à¯į,âĢĻâĢĻ": 6655,
      "à®ľà®¯à®°": 6656,
      "Ġà®®à®°à®µ": 6657,
      "à¯į\"\".": 6658,
      "Ġà®Ĩà®²à®¨": 6659,
      "1982": 6660,
      "ĠABC": 6661,
      "Ġ218": 6662,
      "ĠBa": 6663,
      "ĠRA": 6664,
      "Ġ274": 6665,
      "ĠOuvri": 6666,
      "Ġdel": 6667,
      "lop": 6668,
      "Ġact": 6669,
      "rich": 6670,
      "obile": 6671,
      "ĠUnited": 6672,
      "ĠCommission": 6673,
      "isease": 6674,
      "ĠRelated": 6675,
      "arendramodi": 6676,
      "GK": 6677,
      "gar": 6678,
      "mail": 6679,
      "à®®à®Łà®²": 6680,
      "à®·à®®à®®": 6681,
      "à®ħà®Łà®°": 6682,
      "Ġ570": 6683,
      "Ġ\"\"\",": 6684,
      "Ġà®ľà®©à®ļà®ķ": 6685,
      "ĠSP": 6686,
      "ĠPC": 6687,
      "à®ªà®µà®©à®²": 6688,
      "ĠGDM": 6689,
      "à¯į],": 6690,
      "Ġcount": 6691,
      "Ġsq": 6692,
      "à®ĵà®®": 6693,
      "ula": 6694,
      "log": 6695,
      "osis": 6696,
      "à¯ĪâĢĻ.": 6697,
      "akh": 6698,
      "htt": 6699,
      "odium": 6700,
      "hyd": 6701,
      "cription": 6702,
      "225": 6703,
      "At": 6704,
      "MM": 6705,
      "RNA": 6706,
      "dm": 6707,
      "á¹": 6708,
      "à®¿%": 6709,
      "à®¤à®ļà®®": 6710,
      "à¯ĪâĢĮ": 6711,
      "Ġà®ªà®¯à®²": 6712,
      "Ġà®®à®ķà®®": 6713,
      "Ġà®İà®ľ": 6714,
      "Ġà®ĩà®¤à®°à®ª": 6715,
      "Ġà®®à®©à®īà®±": 6716,
      "à®µà®®à®Ł": 6717,
      "Ġà®ĩà®©à®µà®´": 6718,
      "Ġà®Īà®·": 6719,
      "à®²à®ªà®ª": 6720,
      "araj": 6721,
      "Ġ//": 6722,
      "ĠNot": 6723,
      "ĠBook": 6724,
      "ĠGovernment": 6725,
      "ĠVo": 6726,
      "ody": 6727,
      "ĠXX": 6728,
      "Ġ002": 6729,
      "eyword": 6730,
      "hould": 6731,
      "à®ĩà®³à®ŀ": 6732,
      "loride": 6733,
      "vince": 6734,
      "Ġetc": 6735,
      "MI": 6736,
      "PT": 6737,
      "mar": 6738,
      "vey": 6739,
      "ways": 6740,
      "à®ķà®Łà®°": 6741,
      "à®²à®ªà®¤": 6742,
      "Ġà®¨à®ķà®¤": 6743,
      "à®ķà®µà®Ļ": 6744,
      "à®¯à®°à®ķà®¤": 6745,
      "à®²à®ķà®ļ": 6746,
      "à®¹à®Ł": 6747,
      "à®Ĳà®Ĳà®Ł": 6748,
      "oni": 6749,
      "athi": 6750,
      "ami": 6751,
      "à®·à®®à®Ł": 6752,
      "à®¤à®ķà®®à®±": 6753,
      "star": 6754,
      "Ġà®Ĭà®´à®²à®±": 6755,
      "Ġmed": 6756,
      "Ġà®¤à®Łà®µà®µ": 6757,
      "à¯ģ'.": 6758,
      "ivity": 6759,
      "ĠJohn": 6760,
      "osit": 6761,
      "Ġà®µà®Łà®®à®¤": 6762,
      "Ġ639": 6763,
      "ather": 6764,
      "Ġ003": 6765,
      "radhan": 6766,
      "ĠAirport": 6767,
      "ĠREAD": 6768,
      "ospital": 6769,
      "eynold": 6770,
      "ĠChief": 6771,
      "emiconductor": 6772,
      "')": 6773,
      "044": 6774,
      "FA": 6775,
      "Le": 6776,
      "fra": 6777,
      "à®ªà®±à®ķ": 6778,
      "à®¯à®¨à®ķà®°": 6779,
      "à®µà®³à®Ļ": 6780,
      "Ġà®ļà®©à®ķ": 6781,
      "à®©à®°à®ķà®®": 6782,
      "à®¤à®®à®©à®¤": 6783,
      "Ġà®Łà®¯à®²": 6784,
      "Ġà®ħà®ªà®¯à®®": 6785,
      "Ġ-----": 6786,
      "à®¹à®¨": 6787,
      "Ġà®ĵà®¹": 6788,
      "à®¤à®µà®°à®²": 6789,
      "Ġà®Īà®²": 6790,
      "à¯į!!": 6791,
      "Ġà®ķà®¤à®ķà®¤à®ª": 6792,
      "Ġ1513": 6793,
      "aro": 6794,
      "enk": 6795,
      "à®ıà®ĵ": 6796,
      "Ġ/-": 6797,
      "Ġ249": 6798,
      "ĠTax": 6799,
      "ilit": 6800,
      "Ġtr": 6801,
      "Ġ237": 6802,
      "elp": 6803,
      "ely": 6804,
      "Ġ268": 6805,
      "ĠFort": 6806,
      "ĠLanka": 6807,
      "ros": 6808,
      "ĠOb": 6809,
      "à®ħà®µà®©à®µà®©": 6810,
      "igital": 6811,
      "ĠXS": 6812,
      "Ġprogram": 6813,
      "valid": 6814,
      "GenericName": 6815,
      "onavla": 6816,
      "ĠTowns": 6817,
      "622": 6818,
      "CE": 6819,
      "iri": 6820,
      "Éĳ": 6821,
      "à®°à®¯à®©": 6822,
      "à®¯à®ļà®®": 6823,
      "Ġà®ħà®ľà®°": 6824,
      "à®ļà®°à®¤": 6825,
      "à¯ĭà®¾à¯į,": 6826,
      "à®¸à®¤": 6827,
      "Ġà®Łà®¹": 6828,
      "Ġà®ªà®°à®¤à®©": 6829,
      "à®¾à¯į-": 6830,
      "à®ĩà®ŀ": 6831,
      "Ġ540": 6832,
      "Ġà®¤à®Łà®ķà®³à®ª": 6833,
      "Ġ1905": 6834,
      "ĠCricket": 6835,
      "ĠSE": 6836,
      "ĠAut": 6837,
      "ĠMov": 6838,
      "ĠNav": 6839,
      "ĠIMA": 6840,
      "à®ªà®¯à®£à®Ļ": 6841,
      "Ġ231": 6842,
      "Ġ233": 6843,
      "ĠBharat": 6844,
      "ĠDef": 6845,
      "Ġà®°à®ľà®¤": 6846,
      "olf": 6847,
      "etrol": 6848,
      "ĠHind": 6849,
      "Ġcl": 6850,
      "ĠLonavla": 6851,
      "Ġ294": 6852,
      "Ġpp": 6853,
      "Ġnic": 6854,
      "ption": 6855,
      "eek": 6856,
      "PPP": 6857,
      "ĠAgency": 6858,
      "redit": 6859,
      "ography": 6860,
      "indows": 6861,
      "Gov": 6862,
      "Reynold": 6863,
      "mun": 6864,
      "off": 6865,
      "pol": 6866,
      "serv": 6867,
      "ty": 6868,
      "volume": 6869,
      "ØŃ": 6870,
      "à®°à®ķà®³": 6871,
      "à®Łà®ķà®µ": 6872,
      "à®©à®²à®¤": 6873,
      "à®ļà®ļà®°": 6874,
      "à®ªà®Łà®²à®®": 6875,
      "à®¸à®©à®¤": 6876,
      "âĢł": 6877,
      "Ġà®ħà®µà®ª": 6878,
      "Ġà®ķà®²à®ķà®Ļ": 6879,
      "Ġà®Ĳà®Ĳà®İà®®": 6880,
      "Ġà®ĩà®³à®ļ": 6881,
      "âĢĿ.": 6882,
      "alc": 6883,
      "Ġ1899": 6884,
      "uras": 6885,
      "Ġà®ķà®µà®°à®µ": 6886,
      "cher": 6887,
      "Ġ299": 6888,
      "Ġ%(": 6889,
      "ĠEqu": 6890,
      "Ġ329": 6891,
      "ĠVer": 6892,
      "ĠbrandShortName": 6893,
      "Ġ542": 6894,
      "ever": 6895,
      "Ġrec": 6896,
      "ideo": 6897,
      "Ġstud": 6898,
      "ĠAng": 6899,
      "arameter": 6900,
      "ozilla": 6901,
      "ĠFrance": 6902,
      "Ġà®µà®ļà®©à®ķà®°": 6903,
      "Ġà®ĩà®Łà®±à®²à®Ł": 6904,
      "Î¿ÏĤ": 6905,
      ")\"\"": 6906,
      "BT": 6907,
      "Bi": 6908,
      "Di": 6909,
      "SH": 6910,
      "Ã¦": 6911,
      "à¯į+": 6912,
      "à®°à®¯à®ª": 6913,
      "à®ªà®ľ": 6914,
      "Ġà®ħà®ļà®°à®µ": 6915,
      "Ġà®ļà®Łà®ª": 6916,
      "Ġà®Ĩà®Łà®ª": 6917,
      "à®¤à®²à®ķ": 6918,
      "Ġà®ªà®Łà®²à®¤": 6919,
      "à®¤à®µà®³à®®": 6920,
      "Ġà®Ĩà®ķà®ļ": 6921,
      "à®ĩà®¯à®¨": 6922,
      "à®°à®ªà®²à®¤": 6923,
      "Ġà®ķà®¤à®ķà®³": 6924,
      "Ġà®Ĩà®ªà®°à®£à®®": 6925,
      "Ġ253": 6926,
      "à®²à®©à®±": 6927,
      "aman": 6928,
      "ĠAD": 6929,
      "Ġ247": 6930,
      "oma": 6931,
      "oment": 6932,
      "ĠDVD": 6933,
      "ĠGovern": 6934,
      "ĠFBI": 6935,
      "Ġcol": 6936,
      "104": 6937,
      "raw": 6938,
      "emy": 6939,
      "Ġ336": 6940,
      "113": 6941,
      "ranch": 6942,
      "à®Ĭà®°à®ķà®®": 6943,
      "ĠYou": 6944,
      "Ġdies": 6945,
      "pression": 6946,
      "equivalence": 6947,
      "ĠReport": 6948,
      "ĠIAEA": 6949,
      "Ġlabel": 6950,
      "115": 6951,
      "320": 6952,
      "Bar": 6953,
      "Modi": 6954,
      "UC": 6955,
      "cav": 6956,
      "Ġiss": 6957,
      "à®©à®¤à®¤": 6958,
      "à®ļà®²à®ķà®Ļ": 6959,
      "Ġà®¤à®µà®¤": 6960,
      "Ġ206": 6961,
      "Ġ425": 6962,
      "ining": 6963,
      "Ġ1300": 6964,
      "ĠSal": 6965,
      "1996": 6966,
      "ĠMant": 6967,
      "ĠReal": 6968,
      "Ġ316": 6969,
      "adm": 6970,
      "Ġ373": 6971,
      "Ġmm": 6972,
      "Ġii": 6973,
      "Ġ*âĢł": 6974,
      "ultip": 6975,
      "ternet": 6976,
      "ights": 6977,
      "ÑģÐº": 6978,
      "613": 6979,
      "HP": 6980,
      "SF": 6981,
      "UM": 6982,
      "ril": 6983,
      "à¯į&": 6984,
      "à®´à®µà®©": 6985,
      "Ġà®ķà®²à®µà®°": 6986,
      "à®ļà®°à®ķà®¤": 6987,
      "Ġà®ķà®°à®ķà®°à®ª": 6988,
      "Ġà®ĵà®²à®®": 6989,
      "Ġà®Ĳà®ľ": 6990,
      "Ġà®Ĳà®ĵà®İà®¸": 6991,
      "Ġ1915": 6992,
      "à®Ĳà®¤": 6993,
      "à®ıà®³à®©à®®": 6994,
      "ĠNAS": 6995,
      "Ġ246": 6996,
      "ĠIR": 6997,
      "ĠIt": 6998,
      "ĠDPI": 6999,
      "Ġ359": 7000,
      "Ġ3500": 7001,
      "ades": 7002,
      "ĠKarnataka": 7003,
      "ids": 7004,
      "idhi": 7005,
      "Ġpar": 7006,
      "Ġint": 7007,
      "utte": 7008,
      "ague": 7009,
      "Ġà®®à®°à®£à®ª": 7010,
      "à¯Ģ.)": 7011,
      "ĠJournal": 7012,
      "ability": 7013,
      "Ġgroup": 7014,
      "rica": 7015,
      "Ġà®ĩà®¤à®®à®³": 7016,
      "Ġlevel": 7017,
      "Ġà®īà®°à®ļà®²": 7018,
      "embly": 7019,
      "losses": 7020,
      "ĠTownship": 7021,
      "3000": 7022,
      "Per": 7023,
      "áŀ": 7024,
      "Ġed": 7025,
      "à®ļà®µà®Ļ": 7026,
      "Ġà®ıà®ķà®²": 7027,
      "Ġà®ıà®ķà®©": 7028,
      "à¯ģ,'": 7029,
      "Ġà®ľà®ªà®²": 7030,
      "à®¤à®µà®³à®¤": 7031,
      "Ġà®Ĭà®µ": 7032,
      "Ġà®ĵà®İà®©": 7033,
      "Ġà®ĵà®®à®®": 7034,
      "Ġà®Ĵà®©à®ķ": 7035,
      "à®ªà®®à®±": 7036,
      "à¯ĩ,''": 7037,
      "Ġ1913": 7038,
      "Ġà®¤à®µà®±à®ļ": 7039,
      "Ġ258": 7040,
      "ĠMat": 7041,
      "ĠDh": 7042,
      "Ġà®ªà®²à®®à®Łà®Ļ": 7043,
      "ĠâĪ": 7044,
      "ental": 7045,
      "anda": 7046,
      "lection": 7047,
      "Ġsub": 7048,
      "rag": 7049,
      "Ġ337": 7050,
      "à¤Ĥ": 7051,
      "ĠJava": 7052,
      "akaran": 7053,
      "à®²à®¤à®©à®ª": 7054,
      "ĠPlan": 7055,
      "Ġequ": 7056,
      "Ġplay": 7057,
      "ĠOrgan": 7058,
      "Ġlaunch": 7059,
      "ĠUAW": 7060,
      "ĠMOST": 7061,
      "550": 7062,
      "FT": 7063,
      "Is": 7064,
      "NN": 7065,
      "OK": 7066,
      "Sup": 7067,
      "hà®ª": 7068,
      "mut": 7069,
      "mAh": 7070,
      "à®¤à®¹": 7071,
      "à®¤à®°à®£à®®": 7072,
      "à®µà®ķà®ķ": 7073,
      "Ġà®¨à®µà®°à®¤": 7074,
      "à®¯à®²à®¤": 7075,
      "Ġà®ľà®ļ": 7076,
      "à®¿.-": 7077,
      "Ġà®Ĭà®³": 7078,
      "Ġ440": 7079,
      "Ġ499": 7080,
      "Ġà®īà®¤à®¯à®¤": 7081,
      "Ġà®Ĩà®ļà®©à®¤": 7082,
      "Ġ252": 7083,
      "ora": 7084,
      "ĠMI": 7085,
      "ĠMod": 7086,
      "à¯ĩ?\"\"": 7087,
      "Ġà®®à®©à®¨à®²à®¤": 7088,
      "Ġfunction": 7089,
      "Ġà®®à®²à®°à®ŀ": 7090,
      "Ġà®±à®¤": 7091,
      "ĠStud": 7092,
      "ĠChamp": 7093,
      "Ġrem": 7094,
      "ured": 7095,
      "rome": 7096,
      "comp": 7097,
      "brandShortName": 7098,
      "ĠIMF": 7099,
      "380": 7100,
      "629": 7101,
      "HE": 7102,
      "UD": 7103,
      "cell": 7104,
      "the": 7105,
      "Ùģ": 7106,
      "à®¾..": 7107,
      "à¯Ģà®¾à¯į,": 7108,
      "à®ķà®®à®ª": 7109,
      "Ġ(*": 7110,
      "à®°à®£à®ªà®²": 7111,
      "Ġà®ªà®²à®ķà®®": 7112,
      "Ġ1910": 7113,
      "eries": 7114,
      "alk": 7115,
      "ese": 7116,
      "ĠCity": 7117,
      "amy": 7118,
      "ĠAth": 7119,
      "ĠPan": 7120,
      "ĠPCR": 7121,
      "ĠMicro": 7122,
      "ĠBang": 7123,
      "omes": 7124,
      "Ġâľ": 7125,
      "leg": 7126,
      "ĠOf": 7127,
      "Ġwh": 7128,
      "Ġgold": 7129,
      "Ġ470": 7130,
      "Ġà®ĥà®µ": 7131,
      "à·Ĭ": 7132,
      "CoV": 7133,
      "structure": 7134,
      "280": 7135,
      "623": 7136,
      "627": 7137,
      "Fe": 7138,
      "Fran": 7139,
      "ner": 7140,
      "Ġå": 7141,
      "à¯Ī|": 7142,
      "à¯Īà®¾": 7143,
      "à¯Īï»¿": 7144,
      "à®ļà®µà®Ł": 7145,
      "Ġà®ļà®ķà®ª": 7146,
      "à®Ļà®©à®®": 7147,
      "à®ªà®Łà®£": 7148,
      "à¯ģ.âĢĿ": 7149,
      "Ġà®Ĩà®ļà®©": 7150,
      "à®ķà®ªà®¨": 7151,
      "à®¤à®®à®©à®®": 7152,
      "Ġ219": 7153,
      "à®ĩà®ĩ": 7154,
      "à®ķà®´à®ļ": 7155,
      "à®ļà®²à®©à®®": 7156,
      "Ġà®·à®©": 7157,
      "Ġà®Ĩà®±à®ķà®³": 7158,
      "à®Ĳà®İà®²": 7159,
      "Ġà®īà®ªà®µà®Ł": 7160,
      "ĠSSL": 7161,
      "Ġ308": 7162,
      "icial": 7163,
      "state": 7164,
      "change": 7165,
      "ĠHouse": 7166,
      "Ġcent": 7167,
      "Ġ\"(\"\"": 7168,
      "radi": 7169,
      "606": 7170,
      "amily": 7171,
      "Ġher": 7172,
      "ĠStencils": 7173,
      "IND": 7174,
      "ĠAgric": 7175,
      "%%)": 7176,
      "Nat": 7177,
      "PN": 7178,
      "TI": 7179,
      "ci": 7180,
      "Îµ": 7181,
      "×ķ": 7182,
      "à®¿|": 7183,
      "à®¨à®¯à®®": 7184,
      "Ġà®°à®£à®®": 7185,
      "Ġà®ķà®Łà®ķà®®": 7186,
      "à®¯à®®à®£": 7187,
      "à¯ģ,\"": 7188,
      "Ġà®ħà®®à®°à®ļ": 7189,
      "Ġà®ĩà®²à®µà®Ļ": 7190,
      "Ġà®ħà®µà®¯à®µà®Ļ": 7191,
      "Ġà®īà®£à®µà®ķ": 7192,
      "Ġà®ªà®¤à®ŀ": 7193,
      "Ġ---": 7194,
      "à®İà®±": 7195,
      "à®ħà®Łà®ķ": 7196,
      "Ġ525": 7197,
      "Ġà®·à®°à®ª": 7198,
      "Ġ999": 7199,
      "Ġ''''": 7200,
      "ĠSn": 7201,
      "ĠPDA": 7202,
      "ĠMA": 7203,
      "ĠMumbai": 7204,
      "ĠDM": 7205,
      "Ġ273": 7206,
      "etic": 7207,
      "ĠOper": 7208,
      "à¤Ĺ": 7209,
      "irth": 7210,
      "hik": 7211,
      "ains": 7212,
      "phen": 7213,
      "ĠiPhone": 7214,
      "protein": 7215,
      "ĠShah": 7216,
      "ĠReview": 7217,
      "ĠWilli": 7218,
      "ĠZeitung": 7219,
      "ocratic": 7220,
      "PC": 7221,
      "UR": 7222,
      "Vir": 7223,
      "ring": 7224,
      "ÑĮ": 7225,
      "×Ļ×": 7226,
      "à¯į_": 7227,
      "Ġà®ķà®¯à®¤": 7228,
      "à®µà®©à®²": 7229,
      "Ġ(#": 7230,
      "Ġà®ħà®®à®°à®ķ": 7231,
      "Ġà®¯à®¹": 7232,
      "Ġà®ĵà®®à®²": 7233,
      "Ġ1860": 7234,
      "ĠNE": 7235,
      "icha": 7236,
      "ilot": 7237,
      "Ġ232": 7238,
      "à®ķà®¨à®²à®¤": 7239,
      "ola": 7240,
      "unt": 7241,
      "idd": 7242,
      "ĠpH": 7243,
      "ĠWar": 7244,
      "à¯ĭ?\"": 7245,
      "ema": 7246,
      "ĠVI": 7247,
      "ĠInvest": 7248,
      "Ġbut": 7249,
      "Ġdata": 7250,
      "Ġlib": 7251,
      "à®ĥà®ªà®°à®©": 7252,
      "ney": 7253,
      "acebook": 7254,
      "very": 7255,
      "Ġthumbnail": 7256,
      "ĠEducation": 7257,
      "Ġitem": 7258,
      "blem": 7259,
      "Ġarrested": 7260,
      "ĠMonde": 7261,
      "++": 7262,
      "BR": 7263,
      "LED": 7264,
      "Man": 7265,
      "Ne": 7266,
      "Par": 7267,
      "ieg": 7268,
      "wood": 7269,
      "Å«": 7270,
      "Ġem": 7271,
      "à¯į`": 7272,
      "à®¯à®ħà®°à®ļ": 7273,
      "Ġà®µà®°à®µà®°": 7274,
      "à®¤à®®à®ª": 7275,
      "Ġà®¹à®·": 7276,
      "Ġà®ķà®©à®²": 7277,
      "Ġà®ĩà®¸à®Ł": 7278,
      "Ġ259": 7279,
      "ĠPublic": 7280,
      "sthis": 7281,
      "Ġtime": 7282,
      "Ġ278": 7283,
      "Ġ279": 7284,
      "Ġfinal": 7285,
      "ĠEur": 7286,
      "rack": 7287,
      "Ġdu": 7288,
      "irl": 7289,
      "Ġà®ªà®°à®®à®ļ": 7290,
      "à®¿âĢĻâĢĻ": 7291,
      "Ġ......": 7292,
      "ĠChild": 7293,
      "anti": 7294,
      "Ġstate": 7295,
      "Ind": 7296,
      "NAME": 7297,
      "Ġà¤¸": 7298,
      "à¯ĩ...!": 7299,
      "ĠÎ¼": 7300,
      "ECD": 7301,
      "ĠAdv": 7302,
      "Ġwhatsthis": 7303,
      "cavitation": 7304,
      "370": 7305,
      "5000": 7306,
      "720": 7307,
      "DO": 7308,
      "mb": 7309,
      "Î¯": 7310,
      "Ú©": 7311,
      "Ġæ": 7312,
      "à®¤à®°à®ļà®®": 7313,
      "à®²à®ħ": 7314,
      "Ġà®®à®ķà®µ": 7315,
      "à®´à®£": 7316,
      "à®µà®°à®±": 7317,
      "à®¤à®²à®±": 7318,
      "Ġà®°à®¤à®Ļ": 7319,
      "à®Łà®®à®±": 7320,
      "à®·à®¯à®°": 7321,
      "Ġà®ħà®µà®²à®¤": 7322,
      "à®ħà®ķà®®à®¤": 7323,
      "Ġà®¤à®°à®©": 7324,
      "Ġ490": 7325,
      "à¯į:âĢľ": 7326,
      "ĠSW": 7327,
      "à®ļà®¨à®²": 7328,
      "ĠAFL": 7329,
      "ĠPal": 7330,
      "Ġ217": 7331,
      "ĠTop": 7332,
      "rection": 7333,
      "asht": 7334,
      "Ġ314": 7335,
      "ĠGDP": 7336,
      "Ġoxide": 7337,
      "ĠFe": 7338,
      "ĠFl": 7339,
      "Ġ356": 7340,
      "à®ĵà®ķ": 7341,
      "emi": 7342,
      "à¯įâĢĮ.": 7343,
      "ĠÂ£": 7344,
      "come": 7345,
      "ĠComp": 7346,
      "ART": 7347,
      "ĠProvince": 7348,
      "ennis": 7349,
      "à®°à®®à®°à®£à®®à®Ł": 7350,
      "iction": 7351,
      "____": 7352,
      "module": 7353,
      "Ġvalue": 7354,
      "bo": 7355,
      "mi": 7356,
      "Îº": 7357,
      "Ïĥ": 7358,
      "âĻª": 7359,
      "à®ªà®³à®ķ": 7360,
      "à®£à®¨à®²à®©": 7361,
      "à®ķà®µà®ķ": 7362,
      "Ġà®ıà®ľà®©": 7363,
      "Ġ(âĢĺ": 7364,
      "Ġà®īà®³à®ļ": 7365,
      "Ġà®īà®£à®°à®¤": 7366,
      "Ġ399": 7367,
      "Ġà®ħà®°à®ĥà®ª": 7368,
      "à®ĩà®İà®¸": 7369,
      "à®ķà®´à®Ł": 7370,
      "Ġ460": 7371,
      "Ġà®ħà®ķà®Łà®®": 7372,
      "Ġ254": 7373,
      "ĠCA": 7374,
      "ĠCSS": 7375,
      "ĠCount": 7376,
      "ĠSO": 7377,
      "1997": 7378,
      "ĠAT": 7379,
      "ĠRAM": 7380,
      "ĠFIFA": 7381,
      "ĠLaw": 7382,
      "Ġsqu": 7383,
      "ĠURI": 7384,
      "rime": 7385,
      "ĠVi": 7386,
      "Ġbl": 7387,
      "Ġ349": 7388,
      "ova": 7389,
      "Ġnational": 7390,
      "135": 7391,
      "eph": 7392,
      "ĠÎ²": 7393,
      "Ġà®®à®ľà®¤à®µ": 7394,
      "à®īà®²à®ķà®³": 7395,
      "afe": 7396,
      "âĢ²âĢ²": 7397,
      "DMCP": 7398,
      "black": 7399,
      "ÑģÑĤ": 7400,
      "ĠĠĠĠĠĠĠĠĠĠĠĠĠĠĠĠĠĠĠĠĠĠĠĠĠĠĠĠĠĠĠĠĠĠĠĠĠĠĠĠĠĠĠĠĠĠĠĠĠĠĠĠĠĠĠĠĠĠĠĠĠĠĠĠ": 7401,
      "ĠAuthority": 7402,
      "ĠMantri": 7403,
      "220": 7404,
      "EMA": 7405,
      "ei": 7406,
      "ser": 7407,
      "Ã§": 7408,
      "Ð´": 7409,
      "à®¤à®Ĩà®µ": 7410,
      "à®®à®¯à®ª": 7411,
      "à®®à®¤à®ķ": 7412,
      "Ġà®ķà®³à®°": 7413,
      "Ġà®®à®·": 7414,
      "Ġà®¤à®Łà®ª": 7415,
      "Ġà®İà®®à®©": 7416,
      "Ġà®ľà®¯à®°": 7417,
      "Ġà®®à®©à®µà®²": 7418,
      "Ġà®Ĳà®ĥà®ª": 7419,
      "Ġ530": 7420,
      "à¯Ĥ.\"": 7421,
      "à¯į!)": 7422,
      "inar": 7423,
      "esc": 7424,
      "à®ľà®¯à®ļ": 7425,
      "1991": 7426,
      "ĠPrev": 7427,
      "ĠTi": 7428,
      "ĠBible": 7429,
      "ands": 7430,
      "Ġ292": 7431,
      "Ġ352": 7432,
      "Ġprice": 7433,
      "à¤ª": 7434,
      "Ġà®ķà®¤à®µà®£": 7435,
      "akes": 7436,
      "apan": 7437,
      "avan": 7438,
      "à´¿": 7439,
      "ĠArch": 7440,
      "ariable": 7441,
      "also": 7442,
      "ĠØ¨": 7443,
      "organ": 7444,
      "pany": 7445,
      "ĠâľĶ": 7446,
      "230": 7447,
      "Bl": 7448,
      "NR": 7449,
      "Raj": 7450,
      "SR": 7451,
      "Sri": 7452,
      "ford": 7453,
      "jw": 7454,
      "kh": 7455,
      "mass": 7456,
      "sch": 7457,
      "uff": 7458,
      "Ġà²": 7459,
      "à®¿ï»¿": 7460,
      "à®ķà®ĥà®ª": 7461,
      "à®ķà®ĩà®°": 7462,
      "à®·à®°à®ª": 7463,
      "à®ļà®®à®¨": 7464,
      "Ġà®ļà®°à®µà®£": 7465,
      "Ġà®Ĳà®Ļ": 7466,
      "à®ĩà®Łà®Ļ": 7467,
      "à®ķà®´à®¤": 7468,
      "à®µà®ļà®ķ": 7469,
      "à®°à®µà®£": 7470,
      "Ġà®ķà®©à®ļà®¤": 7471,
      "erc": 7472,
      "ona": 7473,
      "Ġà®Ĩà®ªà®°à®£": 7474,
      "ality": 7475,
      "Ġ1870": 7476,
      "ĠCPI": 7477,
      "ĠSol": 7478,
      "ĠPV": 7479,
      "Ġ229": 7480,
      "ĠToday": 7481,
      "ĠIT": 7482,
      "à®ªà®¯à®©à®°": 7483,
      "ĠRet": 7484,
      "ĠDec": 7485,
      "Ġ262": 7486,
      "andala": 7487,
      "Ġset": 7488,
      "adha": 7489,
      "rap": 7490,
      "aps": 7491,
      "alli": 7492,
      "ours": 7493,
      "à¦°": 7494,
      "ĠAnn": 7495,
      "Ġone": 7496,
      "uclear": 7497,
      "Ġprofile": 7498,
      "hys": 7499,
      "here": 7500,
      "Ġ(%.": 7501,
      "engal": 7502,
      "ichard": 7503,
      "ependent": 7504,
      "Ġarticle": 7505,
      "ĠIMAP": 7506,
      "col": 7507,
      "da": 7508,
      "date": 7509,
      "ÊĬ": 7510,
      "Ġeng": 7511,
      "à®©à®µà®ķ": 7512,
      "Ġà®ħà®±à®¤": 7513,
      "Ġà®ħà®ķà®Ł": 7514,
      "à®ļà®ªà®°": 7515,
      "à®ķà®°à®¨": 7516,
      "Ġà®ªà®²à®®à®Ł": 7517,
      "Ġà®ļà®®à®·": 7518,
      "Ġà®ħà®²à®¸": 7519,
      "Ġà®¨à®®à®ļ": 7520,
      "à®¹à®¸": 7521,
      "Ġà®ĩà®±à®µ": 7522,
      "Ġà®İà®´à®¤": 7523,
      "à®ķà®£à®µ": 7524,
      "à®°à®µà®£à®ķ": 7525,
      "à®Ĳà®ľ": 7526,
      "ĠAV": 7527,
      "ĠPPP": 7528,
      "ĠMac": 7529,
      "Ġ228": 7530,
      "ĠBre": 7531,
      "ĠRef": 7532,
      "elocity": 7533,
      "ĠDavid": 7534,
      "Ġ312": 7535,
      "ĠLDAP": 7536,
      "ider": 7537,
      "ides": 7538,
      "Ġmin": 7539,
      "Ġmutation": 7540,
      "ĠOS": 7541,
      "Ġà®¤à®³à®®à®Ł": 7542,
      "artment": 7543,
      "ellig": 7544,
      "IDS": 7545,
      "Ġyear": 7546,
      "oxide": 7547,
      "electron": 7548,
      "ĠAmb": 7549,
      "arbon": 7550,
      "omentum": 7551,
      "%).": 7552,
      "260": 7553,
      "660": 7554,
      "Fi": 7555,
      "Gu": 7556,
      "High": 7557,
      "IO": 7558,
      "Met": 7559,
      "Na": 7560,
      "za": 7561,
      "à®®à®ķà®¤": 7562,
      "à®®à®°à®°": 7563,
      "à®²à®±à®¤": 7564,
      "à¯ģ,.": 7565,
      "à®¯à®²à®Ļ": 7566,
      "Ġà®ħà®µà®²à®¨": 7567,
      "à®ļà®°à®©": 7568,
      "à®®à®¤à®ļ": 7569,
      "Ġà®İà®´à®ķ": 7570,
      "Ġ1906": 7571,
      "Ġ1909": 7572,
      "Ġà®Ĩà®¤à®µà®©": 7573,
      "à®ªà®²à®Ł": 7574,
      "Ġà®ķà®µà®£": 7575,
      "ĠSi": 7576,
      "ĠAP": 7577,
      "à®·à®®à®Ļ": 7578,
      "ĠNAT": 7579,
      "ref": 7580,
      "ĠRob": 7581,
      "ĠGames": 7582,
      "road": 7583,
      "Ġshar": 7584,
      "Ġ323": 7585,
      "utt": 7586,
      "emor": 7587,
      "ĠInc": 7588,
      "Ġwomen": 7589,
      "los": 7590,
      "Ġgovernment": 7591,
      "Ġvelocity": 7592,
      "à®Ĭà®´à®²": 7593,
      "Ġthis": 7594,
      "Ø§Ø±": 7595,
      "ASE": 7596,
      "ashmir": 7597,
      "ĠPlant": 7598,
      "CIO": 7599,
      "ĠAndroid": 7600,
      "duction": 7601,
      "âĢ¢âĢ¢": 7602,
      "Ġmeet": 7603,
      "ĠSamayam": 7604,
      "ĠWhats": 7605,
      "MeToo": 7606,
      "decision": 7607,
      ",.": 7608,
      "Ca": 7609,
      "Mah": 7610,
      "ND": 7611,
      "Rep": 7612,
      "pg": 7613,
      "pert": 7614,
      "va": 7615,
      "wa": 7616,
      "yg": 7617,
      "ĠðŁ": 7618,
      "à®ķà®ķà®°à®®": 7619,
      "Ġà®ıà®¤à®©": 7620,
      "Ġà®ħà®®à®¤": 7621,
      "à®·à®ļ": 7622,
      "à®·à®ķà®©": 7623,
      "Ġà®ľà®¯à®¨": 7624,
      "Ġà®ķà®£à®¨": 7625,
      "à®ħà®®à®²": 7626,
      "Ġà®¸à®ª": 7627,
      "à®ķà®´à®©": 7628,
      "Ġà®¨à®²à®¨": 7629,
      "à®ķà®£à®µà®©": 7630,
      "Ġà®·à®Ł": 7631,
      "Ġà®ªà®´à®µà®ķ": 7632,
      "ano": 7633,
      "onia": 7634,
      "Ġà®ĥà®ªà®¸": 7635,
      "Ġà®ªà®ļà®µ": 7636,
      "à®ıà®£": 7637,
      "1981": 7638,
      "à¯į.....": 7639,
      "ĠPO": 7640,
      "ĠPCF": 7641,
      "ĠMill": 7642,
      "ĠMount": 7643,
      "icon": 7644,
      "rec": 7645,
      "ĠRail": 7646,
      "ĠData": 7647,
      "urr": 7648,
      "ĠHa": 7649,
      "ĠLo": 7650,
      "Ġfile": 7651,
      "Ġfucking": 7652,
      "à®ħà®µà®ļà®°": 7653,
      "ĠEr": 7654,
      "à®¾!)": 7655,
      "ules": 7656,
      "Ġap": 7657,
      "ĠXR": 7658,
      "rant": 7659,
      "à®¾âĢĻ,": 7660,
      "à®Ĭà®°à®ķ": 7661,
      "ards": 7662,
      "ĠCentral": 7663,
      "ĠØ§ÙĦ": 7664,
      "ĠPrime": 7665,
      "ydro": 7666,
      "ĠCooper": 7667,
      "witter": 7668,
      "onservation": 7669,
      "frastructure": 7670,
      "ĠJavaScript": 7671,
      "520": 7672,
      "LM": 7673,
      "Part": 7674,
      "TNS": 7675,
      "data": 7676,
      "fw": 7677,
      "ji": 7678,
      "lim": 7679,
      "mal": 7680,
      "she": 7681,
      "Ġq": 7682,
      "à¯į[": 7683,
      "à®°à®ķà®µ": 7684,
      "à®©à®ªà®Ļ": 7685,
      "à®ªà®®à®©": 7686,
      "Ġà®ĩà®ĥà®ª": 7687,
      "à®Ļà®ķà®³": 7688,
      "Ġà®īà®¤à®®": 7689,
      "à¯į,âĢĻ": 7690,
      "Ġà®ıà®·": 7691,
      "Ġà®²à®¸": 7692,
      "Ġ319": 7693,
      "à¯Ī,,": 7694,
      "Ġà®īà®¯à®°à®²": 7695,
      "Ġ1911": 7696,
      "Ġ1902": 7697,
      "à¯ĩ.\"\"\"": 7698,
      "alif": 7699,
      "Ġ1894": 7700,
      "ĠCBI": 7701,
      "ĠCCT": 7702,
      "1992": 7703,
      "Ġtri": 7704,
      "Ġ236": 7705,
      "ĠDNS": 7706,
      "ĠGold": 7707,
      "ĠHer": 7708,
      "ĠFree": 7709,
      "Ġcell": 7710,
      "183": 7711,
      "idamb": 7712,
      "Ġpost": 7713,
      "128": 7714,
      "raft": 7715,
      "170": 7716,
      "Ġback": 7717,
      "ultur": 7718,
      "Ġà®ħà®ķà®°à®µà®°": 7719,
      "opra": 7720,
      "à¯Ī',": 7721,
      "Ġ649": 7722,
      "ails": 7723,
      "à´¾": 7724,
      "Ø§Ø": 7725,
      "ension": 7726,
      "ĠEnergy": 7727,
      "ario": 7728,
      "soft": 7729,
      "United": 7730,
      "trl": 7731,
      "ĠAmerica": 7732,
      "ĠKhandala": 7733,
      "ĠDinakaran": 7734,
      "ĠEconomic": 7735,
      "499": 7736,
      "My": 7737,
      "Non": 7738,
      "Sodium": 7739,
      "Tr": 7740,
      "WC": 7741,
      "let": 7742,
      "pass": 7743,
      "parameter": 7744,
      "work": 7745,
      "Ġev": 7746,
      "à®°à®ķà®Ł": 7747,
      "à®Łà®¯à®°": 7748,
      "à®²à®µà®Ł": 7749,
      "à®ķà®³à®£": 7750,
      "Ġà®µà®³à®µ": 7751,
      "à¯į..\"": 7752,
      "Ġà®İà®¯à®°": 7753,
      "à®ľà®¨": 7754,
      "\"\"\"\"": 7755,
      "Ġà®²à®©": 7756,
      "Ġ-(": 7757,
      "Ġà®ĵà®Łà®®": 7758,
      "Ġà®ĵà®ľ": 7759,
      "Ġà®µà®³à®°à®¤": 7760,
      "à¯ģ:âĢľ": 7761,
      "arge": 7762,
      "Ġ1400": 7763,
      "Ġà®Īà®°à®¨": 7764,
      "Ġà®īà®ªà®ļ": 7765,
      "Ġà®µà®³à®°à®ļ": 7766,
      "Ġà®ªà®°à®µà®µ": 7767,
      "ĠMag": 7768,
      "ĠMart": 7769,
      "ĠNetwork": 7770,
      "Ġ238": 7771,
      "à®¯à®¨à®²à®µ": 7772,
      "ĠDiv": 7773,
      "Ġ281": 7774,
      "ura": 7775,
      "Ġ315": 7776,
      "ington": 7777,
      "ĠGod": 7778,
      "ĠFound": 7779,
      "ĠFirefox": 7780,
      "unan": 7781,
      "Ġmov": 7782,
      "Ġ335": 7783,
      "Ġ343": 7784,
      "Ġ347": 7785,
      "Ġà®Ĩà®´à®®à®Ł": 7786,
      "Ġair": 7787,
      "à¯Ī...âĢĿ": 7788,
      "643": 7789,
      "aire": 7790,
      "ize": 7791,
      "ĠâĿį": 7792,
      "Ġhigh": 7793,
      "ĠOnline": 7794,
      "ĠFinancial": 7795,
      "ĠMetall": 7796,
      "streamline": 7797,
      "-)": 7798,
      "/.": 7799,
      "240": 7800,
      "Kar": 7801,
      "NRE": 7802,
      "Pradhan": 7803,
      "bot": 7804,
      "bert": 7805,
      "duc": 7806,
      "ior": 7807,
      "ped": 7808,
      "ÙĤ": 7809,
      "à®©à®ķà®®": 7810,
      "à®µà®³à®ķ": 7811,
      "à¯Ĩ,": 7812,
      "Ġà®°à®ļà®¤": 7813,
      "à®¯à®°à®ķ": 7814,
      "à®ªà®°à®ªà®°à®ª": 7815,
      "à®¿,)": 7816,
      "Ġà®ĵà®¯à®ª": 7817,
      "Ġ580": 7818,
      "à®µà®ķà®ļ": 7819,
      "Ġ765": 7820,
      "ĠPe": 7821,
      "ĠMos": 7822,
      "ĠMala": 7823,
      "ĠMLA": 7824,
      "ster": 7825,
      "ĠBen": 7826,
      "Ġ276": 7827,
      "Ġcar": 7828,
      "Ġ296": 7829,
      "Ġpass": 7830,
      "Ġindia": 7831,
      "Ġmy": 7832,
      "607": 7833,
      "2225": 7834,
      "235": 7835,
      "à®¿\"\",": 7836,
      "acter": 7837,
      "ĠSpace": 7838,
      "ĠForce": 7839,
      "ĠáĦ": 7840,
      "ĠÏĢ": 7841,
      "Central": 7842,
      "ĠOuvriÃ¨re": 7843,
      "Ġ*âĢł#": 7844,
      "950": 7845,
      "IST": 7846,
      "cont": 7847,
      "dy": 7848,
      "ger": 7849,
      "rong": 7850,
      "uild": 7851,
      "Ã³": 7852,
      "Ð¼": 7853,
      "Ġunder": 7854,
      "à¯įà®¾": 7855,
      "à®ļà®¤à®°": 7856,
      "Ġà®¤à®Łà®ķ": 7857,
      "Ġà®ħà®¤à®ª": 7858,
      "Ġà®ĩà®¤à®²": 7859,
      "Ġà®Ĵà®¯à®°": 7860,
      "à®ľà®ªà®Ł": 7861,
      "à®ļà®®à®©": 7862,
      "Ġà®¤à®²à®ļ": 7863,
      "à®ķà®²à®°": 7864,
      "à®µà®®à®¯à®®": 7865,
      "Ġà®µà®²à®ļ": 7866,
      "Ġà®īà®²à®ķà®±": 7867,
      "à®īà®Łà®±": 7868,
      "orge": 7869,
      "ĠCu": 7870,
      "ĠShe": 7871,
      "iter": 7872,
      "itis": 7873,
      "ĠMa": 7874,
      "ĠNPS": 7875,
      "icer": 7876,
      "Ġà®©à®¤": 7877,
      "ĠRSS": 7878,
      "urai": 7879,
      "108": 7880,
      "ĠLutte": 7881,
      "ĠKing": 7882,
      "ĠWe": 7883,
      "ĠWi": 7884,
      "Ġinter": 7885,
      "Ġday": 7886,
      "ayan": 7887,
      "Ġà®Ĩà®´à®®à®±": 7888,
      "ĠJul": 7889,
      "Ġno": 7890,
      "à®¿âĢĻ,": 7891,
      "ĠÂ«": 7892,
      "eva": 7893,
      "à®Ĭà®Ł": 7894,
      "Ġlaw": 7895,
      "Ġà®ľà®²à®ļà®¨": 7896,
      "mann": 7897,
      "mance": 7898,
      "Ġà¤ķ": 7899,
      "CSIR": 7900,
      "ĠIndex": 7901,
      "ĠAsia": 7902,
      "Ġà®ħà®ķà®®à®ķ": 7903,
      "ĠIPL": 7904,
      "Ġattack": 7905,
      "Ap": 7906,
      "EN": 7907,
      "FO": 7908,
      "HS": 7909,
      "Sw": 7910,
      "YC": 7911,
      "bas": 7912,
      "jar": 7913,
      "kW": 7914,
      "nov": 7915,
      "rash": 7916,
      "white": 7917,
      "ÙĲ": 7918,
      "à®Łà®µà®¤": 7919,
      "à®²à®±à®®": 7920,
      "à®¯à®ĥà®ķ": 7921,
      "Ġà®ķà®ļà®Ł": 7922,
      "à¯Ģ'": 7923,
      "à®µà®°à®¤à®°": 7924,
      "Ġà®īà®µà®ª": 7925,
      "à¯ģ.''": 7926,
      "Ġà®°à®£à®¤": 7927,
      "\"\"),": 7928,
      "Ġà®Ĭà®ķà®¤": 7929,
      "à®µà®ļà®¨": 7930,
      "à®µà®ªà®¯à®¤": 7931,
      "ĠSing": 7932,
      "1970": 7933,
      "ĠPAS": 7934,
      "ĠMB": 7935,
      "à®ĥà®µ": 7936,
      "Ġ284": 7937,
      "Ġà®ķà®µà®°à®ķ": 7938,
      "lement": 7939,
      "Ġfootball": 7940,
      "à¯ĭ?\"\"": 7941,
      "ĠOs": 7942,
      "Ġneed": 7943,
      "Ġ443": 7944,
      "Ġrele": 7945,
      "à¥¤": 7946,
      "ICCI": 7947,
      "Ġchief": 7948,
      "Ġcomm": 7949,
      "University": 7950,
      "ĠMedical": 7951,
      "ĠSecurity": 7952,
      "à³į": 7953,
      "effect": 7954,
      "Reynolds": 7955,
      ")/": 7956,
      "114": 7957,
      "El": 7958,
      "Sch": 7959,
      "bar": 7960,
      "branch": 7961,
      "cident": 7962,
      "coverage": 7963,
      "fault": 7964,
      "field": 7965,
      "pect": 7966,
      "tra": 7967,
      "à±": 7968,
      "Ġits": 7969,
      "à¯¦": 7970,
      "à®¤à®ķà®³": 7971,
      "à®¯à®Ĵà®³": 7972,
      "à¯ĩ).": 7973,
      "Ġà®¤à®¯à®°": 7974,
      "à¯Ĭà¯į": 7975,
      "Ġà®īà®ªà®ª": 7976,
      "Ġà®īà®´à®²": 7977,
      "à¯ĤÂŃ": 7978,
      "à®µà®¤à®¨": 7979,
      "à®·à®ķà®°à®®": 7980,
      "Ġà®ħà®©à®¤": 7981,
      "Ġà®ľà®¹à®©": 7982,
      "à®ķà®²à®Ł": 7983,
      "Ġà®ªà®ķà®±": 7984,
      "Ġ\"\".\"": 7985,
      "Ġà®Ĳà®²": 7986,
      "Ġà®Ĳà®¯à®©": 7987,
      "Ġà®Īà®¯à®¤": 7988,
      "à®Ĩà®ĥà®ª": 7989,
      "Ġà®Ĩà®ļà®©à®®": 7990,
      "205": 7991,
      "2022": 7992,
      "Ġà®ħà®ļà®µ": 7993,
      "Ġà®īà®Łà®²à®³à®µ": 7994,
      "Ġà®ķà®´à®©": 7995,
      "ĠSL": 7996,
      "ĠSN": 7997,
      "Ġ405": 7998,
      "ila": 7999,
      "requ": 8000,
      "ĠDie": 8001,
      "urt": 8002,
      "Ġ602": 8003,
      "ĠFig": 8004,
      "ĠEast": 8005,
      "Ġ332": 8006,
      "602": 8007,
      "Ġwins": 8008,
      "ĠJan": 8009,
      "hib": 8010,
      "Ġ395": 8011,
      "Ġà®ªà®°à®®à®¹à®®": 8012,
      "245": 8013,
      "ĠXDMCP": 8014,
      "à®¿(+)/": 8015,
      "637": 8016,
      "Inter": 8017,
      "tures": 8018,
      "ensis": 8019,
      "indhu": 8020,
      "ĠUSA": 8021,
      "ynam": 8022,
      "Ġhead": 8023,
      "ĠCommunist": 8024,
      "Ġsurface": 8025,
      "ichael": 8026,
      "/(": 8027,
      "116": 8028,
      "270": 8029,
      "Amer": 8030,
      "Cor": 8031,
      "Do": 8032,
      "KV": 8033,
      "NU": 8034,
      "hal": 8035,
      "pons": 8036,
      "uy": 8037,
      "ves": 8038,
      "ÏĢ": 8039,
      "ÏĮ": 8040,
      "à®®à®ļà®¨": 8041,
      "à®±à®ķà®°à®®": 8042,
      "à®¯à®ļà®Ļ": 8043,
      "Ġà®ķà®°à®£à®®": 8044,
      "Ġà®ķà®ªà®Łà®®": 8045,
      "à®¨à®³": 8046,
      "à®¨à®·": 8047,
      "à®£à®°à®µ": 8048,
      "Ġà®ħà®®à®©": 8049,
      "Ġà®ħà®©à®Ł": 8050,
      "à®²à®®à®£": 8051,
      "Ġà®²à®°": 8052,
      "à®ļà®®à®£": 8053,
      "Ġ\"\",": 8054,
      "Ġ435": 8055,
      "à®ļà®²à®¸": 8056,
      "à¯į----": 8057,
      "Ġ960": 8058,
      "Ġ,)": 8059,
      "à®ªà®£à®Ļ": 8060,
      "Ġà®ķà®Łà®²à®Ł": 8061,
      "ĠSun": 8062,
      "1993": 8063,
      "ita": 8064,
      "ĠMall": 8065,
      "ĠNSA": 8066,
      "eli": 8067,
      "isk": 8068,
      "uri": 8069,
      "edral": 8070,
      "ĠKim": 8071,
      "Ġ334": 8072,
      "ĠVis": 8073,
      "Ġ455": 8074,
      "Ġdem": 8075,
      "estival": 8076,
      "ĠStandard": 8077,
      "ĠTamilstar": 8078,
      "iff": 8079,
      "Ġstatus": 8080,
      "ugust": 8081,
      "ondon": 8082,
      "romot": 8083,
      "à´ķ": 8084,
      "DAY": 8085,
      "ĠAcad": 8086,
      "formance": 8087,
      "ĠBlack": 8088,
      "Ġannounc": 8089,
      "ultiple": 8090,
      "iegel": 8091,
      "626": 8092,
      "BL": 8093,
      "John": 8094,
      "MG": 8095,
      "Trans": 8096,
      "VT": 8097,
      "cod": 8098,
      "yanka": 8099,
      "Ġec": 8100,
      "à®¤à®±à®ª": 8101,
      "à®°à®Łà®ķ": 8102,
      "à¯ĭ/": 8103,
      "à¯Ĥ'": 8104,
      "Ġà®µà®°à®²à®ķ": 8105,
      "Ġà®ıà®İà®¸": 8106,
      "à®°à®®à®°": 8107,
      "Ġà®ľà®²à®®": 8108,
      "Ġà®ªà®Łà®ªà®Łà®¤": 8109,
      "Ġà®ħà®±à®µà®´": 8110,
      "à®©à®®à®©": 8111,
      "à®ªà®µà®ļ": 8112,
      "Ġ1903": 8113,
      "à®Łà®µà®Ļ": 8114,
      "à®°à®ķà®£": 8115,
      "à®ķà®ļà®¸": 8116,
      "Ġà®ªà®´à®µ": 8117,
      "indi": 8118,
      "ĠCAR": 8119,
      "ĠControl": 8120,
      "à¯Ī:-": 8121,
      "itch": 8122,
      "ĠPad": 8123,
      "ĠNO": 8124,
      "ĠTv": 8125,
      "à¯Ī!\"\"": 8126,
      "read": 8127,
      "ĠDes": 8128,
      "Ġ283": 8129,
      "Ġ50000": 8130,
      "103": 8131,
      "Ġ333": 8132,
      "ĠOut": 8133,
      "605": 8134,
      "ager": 8135,
      "Ġdown": 8136,
      "à®ħà®°à®ļà®°": 8137,
      "aking": 8138,
      "Ġvis": 8139,
      "ĠStar": 8140,
      "ĠStreet": 8141,
      "Ġrel": 8142,
      "ift": 8143,
      "NAM": 8144,
      "à´°": 8145,
      "ĠProt": 8146,
      "alaxy": 8147,
      "à¯ĩ...?": 8148,
      "ĠArts": 8149,
      "ronic": 8150,
      "rown": 8151,
      "adium": 8152,
      "ĠRepublic": 8153,
      "MoU": 8154,
      "ĠCSIR": 8155,
      "ĠSupreme": 8156,
      "cyclop": 8157,
      "ĠAustralia": 8158,
      "urasu": 8159,
      "Col": 8160,
      "Char": 8161,
      "Des": 8162,
      "fl": 8163,
      "go": 8164,
      "ktop": 8165,
      "ohan": 8166,
      "Ġu": 8167,
      "à®¨à®´": 8168,
      "à®´à®µà®°": 8169,
      "à®µà®°à®¯": 8170,
      "Ġà®ĩà®¨à®¤": 8171,
      "005": 8172,
      "à®ķà®²à®µà®°à®Ļ": 8173,
      "à®ļà®°à®ķà®®": 8174,
      "Ġà®ħà®°à®±": 8175,
      "Ġà®Īà®´à®ª": 8176,
      "Ġ680": 8177,
      "Ġà®ĵà®Łà®ļ": 8178,
      "arch": 8179,
      "Ġ1879": 8180,
      "à®¨à®ķà®°à®ķ": 8181,
      "ĠCons": 8182,
      "ĠClass": 8183,
      "ĠSee": 8184,
      "1979": 8185,
      "à®ļà®¨à®ŀ": 8186,
      "ĠAI": 8187,
      "ĠAk": 8188,
      "itan": 8189,
      "ĠPen": 8190,
      "ĠId": 8191,
      "rep": 8192,
      "reed": 8193,
      "omi": 8194,
      "Ġ263": 8195,
      "109": 8196,
      "ĠLive": 8197,
      "Ġ293": 8198,
      "Ġpeople": 8199,
      "Ġwho": 8200,
      "Ġ345": 8201,
      "111": 8202,
      "ops": 8203,
      "iga": 8204,
      "osition": 8205,
      "imurasu": 8206,
      "istance": 8207,
      "Ġtool": 8208,
      "Ġhave": 8209,
      "à®Ĭà®Łà®ķà®Ļ": 8210,
      "452": 8211,
      "à¦²": 8212,
      "ords": 8213,
      "echan": 8214,
      "liament": 8215,
      "radesh": 8216,
      "atti": 8217,
      "inistry": 8218,
      "format": 8219,
      "ĠRoyal": 8220,
      "ĠAccount": 8221,
      "ĠPolice": 8222,
      "ĠFinance": 8223,
      "Ġadd": 8224,
      "Ġtechniques": 8225,
      "ĠBSNL": 8226,
      "ĠCCTV": 8227,
      "ĠMalaimurasu": 8228,
      "118": 8229,
      "330": 8230,
      "340": 8231,
      "630": 8232,
      "Elect": 8233,
      "UI": 8234,
      "menu": 8235,
      "rup": 8236,
      "site": 8237,
      "à®¿\\\"\"": 8238,
      "à®¨à®°à®ķà®Ļ": 8239,
      "Ġà®Ĩà®³à®µ": 8240,
      "Ġà®ķà®Łà®ķà®Ļ": 8241,
      "Ġà®ıà®¸": 8242,
      "Ġà®¯à®µ": 8243,
      "Ġà®ľà®¯": 8244,
      "à®°à®¤à®ķ": 8245,
      "Ġà®ħà®µà®ªà®ķ": 8246,
      "Ġà®ķà®²à®ļ": 8247,
      "à®¹à®ľ": 8248,
      "Ġà®Ĭà®Łà®Ļ": 8249,
      "à®£à®®à®±": 8250,
      "à®²à®µà®¨": 8251,
      "Ġ625": 8252,
      "à®İà®©à®ª": 8253,
      "inter": 8254,
      "ĠCath": 8255,
      "1980": 8256,
      "ĠAtt": 8257,
      "ĠPOP": 8258,
      "ĠMor": 8259,
      "à®¤à®µà®©à®²": 8260,
      "ĠRs": 8261,
      "elle": 8262,
      "à®ĥà®°": 8263,
      "ised": 8264,
      "chi": 8265,
      "asan": 8266,
      "Ġfield": 8267,
      "ĠETA": 8268,
      "unj": 8269,
      "155": 8270,
      "ĠWhite": 8271,
      "rip": 8272,
      "ĠOct": 8273,
      "Ġdead": 8274,
      "Ġ346": 8275,
      "imal": 8276,
      "247": 8277,
      "Ġform": 8278,
      "Ġlist": 8279,
      "ĠChopra": 8280,
      "638": 8281,
      "Int": 8282,
      "à¥ĭ": 8283,
      "ICA": 8284,
      "play": 8285,
      "ERT": 8286,
      "problem": 8287,
      "ĠÎ¸": 8288,
      "ĠMarch": 8289,
      "à§į": 8290,
      "ĠGovernor": 8291,
      "à®²à®ħà®µà®ķ": 8292,
      "117": 8293,
      "628": 8294,
      "Air": 8295,
      "VA": 8296,
      "by": 8297,
      "den": 8298,
      "á¸": 8299,
      "á»": 8300,
      "à®¤à®±à®¤": 8301,
      "à®ªà®£à®ª": 8302,
      "à¯Īà¯į": 8303,
      "Ġà®ªà®ĥà®ª": 8304,
      "à®ļà®ķà®ª": 8305,
      "à®ļà®¤à®©": 8306,
      "à®£à®µà®¤": 8307,
      "Ġà®¨à®µà®²": 8308,
      "à¯Ĥ:": 8309,
      "Ġà®ħà®©à®¸": 8310,
      "à®ļà®®à®ķ": 8311,
      "Ġà®ªà®£à®ªà®°": 8312,
      "Ġ510": 8313,
      "à®²à®µà®Ļ": 8314,
      "à®ªà®µà®°à®²": 8315,
      "à¯į-||": 8316,
      "Ġ,''": 8317,
      "Ġà®ĥà®ªà®©": 8318,
      "ĠCr": 8319,
      "ĠSA": 8320,
      "ĠTN": 8321,
      "Ġà®ħà®µà®¤à®°": 8322,
      "107": 8323,
      "ander": 8324,
      "Ġfin": 8325,
      "ĠKal": 8326,
      "Ġda": 8327,
      "avy": 8328,
      "Ġ539": 8329,
      "Ġret": 8330,
      "ression": 8331,
      "ender": 8332,
      "ober": 8333,
      "ensity": 8334,
      "inton": 8335,
      "à·ı": 8336,
      "IMF": 8337,
      "surface": 8338,
      "ĠChristian": 8339,
      "Online": 8340,
      "Ð±Ð»": 8341,
      "ĠBritish": 8342,
      "ĠChampions": 8343,
      "idambaram": 8344,
      "unanidhi": 8345,
      "210": 8346,
      "Ass": 8347,
      "Mal": 8348,
      "Post": 8349,
      "Read": 8350,
      "ba": 8351,
      "kill": 8352,
      "mm": 8353,
      "nam": 8354,
      "rated": 8355,
      "sen": 8356,
      "uary": 8357,
      "Î·": 8358,
      "Ð³": 8359,
      "Ġà®®à®²à®¤": 8360,
      "à¯ĭà®¾à¯į.": 8361,
      "Ġà®ıà®ķà®¤": 8362,
      "Ġà®ıà®²à®Ļ": 8363,
      "à®µà®©à®Ł": 8364,
      "à®¯à®²à®¯": 8365,
      "à®¿,,": 8366,
      "à®¾à¯įâĢĻ": 8367,
      "Ġà®¸à®°": 8368,
      "à®ķà®´à®ķà®ķ": 8369,
      "Ġ515": 8370,
      "Ġà®¤à®°à®µà®²": 8371,
      "à®¾,''": 8372,
      "Ġ1901": 8373,
      "inc": 8374,
      "Ġ503": 8375,
      "ĠSant": 8376,
      "...âĢĿ": 8377,
      "à®µà®¤à®©à®©": 8378,
      "ĠBer": 8379,
      "elt": 8380,
      "olec": 8381,
      "ĠHP": 8382,
      "ĠLevel": 8383,
      "ĠLife": 8384,
      "Ġfilm": 8385,
      "Ġmicro": 8386,
      "Ġà®®à®°à®£à®ªà®°": 8387,
      "/-,": 8388,
      "ĠJos": 8389,
      "ĠStep": 8390,
      "illi": 8391,
      "Ġ585": 8392,
      "ified": 8393,
      "ibeat": 8394,
      "ends": 8395,
      "Ġyou": 8396,
      "Ġà®ªà®°à®µà®ļà®¨": 8397,
      "ĠHindu": 8398,
      "!'": 8399,
      "GO": 8400,
      "TS": 8401,
      "_{": 8402,
      "Ġ^": 8403,
      "à®ķà®ķà®°": 8404,
      "à®¤à®Ĵà®°": 8405,
      "à®°à®¯à®Ļ": 8406,
      "à®±à®Ĭà®¤": 8407,
      "Ġà®ªà®©à®®": 8408,
      "à®¸à®ĥà®ª": 8409,
      "à®¤à®®à®¤à®®": 8410,
      "Ġ($": 8411,
      "Ġà®īà®³à®°": 8412,
      "à®¯à®°à®°": 8413,
      "à®¤à®°à®Ł": 8414,
      "Ġà®Ĩà®£à®µà®ķ": 8415,
      "à®ĩà®±à®ª": 8416,
      "à®³à®µà®Ļ": 8417,
      "Ġà®Ĩà®°à®²": 8418,
      "Ġà®ĩà®ļà®ª": 8419,
      "Ġà®ªà®Łà®®à®²": 8420,
      "Ġà®ªà®´à®ķà®µ": 8421,
      "à®īà®³à®µ": 8422,
      "onment": 8423,
      "onomy": 8424,
      "Ġà®ĥà®ªà®ľ": 8425,
      "esis": 8426,
      "à®ıà®İà®²": 8427,
      "190": 8428,
      "1962": 8429,
      "ĠAA": 8430,
      "steam": 8431,
      "ĠTom": 8432,
      "Ġà®ªà®²à®¤à®Łà®µ": 8433,
      "ĠDonald": 8434,
      "Ġà®®à®¹à®¤": 8435,
      "ĠGB": 8436,
      "102": 8437,
      "ĠKorea": 8438,
      "149": 8439,
      "Ġbec": 8440,
      "Ġwon": 8441,
      "ester": 8442,
      "à¯įâĢĮâĢĮ": 8443,
      "ĠJust": 8444,
      "Ġkde": 8445,
      "Ġreaction": 8446,
      "ATA": 8447,
      "Ġcheck": 8448,
      "ohfw": 8449,
      "Ġ9001": 8450,
      "Ġcomp": 8451,
      "Ġdiff": 8452,
      "uki": 8453,
      "And": 8454,
      "ehicle": 8455,
      "Äģn": 8456,
      "rench": 8457,
      "Ġparty": 8458,
      "apuram": 8459,
      "ĠFilmibeat": 8460,
      "ĠWWE": 8461,
      "elligence": 8462,
      "ultural": 8463,
      "()": 8464,
      ")...": 8465,
      "621": 8466,
      "Med": 8467,
      "QL": 8468,
      "SW": 8469,
      "TH": 8470,
      "mark": 8471,
      "ÉĽ": 8472,
      "Ġili": 8473,
      "à®¤à®°à®ļà®©": 8474,
      "à®Łà®¨à®Łà®µà®Ł": 8475,
      "à®®à®µà®©": 8476,
      "à®®à®¤à®©": 8477,
      "à®ªà®©à®°": 8478,
      "à®ļà®¯à®°": 8479,
      "Ġà®ļà®ķà®®à®©": 8480,
      "Ġà®ªà®Łà®ļ": 8481,
      "à®ķà®²à®ļ": 8482,
      "Ġà®Ĭà®°à®£": 8483,
      "à¯į':": 8484,
      "ench": 8485,
      "à®µà®ªà®³": 8486,
      "ĠCNN": 8487,
      "Ġà®µà®³à®ļà®°à®µ": 8488,
      "Ġ301": 8489,
      "ĠMD": 8490,
      "rew": 8491,
      "oms": 8492,
      "à®ĥà®Ł": 8493,
      "Ġ313": 8494,
      "Ġ317": 8495,
      "inger": 8496,
      "etition": 8497,
      "Ġopen": 8498,
      "ĠFO": 8499,
      "ĠFacebook": 8500,
      "ĠEv": 8501,
      "Ġsl": 8502,
      "Ġ322": 8503,
      "ĠUp": 8504,
      "174": 8505,
      "à¤¹": 8506,
      "Ġdom": 8507,
      "Ġ366": 8508,
      "Ġnarendramodi": 8509,
      "à¯ģ''.": 8510,
      "achh": 8511,
      "indra": 8512,
      "Ġ*.": 8513,
      "ĠEnt": 8514,
      "Ġà¤ľ": 8515,
      "Ġyour": 8516,
      "IMST": 8517,
      "ference": 8518,
      "yder": 8519,
      "rateg": 8520,
      "ĠIndustrial": 8521,
      "rban": 8522,
      "ĠVoIP": 8523,
      "ĠNASA": 8524,
      "ĠNATO": 8525,
      "ĠFigaro": 8526,
      ")\"": 8527,
      ")),": 8528,
      "Bio": 8529,
      "UK": 8530,
      "burg": 8531,
      "document": 8532,
      "drome": 8533,
      "rame": 8534,
      "à®¤à®·": 8535,
      "à®®à®¯à®¤": 8536,
      "à®®à®¯à®µ": 8537,
      "Ġà®Ĵà®µà®°": 8538,
      "à®ķà®®à®ķ": 8539,
      "Ġà®¨à®Łà®Ļ": 8540,
      "Ġà®¨à®Łà®ªà®Ł": 8541,
      "à®ľà®£": 8542,
      "Ġà®¯à®²": 8543,
      "Ġà®ħà®´à®ķà®°": 8544,
      "Ġ416": 8545,
      "à®ļà®©à®ŀ": 8546,
      "à®ªà®ķà®ļà®ķ": 8547,
      "à®°à®ķà®±": 8548,
      "Ġà®µà®Łà®ĩà®¨": 8549,
      "Ġ7500": 8550,
      "à®ķà®£à®Ļ": 8551,
      "inch": 8552,
      "ales": 8553,
      "Ġ1890": 8554,
      "ĠSa": 8555,
      "ĠSha": 8556,
      "Ġà®ªà®µà®³": 8557,
      "ĠAugust": 8558,
      "ĠPA": 8559,
      "Ġà®ªà®²à®©à®±": 8560,
      "icip": 8561,
      "ĠBan": 8562,
      "etra": 8563,
      "ĠHS": 8564,
      "Ġcapt": 8565,
      "ĠLO": 8566,
      "Ġ297": 8567,
      "à¤¶": 8568,
      "255": 8569,
      "Ġ458": 8570,
      "Ġwar": 8571,
      "otos": 8572,
      "ivil": 8573,
      "Ġà®ĩà®²à®µà®ļà®ª": 8574,
      "evi": 8575,
      "......": 8576,
      "ĠChar": 8577,
      "NAAT": 8578,
      "ATE": 8579,
      "Ġchloride": 8580,
      "SSP": 8581,
      "Ġà®®à®¤à®°à®¸": 8582,
      "actor": 8583,
      "ĠExpress": 8584,
      "ĠSpiegel": 8585,
      "CTC": 8586,
      "ierre": 8587,
      "ĠSciences": 8588,
      "ĠPolicy": 8589,
      "2406": 8590,
      "Ed": 8591,
      "PL": 8592,
      "Ti": 8593,
      "ful": 8594,
      "ira": 8595,
      "mens": 8596,
      "sà®ķ": 8597,
      "Åį": 8598,
      "à®°à®Łà®°": 8599,
      "à®Łà®ķà®³": 8600,
      "à®²à®¯à®ª": 8601,
      "Ġà®ªà®ķà®°à®®": 8602,
      "Ġà®¤à®´à®²": 8603,
      "Ġà®İà®ķà®©": 8604,
      "Ġà®Ĩà®Łà®¤": 8605,
      "Ġà®°à®¤à®®": 8606,
      "Ġà®ķà®£à®ª": 8607,
      "à®ļà®®à®³": 8608,
      "Ġà®ªà®£à®Ļ": 8609,
      "Ġà®ħà®°à®³": 8610,
      "à®ĩà®³à®µà®°": 8611,
      "à®¤à®µà®°à®¤": 8612,
      "Ġ770": 8613,
      "à¯ĩ!\"\"\"": 8614,
      "à®īà®ķ": 8615,
      "Ġ12000": 8616,
      "arim": 8617,
      "alin": 8618,
      "Ġ501": 8619,
      "ĠSBI": 8620,
      "ĠSARS": 8621,
      "Ġà®ªà®µà®´à®ª": 8622,
      "ĠMin": 8623,
      "ĠICC": 8624,
      "rea": 8625,
      "rey": 8626,
      "à¯ģ\"\")": 8627,
      "ĠFederation": 8628,
      "dium": 8629,
      "direction": 8630,
      "Ġcons": 8631,
      "Ġcode": 8632,
      "Ġcirc": 8633,
      "Ġ291": 8634,
      "ĠEm": 8635,
      "à¤¼": 8636,
      "à®ªà®´à®©": 8637,
      "Ġbank": 8638,
      "ĠJack": 8639,
      "Ġ381": 8640,
      "odal": 8641,
      "opean": 8642,
      "Ġ488": 8643,
      "ĠStation": 8644,
      "ĠChand": 8645,
      "639": 8646,
      "plication": 8647,
      "Ġprotest": 8648,
      "Ġcompl": 8649,
      "Ġdeath": 8650,
      "CSU": 8651,
      "ĠPlay": 8652,
      "auvery": 8653,
      "à§ĩ": 8654,
      "Ġhist": 8655,
      "udies": 8656,
      "ĠSecret": 8657,
      "ĠMyGov": 8658,
      "Ġelection": 8659,
      "ĠDemocratic": 8660,
      "ĠÌĪ": 8661,
      "ĠFormer": 8662,
      "ĠMurph": 8663,
      "ÉĳËĲ": 8664,
      "×ķ×": 8665,
      "ictionary": 8666,
      "490": 8667,
      "525": 8668,
      "560": 8669,
      "Cu": 8670,
      "Tube": 8671,
      "link": 8672,
      "rÃ©": 8673,
      "ua": 8674,
      "uan": 8675,
      "Ä±": 8676,
      "ËĮ": 8677,
      "Ġ~": 8678,
      "ĠÂŃ": 8679,
      "Ġalso": 8680,
      "Ġà®ªà®ļà®ķ": 8681,
      "à®¨à®Łà®µ": 8682,
      "à¯ĩ),": 8683,
      "Ġà®¤à®³à®ķ": 8684,
      "à¯ģ.,": 8685,
      "Ġà®Ĩà®ļà®®": 8686,
      "à®ªà®¤à®ª": 8687,
      "à®ķà®µà®®": 8688,
      "Ġà®Ĵà®°à®³à®µ": 8689,
      "Ġ(/": 8690,
      "Ġà®¯à®¸": 8691,
      "Ġà®ªà®Łà®ªà®Łà®µ": 8692,
      "Ġà®ķà®²à®ķà®²à®µ": 8693,
      "à®ļà®®à®µ": 8694,
      "Ġà®ªà®°à®ķà®ļ": 8695,
      "Ġà®Ĩà®£à®µà®Ļ": 8696,
      "à®°à®ªà®¨": 8697,
      "ĠâĢĻ!": 8698,
      "Ġà®·à®¹": 8699,
      "Ġà®ĩà®Łà®®à®²": 8700,
      "à®¤à®ļà®·": 8701,
      "esy": 8702,
      "1914": 8703,
      "1988": 8704,
      "Ġ309": 8705,
      "ĠAS": 8706,
      "ites": 8707,
      "ĠPradesh": 8708,
      "ĠNations": 8709,
      "icine": 8710,
      "Ġterror": 8711,
      "ĠBay": 8712,
      "ĠRuss": 8713,
      "Ġ289": 8714,
      "olk": 8715,
      "Ġ266": 8716,
      "ĠGiz": 8717,
      "ĠHill": 8718,
      "Ġoption": 8719,
      "ĠFrom": 8720,
      "ĠFront": 8721,
      "ĠLake": 8722,
      "round": 8723,
      "Ġ358": 8724,
      "Ġsulf": 8725,
      "ĠKG": 8726,
      "à¯ģ...\"": 8727,
      "ĠWith": 8728,
      "Ġinto": 8729,
      "rix": 8730,
      "river": 8731,
      "ĠOCI": 8732,
      "ĠODI": 8733,
      "171": 8734,
      "216": 8735,
      "abh": 8736,
      "Ġkn": 8737,
      "Ġkilled": 8738,
      "264": 8739,
      "Ġforce": 8740,
      "ught": 8741,
      "à®¾...!": 8742,
      "Ð°Ñı": 8743,
      "ancer": 8744,
      "DMK": 8745,
      "EFT": 8746,
      "ĠCPU": 8747,
      "Ġappoint": 8748,
      "Ġclasses": 8749,
      "ĠSea": 8750,
      "ĠLabor": 8751,
      "Ġïģ¬": 8752,
      "ĠHDFC": 8753,
      "ĠNovember": 8754,
      "ĠWhatsApp": 8755,
      "275": 8756,
      "640": 8757,
      "EG": 8758,
      "NF": 8759,
      "Sam": 8760,
      "Time": 8761,
      "WA": 8762,
      "band": 8763,
      "ea": 8764,
      "ience": 8765,
      "jee": 8766,
      "pa": 8767,
      "ride": 8768,
      "ych": 8769,
      "Äĵ": 8770,
      "à®±à®°à®µ": 8771,
      "à®ķà®³à®ķà®°à®®": 8772,
      "à®´à®µà®°à®®": 8773,
      "Ġà®īà®³à®¤": 8774,
      "Ġà®ħà®¤à®²à®ª": 8775,
      "Ġà®ħà®°à®ļà®®à®°à®ª": 8776,
      "à®³à®°à®µà®¤": 8777,
      "à®ªà®°à®°": 8778,
      "Ġà®ĩà®©à®¨": 8779,
      "Ġ----": 8780,
      "Ġà®ķà®°à®¨": 8781,
      "Ġà®ĵà®ļà®©": 8782,
      "Ġà®ĵà®°à®ķ": 8783,
      "Ġà®ĵà®°à®µ": 8784,
      "Ġà®Ĳà®·": 8785,
      "à®ļà®²à®°": 8786,
      "à¯ĩ.,": 8787,
      "à®£à®µà®Ļ": 8788,
      "arant": 8789,
      "Ġà®ªà®µà®³à®®": 8790,
      "à®¿)-": 8791,
      "195": 8792,
      "ĠASE": 8793,
      "ici": 8794,
      "icide": 8795,
      "Ġtemple": 8796,
      "rel": 8797,
      "ĠRaf": 8798,
      "ellow": 8799,
      "olly": 8800,
      "head": 8801,
      "ĠKe": 8802,
      "Ġ328": 8803,
      "Ġpower": 8804,
      "Ġmohfw": 8805,
      "144": 8806,
      "167": 8807,
      "Ġ341": 8808,
      "ĠJa": 8809,
      "ĠJune": 8810,
      "ogn": 8811,
      "ĠChurch": 8812,
      "Ġ538": 8813,
      "exual": 8814,
      "endra": 8815,
      "ustain": 8816,
      "ĠZn": 8817,
      "erve": 8818,
      "Ġà¤®": 8819,
      "ults": 8820,
      "Chennai": 8821,
      "inese": 8822,
      "à¶½": 8823,
      "à¯ģ..!": 8824,
      "ĠEnglish": 8825,
      "ĠMadras": 8826,
      "phenotype": 8827,
      "American": 8828,
      "ĠAcademy": 8829,
      "'-": 8830,
      "Car": 8831,
      "Rev": 8832,
      "UA": 8833,
      "cre": 8834,
      "ek": 8835,
      "fess": 8836,
      "kWh": 8837,
      "rug": 8838,
      "Ð¹": 8839,
      "à®ķà®ķà®µà®ļà®®": 8840,
      "à®®à®®à®ķ": 8841,
      "à®²à®µà®¤": 8842,
      "à®ªà®Łà®Łà®¤": 8843,
      "à®ªà®Łà®²à®¤": 8844,
      "à®´à®²à®®": 8845,
      "à®¸Ã´": 8846,
      "Ġà®°à®¤à®¤": 8847,
      "Ġà®ļà®®à®£à®®": 8848,
      "à®²à®®à®Ļ": 8849,
      "Ġà®ªà®¤à®¨": 8850,
      "Ġà®¸à®ķ": 8851,
      "Ġà®¸à®©": 8852,
      "Ġà®Īà®ļà®©": 8853,
      "à®¨à®°à®ķà®µ": 8854,
      "Ġ1893": 8855,
      "orem": 8856,
      "ĠChe": 8857,
      "ĠCode": 8858,
      "ĠCEO": 8859,
      "ĠSat": 8860,
      "194": 8861,
      "ĠPop": 8862,
      "Ġ2400": 8863,
      "Ġà®īà®´à®µà®©": 8864,
      "ĠBusiness": 8865,
      "ĠRFC": 8866,
      "ela": 8867,
      "ĠDire": 8868,
      "Ġ271": 8869,
      "Ġoper": 8870,
      "151": 8871,
      "ĠWild": 8872,
      "129": 8873,
      "raz": 8874,
      "165": 8875,
      "Ġ348": 8876,
      "Ġà®ķà®¤à®µà®Ł": 8877,
      "ota": 8878,
      "Ġ384": 8879,
      "IIT": 8880,
      "imb": 8881,
      "Ġgu": 8882,
      "238": 8883,
      "ups": 8884,
      "Ġà®³à®°": 8885,
      "romide": 8886,
      "turn": 8887,
      "Ġà®ķà®ľà®ªà®¤": 8888,
      "IFED": 8889,
      "ĠDeep": 8890,
      "Eng": 8891,
      "osphere": 8892,
      "ĠCUPS": 8893,
      "vironment": 8894,
      "Ġleader": 8895,
      "ĠRAID": 8896,
      "ĠGizbot": 8897,
      "812": 8898,
      "Bh": 8899,
      "BJP": 8900,
      "GL": 8901,
      "LD": 8902,
      "MO": 8903,
      "NI": 8904,
      "Off": 8905,
      "VS": 8906,
      "cc": 8907,
      "dis": 8908,
      "down": 8909,
      "nn": 8910,
      "nadu": 8911,
      "sà®Ĳ": 8912,
      "set": 8913,
      "visc": 8914,
      "Ùĥ": 8915,
      "à®ķà®ĥà®ªà®¤": 8916,
      "à®¾âĢĭ": 8917,
      "à®Łà®µà®²": 8918,
      "à®Łà®ļà®¨": 8919,
      "à®ªà®ªà®¤": 8920,
      "à®²à®©à®®": 8921,
      "à®±à®°à®ļ": 8922,
      "à®µà®¯à®ª": 8923,
      "à®¨à®²à®ļ": 8924,
      "Ġà®ĩà®ĥà®¤": 8925,
      "à®£à®°à®¤": 8926,
      "à®ªà®Łà®°": 8927,
      "à¯Ģ/": 8928,
      "Ġà®ĩà®¤à®ª": 8929,
      "Ġà®ıà®Ĳ": 8930,
      "à®·à®®à®¤": 8931,
      "à®¯à®°à®©": 8932,
      "Ġà®ľà®ľ": 8933,
      "Ġà®ªà®²à®ķà®Ł": 8934,
      "à®¤à®ªà®¨": 8935,
      "Ġà®ħà®²à®ļà®µ": 8936,
      "à®ªà®°à®Ł": 8937,
[...]
