{
  "version": "1.0",
  "truncation": null,
  "padding": null,
  "added_tokens": [
    {
      "id": 0,
      "content": "<s>",
      "single_word": false,
      "lstrip": false,
      "rstrip": false,
      "normalized": false,
      "special": true
    },
    {
      "id": 1,
      "content": "<pad>",
      "single_word": false,
      "lstrip": false,
      "rstrip": false,
      "normalized": false,
      "special": true
    },
    {
      "id": 2,
      "content": "</s>",
      "single_word": false,
      "lstrip": false,
      "rstrip": false,
      "normalized": false,
      "special": true
    },
    {
      "id": 3,
      "content": "<unk>",
      "single_word": false,
      "lstrip": false,
      "rstrip": false,
      "normalized": false,
      "special": true
    },
    {
      "id": 4,
      "content": "<mask>",
      "single_word": false,
      "lstrip": false,
      "rstrip": false,
      "normalized": false,
      "special": true
    }
  ],
  "normalizer": {
    "type": "NFKC"
  },
  "pre_tokenizer": {
    "type": "Metaspace",
    "replacement": "▁",
    "add_prefix_space": true
  },
  "post_processor": {
    "type": "TemplateProcessing",
    "single": [
      {
        "SpecialToken": {
          "id": "<s>",
          "type_id": 0
        }
      },
      {
        "Sequence": {
          "id": "A",
          "type_id": 0
        }
      },
      {
        "SpecialToken": {
          "id": "</s>",
          "type_id": 0
        }
      }
    ],
    "pair": [
      {
        "Sequence": {
          "id": "A",
          "type_id": 0
        }
      },
      {
        "Sequence": {
          "id": "B",
          "type_id": 1
        }
      }
    ],
    "special_tokens": {
      "</s>": {
        "id": "</s>",
        "ids": [
          2
        ],
        "tokens": [
          "</s>"
        ]
      },
      "<mask>": {
        "id": "<mask>",
        "ids": [
          9999
        ],
        "tokens": [
          "<mask>"
        ]
      },
      "<pad>": {
        "id": "<pad>",
        "ids": [
          1
        ],
        "tokens": [
          "<pad>"
        ]
      },
      "<s>": {
        "id": "<s>",
        "ids": [
          0
        ],
        "tokens": [
          "<s>"
        ]
      },
      "<unk>": {
        "id": "<unk>",
        "ids": [
          3
        ],
        "tokens": [
          "<unk>"
        ]
      }
    }
  },
  "decoder": {
    "type": "Metaspace",
    "replacement": "▁",
    "add_prefix_space": true
  },
  "model": {
    "type": "BPE",
    "dropout": null,
    "unk_token": "<unk>",
    "continuing_subword_prefix": null,
    "end_of_word_suffix": null,
    "fuse_unk": false,
    "byte_fallback": false,
    "vocab": {
      "<s>": 0,
      "<pad>": 1,
      "</s>": 2,
      "<unk>": 3,
      "<mask>": 4,
      "\t": 5,
      "!": 6,
      "\"": 7,
      "#": 8,
      "$": 9,
      "%": 10,
      "&": 11,
      "'": 12,
      "(": 13,
      ")": 14,
      "*": 15,
      "+": 16,
      ",": 17,
      "-": 18,
      ".": 19,
      "/": 20,
      "0": 21,
      "1": 22,
      "2": 23,
      "3": 24,
      "4": 25,
      "5": 26,
      "6": 27,
      "7": 28,
      "8": 29,
      "9": 30,
      ":": 31,
      ";": 32,
      "<": 33,
      "=": 34,
      ">": 35,
      "?": 36,
      "@": 37,
      "A": 38,
      "B": 39,
      "C": 40,
      "D": 41,
      "E": 42,
      "F": 43,
      "G": 44,
      "H": 45,
      "I": 46,
      "J": 47,
      "K": 48,
      "L": 49,
      "M": 50,
      "N": 51,
      "O": 52,
      "P": 53,
      "Q": 54,
      "R": 55,
      "S": 56,
      "T": 57,
      "U": 58,
      "V": 59,
      "W": 60,
      "X": 61,
      "Y": 62,
      "Z": 63,
      "[": 64,
      "\\": 65,
      "]": 66,
      "^": 67,
      "_": 68,
      "`": 69,
      "a": 70,
      "b": 71,
      "c": 72,
      "d": 73,
      "e": 74,
      "f": 75,
      "g": 76,
      "h": 77,
      "i": 78,
      "j": 79,
      "k": 80,
      "l": 81,
      "m": 82,
      "n": 83,
      "o": 84,
      "p": 85,
      "q": 86,
      "r": 87,
      "s": 88,
      "t": 89,
      "u": 90,
      "v": 91,
      "w": 92,
      "x": 93,
      "y": 94,
      "z": 95,
      "{": 96,
      "|": 97,
      "}": 98,
      "~": 99,
      "¡": 100,
      "¢": 101,
      "£": 102,
      "¤": 103,
      "¥": 104,
      "¦": 105,
      "§": 106,
      "©": 107,
      "«": 108,
      "¬": 109,
      "­": 110,
      "®": 111,
      "°": 112,
      "±": 113,
      "¶": 114,
      "·": 115,
      "»": 116,
      "¿": 117,
      "À": 118,
      "Á": 119,
      "Â": 120,
      "Ã": 121,
      "Ä": 122,
      "Å": 123,
      "Æ": 124,
      "Ç": 125,
      "È": 126,
      "É": 127,
      "Ë": 128,
      "Ì": 129,
      "Í": 130,
      "Î": 131,
      "Ï": 132,
      "Ð": 133,
      "Ñ": 134,
      "Ò": 135,
      "Ó": 136,
      "Ô": 137,
      "Õ": 138,
      "Ö": 139,
      "×": 140,
      "Ø": 141,
      "Ù": 142,
      "Ú": 143,
      "Û": 144,
      "Ü": 145,
      "Ý": 146,
      "Þ": 147,
      "ß": 148,
      "à": 149,
      "á": 150,
      "â": 151,
      "ã": 152,
      "ä": 153,
      "å": 154,
      "æ": 155,
      "ç": 156,
      "è": 157,
      "é": 158,
      "ê": 159,
      "ë": 160,
      "ì": 161,
      "í": 162,
      "î": 163,
      "ï": 164,
      "ð": 165,
      "ñ": 166,
      "ò": 167,
      "ó": 168,
      "ô": 169,
      "õ": 170,
      "ö": 171,
      "÷": 172,
      "ø": 173,
      "ù": 174,
      "ú": 175,
      "û": 176,
      "ü": 177,
      "ý": 178,
      "þ": 179,
      "Ā": 180,
      "ā": 181,
      "ă": 182,
      "ć": 183,
      "Ĉ": 184,
      "Č": 185,
      "č": 186,
      "ď": 187,
      "Đ": 188,
      "đ": 189,
      "Ē": 190,
      "ē": 191,
      "ĕ": 192,
      "ė": 193,
      "ě": 194,
      "ğ": 195,
      "Ġ": 196,
      "ġ": 197,
      "Ħ": 198,
      "ħ": 199,
      "Ī": 200,
      "ī": 201,
      "ĭ": 202,
      "İ": 203,
      "ı": 204,
      "ļ": 205,
      "Ł": 206,
      "ł": 207,
      "ń": 208,
      "ň": 209,
      "ŋ": 210,
      "Ō": 211,
      "ō": 212,
      "ŏ": 213,
      "ő": 214,
      "Œ": 215,
      "œ": 216,
      "Ś": 217,
      "ś": 218,
      "Ŝ": 219,
      "Ş": 220,
      "ş": 221,
      "Š": 222,
      "š": 223,
      "Ţ": 224,
      "ţ": 225,
      "Ŧ": 226,
      "ũ": 227,
      "ū": 228,
      "ŭ": 229,
      "Ů": 230,
      "ů": 231,
      "Ÿ": 232,
      "Ż": 233,
      "ż": 234,
      "ž": 235,
      "Ə": 236,
      "ƒ": 237,
      "ơ": 238,
      "ƣ": 239,
      "ư": 240,
      "ǂ": 241,
      "ǃ": 242,
      "ǎ": 243,
      "ǐ": 244,
      "ǒ": 245,
      "ǔ": 246,
      "ǖ": 247,
      "Ǧ": 248,
      "ǧ": 249,
      "ǫ": 250,
      "ǰ": 251,
      "Ș": 252,
      "Ț": 253,
      "ț": 254,
      "ȸ": 255,
      "ȹ": 256,
      "ɐ": 257,
      "ɑ": 258,
      "ɒ": 259,
      "ɓ": 260,
      "ɔ": 261,
      "ɕ": 262,
      "ɘ": 263,
      "ə": 264,
      "ɛ": 265,
      "ɜ": 266,
      "ɝ": 267,
      "ɟ": 268,
      "ɡ": 269,
      "ɣ": 270,
      "ɤ": 271,
      "ɦ": 272,
      "ɨ": 273,
      "ɪ": 274,
      "ɫ": 275,
      "ɮ": 276,
      "ɯ": 277,
      "ɲ": 278,
      "ɳ": 279,
      "ɴ": 280,
      "ɵ": 281,
      "ɸ": 282,
      "ɽ": 283,
      "ɾ": 284,
      "ʀ": 285,
      "ʁ": 286,
      "ʂ": 287,
      "ʃ": 288,
      "ʈ": 289,
      "ʉ": 290,
      "ʊ": 291,
      "ʋ": 292,
      "ʌ": 293,
      "ʏ": 294,
      "ʒ": 295,
      "ʔ": 296,
      "ʕ": 297,
      "ʤ": 298,
      "ʦ": 299,
      "ʹ": 300,
      "ʻ": 301,
      "ʼ": 302,
      "ʽ": 303,
      "ʾ": 304,
      "ʿ": 305,
      "ˀ": 306,
      "ˆ": 307,
      "ˈ": 308,
      "ˌ": 309,
      "ː": 310,
      "ˮ": 311,
      "̀": 312,
      "́": 313,
      "̃": 314,
      "̄": 315,
      "̅": 316,
      "̆": 317,
      "̈": 318,
      "̊": 319,
      "̌": 320,
      "̍": 321,
      "̟": 322,
      "̠": 323,
      "̤": 324,
      "̥": 325,
      "̧": 326,
      "̩": 327,
      "̪": 328,
      "̯": 329,
      "̱": 330,
      "̵": 331,
      "̶": 332,
      "̺": 333,
      "ͅ": 334,
      "͍": 335,
      "͘": 336,
      "͡": 337,
      "ͭ": 338,
      "Ά": 339,
      "Α": 340,
      "Β": 341,
      "Γ": 342,
      "Δ": 343,
      "Ε": 344,
      "Θ": 345,
      "Ι": 346,
      "Κ": 347,
      "Λ": 348,
      "Μ": 349,
      "Ν": 350,
      "Ο": 351,
      "Π": 352,
      "Ρ": 353,
      "Σ": 354,
      "Τ": 355,
      "Υ": 356,
      "Φ": 357,
      "Χ": 358,
      "Ω": 359,
      "ά": 360,
      "έ": 361,
      "ή": 362,
      "ί": 363,
      "α": 364,
      "β": 365,
      "γ": 366,
      "δ": 367,
      "ε": 368,
      "ζ": 369,
      "η": 370,
      "θ": 371,
      "ι": 372,
      "κ": 373,
      "λ": 374,
      "μ": 375,
      "ν": 376,
      "ξ": 377,
      "ο": 378,
      "π": 379,
      "ρ": 380,
      "ς": 381,
      "σ": 382,
      "τ": 383,
      "υ": 384,
      "φ": 385,
      "χ": 386,
      "ψ": 387,
      "ω": 388,
      "ϊ": 389,
      "ϋ": 390,
      "ό": 391,
      "ύ": 392,
      "ώ": 393,
      "І": 394,
      "Ј": 395,
      "А": 396,
      "Б": 397,
      "В": 398,
      "Г": 399,
      "Д": 400,
      "Е": 401,
      "Ж": 402,
      "З": 403,
      "И": 404,
      "К": 405,
      "Л": 406,
      "М": 407,
      "Н": 408,
      "О": 409,
      "П": 410,
      "Р": 411,
      "С": 412,
      "Т": 413,
      "У": 414,
      "Ф": 415,
      "Х": 416,
      "Ц": 417,
      "Ч": 418,
      "Ш": 419,
      "Ъ": 420,
      "Ы": 421,
      "Э": 422,
      "Ю": 423,
      "Я": 424,
      "а": 425,
      "б": 426,
      "в": 427,
      "г": 428,
      "д": 429,
      "е": 430,
      "ж": 431,
      "з": 432,
      "и": 433,
      "й": 434,
      "к": 435,
      "л": 436,
      "м": 437,
      "н": 438,
      "о": 439,
      "п": 440,
      "р": 441,
      "с": 442,
      "т": 443,
      "у": 444,
      "ф": 445,
      "х": 446,
      "ц": 447,
      "ч": 448,
      "ш": 449,
      "щ": 450,
      "ъ": 451,
      "ы": 452,
      "ь": 453,
      "э": 454,
      "ю": 455,
      "я": 456,
      "ё": 457,
      "є": 458,
      "і": 459,
      "ї": 460,
      "ј": 461,
      "њ": 462,
      "ў": 463,
      "ѡ": 464,
      "ғ": 465,
      "Қ": 466,
      "қ": 467,
      "ҡ": 468,
      "ң": 469,
      "ү": 470,
      "ҷ": 471,
      "һ": 472,
      "Ӏ": 473,
      "Ә": 474,
      "ә": 475,
      "ӣ": 476,
      "ӧ": 477,
      "Ө": 478,
      "ө": 479,
      "Ա": 480,
      "Բ": 481,
      "Գ": 482,
      "Ե": 483,
      "Է": 484,
      "Կ": 485,
      "Հ": 486,
      "Ճ": 487,
      "Մ": 488,
      "Ն": 489,
      "Ո": 490,
      "Ռ": 491,
      "Վ": 492,
      "Տ": 493,
      "ա": 494,
      "բ": 495,
      "գ": 496,
      "դ": 497,
      "ե": 498,
      "զ": 499,
      "թ": 500,
      "ի": 501,
      "լ": 502,
      "խ": 503,
      "ծ": 504,
      "կ": 505,
      "հ": 506,
      "ղ": 507,
      "ճ": 508,
      "մ": 509,
      "յ": 510,
      "ն": 511,
      "շ": 512,
      "ո": 513,
      "պ": 514,
      "ջ": 515,
      "ռ": 516,
      "ս": 517,
      "վ": 518,
      "տ": 519,
      "ր": 520,
      "ց": 521,
      "ւ": 522,
      "ք": 523,
      "ְ": 524,
      "ֲ": 525,
      "ִ": 526,
      "ֵ": 527,
      "ֶ": 528,
      "ַ": 529,
      "ָ": 530,
      "ֹ": 531,
      "ּ": 532,
      "־": 533,
      "ׁ": 534,
      "ׂ": 535,
      "א": 536,
      "ב": 537,
      "ג": 538,
      "ד": 539,
      "ה": 540,
      "ו": 541,
      "ז": 542,
      "ח": 543,
      "ט": 544,
      "י": 545,
      "ך": 546,
      "כ": 547,
      "ל": 548,
      "ם": 549,
      "מ": 550,
      "ן": 551,
      "נ": 552,
      "ס": 553,
      "ע": 554,
      "ף": 555,
      "פ": 556,
      "ץ": 557,
      "צ": 558,
      "ק": 559,
      "ר": 560,
      "ש": 561,
      "ת": 562,
      "ײ": 563,
      "״": 564,
      "ء": 565,
      "آ": 566,
      "أ": 567,
      "ؤ": 568,
      "إ": 569,
      "ئ": 570,
      "ا": 571,
      "ب": 572,
      "ة": 573,
      "ت": 574,
      "ث": 575,
      "ج": 576,
      "ح": 577,
      "خ": 578,
      "د": 579,
      "ذ": 580,
      "ر": 581,
      "ز": 582,
      "س": 583,
      "ش": 584,
      "ص": 585,
      "ض": 586,
      "ط": 587,
      "ظ": 588,
      "ع": 589,
      "غ": 590,
      "ـ": 591,
      "ف": 592,
      "ق": 593,
      "ك": 594,
      "ل": 595,
      "م": 596,
      "ن": 597,
      "ه": 598,
      "و": 599,
      "ى": 600,
      "ي": 601,
      "ً": 602,
      "ٌ": 603,
      "َ": 604,
      "ُ": 605,
      "ِ": 606,
      "ّ": 607,
      "ْ": 608,
      "ٔ": 609,
      "ٱ": 610,
      "ٲ": 611,
      "ٹ": 612,
      "ټ": 613,
      "ٽ": 614,
      "پ": 615,
      "ٿ": 616,
      "ڄ": 617,
      "چ": 618,
      "ڇ": 619,
      "ڈ": 620,
      "ډ": 621,
      "ڊ": 622,
      "ڌ": 623,
      "ڑ": 624,
      "ړ": 625,
      "ڕ": 626,
      "ژ": 627,
      "ڙ": 628,
      "ښ": 629,
      "ڡ": 630,
      "ڢ": 631,
      "ک": 632,
      "ڪ": 633,
      "ګ": 634,
      "ڬ": 635,
      "گ": 636,
      "ڵ": 637,
      "ں": 638,
      "ڻ": 639,
      "ھ": 640,
      "ہ": 641,
      "ۂ": 642,
      "ۆ": 643,
      "ۇ": 644,
      "ۋ": 645,
      "ی": 646,
      "ۍ": 647,
      "ێ": 648,
      "ې": 649,
      "ے": 650,
      "ە": 651,
      "܀": 652,
      "ܐ": 653,
      "ܓ": 654,
      "ܕ": 655,
      "ܙ": 656,
      "ܚ": 657,
      "ܡ": 658,
      "ܢ": 659,
      "ܣ": 660,
      "ܪ": 661,
      "ܬ": 662,
      "ނ": 663,
      "ޅ": 664,
      "ކ": 665,
      "އ": 666,
      "މ": 667,
      "ފ": 668,
      "ލ": 669,
      "ސ": 670,
      "ޤ": 671,
      "ަ": 672,
      "ާ": 673,
      "ި": 674,
      "ީ": 675,
      "ު": 676,
      "ެ": 677,
      "ް": 678,
      "ँ": 679,
      "ं": 680,
      "ः": 681,
      "अ": 682,
      "आ": 683,
      "इ": 684,
      "ई": 685,
      "उ": 686,
      "ऊ": 687,
      "ऋ": 688,
      "ए": 689,
      "ऐ": 690,
      "ऑ": 691,
      "ओ": 692,
      "औ": 693,
      "क": 694,
      "ख": 695,
      "ग": 696,
      "घ": 697,
      "ङ": 698,
      "च": 699,
      "छ": 700,
      "ज": 701,
      "झ": 702,
      "ञ": 703,
      "ट": 704,
      "ठ": 705,
      "ड": 706,
      "ढ": 707,
      "ण": 708,
      "त": 709,
      "थ": 710,
      "द": 711,
      "ध": 712,
      "न": 713,
      "प": 714,
      "फ": 715,
      "ब": 716,
      "भ": 717,
      "म": 718,
      "य": 719,
      "र": 720,
      "ल": 721,
      "ळ": 722,
      "व": 723,
      "श": 724,
      "ष": 725,
      "स": 726,
      "ह": 727,
      "़": 728,
      "ा": 729,
      "ि": 730,
      "ी": 731,
      "ु": 732,
      "ू": 733,
      "ृ": 734,
      "ॄ": 735,
      "ॅ": 736,
      "े": 737,
      "ै": 738,
      "ॉ": 739,
      "ो": 740,
      "ौ": 741,
      "्": 742,
      "।": 743,
      "॥": 744,
      "०": 745,
      "३": 746,
      "॰": 747,
      "ঁ": 748,
      "ং": 749,
      "অ": 750,
      "আ": 751,
      "ই": 752,
      "উ": 753,
      "ঊ": 754,
      "এ": 755,
      "ও": 756,
      "ক": 757,
      "খ": 758,
      "গ": 759,
      "ঘ": 760,
      "ঙ": 761,
      "চ": 762,
      "ছ": 763,
      "জ": 764,
      "ঝ": 765,
      "ঞ": 766,
      "ট": 767,
      "ঠ": 768,
      "ড": 769,
      "ঢ": 770,
      "ণ": 771,
      "ত": 772,
      "থ": 773,
      "দ": 774,
      "ধ": 775,
      "ন": 776,
      "প": 777,
      "ফ": 778,
      "ব": 779,
      "ভ": 780,
      "ম": 781,
      "য": 782,
      "র": 783,
      "ল": 784,
      "শ": 785,
      "ষ": 786,
      "স": 787,
      "হ": 788,
      "়": 789,
      "া": 790,
      "ি": 791,
      "ী": 792,
      "ু": 793,
      "ূ": 794,
      "ৃ": 795,
      "ে": 796,
      "ো": 797,
      "ৌ": 798,
      "্": 799,
      "ৰ": 800,
      "ৱ": 801,
      "৳": 802,
      "ਂ": 803,
      "ਅ": 804,
      "ਆ": 805,
      "ਇ": 806,
      "ਈ": 807,
      "ਉ": 808,
      "ਏ": 809,
      "ਓ": 810,
      "ਕ": 811,
      "ਖ": 812,
      "ਗ": 813,
      "ਘ": 814,
      "ਚ": 815,
      "ਜ": 816,
      "ਝ": 817,
      "ਟ": 818,
      "ਠ": 819,
      "ਡ": 820,
      "ਣ": 821,
      "ਤ": 822,
      "ਥ": 823,
      "ਦ": 824,
      "ਧ": 825,
      "ਨ": 826,
      "ਪ": 827,
      "ਫ": 828,
      "ਬ": 829,
      "ਭ": 830,
      "ਮ": 831,
      "ਯ": 832,
      "ਰ": 833,
      "ਲ": 834,
      "ਵ": 835,
      "ਸ": 836,
      "ਹ": 837,
      "਼": 838,
      "ਾ": 839,
      "ਿ": 840,
      "ੀ": 841,
      "ੁ": 842,
      "ੂ": 843,
      "ੇ": 844,
      "ੈ": 845,
      "ੋ": 846,
      "੍": 847,
      "ੜ": 848,
      "ੰ": 849,
      "ੱ": 850,
      "ં": 851,
      "અ": 852,
      "આ": 853,
      "ઇ": 854,
      "ઉ": 855,
      "ક": 856,
      "ગ": 857,
      "ચ": 858,
      "છ": 859,
      "જ": 860,
      "ટ": 861,
      "ઠ": 862,
      "ડ": 863,
      "ઢ": 864,
      "ણ": 865,
      "ત": 866,
      "થ": 867,
      "દ": 868,
      "ધ": 869,
      "ન": 870,
      "પ": 871,
      "બ": 872,
      "ભ": 873,
      "મ": 874,
      "ય": 875,
      "ર": 876,
      "લ": 877,
      "ળ": 878,
      "વ": 879,
      "શ": 880,
      "ષ": 881,
      "સ": 882,
      "હ": 883,
      "ા": 884,
      "િ": 885,
      "ી": 886,
      "ુ": 887,
      "ૂ": 888,
      "ે": 889,
      "ૈ": 890,
      "ો": 891,
      "્": 892,
      "ଁ": 893,
      "ଆ": 894,
      "ଇ": 895,
      "ଉ": 896,
      "ଓ": 897,
      "କ": 898,
      "ଖ": 899,
      "ଗ": 900,
      "ଛ": 901,
      "ଜ": 902,
      "ଡ": 903,
      "ଣ": 904,
      "ତ": 905,
      "ଦ": 906,
      "ଧ": 907,
      "ନ": 908,
      "ପ": 909,
      "ଫ": 910,
      "ବ": 911,
      "ମ": 912,
      "ଯ": 913,
      "ର": 914,
      "ଲ": 915,
      "ଳ": 916,
      "ଶ": 917,
      "ଷ": 918,
      "ସ": 919,
      "ହ": 920,
      "଼": 921,
      "ା": 922,
      "ି": 923,
      "ୀ": 924,
      "ୁ": 925,
      "ୋ": 926,
      "୍": 927,
      "ୟ": 928,
      "ஃ": 929,
      "அ": 930,
      "ஆ": 931,
      "இ": 932,
      "ஈ": 933,
      "உ": 934,
      "ஊ": 935,
      "எ": 936,
      "ஏ": 937,
      "ஐ": 938,
      "ஒ": 939,
      "ஓ": 940,
      "ஔ": 941,
      "க": 942,
      "ங": 943,
      "ச": 944,
      "ஜ": 945,
      "ஞ": 946,
      "ட": 947,
      "஡": 948,
      "஢": 949,
      "ண": 950,
      "த": 951,
      "஦": 952,
      "ந": 953,
      "ன": 954,
      "ப": 955,
      "ம": 956,
      "ய": 957,
      "ர": 958,
      "ற": 959,
      "ல": 960,
      "ள": 961,
      "ழ": 962,
      "வ": 963,
      "ஶ": 964,
      "ஷ": 965,
      "ஸ": 966,
      "ஹ": 967,
      "ா": 968,
      "ி": 969,
      "ீ": 970,
      "ு": 971,
      "ூ": 972,
      "ெ": 973,
      "ே": 974,
      "ை": 975,
      "ொ": 976,
      "ோ": 977,
      "ௌ": 978,
      "்": 979,
      "ௐ": 980,
      "ௗ": 981,
      "௦": 982,
      "௧": 983,
      "௨": 984,
      "௪": 985,
      "௫": 986,
      "௬": 987,
      "௭": 988,
      "௲": 989,
      "௳": 990,
      "௸": 991,
      "௺": 992,
      "௾": 993,
      "ం": 994,
      "అ": 995,
      "ఆ": 996,
      "ఇ": 997,
      "ఒ": 998,
      "క": 999,
      "గ": 1000,
      "చ": 1001,
      "ఛ": 1002,
      "జ": 1003,
      "ట": 1004,
      "డ": 1005,
      "ణ": 1006,
      "త": 1007,
      "థ": 1008,
      "ద": 1009,
      "ధ": 1010,
      "న": 1011,
      "ప": 1012,
      "బ": 1013,
      "భ": 1014,
      "మ": 1015,
      "య": 1016,
      "ర": 1017,
      "ల": 1018,
      "వ": 1019,
      "శ": 1020,
      "ష": 1021,
      "స": 1022,
      "హ": 1023,
      "ా": 1024,
      "ి": 1025,
      "ీ": 1026,
      "ు": 1027,
      "ూ": 1028,
      "ె": 1029,
      "ే": 1030,
      "ై": 1031,
      "ో": 1032,
      "్": 1033,
      "౦": 1034,
      "ಂ": 1035,
      "ಅ": 1036,
      "ಆ": 1037,
      "ಇ": 1038,
      "ಉ": 1039,
      "ಒ": 1040,
      "ಕ": 1041,
      "ಗ": 1042,
      "ಘ": 1043,
      "ಚ": 1044,
      "ಜ": 1045,
      "ಟ": 1046,
      "ಡ": 1047,
      "ಣ": 1048,
      "ತ": 1049,
      "ಥ": 1050,
      "ದ": 1051,
      "ಧ": 1052,
      "ನ": 1053,
      "ಪ": 1054,
      "ಫ": 1055,
      "ಬ": 1056,
      "ಭ": 1057,
      "ಮ": 1058,
      "ಯ": 1059,
      "ರ": 1060,
      "ಲ": 1061,
      "ಳ": 1062,
      "ವ": 1063,
      "ಶ": 1064,
      "ಷ": 1065,
      "ಸ": 1066,
      "ಹ": 1067,
      "ಾ": 1068,
      "ಿ": 1069,
      "ೀ": 1070,
      "ು": 1071,
      "ೂ": 1072,
      "ೃ": 1073,
      "ೆ": 1074,
      "ೇ": 1075,
      "ೊ": 1076,
      "ೋ": 1077,
      "ೌ": 1078,
      "್": 1079,
      "ം": 1080,
      "അ": 1081,
      "ആ": 1082,
      "ഇ": 1083,
      "ഉ": 1084,
      "ഊ": 1085,
      "എ": 1086,
      "ക": 1087,
      "ഗ": 1088,
      "ങ": 1089,
      "ച": 1090,
      "ജ": 1091,
      "ഞ": 1092,
      "ട": 1093,
      "ഡ": 1094,
      "ണ": 1095,
      "ത": 1096,
      "ഥ": 1097,
      "ദ": 1098,
      "ധ": 1099,
      "ന": 1100,
      "പ": 1101,
      "ഫ": 1102,
      "ബ": 1103,
      "ഭ": 1104,
      "മ": 1105,
      "യ": 1106,
      "ര": 1107,
      "റ": 1108,
      "ല": 1109,
      "ള": 1110,
      "ഴ": 1111,
      "വ": 1112,
      "ശ": 1113,
      "ഷ": 1114,
      "സ": 1115,
      "ഹ": 1116,
      "ാ": 1117,
      "ി": 1118,
      "ീ": 1119,
      "ു": 1120,
      "ൂ": 1121,
      "ൃ": 1122,
      "െ": 1123,
      "േ": 1124,
      "ൈ": 1125,
      "ൊ": 1126,
      "ോ": 1127,
      "്": 1128,
      "ൗ": 1129,
      "ൻ": 1130,
      "ർ": 1131,
      "ൽ": 1132,
      "ං": 1133,
      "අ": 1134,
      "ආ": 1135,
      "ඇ": 1136,
      "ඉ": 1137,
      "ඊ": 1138,
      "උ": 1139,
      "ඌ": 1140,
      "එ": 1141,
      "ක": 1142,
      "ග": 1143,
      "ච": 1144,
      "ජ": 1145,
      "ට": 1146,
      "ඩ": 1147,
      "ණ": 1148,
      "ත": 1149,
      "ද": 1150,
      "ධ": 1151,
      "න": 1152,
      "ඳ": 1153,
      "ප": 1154,
      "බ": 1155,
      "ම": 1156,
      "ඹ": 1157,
      "ය": 1158,
      "ර": 1159,
      "ල": 1160,
      "ව": 1161,
      "ශ": 1162,
      "ෂ": 1163,
      "ස": 1164,
      "හ": 1165,
      "ළ": 1166,
      "්": 1167,
      "ා": 1168,
      "ැ": 1169,
      "ෑ": 1170,
      "ි": 1171,
      "ී": 1172,
      "ු": 1173,
      "ෙ": 1174,
      "ේ": 1175,
      "ො": 1176,
      "ෝ": 1177,
      "ෲ": 1178,
      "ก": 1179,
      "ข": 1180,
      "ค": 1181,
      "ง": 1182,
      "จ": 1183,
      "ช": 1184,
      "ญ": 1185,
      "ฐ": 1186,
      "ฑ": 1187,
      "ณ": 1188,
      "ด": 1189,
      "ต": 1190,
      "ถ": 1191,
      "ท": 1192,
      "ธ": 1193,
      "น": 1194,
      "บ": 1195,
      "ป": 1196,
      "พ": 1197,
      "ฟ": 1198,
      "ภ": 1199,
      "ม": 1200,
      "ย": 1201,
      "ร": 1202,
      "ล": 1203,
      "ว": 1204,
      "ศ": 1205,
      "ส": 1206,
      "ห": 1207,
      "อ": 1208,
      "ะ": 1209,
      "ั": 1210,
      "า": 1211,
      "ิ": 1212,
      "ี": 1213,
      "ึ": 1214,
      "ื": 1215,
      "ุ": 1216,
      "ู": 1217,
      "฿": 1218,
      "เ": 1219,
      "แ": 1220,
      "โ": 1221,
      "ใ": 1222,
      "ไ": 1223,
      "็": 1224,
      "่": 1225,
      "้": 1226,
      "์": 1227,
      "ํ": 1228,
      "ຄ": 1229,
      "ງ": 1230,
      "ຈ": 1231,
      "ນ": 1232,
      "ວ": 1233,
      "ັ": 1234,
      "ົ": 1235,
      "ຽ": 1236,
      "་": 1237,
      "།": 1238,
      "ག": 1239,
      "ང": 1240,
      "ན": 1241,
      "པ": 1242,
      "བ": 1243,
      "མ": 1244,
      "ཙ": 1245,
      "ས": 1246,
      "ེ": 1247,
      "ོ": 1248,
      "ླ": 1249,
      "က": 1250,
      "ဂ": 1251,
      "င": 1252,
      "စ": 1253,
      "ဇ": 1254,
      "ည": 1255,
      "တ": 1256,
      "ထ": 1257,
      "ဓ": 1258,
      "န": 1259,
      "ပ": 1260,
      "ဘ": 1261,
      "မ": 1262,
      "ယ": 1263,
      "ရ": 1264,
      "သ": 1265,
      "ဟ": 1266,
      "အ": 1267,
      "ာ": 1268,
      "ိ": 1269,
      "ီ": 1270,
      "ု": 1271,
      "ူ": 1272,
      "ေ": 1273,
      "ံ": 1274,
      "း": 1275,
      "္": 1276,
      "်": 1277,
      "ျ": 1278,
      "ြ": 1279,
      "ွ": 1280,
      "ှ": 1281,
      "ა": 1282,
      "ბ": 1283,
      "ე": 1284,
      "ზ": 1285,
      "თ": 1286,
      "ი": 1287,
      "ლ": 1288,
      "ნ": 1289,
      "რ": 1290,
      "ს": 1291,
      "უ": 1292,
      "ფ": 1293,
      "ქ": 1294,
      "ჩ": 1295,
      "ჭ": 1296,
      "ᄀ": 1297,
      "ᄁ": 1298,
      "ᄂ": 1299,
      "ᄃ": 1300,
      "ᄄ": 1301,
      "ᄅ": 1302,
      "ᄆ": 1303,
      "ᄇ": 1304,
      "ᄈ": 1305,
      "ᄉ": 1306,
      "ᄊ": 1307,
      "ᄋ": 1308,
      "ᄌ": 1309,
      "ᄍ": 1310,
      "ᄎ": 1311,
      "ᄏ": 1312,
      "ᄐ": 1313,
      "ᄑ": 1314,
      "ᄒ": 1315,
      "ᄓ": 1316,
      "ᄔ": 1317,
      "ᄕ": 1318,
      "ᄖ": 1319,
      "ᄗ": 1320,
      "ᄘ": 1321,
      "ᄙ": 1322,
      "ᄚ": 1323,
      "ᄛ": 1324,
      "ᄜ": 1325,
      "ᄝ": 1326,
      "ᄞ": 1327,
      "ᄟ": 1328,
      "ᄠ": 1329,
      "ᄡ": 1330,
      "ᄢ": 1331,
      "ᄣ": 1332,
      "ᄤ": 1333,
      "ᄥ": 1334,
      "ᄦ": 1335,
      "ᄧ": 1336,
      "ᄨ": 1337,
      "ᄩ": 1338,
      "ᄪ": 1339,
      "ᄫ": 1340,
      "ᄬ": 1341,
      "ᄭ": 1342,
      "ᄮ": 1343,
      "ᄯ": 1344,
      "ᄰ": 1345,
      "ᄱ": 1346,
      "ᄲ": 1347,
      "ᄳ": 1348,
      "ᄴ": 1349,
      "ᄵ": 1350,
      "ᄶ": 1351,
      "ᄷ": 1352,
      "ᄸ": 1353,
      "ᄹ": 1354,
      "ᄺ": 1355,
      "ᄻ": 1356,
      "ᄼ": 1357,
      "ᄽ": 1358,
      "ᄾ": 1359,
      "ᄿ": 1360,
      "ᅀ": 1361,
      "ᅁ": 1362,
      "ᅂ": 1363,
      "ᅃ": 1364,
      "ᅄ": 1365,
      "ᅅ": 1366,
      "ᅆ": 1367,
      "ᅇ": 1368,
      "ᅈ": 1369,
      "ᅉ": 1370,
      "ᅊ": 1371,
      "ᅋ": 1372,
      "ᅌ": 1373,
      "ᅍ": 1374,
      "ᅎ": 1375,
      "ᅏ": 1376,
      "ᅐ": 1377,
      "ᅑ": 1378,
      "ᅒ": 1379,
      "ᅓ": 1380,
      "ᅔ": 1381,
      "ᅕ": 1382,
      "ᅖ": 1383,
      "ᅗ": 1384,
      "ᅘ": 1385,
      "ᅙ": 1386,
      "ᅡ": 1387,
      "ᅢ": 1388,
      "ᅣ": 1389,
      "ᅤ": 1390,
      "ᅥ": 1391,
      "ᅦ": 1392,
      "ᅧ": 1393,
      "ᅨ": 1394,
      "ᅩ": 1395,
      "ᅪ": 1396,
      "ᅫ": 1397,
      "ᅬ": 1398,
      "ᅭ": 1399,
      "ᅮ": 1400,
      "ᅯ": 1401,
      "ᅰ": 1402,
      "ᅱ": 1403,
      "ᅲ": 1404,
      "ᅳ": 1405,
      "ᅴ": 1406,
      "ᅵ": 1407,
      "ᆞ": 1408,
      "ᆪ": 1409,
      "ᆬ": 1410,
      "ᆭ": 1411,
      "ᆰ": 1412,
      "ᆱ": 1413,
      "ᆲ": 1414,
      "ᆳ": 1415,
      "ᆴ": 1416,
      "ᆵ": 1417,
      "ᇃ": 1418,
      "ᇄ": 1419,
      "ᇇ": 1420,
      "ᇈ": 1421,
      "ᇉ": 1422,
      "ᇋ": 1423,
      "ᇌ": 1424,
      "ᇎ": 1425,
      "ᇏ": 1426,
      "ᇑ": 1427,
      "ᇒ": 1428,
      "ᇓ": 1429,
      "ᇔ": 1430,
      "ᇕ": 1431,
      "ᇖ": 1432,
      "ᇗ": 1433,
      "ᇘ": 1434,
      "ᇙ": 1435,
      "ᇚ": 1436,
      "ᇛ": 1437,
      "ᇝ": 1438,
      "ᇞ": 1439,
      "ᇟ": 1440,
      "ᇠ": 1441,
      "ᇡ": 1442,
      "ᇣ": 1443,
      "ᇥ": 1444,
      "ᇬ": 1445,
      "ᇭ": 1446,
      "ᇮ": 1447,
      "ᇯ": 1448,
      "ᇱ": 1449,
      "ᇲ": 1450,
      "ᇵ": 1451,
      "ᇶ": 1452,
      "ᇷ": 1453,
      "ᇸ": 1454,
      "ል": 1455,
      "መ": 1456,
      "ማ": 1457,
      "ም": 1458,
      "ሪ": 1459,
      "ራ": 1460,
      "ር": 1461,
      "ሰ": 1462,
      "ሳ": 1463,
      "ስ": 1464,
      "ቅ": 1465,
      "ባ": 1466,
      "ተ": 1467,
      "ት": 1468,
      "ን": 1469,
      "አ": 1470,
      "ኣ": 1471,
      "ዕ": 1472,
      "ያ": 1473,
      "ዮ": 1474,
      "ዱ": 1475,
      "ድ": 1476,
      "ግ": 1477,
      "ፅ": 1478,
      "ᑖ": 1479,
      "ᑦ": 1480,
      "ᑭ": 1481,
      "ᒃ": 1482,
      "ᓄ": 1483,
      "ᓇ": 1484,
      "ᓗ": 1485,
      "ᕗ": 1486,
      "ᕿ": 1487,
      "ᖅ": 1488,
      "ក": 1489,
      "ខ": 1490,
      "គ": 1491,
      "ង": 1492,
      "ច": 1493,
      "ជ": 1494,
      "ញ": 1495,
      "ដ": 1496,
      "ត": 1497,
      "ទ": 1498,
      "ន": 1499,
      "ប": 1500,
      "ព": 1501,
      "ភ": 1502,
      "ម": 1503,
      "រ": 1504,
      "ល": 1505,
      "វ": 1506,
      "ស": 1507,
      "ហ": 1508,
      "អ": 1509,
      "ា": 1510,
      "ិ": 1511,
      "ី": 1512,
      "ឺ": 1513,
      "ុ": 1514,
      "ៀ": 1515,
      "េ": 1516,
      "ែ": 1517,
      "ៃ": 1518,
      "ោ": 1519,
      "ៅ": 1520,
      "ំ": 1521,
      "ះ": 1522,
      "់": 1523,
      "្": 1524,
      "ᠠ": 1525,
      "ᠡ": 1526,
      "ᠥ": 1527,
      "ᠨ": 1528,
      "ᠩ": 1529,
      "ᠬ": 1530,
      "ᠭ": 1531,
      "ᠮ": 1532,
      "ᠯ": 1533,
      "ᠰ": 1534,
      "ᠶ": 1535,
      "ᡠ": 1536,
      "ᡥ": 1537,
      "ᡳ": 1538,
      "ᱛ": 1539,
      "ᱟ": 1540,
      "ᱡ": 1541,
      "ᱢ": 1542,
      "ᱤ": 1543,
      "ᱥ": 1544,
      "ᱦ": 1545,
      "ᱨ": 1546,
      "ᱩ": 1547,
      "ᱭ": 1548,
      "ᱮ": 1549,
      "ᱰ": 1550,
      "ᱱ": 1551,
      "ᱵ": 1552,
      "ᱸ": 1553,
      "ᱹ": 1554,
      "ᵻ": 1555,
      "ḇ": 1556,
      "ḍ": 1557,
      "ḏ": 1558,
      "ḗ": 1559,
      "ḡ": 1560,
      "Ḥ": 1561,
      "ḥ": 1562,
      "Ḩ": 1563,
      "Ḫ": 1564,
      "ḫ": 1565,
      "ḵ": 1566,
      "ṃ": 1567,
      "ṅ": 1568,
      "ṇ": 1569,
      "ṓ": 1570,
      "ṙ": 1571,
      "Ṛ": 1572,
      "ṛ": 1573,
      "ṟ": 1574,
      "Ṣ": 1575,
      "ṣ": 1576,
      "Ṭ": 1577,
      "ṭ": 1578,
      "ṯ": 1579,
      "Ẓ": 1580,
      "ẓ": 1581,
      "ẕ": 1582,
      "ạ": 1583,
      "ả": 1584,
      "ấ": 1585,
      "ầ": 1586,
      "ẫ": 1587,
      "ậ": 1588,
      "ắ": 1589,
      "ẹ": 1590,
      "ẻ": 1591,
      "ẽ": 1592,
      "ế": 1593,
      "ề": 1594,
      "ể": 1595,
      "ễ": 1596,
      "ệ": 1597,
      "ỉ": 1598,
      "ị": 1599,
      "ọ": 1600,
      "ố": 1601,
      "ồ": 1602,
      "ổ": 1603,
      "ộ": 1604,
      "ớ": 1605,
      "ờ": 1606,
      "ở": 1607,
      "ỡ": 1608,
      "ợ": 1609,
      "ụ": 1610,
      "ứ": 1611,
      "ử": 1612,
      "ự": 1613,
      "ỵ": 1614,
      "ỹ": 1615,
      "ἀ": 1616,
      "ἁ": 1617,
      "ἄ": 1618,
      "ἅ": 1619,
      "Ἀ": 1620,
      "Ἁ": 1621,
      "Ἄ": 1622,
      "ἐ": 1623,
      "ἔ": 1624,
      "Ἐ": 1625,
      "Ἕ": 1626,
      "ἡ": 1627,
      "ἤ": 1628,
      "Ἡ": 1629,
      "ἰ": 1630,
      "ἱ": 1631,
      "ἴ": 1632,
      "ἵ": 1633,
      "ἶ": 1634,
      "Ἰ": 1635,
      "Ἱ": 1636,
      "Ἴ": 1637,
      "ὀ": 1638,
      "ὁ": 1639,
      "ὄ": 1640,
      "ὅ": 1641,
      "Ὄ": 1642,
      "ὐ": 1643,
      "ὑ": 1644,
      "ὤ": 1645,
      "ὦ": 1646,
      "ὰ": 1647,
      "ὴ": 1648,
      "ὶ": 1649,
      "ᾍ": 1650,
      "ᾶ": 1651,
      "ῃ": 1652,
      "ῆ": 1653,
      "ῖ": 1654,
      "ῥ": 1655,
      "ῦ": 1656,
      "ῳ": 1657,
      "ῶ": 1658,
      "​": 1659,
      "‌": 1660,
      "‍": 1661,
      "‎": 1662,
      "‏": 1663,
      "‐": 1664,
      "–": 1665,
      "—": 1666,
      "‘": 1667,
      "’": 1668,
      "‚": 1669,
      "‛": 1670,
      "“": 1671,
      "”": 1672,
      "„": 1673,
      "‟": 1674,
      "†": 1675,
      "‡": 1676,
      "•": 1677,
      "‪": 1678,
      "‫": 1679,
      "‬": 1680,
      "‭": 1681,
      "‰": 1682,
      "′": 1683,
      "‹": 1684,
      "›": 1685,
      "⁂": 1686,
      "⁄": 1687,
      "⁠": 1688,
      "⁡": 1689,
      "₤": 1690,
      "₪": 1691,
      "€": 1692,
      "₱": 1693,
      "₹": 1694,
      "₿": 1695,
      "←": 1696,
      "↑": 1697,
      "→": 1698,
      "↓": 1699,
      "↛": 1700,
      "↦": 1701,
      "↩": 1702,
      "⇌": 1703,
      "⇒": 1704,
      "⇔": 1705,
      "⇦": 1706,
      "⇨": 1707,
      "⇩": 1708,
      "∂": 1709,
      "∅": 1710,
      "∇": 1711,
      "∈": 1712,
      "∑": 1713,
      "−": 1714,
      "∕": 1715,
      "∖": 1716,
      "∗": 1717,
      "∘": 1718,
      "√": 1719,
      "∝": 1720,
      "∞": 1721,
      "∠": 1722,
      "∣": 1723,
      "∥": 1724,
      "∧": 1725,
      "∨": 1726,
      "∩": 1727,
      "∪": 1728,
      "∫": 1729,
      "∮": 1730,
      "∼": 1731,
      "≃": 1732,
      "≈": 1733,
      "≠": 1734,
      "≡": 1735,
      "≤": 1736,
      "≥": 1737,
      "≫": 1738,
      "⊂": 1739,
      "⊃": 1740,
      "⊆": 1741,
      "⊊": 1742,
      "⊕": 1743,
      "⊖": 1744,
      "⊗": 1745,
      "⊢": 1746,
      "⊥": 1747,
      "⋃": 1748,
      "⋅": 1749,
      "⋯": 1750,
      "⌕": 1751,
      "│": 1752,
      "▁": 1753,
      "▄": 1754,
      "■": 1755,
      "□": 1756,
      "▪": 1757,
      "▫": 1758,
      "▲": 1759,
      "△": 1760,
      "▴": 1761,
      "▶": 1762,
      "▸": 1763,
      "►": 1764,
      "▼": 1765,
      "▽": 1766,
      "▾": 1767,
      "◀": 1768,
      "◆": 1769,
      "◇": 1770,
      "○": 1771,
      "◌": 1772,
      "●": 1773,
      "◯": 1774,
      "☃": 1775,
      "★": 1776,
      "☎": 1777,
      "☏": 1778,
      "☕": 1779,
      "☞": 1780,
      "☩": 1781,
      "☸": 1782,
      "☺": 1783,
      "☼": 1784,
      "♀": 1785,
      "♍": 1786,
      "♠": 1787,
      "♣": 1788,
      "♥": 1789,
      "♦": 1790,
      "♪": 1791,
      "♭": 1792,
      "⚕": 1793,
      "✅": 1794,
      "✆": 1795,
      "✍": 1796,
      "✓": 1797,
      "✔": 1798,
      "✘": 1799,
      "✨": 1800,
      "❁": 1801,
      "❍": 1802,
      "❏": 1803,
      "❑": 1804,
      "❓": 1805,
      "❖": 1806,
      "❗": 1807,
      "❤": 1808,
      "➊": 1809,
      "➋": 1810,
      "➌": 1811,
      "➢": 1812,
      "➤": 1813,
      "➧": 1814,
      "⟨": 1815,
      "⟩": 1816,
      "⟷": 1817,
      "⠛": 1818,
      "⦁": 1819,
      "⬇": 1820,
      "ⴰ": 1821,
      "ⴼ": 1822,
      "ⴽ": 1823,
      "ⵉ": 1824,
      "ⵏ": 1825,
      "ⵔ": 1826,
      "、": 1827,
      "。": 1828,
      "ず": 1829,
      "た": 1830,
      "の": 1831,
      "み": 1832,
      "り": 1833,
      "ア": 1834,
      "イ": 1835,
      "ウ": 1836,
      "オ": 1837,
      "ガ": 1838,
      "ギ": 1839,
      "ク": 1840,
      "コ": 1841,
      "サ": 1842,
      "ジ": 1843,
      "ス": 1844,
      "ソ": 1845,
      "ダ": 1846,
      "チ": 1847,
      "ッ": 1848,
      "ツ": 1849,
      "テ": 1850,
      "ト": 1851,
      "ド": 1852,
      "ナ": 1853,
      "ニ": 1854,
      "ノ": 1855,
      "パ": 1856,
      "ビ": 1857,
      "ピ": 1858,
      "フ": 1859,
      "ベ": 1860,
      "ホ": 1861,
      "ポ": 1862,
      "マ": 1863,
      "ミ": 1864,
      "ャ": 1865,
      "ョ": 1866,
      "ラ": 1867,
      "リ": 1868,
      "レ": 1869,
      "ロ": 1870,
      "ワ": 1871,
      "ン": 1872,
      "・": 1873,
      "ー": 1874,
      "一": 1875,
      "丁": 1876,
      "三": 1877,
      "上": 1878,
      "下": 1879,
      "不": 1880,
      "与": 1881,
      "世": 1882,
      "东": 1883,
      "严": 1884,
      "中": 1885,
      "丹": 1886,
      "主": 1887,
      "乌": 1888,
      "九": 1889,
      "也": 1890,
      "书": 1891,
      "事": 1892,
      "二": 1893,
      "云": 1894,
      "互": 1895,
      "五": 1896,
      "亚": 1897,
      "交": 1898,
      "京": 1899,
      "人": 1900,
      "仁": 1901,
      "仇": 1902,
      "仓": 1903,
      "仙": 1904,
      "代": 1905,
      "仪": 1906,
      "件": 1907,
      "会": 1908,
      "传": 1909,
      "伽": 1910,
      "佐": 1911,
      "体": 1912,
      "佛": 1913,
      "作": 1914,
      "保": 1915,
      "信": 1916,
      "倉": 1917,
      "傳": 1918,
      "儀": 1919,
      "元": 1920,
      "光": 1921,
      "克": 1922,
      "兔": 1923,
      "党": 1924,
      "內": 1925,
      "八": 1926,
      "公": 1927,
      "六": 1928,
      "共": 1929,
      "其": 1930,
      "典": 1931,
      "内": 1932,
      "冉": 1933,
      "冷": 1934,
      "凤": 1935,
      "分": 1936,
      "切": 1937,
      "刊": 1938,
      "列": 1939,
      "利": 1940,
      "剌": 1941,
      "剧": 1942,
      "力": 1943,
      "功": 1944,
      "加": 1945,
      "勒": 1946,
      "勝": 1947,
      "勿": 1948,
      "化": 1949,
      "北": 1950,
      "区": 1951,
      "医": 1952,
      "區": 1953,
      "十": 1954,
      "千": 1955,
      "半": 1956,
      "华": 1957,
      "南": 1958,
      "卜": 1959,
      "印": 1960,
      "厂": 1961,
      "历": 1962,
      "原": 1963,
      "厥": 1964,
      "参": 1965,
      "及": 1966,
      "友": 1967,
      "口": 1968,
      "可": 1969,
      "台": 1970,
      "司": 1971,
      "合": 1972,
      "吉": 1973,
      "名": 1974,
      "向": 1975,
      "命": 1976,
      "和": 1977,
      "哥": 1978,
      "喀": 1979,
      "善": 1980,
      "喜": 1981,
      "嘉": 1982,
      "囊": 1983,
      "四": 1984,
      "団": 1985,
      "园": 1986,
      "国": 1987,
      "图": 1988,
      "圆": 1989,
      "國": 1990,
      "園": 1991,
      "圓": 1992,
      "土": 1993,
      "圣": 1994,
      "地": 1995,
      "场": 1996,
      "块": 1997,
      "坡": 1998,
      "城": 1999,
      "埠": 2000,
      "塊": 2001,
      "塑": 2002,
      "塔": 2003,
      "壁": 2004,
      "备": 2005,
      "复": 2006,
      "夏": 2007,
      "外": 2008,
      "大": 2009,
      "天": 2010,
      "夫": 2011,
      "央": 2012,
      "奄": 2013,
      "套": 2014,
      "女": 2015,
      "如": 2016,
      "始": 2017,
      "子": 2018,
      "孔": 2019,
      "字": 2020,
      "孝": 2021,
      "季": 2022,
      "学": 2023,
      "學": 2024,
      "宁": 2025,
      "安": 2026,
      "宗": 2027,
      "定": 2028,
      "宜": 2029,
      "宣": 2030,
      "宮": 2031,
      "家": 2032,
      "宿": 2033,
      "寶": 2034,
      "寺": 2035,
      "封": 2036,
      "小": 2037,
      "少": 2038,
      "尔": 2039,
      "局": 2040,
      "居": 2041,
      "属": 2042,
      "山": 2043,
      "屿": 2044,
      "岐": 2045,
      "岔": 2046,
      "岗": 2047,
      "岛": 2048,
      "岡": 2049,
      "峰": 2050,
      "島": 2051,
      "崎": 2052,
      "嶼": 2053,
      "州": 2054,
      "巨": 2055,
      "己": 2056,
      "巴": 2057,
      "市": 2058,
      "布": 2059,
      "帝": 2060,
      "師": 2061,
      "幌": 2062,
      "干": 2063,
      "平": 2064,
      "年": 2065,
      "庄": 2066,
      "床": 2067,
      "底": 2068,
      "度": 2069,
      "康": 2070,
      "廣": 2071,
      "开": 2072,
      "式": 2073,
      "弟": 2074,
      "当": 2075,
      "形": 2076,
      "德": 2077,
      "忠": 2078,
      "总": 2079,
      "悠": 2080,
      "惠": 2081,
      "意": 2082,
      "懷": 2083,
      "懿": 2084,
      "戈": 2085,
      "成": 2086,
      "戲": 2087,
      "戸": 2088,
      "所": 2089,
      "打": 2090,
      "托": 2091,
      "抢": 2092,
      "拉": 2093,
      "拳": 2094,
      "振": 2095,
      "撫": 2096,
      "改": 2097,
      "政": 2098,
      "敗": 2099,
      "教": 2100,
      "散": 2101,
      "数": 2102,
      "文": 2103,
      "斯": 2104,
      "新": 2105,
      "方": 2106,
      "於": 2107,
      "施": 2108,
      "族": 2109,
      "日": 2110,
      "时": 2111,
      "昇": 2112,
      "明": 2113,
      "易": 2114,
      "星": 2115,
      "春": 2116,
      "時": 2117,
      "晉": 2118,
      "普": 2119,
      "暗": 2120,
      "暴": 2121,
      "曇": 2122,
      "曲": 2123,
      "書": 2124,
      "曼": 2125,
      "會": 2126,
      "月": 2127,
      "朝": 2128,
      "期": 2129,
      "木": 2130,
      "本": 2131,
      "札": 2132,
      "术": 2133,
      "机": 2134,
      "李": 2135,
      "村": 2136,
      "杜": 2137,
      "来": 2138,
      "東": 2139,
      "松": 2140,
      "林": 2141,
      "柔": 2142,
      "株": 2143,
      "梆": 2144,
      "梨": 2145,
      "椿": 2146,
      "榜": 2147,
      "樂": 2148,
      "樟": 2149,
      "横": 2150,
      "檗": 2151,
      "欣": 2152,
      "欧": 2153,
      "欲": 2154,
      "歌": 2155,
      "歓": 2156,
      "正": 2157,
      "武": 2158,
      "歷": 2159,
      "毒": 2160,
      "毛": 2161,
      "毫": 2162,
      "民": 2163,
      "水": 2164,
      "汁": 2165,
      "汉": 2166,
      "汗": 2167,
      "江": 2168,
      "池": 2169,
      "沈": 2170,
      "沙": 2171,
      "河": 2172,
      "法": 2173,
      "波": 2174,
      "泰": 2175,
      "洛": 2176,
      "洞": 2177,
      "津": 2178,
      "洲": 2179,
      "派": 2180,
      "流": 2181,
      "浙": 2182,
      "浜": 2183,
      "浣": 2184,
      "海": 2185,
      "淘": 2186,
      "淡": 2187,
      "淮": 2188,
      "清": 2189,
      "渭": 2190,
      "港": 2191,
      "湖": 2192,
      "湾": 2193,
      "滥": 2194,
      "滩": 2195,
      "漠": 2196,
      "漢": 2197,
      "濟": 2198,
      "瀋": 2199,
      "瀑": 2200,
      "火": 2201,
      "烧": 2202,
      "焰": 2203,
      "熊": 2204,
      "爆": 2205,
      "牌": 2206,
      "牙": 2207,
      "犯": 2208,
      "独": 2209,
      "猫": 2210,
      "玉": 2211,
      "王": 2212,
      "珍": 2213,
      "珮": 2214,
      "理": 2215,
      "琛": 2216,
      "瑠": 2217,
      "璃": 2218,
      "甘": 2219,
      "生": 2220,
      "甫": 2221,
      "田": 2222,
      "甲": 2223,
      "电": 2224,
      "町": 2225,
      "界": 2226,
      "畫": 2227,
      "病": 2228,
      "白": 2229,
      "的": 2230,
      "皇": 2231,
      "益": 2232,
      "相": 2233,
      "省": 2234,
      "県": 2235,
      "真": 2236,
      "睿": 2237,
      "知": 2238,
      "矩": 2239,
      "短": 2240,
      "石": 2241,
      "砂": 2242,
      "研": 2243,
      "砖": 2244,
      "砸": 2245,
      "社": 2246,
      "禁": 2247,
      "禅": 2248,
      "福": 2249,
      "禪": 2250,
      "科": 2251,
      "種": 2252,
      "究": 2253,
      "空": 2254,
      "突": 2255,
      "窗": 2256,
      "立": 2257,
      "站": 2258,
      "笛": 2259,
      "笼": 2260,
      "管": 2261,
      "紫": 2262,
      "細": 2263,
      "紹": 2264,
      "經": 2265,
      "縄": 2266,
      "红": 2267,
      "续": 2268,
      "罗": 2269,
      "罪": 2270,
      "羅": 2271,
      "美": 2272,
      "群": 2273,
      "義": 2274,
      "肃": 2275,
      "肅": 2276,
      "肥": 2277,
      "胎": 2278,
      "腊": 2279,
      "至": 2280,
      "臺": 2281,
      "航": 2282,
      "船": 2283,
      "芝": 2284,
      "芥": 2285,
      "花": 2286,
      "芽": 2287,
      "苑": 2288,
      "苹": 2289,
      "華": 2290,
      "萍": 2291,
      "著": 2292,
      "蒙": 2293,
      "蔵": 2294,
      "薬": 2295,
      "藍": 2296,
      "藝": 2297,
      "藥": 2298,
      "藩": 2299,
      "蘭": 2300,
      "虎": 2301,
      "蚊": 2302,
      "蚌": 2303,
      "行": 2304,
      "術": 2305,
      "裕": 2306,
      "裸": 2307,
      "製": 2308,
      "西": 2309,
      "要": 2310,
      "見": 2311,
      "视": 2312,
      "角": 2313,
      "言": 2314,
      "記": 2315,
      "詞": 2316,
      "語": 2317,
      "説": 2318,
      "词": 2319,
      "语": 2320,
      "说": 2321,
      "豉": 2322,
      "貌": 2323,
      "貓": 2324,
      "貝": 2325,
      "貞": 2326,
      "貴": 2327,
      "贛": 2328,
      "贞": 2329,
      "败": 2330,
      "贵": 2331,
      "赣": 2332,
      "赫": 2333,
      "越": 2334,
      "路": 2335,
      "蹴": 2336,
      "軍": 2337,
      "軒": 2338,
      "辉": 2339,
      "農": 2340,
      "辽": 2341,
      "迈": 2342,
      "近": 2343,
      "连": 2344,
      "通": 2345,
      "速": 2346,
      "道": 2347,
      "遼": 2348,
      "邑": 2349,
      "郎": 2350,
      "郡": 2351,
      "部": 2352,
      "都": 2353,
      "酥": 2354,
      "酱": 2355,
      "里": 2356,
      "重": 2357,
      "野": 2358,
      "金": 2359,
      "釣": 2360,
      "鉑": 2361,
      "銮": 2362,
      "錄": 2363,
      "鐵": 2364,
      "钓": 2365,
      "長": 2366,
      "长": 2367,
      "門": 2368,
      "開": 2369,
      "闘": 2370,
      "间": 2371,
      "阜": 2372,
      "阪": 2373,
      "阳": 2374,
      "阿": 2375,
      "附": 2376,
      "陕": 2377,
      "院": 2378,
      "陵": 2379,
      "険": 2380,
      "陽": 2381,
      "際": 2382,
      "雲": 2383,
      "霞": 2384,
      "青": 2385,
      "靜": 2386,
      "非": 2387,
      "面": 2388,
      "革": 2389,
      "鞠": 2390,
      "韓": 2391,
      "頂": 2392,
      "頡": 2393,
      "顶": 2394,
      "颉": 2395,
      "颖": 2396,
      "额": 2397,
      "飞": 2398,
      "飼": 2399,
      "館": 2400,
      "馆": 2401,
      "香": 2402,
      "馬": 2403,
      "駅": 2404,
      "高": 2405,
      "魚": 2406,
      "鱼": 2407,
      "鲁": 2408,
      "鲜": 2409,
      "鳳": 2410,
      "鴦": 2411,
      "鵜": 2412,
      "鶴": 2413,
      "鷲": 2414,
      "鹅": 2415,
      "鹿": 2416,
      "麻": 2417,
      "黃": 2418,
      "黄": 2419,
      "黑": 2420,
      "黨": 2421,
      "齐": 2422,
      "龍": 2423,
      "龙": 2424,
      "ꙑ": 2425,
      "ꜜ": 2426,
      "ꦂ": 2427,
      "ꦃ": 2428,
      "ꦏ": 2429,
      "ꦒ": 2430,
      "ꦔ": 2431,
      "ꦗ": 2432,
      "ꦠ": 2433,
      "ꦢ": 2434,
      "ꦤ": 2435,
      "ꦪ": 2436,
      "ꦫ": 2437,
      "ꦮ": 2438,
      "ꦯ": 2439,
      "ꦲ": 2440,
      "ꦴ": 2441,
      "ꦶ": 2442,
      "ꦸ": 2443,
      "ꦺ": 2444,
      "ꦼ": 2445,
      "ꦾ": 2446,
      "ꦿ": 2447,
      "꧀": 2448,
      "건": 2449,
      "경": 2450,
      "공": 2451,
      "구": 2452,
      "국": 2453,
      "군": 2454,
      "그": 2455,
      "기": 2456,
      "김": 2457,
      "남": 2458,
      "녕": 2459,
      "단": 2460,
      "담": 2461,
      "당": 2462,
      "대": 2463,
      "도": 2464,
      "동": 2465,
      "랑": 2466,
      "력": 2467,
      "련": 2468,
      "로": 2469,
      "룹": 2470,
      "리": 2471,
      "말": 2472,
      "면": 2473,
      "무": 2474,
      "문": 2475,
      "물": 2476,
      "민": 2477,
      "반": 2478,
      "법": 2479,
      "변": 2480,
      "복": 2481,
      "사": 2482,
      "살": 2483,
      "삼": 2484,
      "서": 2485,
      "선": 2486,
      "성": 2487,
      "소": 2488,
      "송": 2489,
      "수": 2490,
      "시": 2491,
      "십": 2492,
      "악": 2493,
      "여": 2494,
      "연": 2495,
      "예": 2496,
      "오": 2497,
      "원": 2498,
      "읍": 2499,
      "의": 2500,
      "인": 2501,
      "일": 2502,
      "자": 2503,
      "잔": 2504,
      "장": 2505,
      "재": 2506,
      "전": 2507,
      "정": 2508,
      "제": 2509,
      "조": 2510,
      "찬": 2511,
      "천": 2512,
      "체": 2513,
      "학": 2514,
      "한": 2515,
      "항": 2516,
      "해": 2517,
      "향": 2518,
      "헌": 2519,
      "현": 2520,
      "홍": 2521,
      "화": 2522,
      "": 2523,
      "": 2524,
      "": 2525,
      "": 2526,
      "": 2527,
      "": 2528,
      "": 2529,
      "": 2530,
      "": 2531,
      "": 2532,
      "": 2533,
      "": 2534,
      "": 2535,
      "": 2536,
      "": 2537,
      "": 2538,
      "": 2539,
      "": 2540,
      "": 2541,
      "": 2542,
      "": 2543,
      "": 2544,
      "": 2545,
      "": 2546,
      "": 2547,
      "": 2548,
      "": 2549,
      "": 2550,
      "": 2551,
      "": 2552,
      "": 2553,
      "": 2554,
      "": 2555,
      "": 2556,
      "": 2557,
      "": 2558,
      "": 2559,
      "": 2560,
      "": 2561,
      "": 2562,
      "": 2563,
      "": 2564,
      "": 2565,
      "": 2566,
      "": 2567,
      "": 2568,
      "": 2569,
      "": 2570,
      "": 2571,
      "": 2572,
      "": 2573,
      "": 2574,
      "": 2575,
      "": 2576,
      "": 2577,
      "": 2578,
      "": 2579,
      "": 2580,
      "": 2581,
      "": 2582,
      "️": 2583,
      "﻿": 2584,
      "￼": 2585,
      "𐎠": 2586,
      "𐎱": 2587,
      "𐎼": 2588,
      "𐎿": 2589,
      "𐭉": 2590,
      "𐭌": 2591,
      "𐭍": 2592,
      "𐭔": 2593,
      "𑚊": 2594,
      "𑚔": 2595,
      "𑚤": 2596,
      "𑚫": 2597,
      "𑚭": 2598,
      "𑚯": 2599,
      "𒀭": 2600,
      "𒁺": 2601,
      "𒂗": 2602,
      "𒃶": 2603,
      "𒈾": 2604,
      "🇮": 2605,
      "🇳": 2606,
      "🍀": 2607,
      "🍄": 2608,
      "🍋": 2609,
      "🏻": 2610,
      "👆": 2611,
      "👈": 2612,
      "👉": 2613,
      "👌": 2614,
      "👍": 2615,
      "👏": 2616,
      "👧": 2617,
      "💐": 2618,
      "💕": 2619,
      "💛": 2620,
      "💟": 2621,
      "💥": 2622,
      "💪": 2623,
      "🔎": 2624,
      "🔥": 2625,
      "🖌": 2626,
      "😁": 2627,
      "😂": 2628,
      "😃": 2629,
      "😄": 2630,
      "😇": 2631,
      "😉": 2632,
      "😊": 2633,
      "😍": 2634,
      "😎": 2635,
      "😏": 2636,
      "😐": 2637,
      "😘": 2638,
      "😜": 2639,
      "😞": 2640,
      "😟": 2641,
      "😡": 2642,
      "😢": 2643,
      "😦": 2644,
      "😭": 2645,
      "😯": 2646,
      "😰": 2647,
      "🙂": 2648,
      "🙄": 2649,
      "🙏": 2650,
      "🤒": 2651,
      "🤔": 2652,
      "🤗": 2653,
      "🤘": 2654,
      "🤮": 2655,
      "்க": 2656,
      "்த": 2657,
      "ம்": 2658,
      "ன்": 2659,
      "ல்": 2660,
      "▁ப": 2661,
      "க்க": 2662,
      "▁க": 2663,
      "்ப": 2664,
      "்ட": 2665,
      "▁அ": 2666,
      "▁ம": 2667,
      "த்த": 2668,
      "▁வ": 2669,
      "ும்": 2670,
      "ள்": 2671,
      "ர்": 2672,
      "▁இ": 2673,
      "ிய": 2674,
      "து": 2675,
      "ப்ப": 2676,
      "▁ச": 2677,
      "▁த": 2678,
      "ரு": 2679,
      "ந்த": 2680,
      "▁ந": 2681,
      "ட்ட": 2682,
      "ில்": 2683,
      "▁எ": 2684,
      "ங்க": 2685,
      "ைய": 2686,
      "ாக": 2687,
      "ிற": 2688,
      "▁உ": 2689,
      "ின்": 2690,
      "டு": 2691,
      "ற்": 2692,
      "ர்க": 2693,
      "ற்ற": 2694,
      "க்கு": 2695,
      "ிர": 2696,
      "ள்ள": 2697,
      "ிக": 2698,
      "்ச": 2699,
      "▁ஆ": 2700,
      "ான": 2701,
      "ண்ட": 2702,
      "த்து": 2703,
      "து.": 2704,
      "ில": 2705,
      "ன்ற": 2706,
      "ார்": 2707,
      "டி": 2708,
      "▁மு": 2709,
      "▁செ": 2710,
      "ார": 2711,
      "▁அவ": 2712,
      "லை": 2713,
      "▁வி": 2714,
      "வி": 2715,
      "தி": 2716,
      "ரி": 2717,
      "ட்டு": 2718,
      "வு": 2719,
      "▁ஒ": 2720,
      "ப்": 2721,
      "ந்து": 2722,
      "ிரு": 2723,
      "ளை": 2724,
      "ர்கள்": 2725,
      "▁கு": 2726,
      "▁செய": 2727,
      "▁இந்த": 2728,
      "ால்": 2729,
      "▁இரு": 2730,
      "ான்": 2731,
      "க்": 2732,
      "ல்ல": 2733,
      "ளு": 2734,
      "ார்.": 2735,
      "று": 2736,
      "ச்ச": 2737,
      "ின": 2738,
      "ன்ன": 2739,
      "▁கொ": 2740,
      "ாவ": 2741,
      "ங்கள்": 2742,
      "ாய": 2743,
      "▁அத": 2744,
      "த்": 2745,
      "▁போ": 2746,
      "மை": 2747,
      "ப்பு": 2748,
      "றி": 2749,
      "ற்க": 2750,
      "▁என்ற": 2751,
      "▁பெ": 2752,
      "▁ர": 2753,
      "▁தொ": 2754,
      "னர்": 2755,
      "ிக்க": 2756,
      "ும்.": 2757,
      "▁வே": 2758,
      "த்தில்": 2759,
      "▁மற்ற": 2760,
      "ாத": 2761,
      "டை": 2762,
      "கிற": 2763,
      "▁நா": 2764,
      "ுவ": 2765,
      "னை": 2766,
      "ம்ப": 2767,
      "▁ஏ": 2768,
      "டைய": 2769,
      "ப்பட்ட": 2770,
      "▁கா": 2771,
      "▁இத": 2772,
      "மாக": 2773,
      "▁ஒரு": 2774,
      "டிய": 2775,
      "▁1": 2776,
      "ஸ்": 2777,
      "▁மற்றும்": 2778,
      "▁மா": 2779,
      "▁பிர": 2780,
      "வே": 2781,
      "▁கூ": 2782,
      "ண்": 2783,
      "▁வெ": 2784,
      "னர்.": 2785,
      "ண்டு": 2786,
      "ையில்": 2787,
      "▁பா": 2788,
      "ன்ப": 2789,
      "▁மே": 2790,
      "ங்கள": 2791,
      "▁(": 2792,
      "ளுக்கு": 2793,
      "கள்": 2794,
      "▁பு": 2795,
      "க்கும்": 2796,
      "றை": 2797,
      "மான": 2798,
      "வில்": 2799,
      "ற்ப": 2800,
      "▁தெ": 2801,
      "▁என": 2802,
      "ும்,": 2803,
      "வா": 2804,
      "▁உள்ள": 2805,
      "▁பொ": 2806,
      "கு": 2807,
      "ட்ச": 2808,
      "▁இது": 2809,
      "▁தே": 2810,
      "திய": 2811,
      "வர": 2812,
      "டுத்த": 2813,
      "▁நட": 2814,
      "லை.": 2815,
      "த்தை": 2816,
      "\"\"": 2817,
      "ச்": 2818,
      "மு": 2819,
      "க்கிற": 2820,
      "ளி": 2821,
      "▁நீ": 2822,
      "ழு": 2823,
      "ின்ற": 2824,
      "லா": 2825,
      "ம்.": 2826,
      "▁2": 2827,
      "னால்": 2828,
      "ரிய": 2829,
      "்ய": 2830,
      "▁வரு": 2831,
      "▁அர": 2832,
      "ப்பட": 2833,
      "ையும்": 2834,
      "கள": 2835,
      "ிட்ட": 2836,
      "வை": 2837,
      "்த்த": 2838,
      "▁என்று": 2839,
      "▁ய": 2840,
      "▁வழ": 2841,
      "வத": 2842,
      "ர்கள": 2843,
      "▁இந்திய": 2844,
      "▁தொட": 2845,
      "▁செய்த": 2846,
      "வர்": 2847,
      "▁ஜ": 2848,
      "▁பே": 2849,
      "ுள்ள": 2850,
      "மா": 2851,
      "ப்பட்டு": 2852,
      "ால": 2853,
      "சு": 2854,
      "ிகள்": 2855,
      "ிட": 2856,
      "வும்": 2857,
      "ாள": 2858,
      "ும்ப": 2859,
      "ன.": 2860,
      "▁கோ": 2861,
      "ிற்க": 2862,
      "▁செய்ய": 2863,
      "▁வா": 2864,
      "▁வர": 2865,
      "▁வேண்ட": 2866,
      "டன்": 2867,
      "▁சு": 2868,
      "ிழ": 2869,
      "ணை": 2870,
      "▁பய": 2871,
      "ட்": 2872,
      "ற்று": 2873,
      "தல்": 2874,
      "சிய": 2875,
      "ர்கள்.": 2876,
      "ரா": 2877,
      "மைய": 2878,
      "▁து": 2879,
      "▁குறி": 2880,
      "▁அவர்": 2881,
      "ற்கு": 2882,
      "ேன்": 2883,
      "▁அமை": 2884,
      "னு": 2885,
      "▁ஆக": 2886,
      "லி": 2887,
      "▁அதிக": 2888,
      "களை": 2889,
      "த்திய": 2890,
      "த்தின்": 2891,
      "▁நில": 2892,
      "▁என்ன": 2893,
      "▁ட": 2894,
      "▁மூ": 2895,
      "ப்படு": 2896,
      "கிறது.": 2897,
      "▁பல": 2898,
      "▁சொ": 2899,
      "ன்று": 2900,
      "ர்ப": 2901,
      "▁நி": 2902,
      "▁நிற": 2903,
      "00": 2904,
      "▁ஆனால்": 2905,
      "▁கே": 2906,
      "ண்ண": 2907,
      "▁மீ": 2908,
      "▁சே": 2909,
      "வ்": 2910,
      "▁என்ப": 2911,
      "▁தெரி": 2912,
      "▁அறி": 2913,
      "▁கட": 2914,
      "னி": 2915,
      "ாம": 2916,
      "ள்ளது.": 2917,
      "▁“": 2918,
      "தை": 2919,
      "▁கொண்ட": 2920,
      "ரை": 2921,
      "தாக": 2922,
      "ம்,": 2923,
      "ங்கு": 2924,
      "கின்ற": 2925,
      "ோது": 2926,
      "நில": 2927,
      "க்கிய": 2928,
      "ணி": 2929,
      "▁இருந்த": 2930,
      "ிருந்த": 2931,
      "ிகள": 2932,
      "ாய்": 2933,
      "▁சிற": 2934,
      "வில்லை.": 2935,
      "டுத்து": 2936,
      "▁அல்ல": 2937,
      "▁இய": 2938,
      "ய்": 2939,
      "்கள்": 2940,
      "▁தீ": 2941,
      "▁வீ": 2942,
      "ங்களை": 2943,
      "▁தெரிவி": 2944,
      "▁தலை": 2945,
      "ிற்கு": 2946,
      "▁பட": 2947,
      "ர்க்க": 2948,
      "டிக்க": 2949,
      "▁அந்த": 2950,
      "▁-": 2951,
      "ேன்.": 2952,
      "▁வை": 2953,
      "▁அது": 2954,
      "ார்கள்.": 2955,
      "ிலும்": 2956,
      "▁பி": 2957,
      "▁ஏற்ப": 2958,
      "▁நான்": 2959,
      "▁சி": 2960,
      "சி": 2961,
      "ையை": 2962,
      "கா": 2963,
      "நா": 2964,
      "▁உய": 2965,
      "▁இர": 2966,
      "▁மிக": 2967,
      "ழ்": 2968,
      "ோத": 2969,
      "▁மேல": 2970,
      "ஸ்த": 2971,
      "லக": 2972,
      "ளிய": 2973,
      "விய": 2974,
      "மே": 2975,
      "▁கூற": 2976,
      "ங்களில்": 2977,
      "▁பின்": 2978,
      "பி": 2979,
      "சார": 2980,
      "▁”": 2981,
      "▁எத": 2982,
      "ற்றி": 2983,
      "▁ல": 2984,
      "▁அப்ப": 2985,
      "ருக்கு": 2986,
      "▁மக்க": 2987,
      "ரிக்க": 2988,
      "▁அவர்கள்": 2989,
      "▁கி": 2990,
      "ிக்": 2991,
      "▁ரூ": 2992,
      "▁திரு": 2993,
      "த்துவ": 2994,
      "▁சா": 2995,
      "ஞ்ச": 2996,
      "ான்.": 2997,
      "லு": 2998,
      "்ப்ப": 2999,
      "னா": 3000,
      "▁கார": 3001,
      "▁ஊ": 3002,
      "▁உட": 3003,
      "▁இருக்க": 3004,
      "ியில்": 3005,
      "▁தம": 3006,
      "▁இட": 3007,
      "▁\"\"": 3008,
      "▁3": 3009,
      "▁அள": 3010,
      "▁சம": 3011,
      "வர்கள்": 3012,
      "▁பிரத": 3013,
      "▁போல": 3014,
      "ழை": 3015,
      "▁விர": 3016,
      "▁முன்ன": 3017,
      "வாக": 3018,
      "டுக்க": 3019,
      "▁முடிய": 3020,
      "▁இல்": 3021,
      "▁திட்ட": 3022,
      "ோம்.": 3023,
      "▁ஓ": 3024,
      "▁பண": 3025,
      "ிருந்து": 3026,
      "ிருக்கிற": 3027,
      "▁ஆகிய": 3028,
      "▁வெளிய": 3029,
      "▁அரசு": 3030,
      "▁எதிர": 3031,
      "▁நே": 3032,
      "▁முதல்": 3033,
      "ர்களுக்கு": 3034,
      "▁தமிழ": 3035,
      "ரோ": 3036,
      "▁உத": 3037,
      "▁மோ": 3038,
      "▁பொரு": 3039,
      "▁இருக்கிற": 3040,
      "்கிற": 3041,
      "▁சந்த": 3042,
      "ாம்": 3043,
      "▁தொழ": 3044,
      "▁அனு": 3045,
      "▁அம": 3046,
      "▁பார": 3047,
      "▁சில": 3048,
      "ரும்": 3049,
      "▁ஹ": 3050,
      "ங்களுக்கு": 3051,
      "▁மரு": 3052,
      "லம்": 3053,
      "தல": 3054,
      "ப்பத": 3055,
      "▁நாம்": 3056,
      "ஸ்ட": 3057,
      "த்துள்ள": 3058,
      "ொரு": 3059,
      "▁ஐ": 3060,
      "▁கை": 3061,
      "▁வழங்க": 3062,
      "ினை": 3063,
      "ர்ந்து": 3064,
      "▁20": 3065,
      "▁விசார": 3066,
      "ியுள்ள": 3067,
      "த்திற்கு": 3068,
      "க்கொ": 3069,
      "ழி": 3070,
      "▁அனை": 3071,
      "ாவின்": 3072,
      "ர்களை": 3073,
      "்கள": 3074,
      "ெய": 3075,
      "▁தா": 3076,
      "கை": 3077,
      "மர்": 3078,
      "▁போலீ": 3079,
      "▁கரு": 3080,
      "விட்ட": 3081,
      "▁பெற்ற": 3082,
      "▁கட்ட": 3083,
      "▁முடி": 3084,
      "▁.": 3085,
      "ேய": 3086,
      "ஷ்": 3087,
      "ட்சி": 3088,
      "▁வந்த": 3089,
      "க்கப்பட்ட": 3090,
      "பா": 3091,
      "▁மாநில": 3092,
      "ப்பி": 3093,
      "ூர்": 3094,
      "ுவன": 3095,
      "▁தொடர்ப": 3096,
      "வீ": 3097,
      "▁திர": 3098,
      "▁5": 3099,
      "ப்பட்டுள்ள": 3100,
      "▁வேண்டும்.": 3101,
      "க்கி": 3102,
      "க்கான": 3103,
      "ியை": 3104,
      "கோ": 3105,
      "ாவில்": 3106,
      "வது": 3107,
      "▁பத": 3108,
      "களில்": 3109,
      "▁சம்ப": 3110,
      "ாது.": 3111,
      "ட்டி": 3112,
      "▁நோ": 3113,
      "▁ரா": 3114,
      "ர்ந்த": 3115,
      "த்தி": 3116,
      "▁மத்திய": 3117,
      "மும்": 3118,
      "ந்திர": 3119,
      "ரே": 3120,
      "தா": 3121,
      "ியா": 3122,
      "ப்பா": 3123,
      "▁பிற": 3124,
      "றைய": 3125,
      "பெ": 3126,
      "ர்ச்ச": 3127,
      "..": 3128,
      "▁நீங்கள்": 3129,
      "ாவது": 3130,
      "ப்படுத்த": 3131,
      "▁அமைச்ச": 3132,
      "கம்": 3133,
      "▁உலக": 3134,
      "ப்படி": 3135,
      "ோர்": 3136,
      "▁நிறுவன": 3137,
      "விட": 3138,
      "ர்த்த": 3139,
      "▁ரூ.": 3140,
      "சா": 3141,
      "்ச்ச": 3142,
      "▁சட்ட": 3143,
      "கவ": 3144,
      "▁வள": 3145,
      "ேச": 3146,
      "வர்கள": 3147,
      "▁ஈ": 3148,
      "▁அதை": 3149,
      "▁4": 3150,
      "▁மருத்துவ": 3151,
      "▁சீ": 3152,
      "▁உறு": 3153,
      "ினார்.": 3154,
      "பு": 3155,
      "▁கண": 3156,
      "▁பகு": 3157,
      "த்திர": 3158,
      "ிலிருந்து": 3159,
      "▁மக": 3160,
      "▁மேலும்": 3161,
      "ினர்": 3162,
      "வன": 3163,
      "▁‘": 3164,
      "▁செய்து": 3165,
      "ராக": 3166,
      "▁கொண்டு": 3167,
      "▁முக்கிய": 3168,
      "▁எழு": 3169,
      "ணம்": 3170,
      "ையா": 3171,
      "▁நடை": 3172,
      "▁வருகின்ற": 3173,
      "ப்பட்டுள்ளது.": 3174,
      "▁என்பது": 3175,
      "▁குழ": 3176,
      "▁பிரதமர்": 3177,
      "ற்கொ": 3178,
      "▁எந்த": 3179,
      "▁மொ": 3180,
      "ிருக்க": 3181,
      "▁பாது": 3182,
      "மன்ற": 3183,
      "▁அல்லது": 3184,
      "▁\"": 3185,
      "ளுடைய": 3186,
      "கொ": 3187,
      "▁கால": 3188,
      "▁வாழ": 3189,
      "மி": 3190,
      "▁உரு": 3191,
      "▁குறை": 3192,
      "▁இல்லை.": 3193,
      "ங்கி": 3194,
      "▁உண": 3195,
      "▁கிர": 3196,
      "▁இதில்": 3197,
      "▁பாதுகா": 3198,
      "▁புதிய": 3199,
      "தும்": 3200,
      "ியாக": 3201,
      "▁இன்ன": 3202,
      "ா்": 3203,
      "▁என்": 3204,
      "ர்த": 3205,
      "ெல்ல": 3206,
      "▁தன": 3207,
      "▁கல": 3208,
      "ால்,": 3209,
      "▁இந்தியா": 3210,
      "▁செயல்": 3211,
      "ாதார": 3212,
      "ிகளை": 3213,
      "▁காண": 3214,
      "டிப்ப": 3215,
      "▁கொள்ள": 3216,
      "▁விள": 3217,
      "ட்ப": 3218,
      "டம்": 3219,
      "ிஸ்த": 3220,
      "▁சொல்ல": 3221,
      "▁மாண": 3222,
      "▁'": 3223,
      "▁குறிப்ப": 3224,
      "▁பரி": 3225,
      "வுக்கு": 3226,
      "ியின்": 3227,
      "ரில்": 3228,
      "ப்படும்": 3229,
      "▁விசாரணை": 3230,
      "▁பர": 3231,
      "▁வேண்டும்": 3232,
      "▁எல்ல": 3233,
      "▁குறித்து": 3234,
      "▁விவ": 3235,
      "ங்": 3236,
      "வ்வ": 3237,
      "▁தகவ": 3238,
      "▁கூட்ட": 3239,
      "ெரிக்க": 3240,
      "▁உள்ளது.": 3241,
      "▁பூ": 3242,
      "▁மன": 3243,
      "வரும்": 3244,
      "ோடு": 3245,
      "▁சூ": 3246,
      "ர்வு": 3247,
      "த்தார்.": 3248,
      "▁பதி": 3249,
      "▁உண்": 3250,
      "க்காக": 3251,
      "ெகோ": 3252,
      "▁பொது": 3253,
      "▁நாடு": 3254,
      "▁கீ": 3255,
      "▁பயன்ப": 3256,
      "▁தோ": 3257,
      "வன்": 3258,
      "ைகள்": 3259,
      "வடிக்க": 3260,
      "▁ஆர": 3261,
      "ஹ்": 3262,
      "▁தய": 3263,
      "▁அமெரிக்க": 3264,
      "ப்பட்டது.": 3265,
      "▁நடவடிக்க": 3266,
      "▁எனக்கு": 3267,
      "▁யெகோ": 3268,
      "லாம்.": 3269,
      "வற்ற": 3270,
      "க்கம்": 3271,
      "தான்": 3272,
      "▁தூ": 3273,
      "போ": 3274,
      "ரம்": 3275,
      "்களை": 3276,
      "விர": 3277,
      "ில்லை.": 3278,
      "▁இல": 3279,
      "து,": 3280,
      "▁மேற்கொ": 3281,
      "▁வருகிறது.": 3282,
      "▁நம்ப": 3283,
      "சார்": 3284,
      "▁கிடை": 3285,
      "▁அதிகார": 3286,
      "ற்காக": 3287,
      "▁19": 3288,
      "▁தெரிய": 3289,
      "▁இருந்து": 3290,
      "ாள்": 3291,
      "▁மாவ": 3292,
      "லிய": 3293,
      "றிய": 3294,
      "லில்": 3295,
      "▁நிலை": 3296,
      "▁நெ": 3297,
      "▁செய்": 3298,
      "ட்டில்": 3299,
      "▁அதி": 3300,
      "சை": 3301,
      "▁மக்கள்": 3302,
      "வரு": 3303,
      "▁எண்ண": 3304,
      "▁கோடி": 3305,
      "▁சக": 3306,
      "வரை": 3307,
      "ீர்": 3308,
      "▁வில": 3309,
      "ர்ப்ப": 3310,
      "ங்கள்.": 3311,
      "ிகளில்": 3312,
      "▁முதல": 3313,
      "▁மாவட்ட": 3314,
      "▁நீதி": 3315,
      "▁இதனால்": 3316,
      "்க்க": 3317,
      "ாமல்": 3318,
      "▁ஆண்டு": 3319,
      "▁நிக": 3320,
      "ங்கே": 3321,
      "▁—": 3322,
      "▁ஆனால்,": 3323,
      "னித": 3324,
      "▁சம்பவ": 3325,
      "▁ராஜ": 3326,
      "▁201": 3327,
      "▁இதை": 3328,
      "மதி": 3329,
      "ித்த": 3330,
      "▁மூலம்": 3331,
      "ப்படுகிறது.": 3332,
      "▁நடைபெ": 3333,
      "முறை": 3334,
      "▁நக": 3335,
      "▁கடவு": 3336,
      "▁தமிழ்": 3337,
      "▁திற": 3338,
      "▁6": 3339,
      "▁வெளி": 3340,
      "ட்டை": 3341,
      "க்கூ": 3342,
      "▁நம்": 3343,
      "▁வச": 3344,
      "▁ஒன்ற": 3345,
      "க்கள்": 3346,
      "வாறு": 3347,
      "தம்": 3348,
      "▁இருப்ப": 3349,
      "த்துக்கு": 3350,
      "ப்பை": 3351,
      "▁வார": 3352,
      "▁தொடர்ந்து": 3353,
      "ோக": 3354,
      "▁காரண": 3355,
      "▁போட்ட": 3356,
      "▁அறிவி": 3357,
      "ற்றிய": 3358,
      "▁தான்": 3359,
      "ரின்": 3360,
      "டா": 3361,
      "▁ஆத": 3362,
      "ாலும்": 3363,
      "▁பாதி": 3364,
      "▁மீது": 3365,
      "டும்ப": 3366,
      "▁தற்ப": 3367,
      "டைந்த": 3368,
      "▁கட்டு": 3369,
      "ற்கான": 3370,
      "▁தர": 3371,
      "▁போன்ற": 3372,
      "▁இணை": 3373,
      "ிகி": 3374,
      "்ப்பு": 3375,
      "▁பெய": 3376,
      "▁நினை": 3377,
      "▁பை": 3378,
      "ாஹ்": 3379,
      "டித்த": 3380,
      "்த்து": 3381,
      "▁வக": 3382,
      "▁நல்ல": 3383,
      "ணைய": 3384,
      "▁’": 3385,
      "▁\"\"\"": 3386,
      "▁மாத": 3387,
      "▁குழந்த": 3388,
      "வைய": 3389,
      "▁குடும்ப": 3390,
      "மையான": 3391,
      "ச்சய": 3392,
      "▁இரண்டு": 3393,
      "ப்போ": 3394,
      "களுக்கு": 3395,
      "▁இல்ல": 3396,
      "▁உயிர": 3397,
      "▁மனித": 3398,
      "▁அரசிய": 3399,
      "ிடம்": 3400,
      "ேயே": 3401,
      "ென": 3402,
      "▁வேலை": 3403,
      "▁அண": 3404,
      "▁அல": 3405,
      "▁தொழில்": 3406,
      "ந்துள்ள": 3407,
      "▁பேர்": 3408,
      "▁வருகிற": 3409,
      "▁அதன்": 3410,
      "ளுக்கும்": 3411,
      "ி,": 3412,
      "▁லட்ச": 3413,
      "▁மிகவும்": 3414,
      "▁மதி": 3415,
      "▁தயார": 3416,
      "20": 3417,
      "▁நிய": 3418,
      "▁பற்றி": 3419,
      "▁விடு": 3420,
      "வேறு": 3421,
      "▁7": 3422,
      "▁இவ்": 3423,
      "▁மாற்ற": 3424,
      "▁முய": 3425,
      "▁பின்னர்": 3426,
      "ஸ்ப": 3427,
      "▁கல்": 3428,
      "▁நாங்கள்": 3429,
      "▁வாய": 3430,
      "▁அவர": 3431,
      "▁காவ": 3432,
      "வதற்கு": 3433,
      "ூக": 3434,
      "▁வழக்கு": 3435,
      "▁இன்னும்": 3436,
      "்து": 3437,
      "▁பட்ட": 3438,
      "டியாக": 3439,
      "▁பொலி": 3440,
      "வான": 3441,
      "▁மறு": 3442,
      "▁வரை": 3443,
      "ண்டும்": 3444,
      "ந்": 3445,
      "▁என்பதை": 3446,
      "களின்": 3447,
      "▁துறை": 3448,
      "▁பொருள": 3449,
      "ையில்,": 3450,
      "▁கைது": 3451,
      "▁தேசிய": 3452,
      "முக": 3453,
      "▁நிச்சய": 3454,
      "▁செயல்ப": 3455,
      "தியில்": 3456,
      "▁அளி": 3457,
      "ுடைய": 3458,
      "▁பல்": 3459,
      "▁அல்லாஹ்": 3460,
      "▁தேர்த": 3461,
      "வாத": 3462,
      "▁நம": 3463,
      "சாய": 3464,
      "▁அவர்கள": 3465,
      "▁கண்ட": 3466,
      "ல்,": 3467,
      "▁10": 3468,
      "தில்": 3469,
      "▁தி": 3470,
      "▁பெரு": 3471,
      "▁பிரி": 3472,
      "▁கலந்து": 3473,
      "ிற்ச": 3474,
      "மீ": 3475,
      "▁பேச": 3476,
      "▁பாதுகாப்பு": 3477,
      "டும்": 3478,
      "▁நேர": 3479,
      "வில்லை": 3480,
      "▁அவன்": 3481,
      "▁இற": 3482,
      "▁மோடி": 3483,
      "ா?": 3484,
      "த்துள்ளார்.": 3485,
      "▁வய": 3486,
      "▁மட்டு": 3487,
      "ாட்டு": 3488,
      "ீடு": 3489,
      "▁எப்படி": 3490,
      "▁மருத்துவம": 3491,
      "▁முழு": 3492,
      "ெட்": 3493,
      "▁விட்ட": 3494,
      "▁நடவடிக்கை": 3495,
      "ன்னை": 3496,
      "▁நடிக": 3497,
      "▁டி": 3498,
      "▁8": 3499,
      "▁பெரிய": 3500,
      "ச்சை": 3501,
      "ாட்ட": 3502,
      "▁செல": 3503,
      "▁போலீசார்": 3504,
      "▁அளிக்க": 3505,
      "▁தற்போது": 3506,
      "ாச": 3507,
      "வும்,": 3508,
      "▁சமூக": 3509,
      "ையின்": 3510,
      "்கு": 3511,
      "▁குற்ற": 3512,
      "000": 3513,
      "ாடு": 3514,
      "▁அனைத்து": 3515,
      "ோம்": 3516,
      "▁பாக": 3517,
      "ாளர்": 3518,
      "ங்கிர": 3519,
      "ட்டுள்ள": 3520,
      "▁நிலைய": 3521,
      "ிக்கை": 3522,
      "வெ": 3523,
      "▁எதி": 3524,
      "▁இப்ப": 3525,
      "▁உருவா": 3526,
      "▁ஆய": 3527,
      "▁சத": 3528,
      "▁உங்கள்": 3529,
      "ங்களின்": 3530,
      "▁விரு": 3531,
      "▁அதற்கு": 3532,
      "▁அரு": 3533,
      "▁ஷ": 3534,
      "▁காங்கிர": 3535,
      "ிலான": 3536,
      "▁காய": 3537,
      "ஷ்ட": 3538,
      "ழுவ": 3539,
      "▁நடத்த": 3540,
      "ச்சு": 3541,
      "▁தலைவர்": 3542,
      "ித்து": 3543,
      "டித்து": 3544,
      "▁செல்ல": 3545,
      "▁தனது": 3546,
      "மார்": 3547,
      "ேக": 3548,
      "▁பொறு": 3549,
      "ிலேயே": 3550,
      "ோச": 3551,
      "ுடன்": 3552,
      "▁மேம்ப": 3553,
      "▁எடுத்து": 3554,
      "▁பள்ள": 3555,
      "▁பல்வேறு": 3556,
      "▁அரச": 3557,
      "▁நிறை": 3558,
      "▁அவரது": 3559,
      "போது": 3560,
      "▁விரை": 3561,
      "▁இருக்கும்": 3562,
      "ர்வ": 3563,
      "▁பிரச்ச": 3564,
      "▁என்றும்": 3565,
      "▁வருகின்றனர்.": 3566,
      "ளுடன்": 3567,
      "படி": 3568,
      "்தான்": 3569,
      "▁கூறு": 3570,
      "லாம்": 3571,
      "▁மர": 3572,
      "▁வழி": 3573,
      "▁அதில்": 3574,
      "▁கிற": 3575,
      "▁பயன்படுத்த": 3576,
      "ட்க": 3577,
      "னைய": 3578,
      "ளவு": 3579,
      "▁ஏன்": 3580,
      "▁வாழ்க்க": 3581,
      "▁அடிப்ப": 3582,
      "▁முறை": 3583,
      "டையே": 3584,
      "▁இவர்": 3585,
      "▁அழை": 3586,
      "▁சென்ற": 3587,
      "▁வெற்றி": 3588,
      "▁இருக்கிறது.": 3589,
      "▁பழ": 3590,
      "▁கேள்": 3591,
      "▁எது": 3592,
      "ைப்": 3593,
      "▁ஒவ்வ": 3594,
      "▁முயற்": 3595,
      "ங்கிய": 3596,
      "த்திற்க": 3597,
      "▁தவ": 3598,
      "▁விப": 3599,
      "▁அனுமதி": 3600,
      "▁கூட": 3601,
      "▁அவரை": 3602,
      "▁தன்": 3603,
      "▁நான": 3604,
      "▁தொழில": 3605,
      "▁சொன்ன": 3606,
      "▁ஒன்று": 3607,
      "டுப": 3608,
      "▁எனவே": 3609,
      "▁அணி": 3610,
      "▁கட்ச": 3611,
      "ிருப்ப": 3612,
      "▁விட": 3613,
      "நீ": 3614,
      "வும்.": 3615,
      "▁நிச்சயமாக": 3616,
      "▁அவர்களுக்கு": 3617,
      "லைய": 3618,
      "▁அவர்க": 3619,
      "றும்": 3620,
      "▁விஷ": 3621,
      "▁பார்க்க": 3622,
      "▁ஜன": 3623,
      "▁இத்த": 3624,
      "▁விரும்ப": 3625,
      "▁எடுக்க": 3626,
      "டக": 3627,
      "ரீ": 3628,
      "▁என்றார்.": 3629,
      "▁விவசாய": 3630,
      "▁இதற்கு": 3631,
      "▁வரும்": 3632,
      "ார்கள்": 3633,
      "▁நிர்": 3634,
      "▁ஏற்படுத்த": 3635,
      "▁தனி": 3636,
      "ருடைய": 3637,
      "▁கடந்த": 3638,
      "நாடு": 3639,
      "ா,": 3640,
      "▁இதன்": 3641,
      "ல்கள்": 3642,
      "▁அரசியல்": 3643,
      "தே": 3644,
      "▁தேவை": 3645,
      "ட்டும்": 3646,
      "ிகளுக்கு": 3647,
      "▁பெண": 3648,
      "▁தகவல்": 3649,
      "▁காங்கிரஸ்": 3650,
      "▁இந்தப்": 3651,
      "ர்,": 3652,
      "கின்றன.": 3653,
      "ைக்": 3654,
      "ையும்,": 3655,
      "மையாக": 3656,
      "னம்": 3657,
      "ழ்ச்ச": 3658,
      "த்தர": 3659,
      "▁சேர்ந்த": 3660,
      "▁குடிய": 3661,
      "ின்றன.": 3662,
      "ர்ச்சி": 3663,
      "▁ஆண்ட": 3664,
      "ப்படும்.": 3665,
      "▁அவருக்கு": 3666,
      "▁கொள": 3667,
      "வின்": 3668,
      "க்கள": 3669,
      "ர்.": 3670,
      "▁தொகு": 3671,
      "கார": 3672,
      "▁நிதி": 3673,
      "ஸ்ட்": 3674,
      "▁ஆரம்ப": 3675,
      "▁குறித்த": 3676,
      "▁இருந்தது.": 3677,
      "▁வேறு": 3678,
      "▁அக": 3679,
      "்.": 3680,
      "▁பைபி": 3681,
      "தியாக": 3682,
      "▁போரா": 3683,
      "▁வேண்டிய": 3684,
      "ஸார்": 3685,
      "ிப்ப": 3686,
      "▁நிர": 3687,
      "்ட்": 3688,
      "▁ஒவ்வொரு": 3689,
      "▁15": 3690,
      "▁அரசா": 3691,
      "த்தம்": 3692,
      "▁கிறிஸ்த": 3693,
      "▁சர்": 3694,
      "▁நடந்த": 3695,
      "▁(அ": 3696,
      "▁பதிவு": 3697,
      "ழிய": 3698,
      "▁இல்லை": 3699,
      "▁9": 3700,
      "வர்களுக்கு": 3701,
      "து?": 3702,
      "▁சிறு": 3703,
      "▁உதவி": 3704,
      "மா?": 3705,
      "▁ஆய்": 3706,
      "கி": 3707,
      "▁ஒப்ப": 3708,
      "களும்": 3709,
      "▁நீர்": 3710,
      "▁பாஜ": 3711,
      "ட்டின்": 3712,
      "றையில்": 3713,
      "▁பொருளாதார": 3714,
      "▁மின்": 3715,
      "த்தா": 3716,
      "▁விஷய": 3717,
      "▁உங்களுக்கு": 3718,
      "தான": 3719,
      "an": 3720,
      "பதி": 3721,
      "▁நன்ற": 3722,
      "▁மூல": 3723,
      "▁சிகி": 3724,
      "த்தையும்": 3725,
      "ெல்லாம்": 3726,
      "ப்பின": 3727,
      "நிலை": 3728,
      "▁பிறகு": 3729,
      ",000": 3730,
      "▁செலு": 3731,
      "▁கூறினார்.": 3732,
      "ணுவ": 3733,
      "▁யெகோவா": 3734,
      "க்கில்": 3735,
      "▁விமான": 3736,
      "▁முன்": 3737,
      "▁நீதிமன்ற": 3738,
      "ியுள்ளது.": 3739,
      "பர்": 3740,
      "ஜ்": 3741,
      "▁,": 3742,
      "ளிடம்": 3743,
      "னே": 3744,
      "ாவை": 3745,
      "▁அவ்": 3746,
      "ழக": 3747,
      "▁படை": 3748,
      "▁அமைச்சர்": 3749,
      "த்துக்": 3750,
      "த்துடன்": 3751,
      "▁வீர": 3752,
      "ங்கள்,": 3753,
      "in": 3754,
      "யில்": 3755,
      "▁வைத்த": 3756,
      "ாகும்.": 3757,
      "▁அவர்களை": 3758,
      "ரும்ப": 3759,
      "▁ஏற்பட்ட": 3760,
      "▁மக்கள": 3761,
      "▁அரசாங்க": 3762,
      "▁அங்க": 3763,
      "▁லட்சம்": 3764,
      "ிருக்கும்": 3765,
      "▁மெ": 3766,
      "ிலுள்ள": 3767,
      "▁அங்கு": 3768,
      "▁எப்ப": 3769,
      "▁முடிவு": 3770,
      "தற்கு": 3771,
      "▁12": 3772,
      "▁யார": 3773,
      "ரிச": 3774,
      "க்கை": 3775,
      "ன்,": 3776,
      "ாளர்கள்": 3777,
      "▁ரூப": 3778,
      "▁குறிப்பிட": 3779,
      "னிய": 3780,
      "▁சோ": 3781,
      "▁இயக்கு": 3782,
      "▁மைய": 3783,
      "▁குழு": 3784,
      "▁செய்யப்பட்ட": 3785,
      "ிரிய": 3786,
      "ிரி": 3787,
      "ிக்கிற": 3788,
      "ிருக்கிறது.": 3789,
      "▁முழுவ": 3790,
      "னா்.": 3791,
      "கைய": 3792,
      "க்கொள்ள": 3793,
      "▁ஆகும்.": 3794,
      "முடைய": 3795,
      "த்தின": 3796,
      "▁கவன": 3797,
      "▁கீழ்": 3798,
      "ினர்.": 3799,
      "▁முக": 3800,
      "▁அப்போது": 3801,
      "▁ஆம்": 3802,
      "▁ஈடுப": 3803,
      "▁பெரும்": 3804,
      "▁திரும்ப": 3805,
      "ிலும்,": 3806,
      "▁தாக்கு": 3807,
      "▁யெகோவ": 3808,
      "▁அலுவ": 3809,
      "▁டெ": 3810,
      "ப்பில்": 3811,
      "▁மூன்று": 3812,
      "ிக்கும்": 3813,
      "தன்": 3814,
      "▁அதிகரி": 3815,
      "▁விற": 3816,
      "▁சங்க": 3817,
      "ளா": 3818,
      "er": 3819,
      "▁தமிழக": 3820,
      "ருக்கும்": 3821,
      "டையில்": 3822,
      "▁எதிர்ப": 3823,
      "ாது": 3824,
      "▁கல்வி": 3825,
      "ின்றனர்.": 3826,
      "▁பாஜக": 3827,
      "ந்தி": 3828,
      "▁உற்ப": 3829,
      "றவு": 3830,
      "மையில்": 3831,
      "ஸ்க": 3832,
      "▁பயிற்ச": 3833,
      "▁சதவீ": 3834,
      "▁கவ": 3835,
      "▁ஸ்": 3836,
      "▁இதுவரை": 3837,
      "▁தீவிர": 3838,
      "▁உயிரிழ": 3839,
      "▁தெரிவித்த": 3840,
      "ுட்ப": 3841,
      "▁உறுதி": 3842,
      "ினி": 3843,
      "ென்ற": 3844,
      "திகள்": 3845,
      "ர்ம": 3846,
      "▁படம்": 3847,
      "வோ": 3848,
      "▁யா": 3849,
      "▁குழந்தை": 3850,
      "▁நல": 3851,
      "▁பெற": 3852,
      "ங்களும்": 3853,
      "கள்,": 3854,
      "▁செல்": 3855,
      "▁தின": 3856,
      "▁விளையா": 3857,
      "▁சிகிச்சை": 3858,
      "ண்ப": 3859,
      "▁வந்து": 3860,
      "▁உத்தர": 3861,
      "▁காரணமாக": 3862,
      "த்தக்க": 3863,
      "▁துணை": 3864,
      "▁வாழ்": 3865,
      "ன்பு": 3866,
      "▁உள்ளிட்ட": 3867,
      "▁இரா": 3868,
      "▁பற்றிய": 3869,
      "on": 3870,
      "வதாக": 3871,
      "▁அம்": 3872,
      "ுகிற": 3873,
      "▁இந்தியாவில்": 3874,
      "▁ஃ": 3875,
      "த்தான்": 3876,
      "க்கப்பட்டுள்ள": 3877,
      "▁ஆச": 3878,
      "ையே": 3879,
      "▁மி": 3880,
      "▁கண்டு": 3881,
      "▁திரை": 3882,
      "▁அமைப்பு": 3883,
      "ிகளின்": 3884,
      "ர்களின்": 3885,
      "▁–": 3886,
      "▁நூ": 3887,
      "ரிமை": 3888,
      "▁நடி": 3889,
      "▁மீண்டும்": 3890,
      "த்துள்ளது.": 3891,
      "ூட": 3892,
      "▁ஆல": 3893,
      "ப்படுத்து": 3894,
      "▁புக": 3895,
      "▁இரண்ட": 3896,
      "▁மேற்ப": 3897,
      "▁அவற்ற": 3898,
      "▁பணி": 3899,
      "ளுக்கான": 3900,
      "▁தொடர்பாக": 3901,
      "க்கொண்ட": 3902,
      "▁போது": 3903,
      "▁அடை": 3904,
      "▁சேவை": 3905,
      "▁ஆதர": 3906,
      "ோதனை": 3907,
      "பர": 3908,
      "வாய": 3909,
      "ிக்கொ": 3910,
      "ாயக": 3911,
      "▁அவருடைய": 3912,
      "▁புது": 3913,
      "ாா்": 3914,
      "▁அவை": 3915,
      "ப்பெ": 3916,
      "னுக்கு": 3917,
      "யா": 3918,
      "...": 3919,
      "ந்திய": 3920,
      "▁மட்டுமே": 3921,
      "▁யார்": 3922,
      "▁ஆன": 3923,
      "லுக்கு": 3924,
      "▁கொடுக்க": 3925,
      "▁பெரும்ப": 3926,
      "ஜி": 3927,
      "னும்": 3928,
      "▁தங்க": 3929,
      "-1": 3930,
      "த்துறை": 3931,
      "ந்துகொ": 3932,
      "▁சிறந்த": 3933,
      "▁கிராம": 3934,
      "▁கேட்ட": 3935,
      "செய": 3936,
      "▁புரி": 3937,
      "▁பாகிஸ்த": 3938,
      "பே": 3939,
      "வித": 3940,
      "கிறது": 3941,
      "்கா": 3942,
      "▁இவ்வாறு": 3943,
      "▁இந்தியாவின்": 3944,
      "▁இதனை": 3945,
      "▁உள்ளன.": 3946,
      "▁நாட": 3947,
      "▁பெண்": 3948,
      "்தி": 3949,
      "▁உணவு": 3950,
      "▁கருத்து": 3951,
      "▁200": 3952,
      "▁கடை": 3953,
      "ேற்ற": 3954,
      "▁கொடுத்த": 3955,
      "▁சென்னை": 3956,
      "▁மேலும்,": 3957,
      "னையில்": 3958,
      "▁செய்துள்ள": 3959,
      "குறி": 3960,
      "▁கன": 3961,
      "▁கட்சி": 3962,
      "▁நிகழ்ச்ச": 3963,
      "ந்தது.": 3964,
      "▁பாட": 3965,
      "ங்கில": 3966,
      "லைக்க": 3967,
      "▁சம்பவம்": 3968,
      "▁தெரிவித்தார்.": 3969,
      "▁அதே": 3970,
      "▁பரிச": 3971,
      "▁இந்": 3972,
      "▁மாட்ட": 3973,
      "▁சுக": 3974,
      "ே!": 3975,
      "▁பங்கே": 3976,
      "▁விட்டு": 3977,
      "▁11": 3978,
      "▁பயண": 3979,
      "மோ": 3980,
      "வராக": 3981,
      "த்தில்,": 3982,
      "ரக": 3983,
      "▁இதைய": 3984,
      "▁எஸ்": 3985,
      "▁நெரு": 3986,
      "மையை": 3987,
      "▁பதில": 3988,
      "சே": 3989,
      "வதை": 3990,
      "மைப்பு": 3991,
      "▁நிறு": 3992,
      "▁மனை": 3993,
      "▁இழ": 3994,
      "வர்களை": 3995,
      "▁சகோத": 3996,
      "▁மேற்கொள்ள": 3997,
      "ுங்கள்.": 3998,
      "ாலும்,": 3999,
      "▁குறிப்பிட்ட": 4000,
      "▁அடைய": 4001,
      "ாரா": 4002,
      "ளம்": 4003,
      "▁ஏற்க": 4004,
      "நுட்ப": 4005,
      "வர்.": 4006,
      "லாக": 4007,
      "▁அப்படி": 4008,
      "▁தேர்வு": 4009,
      "▁சரி": 4010,
      "ர்த்து": 4011,
      "▁அடுத்த": 4012,
      "▁இயக்க": 4013,
      "▁ஸ்ட": 4014,
      "▁உடல்": 4015,
      "▁விற்ப": 4016,
      "▁திரும": 4017,
      "▁போராட்ட": 4018,
      "▁வாக்கு": 4019,
      "▁தங்கள்": 4020,
      "▁ஜெ": 4021,
      "▁இப்பட": 4022,
      "▁சிறப்பு": 4023,
      "▁பிள்ள": 4024,
      "▁ஒப்பு": 4025,
      "▁சுற்று": 4026,
      "▁காட்ட": 4027,
      "▁உச்ச": 4028,
      "ேசு": 4029,
      "க்கோ": 4030,
      "),": 4031,
      "▁கொடு": 4032,
      "்களில்": 4033,
      "▁முடியாது.": 4034,
      "▁வங்க": 4035,
      "▁முன்னாள்": 4036,
      "▁பகுத": 4037,
      "▁ஏற்று": 4038,
      "▁எவ்": 4039,
      "ோதும்": 4040,
      "▁டெல்ல": 4041,
      "▁கெ": 4042,
      "ாள்.": 4043,
      "ங்கை": 4044,
      "ிருந்தது.": 4045,
      "▁மகிழ": 4046,
      "ானிய": 4047,
      "▁ஊழிய": 4048,
      "▁ஆகியவற்ற": 4049,
      "ப்பிர": 4050,
      "▁கல்ல": 4051,
      "▁தெரிவித்துள்ளார்.": 4052,
      "▁நிலையில்": 4053,
      "▁வாக": 4054,
      "▁கூறிய": 4055,
      "▁விஜ": 4056,
      "▁இறு": 4057,
      "ினும்": 4058,
      "ார்த்த": 4059,
      "▁வித": 4060,
      "ும": 4061,
      "▁அட": 4062,
      "▁விலை": 4063,
      "▁எல்லா": 4064,
      "வேண்ட": 4065,
      "▁இயேசு": 4066,
      "பை": 4067,
      "ழுது": 4068,
      "வர்க": 4069,
      "▁இஸ்": 4070,
      "▁யூ": 4071,
      "▁தொழில்நுட்ப": 4072,
      "▁அளவில்": 4073,
      "▁நடைபெற்ற": 4074,
      "at": 4075,
      "▁பார்த்த": 4076,
      "த்தைக்": 4077,
      "▁செய்கிற": 4078,
      "▁ஆப": 4079,
      "▁இறை": 4080,
      "டிப்பு": 4081,
      "த்தைப்": 4082,
      "▁வீடு": 4083,
      "▁இன்று": 4084,
      "சிக": 4085,
      "▁நாள்": 4086,
      "ியல்": 4087,
      "▁கீழ": 4088,
      "▁போக்கு": 4089,
      "▁நிர்வாக": 4090,
      "▁சரிய": 4091,
      "ையாக": 4092,
      "ில்,": 4093,
      "தாவது": 4094,
      "▁யோ": 4095,
      "ொட": 4096,
      "ப்பாக": 4097,
      "▁ஓர்": 4098,
      "ரேந்திர": 4099,
      "நக": 4100,
      "▁பெற்று": 4101,
      "ிப்பு": 4102,
      "▁கிடைக்க": 4103,
      "▁திட்டம்": 4104,
      "▁நகர": 4105,
      "▁வகையில்": 4106,
      "▁வண": 4107,
      "ூர்வ": 4108,
      "▁ஒருவர்": 4109,
      "▁உயர்": 4110,
      "▁நாள": 4111,
      "ியுள்ளார்.": 4112,
      "▁பைபிள்": 4113,
      "▁இப்படி": 4114,
      "▁தெரிவிக்க": 4115,
      "▁தன்ன": 4116,
      "▁தலைமை": 4117,
      "▁இணைய": 4118,
      "▁இதுகுறி": 4119,
      "▁பெறு": 4120,
      "▁உடன": 4121,
      "▁என்ன?": 4122,
      "மடைந்த": 4123,
      "▁கடி": 4124,
      "▁கடு": 4125,
      "வதேச": 4126,
      "க்கே": 4127,
      "ீர்கள்.": 4128,
      "ar": 4129,
      "மொ": 4130,
      "▁இருக்கும்.": 4131,
      "பாடு": 4132,
      "னைக்கு": 4133,
      "▁நோய": 4134,
      "க்கிறது.": 4135,
      "யம்": 4136,
      "ர்கள்,": 4137,
      "▁ரூபாய்": 4138,
      "▁இதையடுத்து": 4139,
      "▁பொலிஸார்": 4140,
      "▁உட்ப": 4141,
      "ன்.": 4142,
      "▁விதி": 4143,
      "▁வார்த்த": 4144,
      "திக": 4145,
      "லின்": 4146,
      "ுக்கு": 4147,
      "ப்பது": 4148,
      "ப்ட": 4149,
      "▁மேற்கொண்டு": 4150,
      "▁தேர்தல்": 4151,
      "மூ": 4152,
      "களையும்": 4153,
      "▁14": 4154,
      "▁முழுவதும்": 4155,
      "த்திலும்": 4156,
      "விடு": 4157,
      "ப்பான": 4158,
      "ியான": 4159,
      "▁சார்": 4160,
      "▁''": 4161,
      "▁ஆய்வு": 4162,
      "▁சுகாதார": 4163,
      "▁சாத": 4164,
      "ாரண": 4165,
      "ிறது.": 4166,
      "▁ஆவ": 4167,
      "நி": 4168,
      "▁சகோதர": 4169,
      "னாக": 4170,
      "▁நு": 4171,
      "மாறு": 4172,
      "al": 4173,
      "▁விரைவில்": 4174,
      "ந்துள்ளது.": 4175,
      "▁வேண்டு": 4176,
      "▁சர்வதேச": 4177,
      "▁கொள்": 4178,
      "▁தவிர": 4179,
      "▁(இ": 4180,
      "ரசு": 4181,
      "▁வட": 4182,
      "▁திரைப்பட": 4183,
      "ன்க": 4184,
      "▁தமிழ்நாடு": 4185,
      "en": 4186,
      "▁தொடங்க": 4187,
      "▁யெகோவாவின்": 4188,
      "ுத": 4189,
      "▁வெள்ள": 4190,
      "▁ஒது": 4191,
      "▁என்னை": 4192,
      "▁முறைய": 4193,
      "▁18": 4194,
      "▁நமக்கு": 4195,
      "ரான": 4196,
      "▁நரேந்திர": 4197,
      "▁வெளியாக": 4198,
      "▁உறுப்பின": 4199,
      "▁மேற்பட்ட": 4200,
      "▁கேள்வி": 4201,
      "▁நிறைவே": 4202,
      "▁மேல்": 4203,
      "▁எல்": 4204,
      "த்தது.": 4205,
      "▁வைர": 4206,
      "▁:": 4207,
      "▁​": 4208,
      "டியோ": 4209,
      "▁இளை": 4210,
      "ே,": 4211,
      "ப்படவில்லை.": 4212,
      "▁தேவ": 4213,
      "▁விழ": 4214,
      "▁படு": 4215,
      "ப்பதற்கு": 4216,
      "▁வாய்ப்பு": 4217,
      "ல்க": 4218,
      "▁அவசிய": 4219,
      "த்தல்": 4220,
      "▁ஒரே": 4221,
      "ிருந்தார்.": 4222,
      "▁அந": 4223,
      "▁பேர": 4224,
      "▁கூடு": 4225,
      "லாள": 4226,
      "டிவ": 4227,
      "▁மதிப்ப": 4228,
      "▁பக": 4229,
      "▁உண்மை": 4230,
      "▁காவல": 4231,
      "▁சொல்": 4232,
      "நாயக": 4233,
      "பல": 4234,
      "▁புத்த": 4235,
      "▁தெளி": 4236,
      "▁எதிர்க": 4237,
      "▁நிறுவனம்": 4238,
      "▁மத": 4239,
      "ெய்": 4240,
      "▁13": 4241,
      "▁நடத்தி": 4242,
      "▁எதிராக": 4243,
      "▁தீர்": 4244,
      "▁எதுவும்": 4245,
      "▁25": 4246,
      "▁கொள்க": 4247,
      "ோ,": 4248,
      "ளிக்க": 4249,
      "▁தண்ண": 4250,
      "▁கடவுளுடைய": 4251,
      "முள்ள": 4252,
      "▁அனுப": 4253,
      "ம்பு": 4254,
      "மார": 4255,
      "▁50": 4256,
      "▁இளைஞ": 4257,
      "▁வளர்ச்சி": 4258,
      "▁நமது": 4259,
      "ம்ம": 4260,
      "த்துள்ளனர்.": 4261,
      "ல்கிற": 4262,
      "▁விளை": 4263,
      "▁?": 4264,
      "▁இதுகுறித்து": 4265,
      "த்தால்": 4266,
      "ித்": 4267,
      "es": 4268,
      "ன்கள்": 4269,
      "▁பக்க": 4270,
      "ட்சிய": 4271,
      "▁(ந": 4272,
      "▁வாகன": 4273,
      "▁குடி": 4274,
      "▁போக்குவர": 4275,
      "ில்லை": 4276,
      "ியது.": 4277,
      "க்கார": 4278,
      "201": 4279,
      "ந்த்": 4280,
      "மாகும்.": 4281,
      "▁வேத": 4282,
      "▁சுமார்": 4283,
      "த்தும்": 4284,
      "ப்பின்": 4285,
      "▁பாத": 4286,
      "ே.": 4287,
      "எஸ்": 4288,
      "▁ஆகவே": 4289,
      "ிகளும்": 4290,
      "▁மகிழ்ச்ச": 4291,
      "▁மட்டும்": 4292,
      "க்களை": 4293,
      "▁உற்பத்தி": 4294,
      "▁நிதிய": 4295,
      "▁பி.": 4296,
      "கிறார்.": 4297,
      "▁ஆட்ட": 4298,
      "▁பார்": 4299,
      "▁சாலை": 4300,
      "▁நிகழ்": 4301,
      "▁செய்யும்": 4302,
      "தால்": 4303,
      "ர்ப்பு": 4304,
      "▁இந்தக்": 4305,
      "▁தந்த": 4306,
      "▁சிக்க": 4307,
      "▁பங்கு": 4308,
      "▁நண்ப": 4309,
      "▁பொருட": 4310,
      "ஆம்": 4311,
      "▁அதனால்": 4312,
      "▁புற": 4313,
      "ல்களை": 4314,
      "▁இடையே": 4315,
      "ஞான": 4316,
      "த்தான": 4317,
      "▁டிர": 4318,
      "or": 4319,
      "▁டீ": 4320,
      "ாயம்": 4321,
      "▁இங்கு": 4322,
      "வருக்கும்": 4323,
      "▁ஒப்பந்த": 4324,
      "▁வரலா": 4325,
      "▁நம்பிக்கை": 4326,
      "நோ": 4327,
      "▁வைத்து": 4328,
      "▁சார": 4329,
      "▁காரணம்": 4330,
      "ூர": 4331,
      "▁சென்று": 4332,
      "▁மருத்துவமனையில்": 4333,
      "▁படத்தில்": 4334,
      "ண்மை": 4335,
      "▁வரி": 4336,
      "▁சொல்கிற": 4337,
      "ளுக்காக": 4338,
      "வியல்": 4339,
      "▁அக்க": 4340,
      "▁குறிப்பிடத்தக்க": 4341,
      "தலை": 4342,
      "▁ல்": 4343,
      "▁நடந்து": 4344,
      "▁பூம": 4345,
      "▁வாழ்க்கை": 4346,
      "▁C": 4347,
      "▁மறை": 4348,
      "ரிடம்": 4349,
      "▁கலை": 4350,
      "▁16": 4351,
      "னின்": 4352,
      "▁இவை": 4353,
      "▁ரசிக": 4354,
      "▁கேட்டு": 4355,
      "க்கப்பட்டது.": 4356,
      "யூ": 4357,
      "▁S": 4358,
      "▁வெளியே": 4359,
      "மெ": 4360,
      "னுடைய": 4361,
      "பார": 4362,
      "விட்டு": 4363,
      "லும்": 4364,
      "தியான": 4365,
      "ில்லிய": 4366,
      "▁சிங்": 4367,
      "ார்க்க": 4368,
      "ாகு": 4369,
      "ங்கும்": 4370,
      "ாக்": 4371,
      "ிலோ": 4372,
      "▁மழை": 4373,
      "ங்கா": 4374,
      "வதற்காக": 4375,
      "ிகள்,": 4376,
      "▁அதனை": 4377,
      "▁ஆராய": 4378,
      "▁குறிப்பி": 4379,
      "ியும்": 4380,
      "▁தள": 4381,
      "▁தம்": 4382,
      "நாட்டு": 4383,
      "ம்பெ": 4384,
      "▁முக்கியமான": 4385,
      "▁காட்டு": 4386,
      "மிக்க": 4387,
      "▁தாக்க": 4388,
      "▁பல்க": 4389,
      "▁முதல்வர்": 4390,
      "▁வயது": 4391,
      "▁தெலு": 4392,
      "▁நாட்டின்": 4393,
      "்துறை": 4394,
      "ண்ட்": 4395,
      "▁சதவீத": 4396,
      "ோர": 4397,
      "ஸ்திர": 4398,
      "ளுமன்ற": 4399,
      "▁[": 4400,
      "▁தொடர்பான": 4401,
      "▁உதவிய": 4402,
      "மின்": 4403,
      "▁மொழ": 4404,
      "▁சுவ": 4405,
      "லர்": 4406,
      "▁அவர்களுடைய": 4407,
      "▁இன்": 4408,
      "வருக்கு": 4409,
      "▁17": 4410,
      "▁மோச": 4411,
      "▁இருக்கின்ற": 4412,
      "ும்போது": 4413,
      "கின்றனர்.": 4414,
      "க்கூட": 4415,
      "▁விரி": 4416,
      "▁குறைந்த": 4417,
      "▁உண்டு": 4418,
      "மைச்ச": 4419,
      "▁ரோ": 4420,
      "▁பதில்": 4421,
      "▁தீர்மான": 4422,
      "▁ரயில்": 4423,
      "▁அல்ல.": 4424,
      "▁திரு.": 4425,
      "▁கூடிய": 4426,
      "▁பாகிஸ்தான்": 4427,
      "ார்,": 4428,
      "▁வான": 4429,
      "▁வரவே": 4430,
      "க்கூடிய": 4431,
      "தான்.": 4432,
      "\"\"\"": 4433,
      "▁உள்ளனர்.": 4434,
      "▁உர": 4435,
      "▁ஆலோச": 4436,
      "ுள்ளது.": 4437,
      "▁தொலை": 4438,
      "▁விச": 4439,
      "க்கண": 4440,
      "▁அலுவலக": 4441,
      "வார்கள்.": 4442,
      "▁மன்ன": 4443,
      "▁உடனடியாக": 4444,
      "▁ஆணைய": 4445,
      "▁பின்ப": 4446,
      "▁தகு": 4447,
      "▁கூட்டு": 4448,
      "ாக,": 4449,
      "▁தேவைய": 4450,
      "▁100": 4451,
      "▁அப்படிய": 4452,
      "▁அரசின்": 4453,
      "▁தடு": 4454,
      "▁பிரிவு": 4455,
      "ப்பிய": 4456,
      "ீர்கள்": 4457,
      "▁உள": 4458,
      "வதற்கான": 4459,
      "ன்மை": 4460,
      "மான்": 4461,
      "▁வகு": 4462,
      "▁வைக்க": 4463,
      "▁பிரச்சினை": 4464,
      "ருவ": 4465,
      "லே": 4466,
      "▁பிரதேச": 4467,
      "▁—⁠": 4468,
      "▁புகை": 4469,
      "மல்ல": 4470,
      "▁விவர": 4471,
      "விட்டது.": 4472,
      "▁வகை": 4473,
      "▁கண்கா": 4474,
      "▁எச்ச": 4475,
      "ரிக்கை": 4476,
      "பிய": 4477,
      "▁உங்க": 4478,
      "▁தவற": 4479,
      "▁எனது": 4480,
      "ிலே": 4481,
      "▁பயிற்சி": 4482,
      "▁வேக": 4483,
      "வின": 4484,
      "▁மொழி": 4485,
      "ினால்": 4486,
      "வர்களின்": 4487,
      "ாண": 4488,
      "்களின்": 4489,
      "ற்கும்": 4490,
      "▁துவ": 4491,
      "ங்களையும்": 4492,
      "▁விழு": 4493,
      "▁வருகின்றன.": 4494,
      "கொண்ட": 4495,
      "ட்டர்": 4496,
      "▁அடி": 4497,
      "▁ஜெய": 4498,
      "▁ஒத்து": 4499,
      "▁கேர": 4500,
      "▁சொந்த": 4501,
      "▁கொலை": 4502,
      "வாள": 4503,
      "▁கிடைய": 4504,
      "பட்ச": 4505,
      "▁அச": 4506,
      "▁ஆகியோர்": 4507,
      "▁தடை": 4508,
      "▁கால்": 4509,
      "▁உரிமை": 4510,
      "▁முடியும்.": 4511,
      "▁இவர்கள்": 4512,
      "ரிட": 4513,
      "ர்க்": 4514,
      "▁உப": 4515,
      "▁பத்திர": 4516,
      "▁30": 4517,
      "▁அவள்": 4518,
      "▁ரொ": 4519,
      "த்திலிருந்து": 4520,
      "▁கேட்க": 4521,
      "னில்": 4522,
      "▁கார்": 4523,
      "▁ஜி": 4524,
      "▁குடியரசு": 4525,
      "க்கெ": 4526,
      "னாதி": 4527,
      "▁அளவு": 4528,
      "▁மனு": 4529,
      "▁காரிய": 4530,
      "▁அனைவரும்": 4531,
      "▁ட்": 4532,
      "மிருந்து": 4533,
      "▁பீ": 4534,
      "▁சிந்த": 4535,
      "▁ஏன": 4536,
      "▁ஆயிர": 4537,
      "வச": 4538,
      "▁பயன": 4539,
      "▁இருவரும்": 4540,
      "▁உங்களை": 4541,
      "ையான": 4542,
      "▁ஏர": 4543,
      "ர்களும்": 4544,
      "▁உண்ட": 4545,
      "கிறார்கள்.": 4546,
      "ிகு": 4547,
      "▁சாட்ச": 4548,
      "▁பெண்கள்": 4549,
      "▁கண்ண": 4550,
      "▁சேர்த்து": 4551,
      "க்குப்": 4552,
      "ப்பட்டன.": 4553,
      "▁எண்ணிக்கை": 4554,
      "ப்பட்டுள்ளன.": 4555,
      "▁பகுதியில்": 4556,
      "ீப": 4557,
      "வர்களாக": 4558,
      "▁டா": 4559,
      "ஸ்,": 4560,
      "▁கிரிக்க": 4561,
      ".\"": 4562,
      "▁இடங்களில்": 4563,
      "பிர": 4564,
      "▁அடிப்படையில்": 4565,
      "▁வீடியோ": 4566,
      "▁கைய": 4567,
      "ற்றா": 4568,
      "ன்றி": 4569,
      "தியை": 4570,
      "▁தரு": 4571,
      "▁கண்டுபி": 4572,
      "ப்படுகின்றன.": 4573,
      "▁டெல்லி": 4574,
      "▁எனவே,": 4575,
      "▁இராணுவ": 4576,
      "▁கிழ": 4577,
      "▁ஜனாதி": 4578,
      "▁இடை": 4579,
      "ஷன்": 4580,
      "ெழு": 4581,
      "▁வடிவ": 4582,
      "▁அருக": 4583,
      "▁பணிகள்": 4584,
      "மாய": 4585,
      "▁போக்குவரத்து": 4586,
      "▁விருது": 4587,
      "▁தேச": 4588,
      "▁பார்த்து": 4589,
      "்களுக்கு": 4590,
      "▁“அ": 4591,
      "▁/": 4592,
      "க்கிர": 4593,
      "▁அடையாள": 4594,
      "▁கடவுள்": 4595,
      "▁ஐ.": 4596,
      "ட்டுள்ளது.": 4597,
      "▁சமய": 4598,
      "▁பரிசு": 4599,
      "▁மொத்த": 4600,
      "ர்களா?": 4601,
      "▁வர்த்த": 4602,
      "▁வேல": 4603,
      "▁உயிரிழந்த": 4604,
      "▁நோக்க": 4605,
      "▁ஆறு": 4606,
      "ிற்": 4607,
      "▁கடும்": 4608,
      "▁கர்": 4609,
      "▁ஜோ": 4610,
      "▁வலை": 4611,
      "ிருக்கிறார்.": 4612,
      "▁வெளியிட": 4613,
      "▁அடைந்த": 4614,
      "▁பொதும": 4615,
      "▁நான்கு": 4616,
      "ொழுது": 4617,
      "▁அளித்த": 4618,
      "றுத்த": 4619,
      "▁பணிய": 4620,
      "▁உள்ளது": 4621,
      "தோ": 4622,
      "▁உருவாக்க": 4623,
      "▁அறிவு": 4624,
      "▁ஆராய்ச்ச": 4625,
      "▁மும்ப": 4626,
      "▁பள்ளி": 4627,
      "வம்": 4628,
      "''": 4629,
      "ிகா": 4630,
      "▁ரீ": 4631,
      "ில்ல": 4632,
      "▁காந்தி": 4633,
      "▁அணு": 4634,
      "▁எதிர்ப்பு": 4635,
      "ினும்,": 4636,
      "்டர்": 4637,
      "நீதி": 4638,
      "▁அன்ப": 4639,
      "ப்புகள்": 4640,
      "விரு": 4641,
      "▁நிறைய": 4642,
      "▁எளி": 4643,
      "▁ஸ்ப": 4644,
      "▁எம்.": 4645,
      "▁வருட": 4646,
      "▁பிள்ளை": 4647,
      "▁தொடர்பு": 4648,
      "தாகவும்": 4649,
      "▁சுத": 4650,
      "▁விபத்து": 4651,
      "ங்களிலும்": 4652,
      "▁கட்டுப்பா": 4653,
      "▁அழு": 4654,
      "am": 4655,
      "▁ஒழு": 4656,
      "ட்ரோ": 4657,
      "▁அறிய": 4658,
      "▁பிரதி": 4659,
      "▁தேதி": 4660,
      "ிர்": 4661,
      "▁அளவ": 4662,
      "▁எண்": 4663,
      "▁ஏற்பட": 4664,
      "வ்வளவு": 4665,
      "▁கள": 4666,
      "▁பவு": 4667,
      "▁வெளியி": 4668,
      "▁இசை": 4669,
      "▁சார்ந்த": 4670,
      "ங்கர": 4671,
      "ாவும்": 4672,
      "செ": 4673,
      "போது,": 4674,
      "▁உண்மைய": 4675,
      "▁முயற்சி": 4676,
      "▁நடிகர்": 4677,
      "▁தண்ட": 4678,
      "▁வேளா": 4679,
      "ிகை": 4680,
      "▁அதிகாரிகள்": 4681,
      "▁நடக்க": 4682,
      "▁நப": 4683,
      "▁வருகிறார்.": 4684,
      "▁விவகார": 4685,
      "▁போட்டியில்": 4686,
      "▁போக": 4687,
      "மிட": 4688,
      "▁கூறியுள்ளார்.": 4689,
      "▁படத்தின்": 4690,
      "▁“இ": 4691,
      "ுவின்": 4692,
      "▁எரி": 4693,
      "▁முயற்ச": 4694,
      "ிலை": 4695,
      "▁கிள": 4696,
      "▁வல": 4697,
      "▁அவர்களின்": 4698,
      "▁செயல்படுத்த": 4699,
      "▁எங்களுக்கு": 4700,
      "ிலிருந்த": 4701,
      "▁A": 4702,
      "▁மாற": 4703,
      "▁இந்தத்": 4704,
      "▁உதாரண": 4705,
      "▁அதிகமாக": 4706,
      "▁சமீப": 4707,
      "மில்லை.": 4708,
      "▁அச்ச": 4709,
      "▁(எ": 4710,
      "▁வெற்ற": 4711,
      "▁போலீஸ": 4712,
      "வதில்லை.": 4713,
      "▁செலுத்த": 4714,
      "ள்ளி": 4715,
      "▁ஆசிரிய": 4716,
      "▁\"அ": 4717,
      "முறைய": 4718,
      "வற்றை": 4719,
      "▁மாட": 4720,
      "ப்பதி": 4721,
      "▁வீட்டு": 4722,
      "▁எங்கள்": 4723,
      "▁அந்தப்": 4724,
      "ஃப்": 4725,
      "▁சீன": 4726,
      "▁சேர்க்க": 4727,
      "▁இடம்பெ": 4728,
      "▁ஒதுக்க": 4729,
      "▁வென்ற": 4730,
      "▁போன": 4731,
      "▁பெயர்": 4732,
      "▁பரிசோதனை": 4733,
      "▁காத": 4734,
      "▁யாரும்": 4735,
      "▁அப": 4736,
      "களைக்": 4737,
      "▁எதிரான": 4738,
      "▁தோல்": 4739,
      "த்து,": 4740,
      "▁வாழ்த்து": 4741,
      "▁பிறந்த": 4742,
      "ார்:": 4743,
      "▁யு": 4744,
      "▁காண்ப": 4745,
      "▁ஆண்டில்": 4746,
      "▁குழந்தைகள்": 4747,
      "▁நடைபெற்று": 4748,
      "▁சப": 4749,
      "▁நன்றி": 4750,
      "▁எதிர்பார்க்க": 4751,
      "ரல்": 4752,
      "▁தனிய": 4753,
      "▁பிரபல": 4754,
      "ீட்டு": 4755,
      "▁பல்கலைக்க": 4756,
      "மல்": 4757,
      "▁சந்தோ": 4758,
      "▁இயக்குந": 4759,
      "வதில்": 4760,
      "வாய்": 4761,
      "▁சிர": 4762,
      "▁பின்ன": 4763,
      "முடிய": 4764,
      "களைப்": 4765,
      "▁நாட்டு": 4766,
      "தள": 4767,
      "▁நிறைவேற்ற": 4768,
      "▁பிரதம": 4769,
      "▁மக்களுக்கு": 4770,
      "▁செய்தனர்.": 4771,
      "வுடன்": 4772,
      "களாக": 4773,
      "▁இச": 4774,
      "▁முறையில்": 4775,
      "▁கல்லூ": 4776,
      "ல்ப": 4777,
      "மது": 4778,
      "▁போட்டி": 4779,
      "ாா்.": 4780,
      "▁மரண": 4781,
      "▁சினி": 4782,
      "ரோனா": 4783,
      "▁பேசிய": 4784,
      "தா?": 4785,
      "▁வட்ட": 4786,
      "▁அநேக": 4787,
      "▁ஏராள": 4788,
      "▁செய்தி": 4789,
      "தேச": 4790,
      "▁இன்ற": 4791,
      "▁சம்பந்த": 4792,
      "it": 4793,
      "▁P": 4794,
      "▁புகார்": 4795,
      "▁என்பத": 4796,
      "▁மாணவர்கள்": 4797,
      "▁கற்ப": 4798,
      "▁டாக": 4799,
      "▁அறிக்க": 4800,
      "▁இருக்கிறது": 4801,
      "ப்புற": 4802,
      "்கூட": 4803,
      "▁நியாய": 4804,
      "▁முதன்": 4805,
      "▁தவி": 4806,
      "▁ஆட்சி": 4807,
      "▁புத்தக": 4808,
      "▁கூறின": 4809,
      "▁M": 4810,
      "▁உற": 4811,
      "▁படி": 4812,
      "▁இடம்": 4813,
      "▁கைப்ப": 4814,
      "▁ஓய்": 4815,
      "்பு": 4816,
      "▁சர": 4817,
      "▁எஸ்.": 4818,
      "▁பகுதிகளில்": 4819,
      "▁கற்று": 4820,
      "க்கா": 4821,
      "▁நீண்ட": 4822,
      "▁N": 4823,
      "▁24": 4824,
      "▁கதை": 4825,
      "▁கிரிக்கெட்": 4826,
      "ங்களாக": 4827,
      "ண்டி": 4828,
      "ும்படி": 4829,
      "வுகள்": 4830,
      "▁மை": 4831,
      "▁ராணுவ": 4832,
      "▁முடியும்": 4833,
      "▁பெற்றோ": 4834,
      "▁வித்திய": 4835,
      "▁ராகு": 4836,
      "▁இவர": 4837,
      ".0": 4838,
      "▁விஜய்": 4839,
      "தாய": 4840,
      "▁மூன்ற": 4841,
      "ழல்": 4842,
      "ெடுக்க": 4843,
      "▁தொடர்பில்": 4844,
      "ந்து,": 4845,
      "▁சுய": 4846,
      "ங்கிணை": 4847,
      "▁போத": 4848,
      "▁புர": 4849,
      "▁மனைவி": 4850,
      "ட்டுள்ளார்.": 4851,
      "▁இள": 4852,
      "ில்லியன்": 4853,
      "வனாக": 4854,
      "▁கிடையாது.": 4855,
      "▁வலிய": 4856,
      "▁0": 4857,
      "▁காவல்": 4858,
      "▁இன": 4859,
      "▁புல": 4860,
      "▁மதிப்பு": 4861,
      "▁நம்முடைய": 4862,
      "சல்": 4863,
      "▁கர்நா": 4864,
      "ிரா": 4865,
      "▁எவ்வாறு": 4866,
      "்களும்": 4867,
      "நீதிமன்ற": 4868,
      "50": 4869,
      "▁அறிந்த": 4870,
      "▁வாங்க": 4871,
      "▁முன்ப": 4872,
      "▁ஒருங்கிணை": 4873,
      "▁!": 4874,
      "▁ஒத்துழை": 4875,
      "▁கொண்டிருந்த": 4876,
      "க்குள்": 4877,
      "▁இலங்கை": 4878,
      "▁முதலில்": 4879,
      "▁மது": 4880,
      "▁ஜனாதிபதி": 4881,
      "▁சூழ்": 4882,
      "▁பேச்ச": 4883,
      "▁சந்தேக": 4884,
      "▁அறிக்கை": 4885,
      "வார": 4886,
      "ion": 4887,
      "ருடன்": 4888,
      "▁வித்தியாச": 4889,
      "▁உங்கள": 4890,
      "▁சிலர்": 4891,
      "▁இப்போது": 4892,
      "விகள்": 4893,
      "▁விளையாட்டு": 4894,
      "ட்டிய": 4895,
      "▁அற": 4896,
      "ர்களாக": 4897,
      "வுள்ள": 4898,
      "ாம்.": 4899,
      "ஸ்திரே": 4900,
      "▁இல்லாத": 4901,
      "▁சிவ": 4902,
      "▁ஜனநாயக": 4903,
      "▁எங்க": 4904,
      "ச்சி": 4905,
      "னையை": 4906,
      "▁நடிகை": 4907,
      "▁கத": 4908,
      "வீன": 4909,
      "▁அமெரிக்கா": 4910,
      "▁அடிக்க": 4911,
      "▁22": 4912,
      "▁இறுதி": 4913,
      "▁ஆன்": 4914,
      "▁21": 4915,
      "மாட்ட": 4916,
      "▁உம்": 4917,
      "▁பகுதி": 4918,
      "▁பயங்கர": 4919,
      "▁பாவ": 4920,
      "▁எனினும்": 4921,
      "ic": 4922,
      "▁பலர்": 4923,
      "▁கொள்கிற": 4924,
      "▁1,": 4925,
      "▁மணி": 4926,
      "▁நாடா": 4927,
      "விக்க": 4928,
      "▁நேரம்": 4929,
      "ுள்ளார்.": 4930,
      "▁உள்": 4931,
      "க்குரிய": 4932,
      "ஞ்சா": 4933,
      "▁உல": 4934,
      "த்தைச்": 4935,
      "நாள்": 4936,
      "st": 4937,
      "▁துறைய": 4938,
      "▁T": 4939,
      "▁போர்": 4940,
      "ணா": 4941,
      "▁என்கிற": 4942,
      "▁தெலுங்கு": 4943,
      "விட்": 4944,
      "வரி": 4945,
      "▁இனி": 4946,
      "▁மிகு": 4947,
      "▁தேர்தலில்": 4948,
      "▁இத்திட்ட": 4949,
      "எம்": 4950,
      "▁வளர்ச்ச": 4951,
      "▁வாய்ப்ப": 4952,
      "்டு": 4953,
      "▁ஆகியவை": 4954,
      "▁வங்கி": 4955,
      "▁தேர்ந்த": 4956,
      "மைச்சர்": 4957,
      "▁தலைமைய": 4958,
      "▁ஐரோ": 4959,
      "ம்பர்": 4960,
      "க்கணக்கான": 4961,
      "▁அன்று": 4962,
      "▁பணியா": 4963,
      "▁எல்லாம்": 4964,
      "ிறு": 4965,
      "▁மிகப்பெ": 4966,
      "▁தேவையான": 4967,
      "▁சந்தோஷ": 4968,
      "▁அஞ்ச": 4969,
      "▁உரிய": 4970,
      "▁பெட்ரோ": 4971,
      "▁இணைந்து": 4972,
      "▁199": 4973,
      "▁வழக்க": 4974,
      "▁\"இ": 4975,
      "▁தண்ணீர்": 4976,
      "▁இருத": 4977,
      "▁முன்பு": 4978,
      "▁குறு": 4979,
      "▁கேரள": 4980,
      "▁நியூ": 4981,
      "▁விற்பனை": 4982,
      "▁எடுத்த": 4983,
      "வியை": 4984,
      "▁நாடாளுமன்ற": 4985,
      "▁அதிகமான": 4986,
      "▁ஏற்பட்டது.": 4987,
      "நிலையில்": 4988,
      "ப்படுகிற": 4989,
      "மாய்": 4990,
      "வன்.": 4991,
      "▁பங்கேற்ற": 4992,
      "▁இடைய": 4993,
      "கால": 4994,
      "▁அனுப்ப": 4995,
      "▁சிறிய": 4996,
      "னவே": 4997,
      "முகம்": 4998,
      "▁ஆரோ": 4999,
      "ராம": 5000,
      "▁அவ்வ": 5001,
      "வேண்டும்.": 5002,
      "▁போட்டிய": 5003,
      "▁அனுப்பி": 5004,
      "ான்,": 5005,
      "▁உண்டு.": 5006,
      "தில்லை.": 5007,
      "▁தொகை": 5008,
      "மாக,": 5009,
      "ரவை": 5010,
      "▁குறிப்பிடத்தக்கது.": 5011,
      "▁அத்த": 5012,
      "▁அதன்ப": 5013,
      "▁வர்த்தக": 5014,
      "▁ஐக்கிய": 5015,
      "▁ரொம்ப": 5016,
      "▁மக்களின்": 5017,
      "▁“எ": 5018,
      "மம்": 5019,
      "ூர்,": 5020,
      "▁நம்பிக்க": 5021,
      "▁செயல": 5022,
      "த்தனர்.": 5023,
      "▁அறிமுக": 5024,
      "ோட": 5025,
      "▁சுதந்திர": 5026,
      "▁விசாரணைகளை": 5027,
      "▁ஏராளமான": 5028,
      "▁ஏற்பாடு": 5029,
      "ப்த": 5030,
      "▁பால": 5031,
      "▁கொல்ல": 5032,
      "ங்களைப்": 5033,
      "▁திட": 5034,
      "ூன்": 5035,
      "▁வலியு": 5036,
      "▁அமைச்சகம்": 5037,
      "▁ஊடக": 5038,
      "▁இதே": 5039,
      "▁புகைப்பட": 5040,
      "ந்துகொள்ள": 5041,
      "மடை": 5042,
      "▁I": 5043,
      "▁ஸ்ரீ": 5044,
      "▁பெரும்பால": 5045,
      "▁வந்தது.": 5046,
      "னையும்": 5047,
      "▁இச்ச": 5048,
      "▁கர்த்த": 5049,
      "▁முடியாத": 5050,
      "மாற்ற": 5051,
      "▁அதிபர்": 5052,
      "▁நோய்": 5053,
      "▁அமைக்க": 5054,
      "▁ஞான": 5055,
      "வாற": 5056,
      "▁திறன்": 5057,
      "போத": 5058,
      "ணு": 5059,
      "▁தனியார்": 5060,
      "▁முத": 5061,
      "▁காஷ்": 5062,
      "▁கடன்": 5063,
      "▁விண்ண": 5064,
      "▁இரண்டாவது": 5065,
      "▁அழி": 5066,
      "▁பாதிக்கப்பட்ட": 5067,
      "ண்டல": 5068,
      "▁அந்": 5069,
      "▁சட்டம்": 5070,
      "▁மேம்பாட்டு": 5071,
      "▁கிரு": 5072,
      "▁ஆதரவு": 5073,
      "▁40": 5074,
      "ப்பே": 5075,
      "்துறைய": 5076,
      "▁கொரோனா": 5077,
      "▁வார்த்தை": 5078,
      "▁நெருக்க": 5079,
      "நான்": 5080,
      "▁வேட்ப": 5081,
      "▁முடியவில்லை.": 5082,
      "▁கொடுத்து": 5083,
      "▁அதிகரிக்க": 5084,
      "தார": 5085,
      "▁ஈடுபட்ட": 5086,
      "▁அதிகம்": 5087,
      "ாக்க": 5088,
      "il": 5089,
      "ாந்து": 5090,
      "நிய": 5091,
      "▁பணம்": 5092,
      "▁t": 5093,
      "நாட்டில்": 5094,
      "ாட": 5095,
      "▁ஆதார": 5096,
      "ாமி": 5097,
      "ிக்கப்பட்ட": 5098,
      "▁உருவாக": 5099,
      "▁மண": 5100,
      "▁விழி": 5101,
      "▁முன்னேற்ற": 5102,
      "▁ஒளி": 5103,
      "▁குண": 5104,
      "திக்க": 5105,
      "▁மேற்கு": 5106,
      "▁திருமண": 5107,
      "▁போல்": 5108,
      "▁காலம்": 5109,
      "▁படத்தை": 5110,
      "நே": 5111,
      "ுங்கள்": 5112,
      "▁நினைவு": 5113,
      "▁இங்கில": 5114,
      "▁சோதனை": 5115,
      "▁ஒப்புதல்": 5116,
      "▁என்னுடைய": 5117,
      "▁தெரியவில்லை.": 5118,
      "ாலி": 5119,
      "▁விசுவ": 5120,
      "ீர": 5121,
      "ப்படுகின்ற": 5122,
      "▁வாச": 5123,
      "ளிட": 5124,
      "பம்": 5125,
      "e)": 5126,
      "▁கொண்டுவ": 5127,
      "▁பல்கலைக்கழக": 5128,
      "▁இருந்தார்.": 5129,
      "▁நிறுத்த": 5130,
      "ப்பூர்வ": 5131,
      "▁தாய்": 5132,
      "பட்ட": 5133,
      "▁கொண்டுள்ள": 5134,
      "▁ஆற்ற": 5135,
      "▁சிறி": 5136,
      "▁அறிவியல்": 5137,
      "றையை": 5138,
      "▁திட்டத்தின்": 5139,
      "▁ஆர்வ": 5140,
      "▁கொண்டனர்.": 5141,
      "▁சமு": 5142,
      "ங்க.": 5143,
      "▁1.": 5144,
      "▁அன்ற": 5145,
      "▁அடிப்படை": 5146,
      "யில": 5147,
      "ழ்த்த": 5148,
      "முதல்": 5149,
      "▁அழ": 5150,
      "▁ஆலோசனை": 5151,
      "▁பிரச்": 5152,
      "ியம்": 5153,
      "▁மாதம்": 5154,
      "த்திற்கும்": 5155,
      "▁தீய": 5156,
      "▁நடித்த": 5157,
      "ுவை": 5158,
      "▁தீர்க்க": 5159,
      "▁கிலோ": 5160,
      "சில": 5161,
      "▁எடு": 5162,
      "▁ஆள": 5163,
      "▁தூத": 5164,
      "▁இலட்ச": 5165,
      "மும்,": 5166,
      "▁பண்ண": 5167,
      "▁சரியான": 5168,
      "▁போலீஸ்": 5169,
      "▁சின்": 5170,
      "▁ஆண": 5171,
      "▁மேலதிக": 5172,
      "ிட்": 5173,
      "▁மருத்துவமனைக்கு": 5174,
      "ணர்வு": 5175,
      "▁முற்ற": 5176,
      "▁நிராக": 5177,
      "வர்களில்": 5178,
      "வில": 5179,
      "▁வல்ல": 5180,
      "படிய": 5181,
      "க்ஸ்": 5182,
      "▁இருப்பத": 5183,
      "▁சி.": 5184,
      "ற்கை": 5185,
      "▁கொஞ்ச": 5186,
      "▁ராகுல்": 5187,
      "▁நடித்து": 5188,
      "▁பலி": 5189,
      "▁பயன்படுத்து": 5190,
      ").": 5191,
      "▁எழுதிய": 5192,
      "டன": 5193,
      "▁விருப்ப": 5194,
      "▁இடத்தில்": 5195,
      "▁சார்ப": 5196,
      "▁திருமணம்": 5197,
      "திரு": 5198,
      "▁தான்.": 5199,
      "ேஷ்": 5200,
      "▁தன்னுடைய": 5201,
      "▁விரும்புகிற": 5202,
      "ராச": 5203,
      "ஜா": 5204,
      "▁எண்ணெய்": 5205,
      "ன்ஸ்": 5206,
      "ந்துள்ளனர்.": 5207,
      "▁அவனை": 5208,
      "▁ஏற்ற": 5209,
      "▁வரைய": 5210,
      "▁வருமான": 5211,
      "ப்பட்டு,": 5212,
      "ிருப்பத": 5213,
      "ள்கிற": 5214,
      "ரிக": 5215,
      "ொடர்ப": 5216,
      "▁நடைமுறை": 5217,
      "▁மோட்ட": 5218,
      "மற்ற": 5219,
      "▁கலா": 5220,
      "▁பொருத்த": 5221,
      "▁கவலை": 5222,
      "▁விவசாயிகள்": 5223,
      "ப்பும்": 5224,
      "▁ஆரோக்கிய": 5225,
      "▁மற்றொரு": 5226,
      "▁மிகுந்த": 5227,
      "த்திற்கான": 5228,
      "▁செயலாள": 5229,
      "▁அரசாங்கம்": 5230,
      "▁சேர்ந்து": 5231,
      "▁நடத்திய": 5232,
      "க்கிறார்.": 5233,
      "த்துவம்": 5234,
      "▁உள்ளார்.": 5235,
      "ர்களில்": 5236,
      "▁ஆஸ்திரே": 5237,
      "ரவே": 5238,
      "கையில்": 5239,
      "ந்தர": 5240,
      "▁மருந்து": 5241,
      "▁ஆகியோ": 5242,
      "▁ஐந்து": 5243,
      "▁மாக": 5244,
      "ப்படுத்தும்": 5245,
      "▁நன": 5246,
      "▁தள்ள": 5247,
      "▁காயமடைந்த": 5248,
      "ப்பு,": 5249,
      "▁பார்ப்ப": 5250,
      "▁சத்திய": 5251,
      "▁ஓட்ட": 5252,
      "▁எவ்வளவு": 5253,
      "னக்கு": 5254,
      "▁கொள்கை": 5255,
      "▁தக": 5256,
      "ப்பதிவு": 5257,
      "▁ராஜ்ய": 5258,
      "ங்களைக்": 5259,
      "▁பாரு": 5260,
      "த்தைத்": 5261,
      "▁போய்": 5262,
      "▁எதிர்கால": 5263,
      "▁நோக்கி": 5264,
      "▁பரபர": 5265,
      "ார்?": 5266,
      "மானது": 5267,
      "▁கழி": 5268,
      "▁பிரச": 5269,
      "வான்": 5270,
      "▁காலத்தில்": 5271,
      "▁நேரத்தில்": 5272,
      "▁சதவீதம்": 5273,
      "▁செய்வது": 5274,
      "▁விசுவாச": 5275,
      "▁அர்த்த": 5276,
      "▁அப்போ": 5277,
      "▁போலீஸார்": 5278,
      "ஷி": 5279,
      "▁ஏற்கனவே": 5280,
      "ானது": 5281,
      "▁பிரே": 5282,
      "▁லா": 5283,
      "▁கட்சியின்": 5284,
      "ாய்ந்த": 5285,
      "▁ஏ.": 5286,
      "▁நன்றாக": 5287,
      "▁நிலைமை": 5288,
      "▁பதவி": 5289,
      "▁மருத்துவமனை": 5290,
      "▁அவற்றை": 5291,
      "கிறேன்.": 5292,
      "▁வியா": 5293,
      "▁புரிந்து": 5294,
      "▁தொழிலாள": 5295,
      "ப்பர்": 5296,
      "மய": 5297,
      "▁பிரா": 5298,
      "▁மேலா": 5299,
      "▁உலகம்": 5300,
      "▁ஆளு": 5301,
      "▁இசைய": 5302,
      "▁மிகப்பெரிய": 5303,
      "▁கூடுதல்": 5304,
      "▁மேம்படுத்த": 5305,
      "▁அதற்கான": 5306,
      "▁நாட்டில்": 5307,
      "▁வணிக": 5308,
      "ச்சார": 5309,
      "ண்டை": 5310,
      "▁தகவல்கள்": 5311,
      "▁தாக்குதல்": 5312,
      "▁அறிமுகம்": 5313,
      "▁தற்கொ": 5314,
      "▁இங்கே": 5315,
      "▁காவல்துறைய": 5316,
      "▁லிட்ட": 5317,
      "களுக்கும்": 5318,
      "▁பாதிப்பு": 5319,
      "நீர்": 5320,
      "ென்று": 5321,
      "▁தெரிவித்தனர்.": 5322,
      "▁எஞ்ச": 5323,
      "சன": 5324,
      "▁டே": 5325,
      "▁விளக்க": 5326,
      "▁மாற்று": 5327,
      "▁தாக்குதல": 5328,
      "▁மூத்த": 5329,
      "▁அம்மா": 5330,
      "ய்ய": 5331,
      "ஞ்சு": 5332,
      "▁பட்டிய": 5333,
      "வூ": 5334,
      "▁கிறிஸ்தவ": 5335,
      "▁கன்ன": 5336,
      "▁ஆங்கில": 5337,
      "▁மும்பை": 5338,
      "கையில்,": 5339,
      "▁வேற": 5340,
      "▁உன்": 5341,
      "▁ப்": 5342,
      "▁நடிக்க": 5343,
      "ிற்று": 5344,
      "ற்ச": 5345,
      "ிகர": 5346,
      "த்திலேயே": 5347,
      "▁அதாவது": 5348,
      "ஞ்": 5349,
      "ur": 5350,
      "▁நூற்றா": 5351,
      "தின": 5352,
      "ாகி": 5353,
      "▁2018": 5354,
      ".1": 5355,
      "தி,": 5356,
      "▁எப்போதும்": 5357,
      "▁செலவு": 5358,
      "▁உயர்த்த": 5359,
      "ையா?": 5360,
      "▁கூறி": 5361,
      "ங்களது": 5362,
      "▁பின்பு": 5363,
      "செய்ய": 5364,
      "பியே!": 5365,
      "தற்காக": 5366,
      "▁பால்": 5367,
      "ாட்சி": 5368,
      "▁அம்ச": 5369,
      "வர்கள்.": 5370,
      "▁23": 5371,
      "▁பாதிக்க": 5372,
      "ார்கள": 5373,
      "▁ஆர்.": 5374,
      "வரையும்": 5375,
      "▁இஸ்ரவே": 5376,
      "வோம்.": 5377,
      "▁B": 5378,
      "▁கடின": 5379,
      "▁போலீஸாா்": 5380,
      "▁நிறுவனங்கள்": 5381,
      "▁இருக்கு": 5382,
      "▁உட்பட": 5383,
      "▁படிப்ப": 5384,
      "om": 5385,
      "ம்த": 5386,
      "யோ": 5387,
      "▁நம்மை": 5388,
      "▁இந்தச்": 5389,
      "டுகிறது.": 5390,
      "ிருக்கின்ற": 5391,
      "▁பங்கள": 5392,
      "▁பராம": 5393,
      "▁வன்": 5394,
      "ம்பி": 5395,
      "ிக்கொண்ட": 5396,
      "▁தாய": 5397,
      "▁மொத்தம்": 5398,
      "▁கூட்டணி": 5399,
      "தாகும்.": 5400,
      "▁உறவு": 5401,
      "▁முடியாது": 5402,
      "▁தவறு": 5403,
      "மாகக்": 5404,
      "▁கிடைத்த": 5405,
      "▁ஹெ": 5406,
      "▁உரி": 5407,
      "▁கதா": 5408,
      "▁எதிர்பார": 5409,
      "▁ஸ்க": 5410,
      "▁பொலிசார்": 5411,
      "▁முட": 5412,
      "ீர்களா?": 5413,
      "ராட்சி": 5414,
      "▁செய்யப்பட்டுள்ளது.": 5415,
      "▁இதுத": 5416,
      "ரச": 5417,
      "▁ஆட்ச": 5418,
      "லாம்?": 5419,
      "▁சக்த": 5420,
      "▁தாக்கல்": 5421,
      "நாத்": 5422,
      "▁எத்த": 5423,
      "▁அனுமதிக்க": 5424,
      "ற்பு": 5425,
      "el": 5426,
      "▁தென்": 5427,
      "▁தாவ": 5428,
      "▁பெரும்பாலான": 5429,
      "▁அமைச்சரவை": 5430,
      "ஜரா": 5431,
      "வேண்டும்": 5432,
      "தாவது:": 5433,
      "▁மாநிலத்தில்": 5434,
      "▁அறிவிக்க": 5435,
      "▁முடிந்த": 5436,
      "▁இயேச": 5437,
      "▁தற்கொலை": 5438,
      "▁என்றால்": 5439,
      "▁குமார": 5440,
      "ுமா?": 5441,
      "மீது": 5442,
      "▁செய்யப்பட்டுள்ள": 5443,
      "கே": 5444,
      "படுத்த": 5445,
      "-19": 5446,
      "▁செய்தார்.": 5447,
      "▁வெங்க": 5448,
      "▁நடவடிக்கைகள்": 5449,
      ".201": 5450,
      "▁சென்ன": 5451,
      "▁நீதிமன்றம்": 5452,
      "▁மிக்க": 5453,
      "▁மலைய": 5454,
      "ிருக்கிறார்கள்.": 5455,
      "ஷ்ய": 5456,
      "▁மோட்டார்": 5457,
      "▁அனைவருக்கும்": 5458,
      "▁மேற்க": 5459,
      "▁அடிப்படைய": 5460,
      "▁மற": 5461,
      "▁அந்தக்": 5462,
      "▁அன்பு": 5463,
      "▁தான": 5464,
      "▁-⁠": 5465,
      "தியின்": 5466,
      "▁குற்றச்ச": 5467,
      "▁கூடாது.": 5468,
      "▁உதவு": 5469,
      "ரித்த": 5470,
      "க்கொள்": 5471,
      "ிகித": 5472,
      "ிட்டு": 5473,
      "▁பேச்சு": 5474,
      "▁இந்தியாவ": 5475,
      "▁கவனி": 5476,
      "▁துப்பா": 5477,
      "ரிப்பு": 5478,
      "▁விபத்தில்": 5479,
      "ட்டா": 5480,
      "வரின்": 5481,
      "▁நன்கு": 5482,
      "து:": 5483,
      "▁இருக்கின்றன.": 5484,
      "▁அழக": 5485,
      "▁பெரி": 5486,
      "▁உரையா": 5487,
      "▁வெளியிட்ட": 5488,
      "▁பயணம்": 5489,
      "▁தோன்ற": 5490,
      "▁ஜே": 5491,
      "▁இசையமை": 5492,
      "▁மூலமாக": 5493,
      "▁உதவ": 5494,
      "▁பின்பற்ற": 5495,
      "▁பொதுமக்கள்": 5496,
      "▁இடம்பெற்ற": 5497,
      "▁உடன்ப": 5498,
      "▁கல்லூரி": 5499,
      "்கள்,": 5500,
      "▁இறந்த": 5501,
      "▁R": 5502,
      "ணய": 5503,
      "ர்ட": 5504,
      "வந்த": 5505,
      "▁(ப": 5506,
      "ிருந்தனர்.": 5507,
      "▁காத்த": 5508,
      "▁கடுமையான": 5509,
      "வள": 5510,
      "குதியில்": 5511,
      "ஜின": 5512,
      "ரூ": 5513,
      "▁விமர்": 5514,
      "▁கவு": 5515,
      "▁அழைக்க": 5516,
      "▁படைய": 5517,
      "▁D": 5518,
      "▁(த": 5519,
      "▁இவரது": 5520,
      "▁நிறுவனத்தின்": 5521,
      "▁குஜரா": 5522,
      "▁கருத": 5523,
      "ோடு,": 5524,
      "லான": 5525,
      "▁உண்மையான": 5526,
      "▁பக்கம்": 5527,
      "▁இதனால்,": 5528,
      "▁கர்நாடக": 5529,
      "▁பறி": 5530,
      "▁அடுத்து": 5531,
      "▁படுக": 5532,
      "ாகவே": 5533,
      "▁தவிர்க்க": 5534,
      "▁போய": 5535,
      "▁உண்மையில்": 5536,
      "▁ஆராய்ச்சி": 5537,
      "க்கொண்டு": 5538,
      "ுவது": 5539,
      "▁பற": 5540,
      "▁எல்லை": 5541,
      "தைப்": 5542,
      "ாரி": 5543,
      "பக": 5544,
      "▁எதிர்ப்ப": 5545,
      "▁அபி": 5546,
      "கூ": 5547,
      "▁ஒன்றை": 5548,
      "▁உயிர்": 5549,
      "▁டெஸ்ட்": 5550,
      "திகளை": 5551,
      "டன்,": 5552,
      "▁பேசு": 5553,
      "▁சர்ச்ச": 5554,
      "க்கும்,": 5555,
      "மிய": 5556,
      "ட்டம்": 5557,
      "▁திக": 5558,
      "▁பேரு": 5559,
      "▁வெப்ப": 5560,
      "த்துப்": 5561,
      "ாதான": 5562,
      "▁தீர்ப்ப": 5563,
      "ந்துவிட்ட": 5564,
      "டாது": 5565,
      "சில்": 5566,
      "எல்": 5567,
      "▁கூட்டத்தில்": 5568,
      "▁தீர்வு": 5569,
      "▁மின்சார": 5570,
      "சர": 5571,
      "▁பா.": 5572,
      "▁வழங்கு": 5573,
      "ென்றால்": 5574,
      "▁குடியரசுத்": 5575,
      "▁கண்காணி": 5576,
      "▁மகன்": 5577,
      "▁பகி": 5578,
      "▁உருவாக்கு": 5579,
      "▁நாடுகள்": 5580,
      "▁நடு": 5581,
      "▁உழை": 5582,
      "வர்களும்": 5583,
      "▁மரிய": 5584,
      "▁|": 5585,
      "▁சாத்திய": 5586,
      "ஃப": 5587,
      "▁மேற்கொண்ட": 5588,
      "▁எனக்": 5589,
      "▁டி.": 5590,
      "▁மிகப்": 5591,
      "▁ரெ": 5592,
      "▁சீனா": 5593,
      "▁பொறுப்பு": 5594,
      "ில்லி": 5595,
      "▁தொழிற்ச": 5596,
      "வை.": 5597,
      "▁இத்தகைய": 5598,
      "ம்மு": 5599,
      "▁வலி": 5600,
      "த்தினர்": 5601,
      "ோதைய": 5602,
      "▁சமா": 5603,
      "நட": 5604,
      "▁ரசிகர்கள்": 5605,
      "▁பருவ": 5606,
      "▁வசூ": 5607,
      "ிகளையும்": 5608,
      "▁திருத்த": 5609,
      "ாதாரண": 5610,
      "▁வைரஸ்": 5611,
      "▁எதிர்த்து": 5612,
      "▁பேச்சுவ": 5613,
      "▁உலகின்": 5614,
      "▁அளவுக்கு": 5615,
      "▁எழுத": 5616,
      "▁அணியின்": 5617,
      "▁ஆசிய": 5618,
      "▁மாணவ": 5619,
      "▁ஒதுக்கீடு": 5620,
      "கொள்ள": 5621,
      "வெளி": 5622,
      "▁2020": 5623,
      "▁பிடிக்க": 5624,
      "▁டாக்டர்": 5625,
      "▁தொடங்கி": 5626,
      "▁மாகாண": 5627,
      "▁தெளிவாக": 5628,
      "▁இருப்பதாக": 5629,
      "ல்ல.": 5630,
      "▁முன்னணி": 5631,
      "▁இந்து": 5632,
      "▁அதிகபட்ச": 5633,
      "▁லி": 5634,
      "▁நன்மை": 5635,
      "▁படப்பி": 5636,
      "▁குறிப்பிட்டார்.": 5637,
      "ப்பதற்காக": 5638,
      "தல்,": 5639,
      "▁இதுதான்": 5640,
      "▁எதிர்க்க": 5641,
      "டியை": 5642,
      "▁விய": 5643,
      "▁கவனம்": 5644,
      "ம்ப்": 5645,
      "ாராஷ்ட": 5646,
      "▁நாய": 5647,
      "▁`": 5648,
      "குதி": 5649,
      "▁கே.": 5650,
      "ீன்": 5651,
      "▁அறிவிப்பு": 5652,
      "▁வழங்கும்": 5653,
      "▁யோச": 5654,
      "ிடு": 5655,
      "ர்களிடம்": 5656,
      "▁சமீபத்தில்": 5657,
      "த்தார": 5658,
      "வதன்": 5659,
      "ையு": 5660,
      "is": 5661,
      "▁மாறு": 5662,
      "▁வீரர்கள்": 5663,
      "▁28": 5664,
      "த்தேய": 5665,
      "▁ஆச்ச": 5666,
      "▁மத்தியில்": 5667,
      "▁தடுக்க": 5668,
      "▁நாடுகளில்": 5669,
      "ாகவும்": 5670,
      "▁கர": 5671,
      "ின.": 5672,
      "▁பலத்த": 5673,
      "னால": 5674,
      "ப்படாத": 5675,
      "ும்பு": 5676,
      "ப்படை": 5677,
      "▁பயங்கரவாத": 5678,
      "▁சக்தி": 5679,
      "ீஸ்": 5680,
      "▁சுற்றுலா": 5681,
      "▁நானும்": 5682,
      "▁கப்ப": 5683,
      "▁தெரிவித்து": 5684,
      "▁இதற்கான": 5685,
      "ed": 5686,
      "லோ": 5687,
      "ம்தான்": 5688,
      "மீர்": 5689,
      "▁குற்றம்": 5690,
      "வையில்": 5691,
      "ப்பூ": 5692,
      "▁தலைவர்கள்": 5693,
      "▁இல்லாமல்": 5694,
      "▁அறு": 5695,
      "▁எம்": 5696,
      "▁கணி": 5697,
      "ாட்": 5698,
      "த்தொ": 5699,
      "▁மக்களை": 5700,
      "▁டீசல்": 5701,
      "ியுள்ளனர்.": 5702,
      "▁பெற்றது.": 5703,
      "▁இதுவே": 5704,
      "▁மேலாண்மை": 5705,
      "▁செல்லும்": 5706,
      "▁வசதி": 5707,
      "▁மலை": 5708,
      "▁மீதான": 5709,
      "▁தொடர்": 5710,
      "களிலும்": 5711,
      "▁ஆகியவற்றை": 5712,
      "▁முதலமைச்சர்": 5713,
      "்த்": 5714,
      "▁மஹ": 5715,
      "▁சூரிய": 5716,
      "▁காயம்": 5717,
      "ப்பிரிக்க": 5718,
      "▁முழுக்க": 5719,
      "ப்பட்டது": 5720,
      "▁வழக்குப்": 5721,
      "▁படங்களில்": 5722,
      "வேளை": 5723,
      "▁தொடக்க": 5724,
      "▁ஆனாலும்": 5725,
      "▁சமுதாய": 5726,
      "சன்": 5727,
      "▁அப்போஸ்த": 5728,
      "▁சை": 5729,
      "ுவதற்கு": 5730,
      "▁விடுதலை": 5731,
      "▁வெறு": 5732,
      "▁60": 5733,
      "▁நாட்ட": 5734,
      "ென்ன": 5735,
      "▁மீட்ப": 5736,
      "et": 5737,
      "வால்": 5738,
      "▁தெரிவித்துள்ளனர்.": 5739,
      "▁தந்தை": 5740,
      "▁அடிக்கடி": 5741,
      "▁க்": 5742,
      "▁ஒலி": 5743,
      "போதும்": 5744,
      "ஷ்ண": 5745,
      "▁மாற்றம்": 5746,
      "▁பெற்றோர்": 5747,
      "னியா": 5748,
      "▁வேண்டாம்.": 5749,
      "▁ஒன்றும்": 5750,
      "ர்த்தி": 5751,
      "▁என்றார்": 5752,
      "▁இருப்பது": 5753,
      "▁இதற்காக": 5754,
      "▁ஹோ": 5755,
      "ச்சூ": 5756,
      "மாகவும்": 5757,
      "ரங்க": 5758,
      "▁அவனுக்கு": 5759,
      "▁வருகிறது": 5760,
      "ப்பாடு": 5761,
      "ாகக்": 5762,
      "▁ஜீ": 5763,
      "▁அமைந்துள்ள": 5764,
      "ிற்கும்": 5765,
      "▁ஆகவே,": 5766,
      "ுரிமை": 5767,
      "பியே!)": 5768,
      "மேல்": 5769,
      "▁ஊக்கு": 5770,
      "▁பெங்கள": 5771,
      "▁இலட்சம்": 5772,
      "▁உங்களுடைய": 5773,
      "▁சிறப்பாக": 5774,
      "▁டை": 5775,
      "ஷா": 5776,
      "▁பேச்சுவார்த்த": 5777,
      "னைகள்": 5778,
      "▁திமுக": 5779,
      "ch": 5780,
      "▁உற்பத்திய": 5781,
      "த்ய": 5782,
      "ாளராக": 5783,
      "லியா": 5784,
      "▁நிகழ்ச்சியில்": 5785,
      "▁பக்த": 5786,
      "ாய்வு": 5787,
      "▁நிலையில்,": 5788,
      "▁அப்பா": 5789,
      "▁மில்லியன்": 5790,
      "ாதை": 5791,
      "▁ஏற்பட்டுள்ளது.": 5792,
      "ியோ": 5793,
      "பின்": 5794,
      "போல": 5795,
      "திர": 5796,
      "▁லிட்டர்": 5797,
      "▁நேர்": 5798,
      "▁மின்ன": 5799,
      "ில்தான்": 5800,
      "ப்படுகிறது": 5801,
      "▁மலையாள": 5802,
      "▁உள்ளட": 5803,
      "▁உடைய": 5804,
      "க்குத்": 5805,
      "▁2017": 5806,
      "▁எப்போது": 5807,
      "▁பரவ": 5808,
      "▁விசாரித்து": 5809,
      "▁மல": 5810,
      "▁பிரான்": 5811,
      "▁அச்சு": 5812,
      "▁முதலீடு": 5813,
      "▁முன்னெ": 5814,
      "▁சமாதான": 5815,
      "▁முற்றிலும்": 5816,
      "▁கிடைக்கும்": 5817,
      "▁500": 5818,
      "▁வீட்டில்": 5819,
      "as": 5820,
      "த்தேயு": 5821,
      "ளவில்": 5822,
      "▁நம்ம": 5823,
      "▁மு.": 5824,
      "▁31": 5825,
      "▁பண்ட": 5826,
      "ளித்த": 5827,
      "மின": 5828,
      "▁அனுபவ": 5829,
      "திகளில்": 5830,
      "பட": 5831,
      "▁தாம": 5832,
      "▁கோரிக்கை": 5833,
      "▁தேடி": 5834,
      "▁டால": 5835,
      "▁கூடுதல": 5836,
      "▁நவீன": 5837,
      "▁பிரதிநி": 5838,
      "▁நாக": 5839,
      "▁ராம": 5840,
      "ொருள்": 5841,
      "▁தட": 5842,
      "▁மச": 5843,
      "▁பிடி": 5844,
      "▁பிடித்த": 5845,
      "▁குவி": 5846,
      "▁வேண்டும்?": 5847,
      "ol": 5848,
      "ent": 5849,
      "▁மகா": 5850,
      "ர்களுக்கும்": 5851,
      "லிவு": 5852,
      "▁வழக்கில்": 5853,
      "▁விண்ணப்ப": 5854,
      "படி,": 5855,
      "ளிர்": 5856,
      "▁குரு": 5857,
      "▁சபை": 5858,
      "▁அல்லாஹ்வின்": 5859,
      "▁ஏற்படும்": 5860,
      "தைக்": 5861,
      "ிருக்கும்.": 5862,
      "▁(உ": 5863,
      "▁தொற்று": 5864,
      "▁நீதிமன்றத்தில்": 5865,
      "ெனில்": 5866,
      "▁நடவடிக்கைகளை": 5867,
      "▁பதவிய": 5868,
      "மாத": 5869,
      "▁சின்ன": 5870,
      "▁எனவும்": 5871,
      "ையைப்": 5872,
      "▁யார்?": 5873,
      "▁அமைச்சக": 5874,
      "▁அவர்,": 5875,
      "▁சூழ": 5876,
      "▁எவ்வித": 5877,
      "▁அவரிடம்": 5878,
      "▁ரஷ்ய": 5879,
      "▁எனினும்,": 5880,
      "▁வேளாண்": 5881,
      ".5": 5882,
      "▁அங்கே": 5883,
      "கன்": 5884,
      "ாலையில்": 5885,
      "▁எடுத்துக்": 5886,
      "▁ஐரோப்பிய": 5887,
      "மின்றி": 5888,
      "▁பொதுவாக": 5889,
      "▁இதில்,": 5890,
      "ழ்ந்த": 5891,
      "ப்பட்டனர்.": 5892,
      "▁விலக": 5893,
      "▁கிட": 5894,
      "ப்பட்டார்.": 5895,
      "▁சொன்னார்.": 5896,
      "வினை": 5897,
      "▁செய்யப்பட்டது.": 5898,
      "▁இரண்டாம்": 5899,
      "▁மாவட்டத்தில்": 5900,
      "▁முறையாக": 5901,
      "▁ஆயுத": 5902,
      "▁காட்ச": 5903,
      "▁கடுமையாக": 5904,
      "ிழை": 5905,
      "ரியா": 5906,
      "ையைக்": 5907,
      "சம்": 5908,
      "▁முழுமையாக": 5909,
      "த்தே": 5910,
      "விட்டார்.": 5911,
      "ிகளிலும்": 5912,
      "▁குறிப்பாக": 5913,
      "▁ஊரக": 5914,
      "▁முன்னே": 5915,
      "லியல்": 5916,
      "ம்பரிய": 5917,
      "▁இவற்ற": 5918,
      "▁சிறை": 5919,
      "▁அங்கீ": 5920,
      "▁பாகிஸ்தான": 5921,
      "▁வீட்ட": 5922,
      "▁ஏழை": 5923,
      "▁தமது": 5924,
      "▁அனைத்தும்": 5925,
      "ளிடையே": 5926,
      "▁26": 5927,
      "்களையும்": 5928,
      "▁அவன": 5929,
      "▁எதிர்கொ": 5930,
      "ing": 5931,
      "▁காட்சி": 5932,
      "▁இயக்குநர்": 5933,
      "டல்": 5934,
      "ிகளாக": 5935,
      "▁சுத்த": 5936,
      "▁சட்டமன்ற": 5937,
      "▁பட்": 5938,
      "க்கர": 5939,
      "▁வருகிறார்கள்.": 5940,
      "▁27": 5941,
      "மில்லை": 5942,
      "▁அவ்வாறு": 5943,
      "ப்பதில்": 5944,
      "▁ஆந்திர": 5945,
      "▁பவுல்": 5946,
      "▁2019": 5947,
      "▁சதவ": 5948,
      "▁தனிப்பட்ட": 5949,
      "▁வேலைவாய": 5950,
      "ன்களை": 5951,
      "க்தி": 5952,
      "▁சந்தை": 5953,
      "▁அழைத்து": 5954,
      "க்கட்ட": 5955,
      "ுள்ளனர்.": 5956,
      "▁கோப": 5957,
      "▁கிழக்கு": 5958,
      "▁உடனே": 5959,
      "▁இரத்த": 5960,
      "▁ஆவண": 5961,
      "லிக்க": 5962,
      "ராஜ்": 5963,
      "▁ஆர்": 5964,
      "▁உயர": 5965,
      "த்திற்காக": 5966,
      "விடம்": 5967,
      "▁இதனைய": 5968,
      "▁காவல்துறையினர்": 5969,
      "▁என்னும்": 5970,
      "த்தோ": 5971,
      "▁சுட்ட": 5972,
      "▁G": 5973,
      "▁வகுப்பு": 5974,
      "▁நெடு": 5975,
      "▁வியாபார": 5976,
      "▁தங்களுடைய": 5977,
      "னர்,": 5978,
      "▁தயாரிப்ப": 5979,
      "▁கடைசி": 5980,
      "▁உடை": 5981,
      "▁புதி": 5982,
      "▁உச்சநீதிமன்ற": 5983,
      "▁செய்யப்பட்டு": 5984,
      "பாத்": 5985,
      "▁பாரம்பரிய": 5986,
      "▁சிபி": 5987,
      "க்கல்": 5988,
      "▁மண்டல": 5989,
      "▁ஆவி": 5990,
      "▁அத்துடன்": 5991,
      "ந்தைய": 5992,
      "▁ஆரம்பித்த": 5993,
      "ன்ட்": 5994,
      "போன்ற": 5995,
      "▁இவருக்கு": 5996,
      "▁குமார்": 5997,
      "▁அதிர்ச்ச": 5998,
      "ிருக்கிறது": 5999,
      "விழ": 6000,
      "▁பரிந்து": 6001,
      "ீர்கள்?": 6002,
      "ாலை": 6003,
      "▁வலு": 6004,
      "ிட்டி": 6005,
      "க்களின்": 6006,
      "▁வண்ண": 6007,
      "▁ஒட்டு": 6008,
      "▁போட்டு": 6009,
      "டனும்": 6010,
      "▁மாநிலம்": 6011,
      "▁கடவுள": 6012,
      "▁ஆதி": 6013,
      "ிருப்பது": 6014,
      "▁பெட்ரோல்": 6015,
      "▁அவர்களிடம்": 6016,
      "த்திட்ட": 6017,
      "▁மட்டுமல்ல": 6018,
      "▁யூத": 6019,
      "▁ஆட": 6020,
      "-201": 6021,
      "ஞ்சி": 6022,
      "▁தொடர்ந்த": 6023,
      "▁சங்கீ": 6024,
      "போல்": 6025,
      "ப்ர": 6026,
      "▁பெண்ண": 6027,
      "▁எல்லோ": 6028,
      "▁மானிய": 6029,
      "▁ரன்கள்": 6030,
      "▁இருதய": 6031,
      "▁சவா": 6032,
      "▁தீவிரவாத": 6033,
      "▁போராட்டம்": 6034,
      "▁கிட்ட": 6035,
      "▁உற்ச": 6036,
      "▁இருக்கிறார்கள்.": 6037,
      "▁முயற்சிய": 6038,
      "ன,": 6039,
      "▁திட்டங்கள்": 6040,
      "▁படப்பிடிப்பு": 6041,
      "▁அதற்காக": 6042,
      "ாதீர்கள்.": 6043,
      "வையும்": 6044,
      "▁செய்தது.": 6045,
      "▁மகாராஷ்ட": 6046,
      "▁தெரிவித்துள்ள": 6047,
      "▁இந்ந": 6048,
      "▁எங்கே": 6049,
      "ங்களால்": 6050,
      "-ஆம்": 6051,
      "▁பொருட்கள்": 6052,
      "▁விழாவில்": 6053,
      "▁பொருள்": 6054,
      "▁இதுதொடர்ப": 6055,
      "▁சட": 6056,
      "▁கொண்டார்.": 6057,
      "▁செயற்ப": 6058,
      "▁இந்நிலையில்": 6059,
      "ிருக்கின்றன.": 6060,
      "ிகிதம்": 6061,
      "▁மாறி": 6062,
      "ாவற்ற": 6063,
      "▁அவர்களில்": 6064,
      "▁திரும்பி": 6065,
      "▁போது,": 6066,
      "▁துறையில்": 6067,
      "▁கழக": 6068,
      "▁H": 6069,
      "▁இம்": 6070,
      "ண்டா": 6071,
      "▁ஆவார்.": 6072,
      "▁சினிம": 6073,
      "▁விநிய": 6074,
      "▁உடன்": 6075,
      "▁o": 6076,
      "▁(ம": 6077,
      "▁பாராட்டு": 6078,
      "▁என்னால்": 6079,
      "▁பிராந்திய": 6080,
      "▁கஷ்ட": 6081,
      "டியில்": 6082,
      "▁க.": 6083,
      "▁இருக்கிறார்.": 6084,
      "டுகிற": 6085,
      "கர": 6086,
      "ஸா": 6087,
      "▁செயல்பாடு": 6088,
      "க்கிறது": 6089,
      "த்துக்கும்": 6090,
      "▁தொடர": 6091,
      "▁சந்தித்து": 6092,
      "▁F": 6093,
      "▁தகுதி": 6094,
      "▁ராஜா": 6095,
      "▁சந்திர": 6096,
      "▁தண்டனை": 6097,
      "ையால்": 6098,
      "▁மந்திர": 6099,
      "▁கேப்ட": 6100,
      "ப்பான்": 6101,
      "▁வந்தார்.": 6102,
      "பெய": 6103,
      "▁ரயில்வே": 6104,
      "▁சொல்லி": 6105,
      "▁இறைவன": 6106,
      "▁நியமிக்க": 6107,
      "▁தொடங்கிய": 6108,
      "▁கூறப்படுகிறது.": 6109,
      "▁வசன": 6110,
      "ேன்,": 6111,
      "▁விழா": 6112,
      "▁ரி": 6113,
      "▁அறிந்து": 6114,
      "▁வலியுறு": 6115,
      "ெல்": 6116,
      "▁தயாராக": 6117,
      "▁தற்போதைய": 6118,
      "ப்பிட": 6119,
      "▁ஒத்துழைப்பு": 6120,
      "▁பாலியல்": 6121,
      "▁பிள": 6122,
      "▁முஸ்": 6123,
      "▁உட்க": 6124,
      "▁சிறுவ": 6125,
      "▁பிடித்து": 6126,
      "▁ஜம்மு": 6127,
      "என்": 6128,
      "▁ஹை": 6129,
      "▁தலைவராக": 6130,
      "▁எண்ணிக்க": 6131,
      "க்குழு": 6132,
      "▁அலுவல": 6133,
      "▁அதிகரித்து": 6134,
      "▁வழிக": 6135,
      "▁தலைமையிலான": 6136,
      "▁சாதாரண": 6137,
      "▁மகிழ்ச்சி": 6138,
      "▁தை": 6139,
      "ிக்கொள்ள": 6140,
      "டி,": 6141,
      "▁நடைபெற": 6142,
      "▁சாதனை": 6143,
      "▁இங்கிலாந்து": 6144,
      "▁கீழே": 6145,
      "di": 6146,
      "▁பிறகு,": 6147,
      "▁இதர": 6148,
      "ின்று": 6149,
      "▁ஜ.": 6150,
      "டின": 6151,
      "▁அவசர": 6152,
      "மானது.": 6153,
      "▁பின்னர்,": 6154,
      "▁விரைந்து": 6155,
      "▁198": 6156,
      "▁ஒன்றாக": 6157,
      "▁விசாரண": 6158,
      "▁வருவதாக": 6159,
      "▁விவாத": 6160,
      "▁கூட்டுறவு": 6161,
      "▁துப்பாக்கி": 6162,
      "▁உற்சாக": 6163,
      "▁அணை": 6164,
      "▁வாக்க": 6165,
      "▁மன்ற": 6166,
      "ிக்கிறது.": 6167,
      "▁இயக்குனர்": 6168,
      "ிற்கான": 6169,
      "▁கடல்": 6170,
      "▁வீரர்": 6171,
      "ரான்": 6172,
      "▁அவனுடைய": 6173,
      ".2": 6174,
      "ேல்": 6175,
      "▁கட்டுரை": 6176,
      "▁பெறும்": 6177,
      "▁விட்டது.": 6178,
      "▁நிறுவ": 6179,
      "ண்டில்": 6180,
      "ப்படைய": 6181,
      "▁c": 6182,
      "▁சேத": 6183,
      "க்கால": 6184,
      "ழ்க": 6185,
      "▁இயற்கை": 6186,
      "▁மரணம்": 6187,
      "▁பார்வைய": 6188,
      "வனை": 6189,
      "▁தங்களது": 6190,
      "▁விஜய": 6191,
      "ெய்ய": 6192,
      "▁கணக்கு": 6193,
      "▁தமிழ்,": 6194,
      "ணைப்பு": 6195,
      "▁காப்ப": 6196,
      "▁இடத்திற்கு": 6197,
      "▁தேர்ந்தெடுக்க": 6198,
      "▁பாரா": 6199,
      "▁கூட்டம்": 6200,
      "ரிக்": 6201,
      "ினார்கள்.": 6202,
      "ர்ஜ": 6203,
      "▁போட": 6204,
      "ணியில்": 6205,
      "சித்து": 6206,
      "செய்த": 6207,
      "ம்ச": 6208,
      "▁வாய்ந்த": 6209,
      "ாரம்": 6210,
      "▁அளவிலான": 6211,
      "களுடன்": 6212,
      "▁மீட்பு": 6213,
      "வற்று": 6214,
      "ிருக்கிறேன்.": 6215,
      "்சி": 6216,
      "களால்": 6217,
      "▁ஹி": 6218,
      "▁எல்.": 6219,
      "ையோ": 6220,
      "▁தேவையில்": 6221,
      "▁கான்": 6222,
      "▁டொ": 6223,
      "▁செய்க": 6224,
      "சித்த": 6225,
      "▁டு": 6226,
      "▁ஜூ": 6227,
      "▁தலைமையில்": 6228,
      "ியைப்": 6229,
      "▁வெறும்": 6230,
      "வேண்டிய": 6231,
      ".3": 6232,
      "ொன்ற": 6233,
      "▁ஒப்பந்தம்": 6234,
      "▁மனைவிய": 6235,
      "ுறவு": 6236,
      "ம்கூட": 6237,
      "▁ஓட்டு": 6238,
      "ில்லா": 6239,
      "▁L": 6240,
      "▁சவு": 6241,
      "▁அழுத்த": 6242,
      "▁நிராகரி": 6243,
      "தால்,": 6244,
      "▁தலைய": 6245,
      "▁வழியாக": 6246,
      "▁சொத்து": 6247,
      "▁பைபிள": 6248,
      "▁இதனையடுத்து": 6249,
      "and": 6250,
      "▁வெளிப்படுத்த": 6251,
      "▁மிள": 6252,
      "▁வெகு": 6253,
      "▁வத": 6254,
      "ங்களுக்கும்": 6255,
      "▁மார்": 6256,
      "நல": 6257,
      "▁சிறையில்": 6258,
      "▁பரிசுத்த": 6259,
      "ஒரு": 6260,
      "▁நடத்து": 6261,
      "▁செய்வத": 6262,
      "களைத்": 6263,
      "வீர்கள்.": 6264,
      "▁கலாச்சார": 6265,
      "▁இலக்கு": 6266,
      "ற்கால": 6267,
      "ம்பர": 6268,
      "▁ஆச்சரிய": 6269,
      "▁எதிர்": 6270,
      "▁பந்து": 6271,
      "▁காப்பா": 6272,
      "புர": 6273,
      "▁வருவாய்": 6274,
      "▁சிங்க": 6275,
      "▁(1": 6276,
      "▁நுழை": 6277,
      "-2": 6278,
      "▁எழுத்து": 6279,
      "re": 6280,
      "▁வன": 6281,
      "▁மூட": 6282,
      "மக்கு": 6283,
      "▁தெரிவிக்கப்பட்டுள்ளது.": 6284,
      "▁ஒருபோதும்": 6285,
      "வொரு": 6286,
      "▁29": 6287,
      "த்திரை": 6288,
      "▁தயாரிக்க": 6289,
      "▁அதைப்": 6290,
      "ிலி": 6291,
      "▁செய்திய": 6292,
      "ங்களுடன்": 6293,
      "▁2016": 6294,
      "ம்ஸ்": 6295,
      "▁இயக்கத்தில்": 6296,
      "ியன்": 6297,
      "ation": 6298,
      "▁தம்முடைய": 6299,
      "▁உறுதியாக": 6300,
      "▁வளாக": 6301,
      "▁நீதிபதி": 6302,
      "▁தெரியும்.": 6303,
      "▁ஆண்டுகளில்": 6304,
      "▁ஸ": 6305,
      "யோக": 6306,
      "▁தூய்": 6307,
      "மையும்": 6308,
      "▁சுற்ற": 6309,
      "▁விழிப்பு": 6310,
      "▁(ஆ": 6311,
      "▁அவர்களது": 6312,
      "▁தீர்ப்பு": 6313,
      "ந்துகொண்ட": 6314,
      "்பி": 6315,
      "▁பாலிவு": 6316,
      "ிடத்தில்": 6317,
      "▁அதிர": 6318,
      "▁கப": 6319,
      "வாதி": 6320,
      "ro": 6321,
      "▁கலந்துகொண்ட": 6322,
      "ன்றித": 6323,
      "▁காஷ்மீர்": 6324,
      "ராஜ": 6325,
      "ங்களைச்": 6326,
      "▁குறைக்க": 6327,
      "▁ஹீ": 6328,
      "ருக்க": 6329,
      "▁அன": 6330,
      "▁35": 6331,
      "வா்": 6332,
      "▁கேட்ப": 6333,
      "▁எச்சரிக்கை": 6334,
      "த்தீ": 6335,
      "▁படிக்க": 6336,
      "▁தல": 6337,
      "ங்கில்": 6338,
      "வா?": 6339,
      "▁எழுப்ப": 6340,
      "தும்,": 6341,
      "ந்தை": 6342,
      "▁சந்தித்த": 6343,
      "▁கட்டண": 6344,
      "ெடு": 6345,
      "ானா": 6346,
      "▁பஞ்சா": 6347,
      "ீட்டில்": 6348,
      "்களாக": 6349,
      "ாரும்": 6350,
      "▁உன்ன": 6351,
      "▁சூப்பர்": 6352,
      "ங்கல்": 6353,
      "ர்ட்": 6354,
      "▁பொறிய": 6355,
      "▁வைத்திய": 6356,
      "டியா": 6357,
      "▁தெரிக": 6358,
      "▁குடிம": 6359,
      "வோம்": 6360,
      "ார்கள்?": 6361,
      "▁பெரும்பாலும்": 6362,
      "த்தள": 6363,
      "ரி,": 6364,
      "த்தினை": 6365,
      "களைச்": 6366,
      "▁அருகில்": 6367,
      "▁முக்கியத்துவம்": 6368,
      "▁செலுத்து": 6369,
      "ந்தார்.": 6370,
      "ப்பிடு": 6371,
      "ள்ளனர்.": 6372,
      "▁இறைவன்": 6373,
      "▁நம்புகிற": 6374,
      "▁(நபியே!)": 6375,
      "▁செயலாளர்": 6376,
      "ப்பற்றி": 6377,
      "ப்பதற்கான": 6378,
      "▁சென்னையில்": 6379,
      "▁இணைப்பு": 6380,
      "▁இன்னொரு": 6381,
      "▁ஜா": 6382,
      "ள்,": 6383,
      "▁வழக்குப்பதிவு": 6384,
      "▁எஞ்சின்": 6385,
      "▁குழப்ப": 6386,
      "ர்ஷ்ட": 6387,
      "▁சற்று": 6388,
      "▁புரிய": 6389,
      "▁சிறிது": 6390,
      "▁சார்பில்": 6391,
      "ராய": 6392,
      "▁ஆயு": 6393,
      "▁அட்ட": 6394,
      "வேன்.": 6395,
      "▁பொறுத்த": 6396,
      "▁அவ்வளவு": 6397,
      "▁தெரிவித்துள்ளது.": 6398,
      "▁மகள்": 6399,
      "வர்கள்,": 6400,
      "▁கேட": 6401,
      "னோ": 6402,
      "▁தன்னை": 6403,
      "▁அடையாளம்": 6404,
      "▁ரூபாய": 6405,
      "▁இரவு": 6406,
      "ட்டத்தில்": 6407,
      "▁இதன்ப": 6408,
      "▁அமைந்துள்ளது.": 6409,
      "▁இளம்": 6410,
      "▁பரு": 6411,
      "மொழ": 6412,
      "▁நிறைந்த": 6413,
      "▁f": 6414,
      "வக": 6415,
      "ருதி": 6416,
      "▁கிடைக்கும்.": 6417,
      "▁வந்துள்ள": 6418,
      "▁ஆட்டோ": 6419,
      "பூர்வ": 6420,
      "▁மையம்": 6421,
      "▁பணியில்": 6422,
      "ள்ளார்.": 6423,
      "▁தவறான": 6424,
      "மாகவே": 6425,
      "▁கணக்கில்": 6426,
      "▁உறுதிய": 6427,
      "▁பிற்ப": 6428,
      "▁பிள்ளைகள்": 6429,
      "▁காந்த": 6430,
      "▁மட": 6431,
      "வார்கள்": 6432,
      "▁உள்துறை": 6433,
      "▁தீர்க்கத": 6434,
      "▁சான்றித": 6435,
      "▁முர": 6436,
      "ாய்,": 6437,
      "▁சித்த": 6438,
      "▁நடித்துள்ளார்.": 6439,
      "▁%": 6440,
      "லோக": 6441,
      "▁உயர்ந்த": 6442,
      "▁ஆசை": 6443,
      "▁மாணவிய": 6444,
      "▁ன்": 6445,
      "▁தீப": 6446,
      "ஸில்": 6447,
      "ுவத": 6448,
      "ப்படுத்துதல்": 6449,
      "தீ": 6450,
      "▁பரிந்துரை": 6451,
      "▁இவர்களுக்கு": 6452,
      "மன்": 6453,
      "▁கேள்வ": 6454,
      "▁தெரியாது.": 6455,
      "ல்லை": 6456,
      "▁சம்பந்தப்பட்ட": 6457,
      "லலி": 6458,
      "ப்பதாக": 6459,
      "▁ஏதாவது": 6460,
      "புரம்": 6461,
      "▁வேண்டாம்": 6462,
      "▁குஜராத்": 6463,
      "▁வெளியிட்டுள்ள": 6464,
      "▁கவர்": 6465,
      "▁செய்யப்பட": 6466,
      "▁ஏதும்": 6467,
      "▁திட்டத்தை": 6468,
      "▁வழிநட": 6469,
      "நகர்": 6470,
      "▁கல்விய": 6471,
      "▁ஆப்பிரிக்க": 6472,
      "▁இருந்தன.": 6473,
      "வார்.": 6474,
      "▁மாவட்டங்களில்": 6475,
      "▁பணியாற்ற": 6476,
      "▁ஃப": 6477,
      "▁போட்டிகளில்": 6478,
      "என்ன": 6479,
      "▁தப்பி": 6480,
      "▁கீழ்ப்ப": 6481,
      "ளோ": 6482,
      "▁செயல்பட": 6483,
      "▁வாக்குறு": 6484,
      "த்திலுள்ள": 6485,
      "▁பிரேத": 6486,
      "ழகம்": 6487,
      "▁E": 6488,
      "▁பழங்கு": 6489,
      "நேர": 6490,
      "ங்கள்:": 6491,
      "▁கெட்ட": 6492,
      "ும்போது,": 6493,
      "ஸி": 6494,
      "▁மாநிலத்தின்": 6495,
      "▁அய": 6496,
      "ா்கள்": 6497,
      "▁s": 6498,
      "▁வாழ்க்கையில்": 6499,
      "▁விடய": 6500,
      "▁தமிழகத்தில்": 6501,
      "ெக": 6502,
      "▁பிரிய": 6503,
      "▁அதிகாரி": 6504,
      "▁பன்ன": 6505,
      "▁அத்தா": 6506,
      "களுக்கான": 6507,
      "▁வெளியுறவு": 6508,
      "▁பயணிகள்": 6509,
      "▁ஜெயலலி": 6510,
      "▁மீதும்": 6511,
      "நடை": 6512,
      "▁வரலாற்று": 6513,
      "▁வந்தனர்.": 6514,
      "un": 6515,
      "▁கொஞ்சம்": 6516,
      "ென்": 6517,
      "லைக்": 6518,
      "வைத்": 6519,
      "▁அதுதான்": 6520,
      "▁ஷா": 6521,
      "▁துரு": 6522,
      "▁உத்த": 6523,
      "▁வேண்டும": 6524,
      "▁செய்துள்ளனர்.": 6525,
      "▁வரலாற்ற": 6526,
      "▁ஆயிரம்": 6527,
      "▁விஞ்": 6528,
      "▁பிரச்னை": 6529,
      "▁வலைதள": 6530,
      "▁இருப்பினும்": 6531,
      "▁கண்டுபிடிக்க": 6532,
      "▁பிரச்சனை": 6533,
      "▁பேருந்து": 6534,
      "he": 6535,
      "▁அம்ப": 6536,
      "▁சட்டச": 6537,
      "▁பழைய": 6538,
      "-க்கும்": 6539,
      "▁அழைப்பு": 6540,
      "▁உணர்வு": 6541,
      "்டோ": 6542,
      "▁300": 6543,
      "ஆர்": 6544,
      "▁வேகமாக": 6545,
      "▁தடுப்பு": 6546,
      "விட்-19": 6547,
      "▁ரே": 6548,
      "▁அரை": 6549,
      "▁அரி": 6550,
      "ப்பதை": 6551,
      "▁ராம்": 6552,
      "வடை": 6553,
      "▁கவி": 6554,
      "▁நடிப்ப": 6555,
      "▁சினிமா": 6556,
      "▁ரத்து": 6557,
      "▁லூ": 6558,
      "▁அனுபவி": 6559,
      "▁ரஜின": 6560,
      "ad": 6561,
      "▁இருந்தது": 6562,
      "▁எல": 6563,
      "▁கையெழு": 6564,
      "▁நினைக்கிற": 6565,
      "▁எதை": 6566,
      "▁நடைபெற்றது.": 6567,
      "▁தள்ளு": 6568,
      "▁நாட்கள்": 6569,
      "▁பக்கத்தில்": 6570,
      "▁பூமிய": 6571,
      "▁நிலையத்தில்": 6572,
      "▁ஆழ": 6573,
      "ரையும்": 6574,
      "▁செய்வதற்கு": 6575,
      "▁நிற்க": 6576,
      "▁இந்தி": 6577,
      "▁சித": 6578,
      "க்கவும்.": 6579,
      "ழிவு": 6580,
      "▁தொடர்புடைய": 6581,
      "சேஷ": 6582,
      "வார்": 6583,
      "▁காவல்துறை": 6584,
      "▁ஆஸ்திரேலிய": 6585,
      "▁போலவே": 6586,
      "ம்:": 6587,
      "-இ": 6588,
      "ாகிய": 6589,
      "▁70": 6590,
      "▁K": 6591,
      "▁கட்டமைப்பு": 6592,
      "▁மோடிய": 6593,
      "க்கொள்கிற": 6594,
      "▁வேளாண்மை": 6595,
      "▁என்பதாக": 6596,
      "ப்பட்டுள்ளது": 6597,
      "▁சேமி": 6598,
      "▁தக்க": 6599,
      "ானது.": 6600,
      "▁தொழிலாளர்கள்": 6601,
      "▁உள்நாட்டு": 6602,
      "▁வேலைவாய்ப்பு": 6603,
      "கிறோம்.": 6604,
      "▁ராஜஸ்த": 6605,
      "▁மீன": 6606,
      "ப்பினர்": 6607,
      "த்தன": 6608,
      "▁உலகள": 6609,
      "▁தண்ணீ": 6610,
      "வகை": 6611,
      "um": 6612,
      "▁குற்றச்சாட்டு": 6613,
      "id": 6614,
      "▁விண்": 6615,
      "▁நியம": 6616,
      "▁\"\"\"\"\"": 6617,
      "▁ஊக்க": 6618,
      "மிழ": 6619,
      "▁ஊக்குவி": 6620,
      "▁எதையும்": 6621,
      "▁இயக்கிய": 6622,
      "▁மூன்றாவது": 6623,
      "▁கொண்டுள்ளது.": 6624,
      "சர்": 6625,
      "▁இருந்தனர்.": 6626,
      "நாள": 6627,
      "ொழு": 6628,
      "கிய": 6629,
      "▁பங்க": 6630,
      "▁அவரின்": 6631,
      "▁தெய்": 6632,
      "ரால்": 6633,
      "த்தோடு": 6634,
      "ென்றால்,": 6635,
      "காஷ்": 6636,
      "▁of": 6637,
      "▁என்றான்.": 6638,
      "▁இதய": 6639,
      "▁சரியாக": 6640,
      "▁மீட்க": 6641,
      "ன்னி": 6642,
      "▁விசாரிக்க": 6643,
      "ச்சே": 6644,
      "▁ஏனெனில்": 6645,
      "ியும்,": 6646,
      "▁செய்துள்ளது.": 6647,
      "▁பிரதான": 6648,
      "க்கப்பட்டுள்ளனர்.": 6649,
      "▁இருந்தாலும்": 6650,
      "▁அமைய": 6651,
      "நீங்கள்": 6652,
      "▁புள்ள": 6653,
      "▁ஒப்படை": 6654,
      "▁பலியாக": 6655,
      "▁ஒன்றிய": 6656,
      "▁கடல": 6657,
      "▁“உ": 6658,
      "த்தார்": 6659,
      "ித்தார்.": 6660,
      "▁பேரில்": 6661,
      "▁அவற்றின்": 6662,
      "▁குறிப்பிட்டுள்ளார்.": 6663,
      "ூரில்": 6664,
      "▁மேம்படுத்து": 6665,
      "ியைக்": 6666,
      "▁என்றும்,": 6667,
      "நர்": 6668,
      "▁மறுத்து": 6669,
      "▁டெல்லியில்": 6670,
      "▁முனை": 6671,
      "ஷன": 6672,
      "▁மாவட்டம்": 6673,
      "்க்கு": 6674,
      "விற்கு": 6675,
      "▁ஸ்த": 6676,
      "▁எழுத்த": 6677,
      "▁உலகில்": 6678,
      "றா": 6679,
      "ீட்ட": 6680,
      "▁இருக்கலாம்.": 6681,
      "லன்": 6682,
      "▁கைப்பற்ற": 6683,
      "-ல்": 6684,
      "▁37": 6685,
      "டர்": 6686,
      "▁ரக": 6687,
      "▁ஏற்படுத்தியுள்ளது.": 6688,
      "▁உனக்கு": 6689,
      "லாத": 6690,
      "▁சீர": 6691,
      "▁அவசியம்": 6692,
      "▁வடிவமை": 6693,
      "▁படிப்பு": 6694,
      "▁அப்படியே": 6695,
      "▁நிரூ": 6696,
      "வீராக": 6697,
      "▁விஞ்ஞான": 6698,
      "▁பேச்சுவார்த்தை": 6699,
      "▁கிரே": 6700,
      "ிருத்த": 6701,
      "▁ஓய்வு": 6702,
      "▁உறுப்பினர்கள்": 6703,
      "வழி": 6704,
      "▁ஆட்சிய": 6705,
      "▁இச்சம்ப": 6706,
      "▁மகளிர்": 6707,
      "ட்டுக்": 6708,
      "▁இன்றைய": 6709,
      "▁வருகின்றனா்.": 6710,
      "ையிலும்": 6711,
      "ேயான": 6712,
      "▁பகிர்ந்து": 6713,
      "▁அறிக்கையில்": 6714,
      "சோ": 6715,
      "▁அரசுக்கு": 6716,
      "▁சும": 6717,
      "▁பெருமை": 6718,
      "▁தொலைக்க": 6719,
      "மாக்க": 6720,
      "▁இலங்க": 6721,
      "▁விதை": 6722,
      "▁தோற்ற": 6723,
      "▁அப்பொழுது": 6724,
      "ண்ணை": 6725,
      "ப்படுகின்றது.": 6726,
      "▁ஹீரோ": 6727,
      "பிள்": 6728,
      "▁கட்டட": 6729,
      "மாகி": 6730,
      "▁அதிர்ஷ்ட": 6731,
      "▁ரத்த": 6732,
      "விடும்.": 6733,
      "ட்களுக்கு": 6734,
      "மழை": 6735,
      "ன்னா": 6736,
      "▁ஏற": 6737,
      "▁32": 6738,
      "▁நிகழ்ச்சி": 6739,
      "மண": 6740,
      "▁மோசமான": 6741,
      "ிடமிருந்து": 6742,
      "▁கொண்டே": 6743,
      "▁மாதிரி": 6744,
      "▁இது,": 6745,
      "▁2,": 6746,
      "▁பாராட்ட": 6747,
      "▁நடந்தது.": 6748,
      "▁மதுரை": 6749,
      "ட்டு,": 6750,
      "▁பச்சை": 6751,
      "▁\"\"\"இ": 6752,
      "▁பின்வரு": 6753,
      "ிருக்கிறோம்.": 6754,
      "மாவ": 6755,
      "▁ஹூ": 6756,
      "▁நபர்": 6757,
      "▁தடுத்து": 6758,
      "▁இவ்வ": 6759,
      "▁நாளை": 6760,
      "▁திருப்ப": 6761,
      "▁நிர்ணய": 6762,
      "▁சந்திக்க": 6763,
      "▁கட்டுப்படுத்த": 6764,
      "▁ஒழுங்கு": 6765,
      "▁சிபிஐ": 6766,
      "▁இயந்திர": 6767,
      "▁அடங்க": 6768,
      "ினா": 6769,
      "▁எழுதின": 6770,
      "ங்க்": 6771,
      "வூதிய": 6772,
      "▁சுற்றுச்சூ": 6773,
      "▁மசோத": 6774,
      "▁எந்தவித": 6775,
      "▁கேப்டன்": 6776,
      "ியே": 6777,
      "▁இலவச": 6778,
      "ப்படுவது": 6779,
      "le": 6780,
      "ப்பிக்க": 6781,
      "▁நன்": 6782,
      "▁p": 6783,
      "▁\"(": 6784,
      "க்கூடாது.": 6785,
      "ாளர்களுக்கு": 6786,
      "▁பறிமுதல்": 6787,
      "ொன்று": 6788,
      "▁என்னிடம்": 6789,
      "▁கடற்ப": 6790,
      "▁விற்பனைக்கு": 6791,
      "வழ": 6792,
      "மாண": 6793,
      "▁\"\"அ": 6794,
      "▁தானிய": 6795,
      "▁உள்ளூர்": 6796,
      "நாட்ட": 6797,
      "▁)": 6798,
      "▁W": 6799,
      "s)": 6800,
      "ார்கள்,": 6801,
      "▁படுகாய": 6802,
      "▁தெரிந்த": 6803,
      "்க்": 6804,
      "ினார்": 6805,
      "ல்லாஹ்": 6806,
      "▁வைரலாக": 6807,
      "டியான": 6808,
      "▁அண்": 6809,
      "ங்களே": 6810,
      "▁நன்க": 6811,
      "▁விளக்கு": 6812,
      "▁அதிகபட்சமாக": 6813,
      "க்கூடும்.": 6814,
      "ிருப்பதாக": 6815,
      "▁கருது": 6816,
      "▁80": 6817,
      "▁கடித": 6818,
      "▁கால்நடை": 6819,
      "ாப": 6820,
      "▁பெரும": 6821,
      "த்தட்ட": 6822,
      "▁குழுவ": 6823,
      "ாமல்,": 6824,
      "மொத்த": 6825,
      "▁பலரும்": 6826,
      "▁ஏற்றுக்கொள்ள": 6827,
      "▁2014": 6828,
      "▁கண்டறிய": 6829,
      "▁பட்டியலில்": 6830,
      "▁மார": 6831,
      "▁பெற்றுள்ள": 6832,
      "▁காதல்": 6833,
      "▁(ச": 6834,
      "▁முதன்மை": 6835,
      "ct": 6836,
      "ங்களைத்": 6837,
      "▁பூமி": 6838,
      "▁கழு": 6839,
      "ா்.": 6840,
      "▁முது": 6841,
      "்கான": 6842,
      "த்தலை": 6843,
      "▁பத்திரிக": 6844,
      "▁தி.": 6845,
      "▁உறவின": 6846,
      "▁தம்ப": 6847,
      "▁ஏற்படுத்து": 6848,
      "▁வட்டார": 6849,
      "ச்பி": 6850,
      "▁அவசியம்.": 6851,
      "▁மாநிலங்களில்": 6852,
      "▁வசதிகள்": 6853,
      "▁நீங்க": 6854,
      "ட்சத்திர": 6855,
      "▁நடக்கும்": 6856,
      "ாவிற்கு": 6857,
      "▁வரலாறு": 6858,
      "▁மொழிகளில்": 6859,
      "▁திட்டமி": 6860,
      "ினேன்.": 6861,
      "▁பேசினார்.": 6862,
      "▁தலா": 6863,
      "▁ஈமான்": 6864,
      "ிகளுக்கும்": 6865,
      "▁யுத்த": 6866,
      "ரும்,": 6867,
      "பாத்திர": 6868,
      "▁பயன்படுத்தி": 6869,
      "்ப்": 6870,
      "ரியில்": 6871,
      "வர்,": 6872,
      "ன்னு": 6873,
      "▁இயேசுவின்": 6874,
      "▁செயல்படு": 6875,
      "▁இது.": 6876,
      "▁நாளில்": 6877,
      "▁ஒருவர": 6878,
      "▁வறு": 6879,
      "▁கம்ப": 6880,
      "▁மழ": 6881,
      "▁யாரு": 6882,
      "க்குறி": 6883,
      "▁சூழ்நிலை": 6884,
      "▁தீயணைப்பு": 6885,
      "▁குறைவாக": 6886,
      "ொண்ட": 6887,
      "யின்": 6888,
      "▁கூறுகையில்,": 6889,
      "தரா": 6890,
      "▁அமைந்த": 6891,
      ".4": 6892,
      "▁வழியில்": 6893,
      "தலுக்கு": 6894,
      "▁வர்க்க": 6895,
      "விந்த்": 6896,
      "ச்சா": 6897,
      "மாகப்": 6898,
      "டுகள்": 6899,
      "▁எத்தனை": 6900,
      "▁அந்தச்": 6901,
      "▁கட்டணம்": 6902,
      "▁பழக்க": 6903,
      "▁அற்ப": 6904,
      "▁ஆம்,": 6905,
      "▁மய": 6906,
      "▁அத்தகைய": 6907,
      "▁மஹி": 6908,
      "▁நோயாள": 6909,
      "நாத": 6910,
      "▁வீழ்த்த": 6911,
      "▁ஆகி": 6912,
      "▁தொழிலாளர்": 6913,
      "வுக்கும்": 6914,
      "வேக": 6915,
      "ம்மா": 6916,
      "▁நேரடியாக": 6917,
      "▁மாணவர்": 6918,
      "ந்தா": 6919,
      "க்கு,": 6920,
      "▁அதிமுக": 6921,
      "▁சாட்சிகள்": 6922,
      "ோம்,": 6923,
      "▁மத்தேயு": 6924,
      "சாலை": 6925,
      "ரையா": 6926,
      "▁தயாரிப்பு": 6927,
      "▁மாருதி": 6928,
      "▁in": 6929,
      "▁\"\"\"அ": 6930,
      "▁அண்ண": 6931,
      "▁நவ": 6932,
      "போதிலும்,": 6933,
      "▁செயல்பட்டு": 6934,
      "▁அதுவே": 6935,
      "▁முன்னதாக": 6936,
      "▁மனதில்": 6937,
      "▁கதாபாத்திர": 6938,
      "வாதம்": 6939,
      "லிச": 6940,
      "▁பின": 6941,
      "▁\"\"இ": 6942,
      "▁விரோத": 6943,
      "▁2015": 6944,
      "▁அதிகாரப்பூர்வ": 6945,
      "ேட்": 6946,
      "▁விஷயம்": 6947,
      "க்குக்": 6948,
      "ியுடன்": 6949,
      "▁இதோ": 6950,
      "▁அல்": 6951,
      "▁நட்சத்திர": 6952,
      "▁நகரில்": 6953,
      "வினர்": 6954,
      "▁ஓய்வூதிய": 6955,
      "▁முன்னர்": 6956,
      "▁தெலுங்கு,": 6957,
      "▁மொழிபெய": 6958,
      "▁150": 6959,
      "▁என்.": 6960,
      "▁என்றார்.\"": 6961,
      "ீன": 6962,
      "▁சர்க்க": 6963,
      "க்களுக்கு": 6964,
      "ப்படுவத": 6965,
      "ந்தில்": 6966,
      "▁ஒருங்கிணைந்த": 6967,
      "▁பணிகளை": 6968,
      "▁பான": 6969,
      "▁வாழ்க்கையை": 6970,
      "▁இப்படம்": 6971,
      "▁ஆண்டுகளுக்கு": 6972,
      "▁புரிந்துகொள்ள": 6973,
      "ெனவே": 6974,
      "▁தேர்": 6975,
      "▁எட்ட": 6976,
      "வுகளை": 6977,
      "விட்டர்": 6978,
      "▁பிழை": 6979,
      "ன்த": 6980,
      "▁பின்வருமாறு": 6981,
      "ிருப்பு": 6982,
      "▁அறிமுகப்படுத்த": 6983,
      "பற்றி": 6984,
      "▁ஆயிரக்கணக்கான": 6985,
      "▁சென்றனர்.": 6986,
      "▁உரை": 6987,
      "▁பங்கேற்க": 6988,
      "த்தன்மை": 6989,
      "னுடன்": 6990,
      "▁விக்": 6991,
      "▁இந்தியாவை": 6992,
      "▁நிலையம்": 6993,
      "▁அலை": 6994,
      "▁கட்டுமான": 6995,
      "▁அளிக்கும்": 6996,
      "▁ஆகியவற்றின்": 6997,
      "▁நறு": 6998,
      "▁வழங்கி": 6999,
      "நகர": 7000,
      "▁வலுவ": 7001,
      "தையும்": 7002,
      "▁முந்தைய": 7003,
      "ut": 7004,
      "▁இதுபோன்ற": 7005,
      "▁செய்ப": 7006,
      "▁வகையில்,": 7007,
      "த்தினால்": 7008,
      "▁பூமியில்": 7009,
      "ப்பாளர்": 7010,
      "▁புற்று": 7011,
      "▁யாத": 7012,
      "▁தரும்": 7013,
      "பூ": 7014,
      "▁(க": 7015,
      "▁அதுவும்": 7016,
      "▁கலைஞ": 7017,
      "▁ஆக்க": 7018,
      "ாலின்": 7019,
      "▁குண்டு": 7020,
      "▁இன்னும்,": 7021,
      "▁சீர்த": 7022,
      "யிற்ச": 7023,
      "▁ராஜ்": 7024,
      "▁டிரம்ப்": 7025,
      "▁U": 7026,
      "▁33": 7027,
      "▁நீதிப": 7028,
      "▁ஏழு": 7029,
      "▁டோ": 7030,
      "டாக": 7031,
      "▁எனத்": 7032,
      "▁கணக்க": 7033,
      "▁மீட்டர்": 7034,
      "▁தெரிவித்துக்": 7035,
      "விடும்": 7036,
      "ணிக்க": 7037,
      "▁க்கும்": 7038,
      "▁அமெரிக்காவின்": 7039,
      "▁மெட்": 7040,
      "ல்லா": 7041,
      "▁அடித்த": 7042,
      "ேகம்": 7043,
      "▁இந்தியாவுக்கு": 7044,
      "▁யாருக்கும்": 7045,
      "-ம்": 7046,
      "▁துணைத்": 7047,
      "▁ஊதிய": 7048,
      "▁கிட்டத்தட்ட": 7049,
      "▁இடையில்": 7050,
      "▁விவசாயிகளுக்கு": 7051,
      "▁தாவீ": 7052,
      "▁பாருங்கள்.": 7053,
      "ருக்கான": 7054,
      "ிறது": 7055,
      "▁197": 7056,
      "▁சங்கீதம்": 7057,
      "▁ஊராட்சி": 7058,
      "▁எழுது": 7059,
      "நோய்": 7060,
      "▁போகிற": 7061,
      "▁தொலைபே": 7062,
      "▁விநியோக": 7063,
      "▁பத்திரிகை": 7064,
      "மாற": 7065,
      "வருடைய": 7066,
      "▁வாரிய": 7067,
      "துரு": 7068,
      "▁செல்கிற": 7069,
      "▁கேள்விகள்": 7070,
      "▁ஒருவேளை": 7071,
      "▁அமெரிக்காவில்": 7072,
      "▁இப்படத்தின்": 7073,
      "ூட்ட": 7074,
      "ையுடன்": 7075,
      "▁ஒற்று": 7076,
      "▁மிளக": 7077,
      "ம்)": 7078,
      "ra": 7079,
      "ையெல்லாம்": 7080,
      "▁முஸ்லி": 7081,
      "▁கனி": 7082,
      "▁ஒட்டுமொத்த": 7083,
      "ங்களில்,": 7084,
      "▁சால": 7085,
      "▁வேண்டியது": 7086,
      "மூலம்": 7087,
      "▁மாண்ப": 7088,
      "▁அமித்": 7089,
      "▁அறிவித்த": 7090,
      "▁லீ": 7091,
      "▁வேதனை": 7092,
      "▁பெண்களுக்கு": 7093,
      "▁வன்முறை": 7094,
      "▁காற்று": 7095,
      "▁கட்டிட": 7096,
      "▁ஏற்கெனவே": 7097,
      "▁இங்க": 7098,
      "புண": 7099,
      "▁செய்யப்படும்": 7100,
      "▁என்எம்": 7101,
      "▁தன்மை": 7102,
      "▁பேட்டி": 7103,
      "▁பட்ஜ": 7104,
      "▁சேக": 7105,
      "▁யோவான்": 7106,
      "▁இதுதொடர்பாக": 7107,
      "▁வெற்றிகர": 7108,
      "▁கடைசிய": 7109,
      "▁வரவேற்ப": 7110,
      "▁பசு": 7111,
      "▁தில்லி": 7112,
      "▁சராச": 7113,
      "நாட்டின்": 7114,
      "▁ம்": 7115,
      "▁வைக்கப்பட்ட": 7116,
      "க்கும்.": 7117,
      "ர்களுடன்": 7118,
      "க்குறை": 7119,
      "▁முன்னோ": 7120,
      "▁இப்படிப்பட்ட": 7121,
      "▁தற்கால": 7122,
      "▁தகவல்களை": 7123,
      "ுமிகு": 7124,
      "▁நொ": 7125,
      "▁பொலிஸ்": 7126,
      "க்கப்பட்டுள்ளன.": 7127,
      "▁சந்திப்பு": 7128,
      "மர": 7129,
      "▁m": 7130,
      "றிந்த": 7131,
      "▁உதவும்": 7132,
      "▁பொருட்களை": 7133,
      "▁ஆணையம்": 7134,
      "▁இருந்தால்": 7135,
      "▁பிரச்சின": 7136,
      "▁புதிதாக": 7137,
      "ியது": 7138,
      "▁ரவி": 7139,
      "▁இப்பொழுது": 7140,
      "▁பாலிவுட்": 7141,
      "▁3:": 7142,
      "ிருக்கின்றனர்.": 7143,
      "க்குச்": 7144,
      "▁அனுமதிக்கப்பட்ட": 7145,
      "▁கேட்கிற": 7146,
      "▁மிகச்": 7147,
      "▁சர்மா": 7148,
      "▁கேட்டுக்": 7149,
      "▁போதுமான": 7150,
      "500": 7151,
      "▁நிச்சயம்": 7152,
      "ாவற்றையும்": 7153,
      ".7": 7154,
      "ளைய": 7155,
      "▁மீன்": 7156,
      "லைப்": 7157,
      "க்கெடு": 7158,
      "▁ஆர்ப்ப": 7159,
      "em": 7160,
      "னாகிய": 7161,
      "களு": 7162,
      "▁கமல்": 7163,
      "டுக்கு": 7164,
      "▁கொண்டுவர": 7165,
      "ங்கால": 7166,
      "▁குடிநீர்": 7167,
      "▁லோக": 7168,
      "▁தாங்கள்": 7169,
      "▁ஆசீர்": 7170,
      "▁நாடுகளின்": 7171,
      "▁தகவல": 7172,
      "▁ஜெப": 7173,
      "▁விக்கெ": 7174,
      "வாழ்": 7175,
      "ிழமை": 7176,
      "ிடும்": 7177,
      "பி.": 7178,
      "ri": 7179,
      "▁வரவில்லை.": 7180,
      "▁தினமும்": 7181,
      "மொழி": 7182,
      "▁இறுதியில்": 7183,
      "▁குறிய": 7184,
      "▁வெளிநாட்டு": 7185,
      "▁பெரும்பான்": 7186,
      "▁புரிந்துணர்வு": 7187,
      "▁எஸ்யூ": 7188,
      "▁பஞ்சாப்": 7189,
      "▁ஆப்": 7190,
      "▁உபயோக": 7191,
      "தின்": 7192,
      "ீங்க": 7193,
      "▁வர்": 7194,
      "▁கட்டாய": 7195,
      "▁காப்பாற்ற": 7196,
      "▁மாண்புமிகு": 7197,
      "▁சோச": 7198,
      "▁வி.": 7199,
      "தாப": 7200,
      "▁அறை": 7201,
      "▁‘‘": 7202,
      "▁பொறுப்ப": 7203,
      "▁தொடரில்": 7204,
      "▁மதிப்பீடு": 7205,
      "▁ஆவிக்குரிய": 7206,
      "ிருந்தன.": 7207,
      "ல்.": 7208,
      "▁அதனால": 7209,
      "ிக்கான": 7210,
      "▁V": 7211,
      "▁நாட்களில்": 7212,
      "▁நிகழ": 7213,
      "▁யூனிய": 7214,
      "▁நின்று": 7215,
      "▁2:": 7216,
      "ஸின்": 7217,
      "▁O": 7218,
      "▁பிரிவில்": 7219,
      "▁நிதியுத": 7220,
      "ப்படவில்லை": 7221,
      "▁பார்வை": 7222,
      "▁திட்டங்களை": 7223,
      "▁பொய்ய": 7224,
      "▁“நான்": 7225,
      "மிட்ட": 7226,
      "▁மாவட்டம்,": 7227,
      "▁கூறினார்.\"": 7228,
      "ினோம்.": 7229,
      "▁பரலோக": 7230,
      "வேன்": 7231,
      "▁எனும்": 7232,
      "ிருக்கு": 7233,
      "▁தாம்": 7234,
      "▁புகார": 7235,
      "▁நிபுண": 7236,
      "ியுள்ளது": 7237,
      "▁மருத்துவக்": 7238,
      "▁தெற்கு": 7239,
      "-வது": 7240,
      "ிகளைக்": 7241,
      "▁மூலம்,": 7242,
      "▁நடைபெறும்": 7243,
      "▁கொண்டது.": 7244,
      "வாரண": 7245,
      "▁காஷ்மீ": 7246,
      "த்திற": 7247,
      "▁சட்டசபை": 7248,
      "ன்ம": 7249,
      "ியுள்ளன.": 7250,
      "▁பணிபு": 7251,
      "ாவிய": 7252,
      "ந்திரா": 7253,
      "▁லே": 7254,
      "▁பழங்குடிய": 7255,
      "ப்படுத்தி": 7256,
      "னா,": 7257,
      "▁ஜனதா": 7258,
      "▁கொள்கிறேன்.": 7259,
      "▁நீக்க": 7260,
      "பான்": 7261,
      "த்தொட": 7262,
      "▁(S": 7263,
      "▁மாட்டார்கள்.": 7264,
      "ளிடமிருந்து": 7265,
      "▁இடையிலான": 7266,
      ".6": 7267,
      "ள்.": 7268,
      "▁செய்கிறது.": 7269,
      "லி,": 7270,
      "▁அமைப்பின்": 7271,
      "▁எரிச": 7272,
      "▁தெரிகிறது.": 7273,
      "ஜின்": 7274,
      "லீ": 7275,
      "▁அலுவலகம்": 7276,
      "▁மருத்து": 7277,
      "▁கிய": 7278,
      "▁வாழும்": 7279,
      "றையும்": 7280,
      "லால்": 7281,
      "▁செலவில்": 7282,
      "▁நின்ற": 7283,
      "▁தொகுதி": 7284,
      "ங்களுக்கான": 7285,
      "▁சுற்றி": 7286,
      "▁இந்தியா,": 7287,
      "▁இதற்க": 7288,
      "▁அவு": 7289,
      "▁அவற்றில்": 7290,
      "னால்,": 7291,
      "▁ஏனென்றால்": 7292,
      "▁பங்கேற்றனர்.": 7293,
      "▁எந்தவொரு": 7294,
      "▁நடத்தினர்.": 7295,
      "▁நூற்றாண்டு": 7296,
      "▁தீவிரமாக": 7297,
      "▁முடிக்க": 7298,
      "▁பாராளுமன்ற": 7299,
      "▁வருத்த": 7300,
      "ட்டி,": 7301,
      "▁படைத்த": 7302,
      "▁செய்திகள்": 7303,
      "▁மீட்டு": 7304,
      "▁தோட்ட": 7305,
      "▁இடது": 7306,
      "▁பகுதியாக": 7307,
      "நிற": 7308,
      "▁பெற்றார்.": 7309,
      "▁&": 7310,
      "▁கட்டளை": 7311,
      "▁நினைத்த": 7312,
      "▁உயர்ந்து": 7313,
      "▁போலி": 7314,
      "▁கோய": 7315,
      "▁எவரும்": 7316,
      "த்துள்ளது": 7317,
      "▁ஏற்றுக்": 7318,
      "▁சிறப்பான": 7319,
      "▁கிருஷ்ண": 7320,
      "▁இஸ்ரே": 7321,
      "ிகளுடன்": 7322,
      "▁வழங்கப்பட்டது.": 7323,
      "▁என்பதே": 7324,
      "வில்ல": 7325,
      "ட்சிகள்": 7326,
      "▁தோல்விய": 7327,
      "ட்டுள்ளனர்.": 7328,
      "▁அக்கறை": 7329,
      "▁வெளிப்படைய": 7330,
      "்குமார்": 7331,
      "வகு": 7332,
      "ஸு": 7333,
      "▁விதத்தில்": 7334,
      "ஸ்டி": 7335,
      "▁மதிப்பீட்டில்": 7336,
      "சிக்க": 7337,
      "▁ஆண்": 7338,
      "ாலே": 7339,
      "▁செய்து,": 7340,
      "▁பெயரை": 7341,
      "▁தாக்குதலில்": 7342,
      "▁என்னவெ": 7343,
      "ப்பிற்கு": 7344,
      "▁குடும்பத்தின": 7345,
      "▁மேம்பாடு": 7346,
      "▁நான்க": 7347,
      "ஃபி": 7348,
      "ங்ட": 7349,
      "ரித்து": 7350,
      "▁என்றாலும்,": 7351,
      "▁பரவி": 7352,
      "▁உத்தரவு": 7353,
      "▁விரிவான": 7354,
      "▁இறந்து": 7355,
      "▁இப்படத்தில்": 7356,
      "▁ரூ.1": 7357,
      "▁புகழ": 7358,
      "▁மார்ச்": 7359,
      "▁(C": 7360,
      "▁படங்கள்": 7361,
      "▁ஏற்பட்டுள்ள": 7362,
      "▁ஆழ்ந்த": 7363,
      "▁வெளியாகி": 7364,
      "▁மோத": 7365,
      "▁கடமை": 7366,
      "ர்களால்": 7367,
      "▁தெளிவான": 7368,
      "▁நிரந்தர": 7369,
      "ங்கோ": 7370,
      "▁பிரெ": 7371,
      "்தான்.": 7372,
      "ாமல": 7373,
      "ாளர்களை": 7374,
      "▁என்பதில்": 7375,
      "மீக": 7376,
      "▁திரா": 7377,
      "▁சேவைகள்": 7378,
      "▁“ஆ": 7379,
      "▁அண்மையில்": 7380,
      "▁வரவு": 7381,
      "▁குடியுரிமை": 7382,
      "▁அறிகு": 7383,
      "▁சதவிகித": 7384,
      "களும்,": 7385,
      "ட்ஸ்": 7386,
      "▁3,": 7387,
      "▁பிஎ": 7388,
      "▁போன்றவை": 7389,
      "ூரு": 7390,
      "வைக்": 7391,
      "▁உணர்ந்த": 7392,
      "▁பதிலாக": 7393,
      "தித்த": 7394,
      "▁மனம்": 7395,
      "▁கி.": 7396,
      "▁நாயக": 7397,
      "டனான": 7398,
      "▁நிர்வாகம்": 7399,
      "▁In": 7400,
      "▁பக்தர்கள்": 7401,
      "ற்றை": 7402,
      "ag": 7403,
      "▁ஜி.": 7404,
      "▁திருவ": 7405,
      "▁ஆர்ப்பாட்ட": 7406,
      "▁கூடாது": 7407,
      "ேன்”": 7408,
      "▁இருந்தாலும்,": 7409,
      "▁சாம்ப": 7410,
      "த்தில": 7411,
      "▁சாப்பிட": 7412,
      "▁அதிகாரம்": 7413,
      ".8": 7414,
      "▁ஞ": 7415,
      "▁``": 7416,
      "▁பாதுகாக்க": 7417,
      "▁திடீர": 7418,
      "வோர்": 7419,
      "▁உன்னை": 7420,
      "க்குள்ள": 7421,
      "us": 7422,
      "▁கலந்துரையா": 7423,
      "▁வழங்கப்படுகிறது.": 7424,
      "▁அளவிற்கு": 7425,
      "லாக்க": 7426,
      "▁வகையான": 7427,
      "ப்போது": 7428,
      "▁மார்க்க": 7429,
      "▁எமது": 7430,
      "▁கொள்ளுங்கள்.": 7431,
      "▁போட்டிகள்": 7432,
      "▁மகாராஷ்டிர": 7433,
      "▁உயர்நீதிமன்ற": 7434,
      "▁வித்தியாசத்தில்": 7435,
      "▁ஆஸ்திரேலியா": 7436,
      "ையையும்": 7437,
      "▁கோயில்": 7438,
      "▁சமயத்தில்": 7439,
      "▁ஜெர்ம": 7440,
      "▁கோப்பை": 7441,
      "▁சட்டத்தின்": 7442,
      "▁பெரிதும்": 7443,
      "▁போன்று": 7444,
      "▁மீட்ட": 7445,
      "டோ": 7446,
      "▁மோடி,": 7447,
      "த்துறைய": 7448,
      "▁ஆளும்": 7449,
      "ினான்.": 7450,
      "ரப்பு": 7451,
      "▁சுழ": 7452,
      "▁கிறிஸ்தவர்கள்": 7453,
      "ஜித்": 7454,
      "▁மஞ்ச": 7455,
      "▁கடிதம்": 7456,
      "▁மரியாதை": 7457,
      "▁அதைத்": 7458,
      "▁நடைபெறு": 7459,
      "க்கர்": 7460,
      "▁பண்ப": 7461,
      "▁முற்ப": 7462,
      "▁தோல்வி": 7463,
      "▁நிலையை": 7464,
      "ிருக்கலாம்.": 7465,
      "▁வாரம்": 7466,
      "▁எக்": 7467,
      "க்களில்": 7468,
      "▁அதிர்ச்சி": 7469,
      "▁திரி": 7470,
      "▁அடித்து": 7471,
      "▁இருவர்": 7472,
      "▁கல்லூர": 7473,
      "▁ஜெயலலிதா": 7474,
      "▁உருவாக்கிய": 7475,
      "ஜன": 7476,
      "▁ஆல்": 7477,
      "▁மேற்பட்டோர்": 7478,
      "ஸை": 7479,
      "்பட": 7480,
      "▁வாத": 7481,
      "▁குறைந்தபட்ச": 7482,
      "▁பொய்": 7483,
      "▁வலது": 7484,
      "வான்.": 7485,
      "▁குற்றவாள": 7486,
      "▁அவா்": 7487,
      "ாவ்": 7488,
      "பெற்ற": 7489,
      "▁தினம்": 7490,
      "▁இழப்பு": 7491,
      "▁அநிய": 7492,
      "▁துறையின்": 7493,
      "▁வேட": 7494,
      "ப்ரல்": 7495,
      "▁வேலையை": 7496,
      "ாகப்": 7497,
      "▁ஈரா": 7498,
      "ொருவர்": 7499,
      "▁வெள்ளை": 7500,
      "கின்றது.": 7501,
      "▁சந்திப்ப": 7502,
      "▁பகுதிய": 7503,
      "ீழ்": 7504,
      "▁ரயில": 7505,
      "ொருள": 7506,
      "▁அத்திய": 7507,
      "▁“ச": 7508,
      "▁வலியுறுத்த": 7509,
      "க்கின்": 7510,
      "▁வழங்கப்படும்": 7511,
      "▁நிவாரண": 7512,
      "▁முதலாவது": 7513,
      "▁ரில": 7514,
      "▁முயற்சிகள்": 7515,
      "▁உப்பு": 7516,
      "▁அதைக்": 7517,
      "▁இதையடுத்து,": 7518,
      "▁b": 7519,
      "▁வேண்டும்,": 7520,
      "▁வயதில்": 7521,
      "▁தங்களுக்கு": 7522,
      "வைப்": 7523,
      "ஃமின": 7524,
      "த்)": 7525,
      "லாம்,": 7526,
      "▁பேதுரு": 7527,
      "▁தொடர்ச்ச": 7528,
      "▁முடிவில்": 7529,
      "க்கள்,": 7530,
      "▁செப்ட": 7531,
      "▁ஊழியர்கள்": 7532,
      "▁வடக்கு": 7533,
      "ம்தான்.": 7534,
      "▁பஞ்ச": 7535,
      "▁அங்கீக": 7536,
      "ாவிட்ட": 7537,
      "▁போராட்டத்தில்": 7538,
      "▁வைத்தனர்.": 7539,
      "ul": 7540,
      "ாகும்": 7541,
      "ந்தர்": 7542,
      "▁நகர்ப்பு": 7543,
      "▁விதிக்க": 7544,
      "்கானிஸ்த": 7545,
      "▁நிகழ்வு": 7546,
      "▁தேடு": 7547,
      "ாமே": 7548,
      "▁ரஜினிகா": 7549,
      "▁நாம": 7550,
      "▁ஏமாற்ற": 7551,
      "ராக்": 7552,
      "▁“க": 7553,
      "▁எதிர்பார்க்கப்படுகிறது.": 7554,
      "▁சுட்டிக்க": 7555,
      "▁கொட": 7556,
      "வாச": 7557,
      "▁பெற்றுள்ளது.": 7558,
      "▁மகி": 7559,
      "▁சகல": 7560,
      "ல்களில்": 7561,
      "▁ஒருநாள்": 7562,
      "▁அதனால்,": 7563,
      "60": 7564,
      "▁எங்களை": 7565,
      "▁மாநாடு": 7566,
      "▁பேராச": 7567,
      "▁வழங்குவ": 7568,
      "▁லண்ட": 7569,
      "▁பட்டியல்": 7570,
      "99": 7571,
      "▁எட்டு": 7572,
      "▁துன்ப": 7573,
      "▁செயல்பா": 7574,
      "▁கண்டனம்": 7575,
      "▁இடத்திலேயே": 7576,
      "நாய": 7577,
      "▁புய": 7578,
      "▁தொழிற்சாலை": 7579,
      "▁பல்ல": 7580,
      "▁தள்ளுபடி": 7581,
      "30": 7582,
      "ப்பய": 7583,
      "▁பிரித்த": 7584,
      "▁யெகோவாவுக்கு": 7585,
      "ங்களு": 7586,
      "▁மூழ்க": 7587,
      "▁கிளை": 7588,
      "▁தீர்க்கதரிச": 7589,
      "மையின்": 7590,
      "▁194": 7591,
      "நோய": 7592,
      "க்கிறார்கள்.": 7593,
      "▁செய்யவில்லை.": 7594,
      "▁கேட்டார்.": 7595,
      "▁அதன்பின்": 7596,
      "ீர்கள": 7597,
      "▁ஏற்படு": 7598,
      "▁உம்முடைய": 7599,
      "▁அமைதி": 7600,
      "’’": 7601,
      "கூட": 7602,
      "▁நகை": 7603,
      "▁ஏற்படுத்தி": 7604,
      "த்திலே": 7605,
      "ப்பிரதேச": 7606,
      "▁உடன்படிக்க": 7607,
      "▁பாத்திர": 7608,
      "▁அந்தத்": 7609,
      "▁உண்மையிலேயே": 7610,
      "ள்க": 7611,
      "ஹா": 7612,
      "▁தேவை.": 7613,
      "▁காலை": 7614,
      "ிலிருந்தும்": 7615,
      "ாட்டை": 7616,
      "▁வாடிக்க": 7617,
      "▁திறமை": 7618,
      "▁உள்ளடக்கிய": 7619,
      "▁அவருடன்": 7620,
      "முறையில்": 7621,
      "▁நிறுத்தி": 7622,
      "▁உறுப்பினர்": 7623,
      "▁1:": 7624,
      "▁உயி": 7625,
      "▁சது": 7626,
      "▁சிரம": 7627,
      "ிழக்கு": 7628,
      "▁ஏற்படுத்தியது.": 7629,
      "தன": 7630,
      "க்கி,": 7631,
      "▁சலு": 7632,
      "▁45": 7633,
      "▁எரு": 7634,
      "▁விடுத்து": 7635,
      "▁குடும்பத்தில்": 7636,
      "கையை": 7637,
      "நிலைய": 7638,
      "ே?": 7639,
      "▁வெற்றிய": 7640,
      "▁வருகின்றது.": 7641,
      "▁மகள": 7642,
      "த்தன்": 7643,
      "▁நடுத்த": 7644,
      "ீல்": 7645,
      "ுக்": 7646,
      "ெடுத்த": 7647,
      "▁தூர": 7648,
      "▁முன்னேற்றம்": 7649,
      "▁புனித": 7650,
      "▁இருப்பினும்,": 7651,
      "▁எப்படி?": 7652,
      "▁பிஎச்பி": 7653,
      "▁விசாரணைக்கு": 7654,
      "ரோடு": 7655,
      "▁w": 7656,
      "▁அவளை": 7657,
      "▁இளைஞர்": 7658,
      "▁பலியான": 7659,
      "▁நேரடி": 7660,
      "▁நெடுஞ்சா": 7661,
      "▁புஷ்": 7662,
      "லாளி": 7663,
      "▁விவகாரம்": 7664,
      "▁ஓர": 7665,
      "▁வடக": 7666,
      "▁செய்தது": 7667,
      "ெயர்": 7668,
      "டே": 7669,
      "▁பாதை": 7670,
      "த்மா": 7671,
      "▁d": 7672,
      "▁ராய": 7673,
      "▁அற்புத": 7674,
      "மலை": 7675,
      "▁ஜான்": 7676,
      "▁முழுமையான": 7677,
      "வேத": 7678,
      "▁வருகை": 7679,
      "▁பார்க்கிற": 7680,
      "▁ஏது": 7681,
      "▁75": 7682,
      "கின்றன": 7683,
      "▁ஸ்டாலின்": 7684,
      "▁வாயில": 7685,
      "▁உள்ளன": 7686,
      "▁தைரிய": 7687,
      "ாக்கு": 7688,
      "▁தெரிந்து": 7689,
      "▁விடுவி": 7690,
      "ிகிற": 7691,
      "கொண்டு": 7692,
      "கள்.": 7693,
      "ியர்": 7694,
      "▁மந்திரி": 7695,
      "▁யோக": 7696,
      "▁இழு": 7697,
      "▁சந்தர்ப்ப": 7698,
      "▁இணையதள": 7699,
      "▁இஸ்லா": 7700,
      "▁கிடைக்கவில்லை.": 7701,
      "ay": 7702,
      "▁காணொ": 7703,
      "வையாக": 7704,
      "▁34": 7705,
      "▁கம்": 7706,
      "▁தீவு": 7707,
      "▁இழந்த": 7708,
      "ஸ்டர்": 7709,
      "▁குள": 7710,
      "▁டாக்ட": 7711,
      "▁உதாரணமாக,": 7712,
      "▁இடையேயான": 7713,
      "▁சீக்கிர": 7714,
      "▁ஏப்ரல்": 7715,
      "▁கிறிஸ்து": 7716,
      "ட்டமைப்பு": 7717,
      "▁நுக": 7718,
      "ாடி": 7719,
      "▁ஏற்பட்டு": 7720,
      "▁பொதுவான": 7721,
      "▁தரப்பில்": 7722,
      "▁டிச": 7723,
      "▁வெங்காய": 7724,
      "▁வரவேற்பு": 7725,
      "▁வரும்.": 7726,
      "▁நிறைவு": 7727,
      "▁விராட்": 7728,
      "▁நை": 7729,
      "ராகவும்": 7730,
      "ோருக்கு": 7731,
      "▁சத்து": 7732,
      "▁துவங்க": 7733,
      "▁விகிதம்": 7734,
      "▁உதவும்.": 7735,
      "▁கொள்ளவும்.": 7736,
      "டான": 7737,
      "▁சிகிச்சைக்காக": 7738,
      "▁கொண்டு,": 7739,
      "▁நடிக்கிறார்.": 7740,
      "▁முயன்ற": 7741,
      "பராத": 7742,
      "▁தூண்ட": 7743,
      "▁மூப்ப": 7744,
      "▁வழங்கப்படும்.": 7745,
      "▁நெடுஞ்சாலை": 7746,
      "▁கண்": 7747,
      "▁ரீதியாக": 7748,
      "▁சேர்த்த": 7749,
      "ானி": 7750,
      "நிலையில்,": 7751,
      "த்துவது": 7752,
      "▁கிலோமீ": 7753,
      "ot": 7754,
      "▁மாணவர்களுக்கு": 7755,
      "▁நிரு": 7756,
      "ோகன்": 7757,
      "தல்.": 7758,
      "▁முடிவுகள்": 7759,
      "▁முடியும்?": 7760,
      "▁ஏதோ": 7761,
      "▁முடிவுக்கு": 7762,
      "▁கன்னட": 7763,
      "றிகள்": 7764,
      "ழில்": 7765,
      "வனுக்கு": 7766,
      "▁சண்டை": 7767,
      "சலே": 7768,
      "ிறகு": 7769,
      "▁பயிற்சிய": 7770,
      "ட்டியில்": 7771,
      "சீ": 7772,
      "த்தையும்,": 7773,
      "▁ஆஜ": 7774,
      "▁விசேஷ": 7775,
      "வையை": 7776,
      "▁மாநாட்டில்": 7777,
      "▁எனக்குத்": 7778,
      "வுத்": 7779,
      "ர்களையும்": 7780,
      "▁இயல்": 7781,
      "▁இச்சம்பவம்": 7782,
      "▁நீள": 7783,
      "▁வணக்க": 7784,
      "மலா": 7785,
      "▁அங்கிருந்து": 7786,
      "▁கவுன்": 7787,
      "▁நாட்டை": 7788,
      "▁பயி": 7789,
      "▁பேசுவ": 7790,
      "குவ": 7791,
      "▁4:": 7792,
      "வெளிய": 7793,
      "▁அப்படிப்பட்ட": 7794,
      "est": 7795,
      "▁குறைவான": 7796,
      "▁அவ்வாற": 7797,
      "ரையில்": 7798,
      "▁மாள": 7799,
      "▁முடிந்தது.": 7800,
      "▁வளை": 7801,
      "▁வேறுபாடு": 7802,
      "▁202": 7803,
      "சரி": 7804,
      "▁திட்டமிட": 7805,
      "▁விளக்கம்": 7806,
      "▁நியூசில": 7807,
      "க்கட": 7808,
      "▁ஆப்கானிஸ்த": 7809,
      "வாக்க": 7810,
      "▁புள்ளி": 7811,
      "▁ஊர": 7812,
      "▁பெயரில்": 7813,
      "▁பரபரப்பு": 7814,
      "▁நடுத்தர": 7815,
      "▁வளர்ந்து": 7816,
      "▁90": 7817,
      "ருமான": 7818,
      "ரைக்": 7819,
      "▁பத்து": 7820,
      "▁இதைத்": 7821,
      "▁யூனியன்": 7822,
      "▁ஈடு": 7823,
      "▁பொய": 7824,
      "▁விகித": 7825,
      "▁பிரசு": 7826,
      "ரைப்": 7827,
      "▁படித்து": 7828,
      "ப்பாள": 7829,
      "ப்பிரி": 7830,
      "க்களும்": 7831,
      "▁பேருக்கு": 7832,
      "▁கோல்": 7833,
      "▁பகிர": 7834,
      "▁தொலைக்காட்சி": 7835,
      "ற்றம்": 7836,
      "ின்றது.": 7837,
      "▁முன்னெடுத்து": 7838,
      "▁இறக்கு": 7839,
      "ிகளைப்": 7840,
      "▁ஹா": 7841,
      "▁திறந்த": 7842,
      "ோக்": 7843,
      "▁நெருங்கிய": 7844,
      "▁அர்ப்ப": 7845,
      "விட்டரில்": 7846,
      "சாமி": 7847,
      "▁படித்த": 7848,
      "▁பிரிட்ட": 7849,
      "▁இயக்கம்": 7850,
      "▁அரசியல": 7851,
      "▁அணுகு": 7852,
      "▁அபராத": 7853,
      "▁உடலை": 7854,
      "ரிக்கப்பட்ட": 7855,
      "▁திருப்பி": 7856,
      "தியும்": 7857,
      "ின்றன": 7858,
      "▁முடியுமா?": 7859,
      "▁பைபிளை": 7860,
      "▁திறந்து": 7861,
      "▁தவிர,": 7862,
      "மைக்க": 7863,
      "ணும்": 7864,
      "▁தனக்கு": 7865,
      "-0": 7866,
      "▁எதுவு": 7867,
      "▁தமிழ்நாட்டில்": 7868,
      "▁கர்த்தர்": 7869,
      "▁கொல": 7870,
      "▁ரு": 7871,
      "▁சீர்திருத்த": 7872,
      "▁கிராம்": 7873,
      "▁வாய்ப்புகள்": 7874,
      "ிட்டல்": 7875,
      "▁உள்ளிட்டோர்": 7876,
      "▁இத்திட்டத்தின்": 7877,
      "▁விண்வெளி": 7878,
      "▁ஏர்": 7879,
      "▁தொகுப்பு": 7880,
      "▁என்றே": 7881,
      "▁உத்திய": 7882,
      "லாந்து": 7883,
      "களிலிருந்து": 7884,
      "▁டாடா": 7885,
      "▁அருகே": 7886,
      "ட்டுகள்": 7887,
      "ொருட": 7888,
      "▁சுரே": 7889,
      "▁தியாக": 7890,
      "▁பிரார்த்த": 7891,
      "▁அக்டோ": 7892,
      "▁கோப்பு": 7893,
      "▁இருக்கின்றான்.": 7894,
      "▁வெளியேற்ற": 7895,
      "▁இலக்கிய": 7896,
      "▁(N": 7897,
      "▁மாதிர": 7898,
      "▁நாட்களுக்கு": 7899,
      "▁கட்டுப்பாட்டு": 7900,
      "மொழிகள்": 7901,
      "▁நிலையான": 7902,
      "ப்தி": 7903,
      "நிச்சய": 7904,
      "ஜீ": 7905,
      "▁கவனிக்க": 7906,
      "டி.": 7907,
      "▁உயிரிழப்பு": 7908,
      "நடுக்க": 7909,
      "▁திருச்ச": 7910,
      "ப்பதில்லை.": 7911,
      "▁மருத்துவர்கள்": 7912,
      "▁வாழ்ந்த": 7913,
      "▁இண": 7914,
      "▁விளைவாக": 7915,
      "▁ஆன்மீக": 7916,
      "▁அவரும்": 7917,
      "▁படத்திற்கு": 7918,
      "▁சிறும": 7919,
      "▁நற்": 7920,
      "வுள்ளது.": 7921,
      "கிறான்.": 7922,
      "▁முடியவில்லை": 7923,
      "ப்பட்டுள்ளனர்.": 7924,
      "▁கலந்த": 7925,
      "ங்கர்": 7926,
      "த்துக்கொள்ள": 7927,
      "▁5:": 7928,
      "ும்கூட": 7929,
      "டியும்": 7930,
      "டுத்தப்பட்ட": 7931,
      "▁வழிய": 7932,
      "▁ஜாம": 7933,
      "▁கடந்து": 7934,
      "▁அனைத்தையும்": 7935,
      "▁பில்லியன்": 7936,
      "▁கொண்டாட": 7937,
      "▁திறனை": 7938,
      "▁கிடைத்தது.": 7939,
      "வதால்": 7940,
      "▁பாண்ட": 7941,
      "வா்கள்": 7942,
      "▁நினைக்க": 7943,
      "மை,": 7944,
      "▁கூறியதாவது:": 7945,
      "▁உள்பட": 7946,
      "விட்டனர்.": 7947,
      "▁பள்ளியில்": 7948,
      "▁(P": 7949,
      "▁பன்": 7950,
      "▁எபிர": 7951,
      "▁வாசி": 7952,
      "▁விலையில்": 7953,
      "ாவளி": 7954,
      "▁கோயில": 7955,
      "▁சேது": 7956,
      "▁கட்சிய": 7957,
      "வர்களிடம்": 7958,
      "ியைத்": 7959,
      "▁உள்ளே": 7960,
      "றிந்து": 7961,
      "▁மித": 7962,
      "திலும்": 7963,
      "▁மாறிய": 7964,
      "▁மன்னிப்பு": 7965,
      "▁இந்நிக": 7966,
      "▁யெகோவாவை": 7967,
      "▁விவரம்": 7968,
      "▁இல்லை,": 7969,
      "▁இளைஞர்கள்": 7970,
      "▁பிரசங்க": 7971,
      "▁கணவர்": 7972,
      "▁கிராமப்புற": 7973,
      "பாள": 7974,
      "▁வாகனங்கள்": 7975,
      "▁குறிப்பு": 7976,
      "▁ஃபோ": 7977,
      "▁எழுதி": 7978,
      "▁அக்": 7979,
      "▁தகப்ப": 7980,
      "ளவுக்கு": 7981,
      "▁நடந்தது": 7982,
      "▁வீடுகள்": 7983,
      "▁முதலாளி": 7984,
      "▁உறுதிப்படுத்த": 7985,
      "க்கொண்டார்.": 7986,
      "ாதிரு": 7987,
      "▁குறைய": 7988,
      "▁சாதன": 7989,
      "▁பேசி": 7990,
      "▁கூடுதலாக": 7991,
      "▁டிரை": 7992,
      "▁ஏன்?": 7993,
      "▁தெரு": 7994,
      "▁பரபரப்பை": 7995,
      "▁ஜேர்ம": 7996,
      "▁சர்க்கரை": 7997,
      "▁குறிப்பிடு": 7998,
      "ைத்": 7999,
      "வதில்லை": 8000,
      "ருக": 8001,
      "பந்த": 8002,
      "▁குளி": 8003,
      "▁மிர": 8004,
      "ட்,": 8005,
      "வருமே": 8006,
      ").\"": 8007,
      "பெரும்": 8008,
      "▁நிலநடுக்க": 8009,
      "வர்களுக்கும்": 8010,
      "▁வட்டி": 8011,
      "▁மற்றவர்கள்": 8012,
      "▁பந்த": 8013,
      "▁வாடிக்கைய": 8014,
      "்ட்ட": 8015,
      "தாகக்": 8016,
      "▁பின்வரும்": 8017,
      "▁விதிமுறை": 8018,
      "▁சோசலிச": 8019,
      "▁நகர்ப்புற": 8020,
      "▁ஆண்டுகள்": 8021,
      "▁இங்கிலா": 8022,
      "▁சம்பா": 8023,
      "▁குர": 8024,
      "▁அவர்.": 8025,
      "▁பைக்": 8026,
      "படியும்": 8027,
      "▁பரவிய": 8028,
      "▁கற்பனை": 8029,
      "ா்ப": 8030,
      "....": 8031,
      "▁உலகளாவிய": 8032,
      "ச்செய": 8033,
      "தர்": 8034,
      "▁கொரி": 8035,
      "▁சூழல்": 8036,
      "▁கொண்டிருக்கும்": 8037,
      "ணிய": 8038,
      "ரன்": 8039,
      "▁டிஜ": 8040,
      "▁ஆபத்தான": 8041,
      "10": 8042,
      "ir": 8043,
      "ில்லாத": 8044,
      "▁ஆவிய": 8045,
      "வி.": 8046,
      "▁ஆணை": 8047,
      "▁என்பதையும்": 8048,
      "▁NW": 8049,
      "▁நகரம்": 8050,
      "கர்": 8051,
      "▁லெ": 8052,
      "▁ஆபத்து": 8053,
      "▁ஆசிரியர்": 8054,
      "▁தொலைபேசி": 8055,
      "▁முகாம": 8056,
      "▁விடுத்த": 8057,
      "ச்சல்": 8058,
      "▁தேவையில்லை.": 8059,
      "▁பற்ற": 8060,
      "டிக்": 8061,
      "▁ஒன்று.": 8062,
      "▁சோனியா": 8063,
      "▁எங்கு": 8064,
      "ிறந்த": 8065,
      "எஸ்.": 8066,
      "பால": 8067,
      "லைன்": 8068,
      "ியூ": 8069,
      "▁மட்ட": 8070,
      "ீவ்": 8071,
      "▁மிகக்": 8072,
      "▁சிங்,": 8073,
      "▁இவற்றை": 8074,
      "சுவ": 8075,
      "▁மாற்றி": 8076,
      "லையும்": 8077,
      "ண்டர்": 8078,
      "▁பகுதிகள்": 8079,
      "▁நட்பு": 8080,
      "▁நய": 8081,
      "▁பொழுது": 8082,
      "▁விமர்சன": 8083,
      "▁விட்டார்.": 8084,
      "▁பராமரிப்பு": 8085,
      "லியில்": 8086,
      "▁சீஷ": 8087,
      "▁காரை": 8088,
      "டையும்": 8089,
      "▁கார்த்த": 8090,
      "த்திரி": 8091,
      "▁மோதல்": 8092,
      "யு": 8093,
      "▁மான": 8094,
      "மில்லா": 8095,
      "▁க்கு": 8096,
      "▁கொள்ளும்": 8097,
      "▁குழந்தைகளுக்கு": 8098,
      "▁விவரங்கள்": 8099,
      "ப்பதன்": 8100,
      "ஞர்": 8101,
      "▁ஆலய": 8102,
      "▁400": 8103,
      "-ஆ": 8104,
      "▁காரணங்கள்": 8105,
      "▁பொருளாதாரம்": 8106,
      "▁கடைப்பி": 8107,
      "▁செய்துள்ளார்.": 8108,
      "▁36": 8109,
      "▁நாடக": 8110,
      "▁இழந்து": 8111,
      "▁கடவுளை": 8112,
      "▁கொடுக்கும்": 8113,
      "வரையும்,": 8114,
      "▁ஆர்வம்": 8115,
      "▁காரில்": 8116,
      "▁பற்றியும்": 8117,
      "ளிக்கும்": 8118,
      "▁தஞ்ச": 8119,
      "▁மாடல்": 8120,
      "▁சினிமாவில்": 8121,
      "ோப": 8122,
      "▁பரப்ப": 8123,
      "▁ஏசாய": 8124,
      "▁விஷயத்தில்": 8125,
      "▁அதிகரிக்கும்.": 8126,
      "▁இந்தியப்": 8127,
      "▁எழ": 8128,
      "ac": 8129,
      "ப்பொ": 8130,
      "▁உமக்கு": 8131,
      "▁அ)": 8132,
      "வாயு": 8133,
      "▁நிதியா": 8134,
      "▁கம்யூ": 8135,
      "▁அளித்து": 8136,
      "ந்தோ": 8137,
      "நாம்": 8138,
      "▁அகில": 8139,
      "▁எகி": 8140,
      "▁கர்ப்ப": 8141,
      "காவ": 8142,
      "ூறு": 8143,
      "▁இவ்வாற": 8144,
      "ாவது:": 8145,
      "ிப்": 8146,
      "▁மகத்தான": 8147,
      "மணி": 8148,
      "▁ஜூன்": 8149,
      "ிப்பாக": 8150,
      "▁கொண்டிருக்கிறது.": 8151,
      "lo": 8152,
      "ீப்": 8153,
      "▁ஒருவரை": 8154,
      "▁பலன்": 8155,
      "▁அரசாங்கத்தின்": 8156,
      "▁மனுஷ": 8157,
      "▁வலைதளங்களில்": 8158,
      "த்திரம்": 8159,
      "▁பெய்ய": 8160,
      "ெட்டில்": 8161,
      "க்கலை": 8162,
      "க்கணி": 8163,
      "▁(A": 8164,
      "வதற்கும்": 8165,
      "த்துக்கான": 8166,
      "▁எச்சரிக்க": 8167,
      "▁உரிமைய": 8168,
      "வே,": 8169,
      "▁வசதிகளை": 8170,
      "▁ஆபிர": 8171,
      "ஷிங்ட": 8172,
      "▁சுல": 8173,
      "▁கனவு": 8174,
      "▁நீதிமொழிகள்": 8175,
      "▁2011": 8176,
      "முறையை": 8177,
      "▁ஜோடியாக": 8178,
      "▁ச.": 8179,
      "▁அப்பகுதியில்": 8180,
      "ரைய": 8181,
      ".9": 8182,
      "▁இயற்க": 8183,
      "▁ஆகும்": 8184,
      "▁சொல்கிறது.": 8185,
      "▁பங்களிப்பு": 8186,
      "▁தற்காலிக": 8187,
      "▁தீர்மானம்": 8188,
      "▁அவள": 8189,
      "▁விமானம்": 8190,
      "▁உயிரிழந்தனர்.": 8191,
      "லுடன்": 8192,
      "▁இருக்காது.": 8193,
      "▁எச்சரி": 8194,
      "▁கனமழை": 8195,
      "ாரா?": 8196,
      "தாகவும்,": 8197,
      "▁உறுதியான": 8198,
      "▁6:": 8199,
      "ேன்\"\"": 8200,
      "வதும்": 8201,
      "சிசி": 8202,
      "ிலு": 8203,
      "▁இப்படத்தை": 8204,
      "▁நுட்ப": 8205,
      "▁ஹே": 8206,
      "ங்களும்,": 8207,
      "▁கடற்க": 8208,
      "▁வழங்கப்பட்டுள்ளது.": 8209,
      "▁எந்தப்": 8210,
      "வைக்க": 8211,
      "▁இருப்பதை": 8212,
      "▁வயதான": 8213,
      "ந்துகொள்": 8214,
      "ிகளால்": 8215,
      "▁கொடுப்ப": 8216,
      "▁உயர்வு": 8217,
      "▁எடுத்துக்க": 8218,
      "▁பெங்களூரு": 8219,
      "▁மிரு": 8220,
      "▁இயல்ப": 8221,
      "▁அரசியலில்": 8222,
      "▁எரிசக்தி": 8223,
      "திப": 8224,
      "▁துய": 8225,
      "▁எல்லாரும்": 8226,
      "▁டார்க்": 8227,
      "▁சுற்றுச்சூழல்": 8228,
      "▁கர்நாட": 8229,
      "▁உங்களிடம்": 8230,
      "▁சலுகை": 8231,
      "▁அப்போது,": 8232,
      "▁கொல்க": 8233,
      "றிவு": 8234,
      "▁வருமாறு": 8235,
      "▁புகழ்": 8236,
      "ஜன்": 8237,
      "மன": 8238,
      "ிருந்தது": 8239,
      "▁துறைகளில்": 8240,
      "-அ": 8241,
      "▁பறவை": 8242,
      "ிற்காக": 8243,
      "▁திரைப்படம்": 8244,
      "▁எடை": 8245,
      "வரா": 8246,
      "▁நண்பர்கள": 8247,
      "▁அனைவரையும்": 8248,
      "▁கோரிக்க": 8249,
      "▁கூறியுள்ள": 8250,
      "▁துறைமுக": 8251,
      "▁ஆ)": 8252,
      "▁மறக்க": 8253,
      "▁ஆடு": 8254,
      "ந்துள்ளன.": 8255,
      "▁கட்சிகள்": 8256,
      "ர்ட்ட": 8257,
      "▁இதைப்": 8258,
      "▁விரிவு": 8259,
      "களுக்காக": 8260,
      "▁தமிழில்": 8261,
      "▁மசோதா": 8262,
      "▁பயன்": 8263,
      "வன்,": 8264,
      "▁குரல்": 8265,
      "▁இன்னமும்": 8266,
      "▁வாழ்வ": 8267,
      "▁விளைவு": 8268,
      "▁கற்ற": 8269,
      "நிறு": 8270,
      "▁அடங்கிய": 8271,
      "▁அதைச்": 8272,
      "▁எதிர்பார்ப்பு": 8273,
      "க்த": 8274,
      "▁ஆக்கிர": 8275,
      "▁தெரியவ": 8276,
      "▁வரிச": 8277,
      "▁அவர்களால்": 8278,
      "▁தார": 8279,
      "▁சிகிச்ச": 8280,
      "ளிப்பு": 8281,
      "▁உணர": 8282,
      "▁வழக்கை": 8283,
      "ங்குகிறது.": 8284,
      "▁வழங்கிய": 8285,
      "▁பொ.": 8286,
      "ர்களுக்கான": 8287,
      "▁கல்யா": 8288,
      "▁வலைத்தள": 8289,
      "ங்களுக்காக": 8290,
      "ண்க": 8291,
      "▁மின்னணு": 8292,
      "▁எல்லோரும்": 8293,
      "▁தெரியுமா?": 8294,
      "▁இடத்தை": 8295,
      "ென்றும்": 8296,
      "▁செல்வா": 8297,
      "ுமா": 8298,
      "▁அட்": 8299,
      "▁மாற்றிய": 8300,
      "▁முன்மாத": 8301,
      "்கீழ்": 8302,
      "▁டிஜிட்டல்": 8303,
      "னைப்": 8304,
      "▁நீங்களும்": 8305,
      "▁இருக்கின்றனர்.": 8306,
      "▁நோக்கம்": 8307,
      "ிஸ்": 8308,
      "▁வங்காள": 8309,
      "▁வானிலை": 8310,
      "ட்டோ": 8311,
      "▁கொல்லப்பட்ட": 8312,
      "கிறார்": 8313,
      "▁ஏனைய": 8314,
      "ப்பகு": 8315,
      "▁வெற்றிகரமாக": 8316,
      "▁நர": 8317,
      "ம்!": 8318,
      "▁எவர்": 8319,
      "த்துக்காக": 8320,
      "▁கருத்தில்": 8321,
      "▁அரசால்": 8322,
      "▁மஹிந்திரா": 8323,
      "சின்": 8324,
      "▁திருந": 8325,
      "▁பேராசிரிய": 8326,
      "ிகொ": 8327,
      "▁தொகுதியில்": 8328,
      "▁சிறுபான்": 8329,
      "▁ஜே.": 8330,
      "▁விளம்பர": 8331,
      "▁வெவ்": 8332,
      "ொட்டி": 8333,
      "▁வீழ்ச்ச": 8334,
      "▁ஃப்": 8335,
      "▁நல்": 8336,
      "▁ஒன்றில்": 8337,
      "▁அர்ஜ": 8338,
      "▁இருக்கிறேன்.": 8339,
      "▁அகற்ற": 8340,
      "▁சடல": 8341,
      "ுற": 8342,
      "▁காய்க": 8343,
      "▁இருவருக்கும்": 8344,
      "▁படுத்த": 8345,
      "▁ஒழுக்க": 8346,
      "▁கௌ": 8347,
      "▁விசாரித்த": 8348,
      "▁வருமானம்": 8349,
      "▁பிரச்சார": 8350,
      "ர்ஜி": 8351,
      "▁ஒழி": 8352,
      "▁முன்னிட்டு": 8353,
      "▁செப்டம்பர்": 8354,
      "▁ஒழுங்க": 8355,
      "த்,": 8356,
      "▁நிரூப": 8357,
      "▁“ப": 8358,
      "▁அதிப": 8359,
      "▁பயனாள": 8360,
      "▁வேலையில்": 8361,
      "ானால்,": 8362,
      "▁முஃமின": 8363,
      "▁அதிரடி": 8364,
      "▁முடிவெ": 8365,
      "▁அக்டோபர்": 8366,
      "ிக்காக": 8367,
      "▁சேர": 8368,
      "▁கிரேக்க": 8369,
      "▁அவனே": 8370,
      "▁விலங்கு": 8371,
      "வில்லைய": 8372,
      "▁இரட்டை": 8373,
      "தாவது,": 8374,
      "▁எருசலே": 8375,
      "சியா": 8376,
      "▁குழுவின்": 8377,
      "ட்டிக்": 8378,
      "▁யோகா": 8379,
      "▁கொழு": 8380,
      "▁இரக": 8381,
      "▁ஏற்றுமதி": 8382,
      "ாவதாக": 8383,
      "▁195": 8384,
      "▁கட்டுப்பாடு": 8385,
      "ாயிர": 8386,
      "▁அணிகள்": 8387,
      "▁கோட்ப": 8388,
      "▁எதிர்பார்த்த": 8389,
      "▁ஹோண்டா": 8390,
      "▁பட்டம்": 8391,
      "▁மும்பையில்": 8392,
      "▁பிரச்சினைகள்": 8393,
      "▁தனியாக": 8394,
      "▁இப்போ": 8395,
      "▁நார": 8396,
      "▁யாவ": 8397,
      "ராட்ச": 8398,
      "மென்று": 8399,
      "▁ஜனவரி": 8400,
      "▁பாதையில்": 8401,
      "▁கான": 8402,
      "▁திறக்க": 8403,
      "▁கீழ்,": 8404,
      "▁வந்துள்ளது.": 8405,
      "▁நஷ்ட": 8406,
      "▁இக்க": 8407,
      "லாளர்": 8408,
      "▁உத்தியோக": 8409,
      "▁துண்டு": 8410,
      "ற்கும்,": 8411,
      "▁ஆகியவற்று": 8412,
      "வர்களுடைய": 8413,
      "▁மேய": 8414,
      "▁தடைய": 8415,
      "ண்டாய்": 8416,
      "▁சிறுமி": 8417,
      "▁சான்றிதழ்": 8418,
      "▁இடத்துக்கு": 8419,
      "▁குடும்பம்": 8420,
      "ங்களிலிருந்து": 8421,
      "▁களை": 8422,
      "▁196": 8423,
      "▁அவளுக்கு": 8424,
      "▁குறைவு": 8425,
      "▁சொல்லுகிற": 8426,
      "▁மண்ட": 8427,
      "▁இருக்கிறோம்.": 8428,
      "▁எதிர்கொள்ள": 8429,
      "▁இதுபற்றி": 8430,
      "▁பிரசங்கி": 8431,
      "▁மன்ம": 8432,
      "மிற": 8433,
      "▁(2": 8434,
      "▁ஓடி": 8435,
      "▁பரிமாற்ற": 8436,
      "மாகத்": 8437,
      "தைத்": 8438,
      "நாங்கள்": 8439,
      "▁கோவிட்-19": 8440,
      "த்திற்குப்": 8441,
      "▁விழுந்த": 8442,
      "▁திட்டத்தில்": 8443,
      "▁தெய்வ": 8444,
      "▁வருகிறோம்.": 8445,
      "▁ஜூலை": 8446,
      "ோம்\"\"": 8447,
      "ர்வை": 8448,
      "த்திலும்,": 8449,
      "▁மாநிலங்கள்": 8450,
      "▁அறிவுரை": 8451,
      "▁வாஷிங்ட": 8452,
      "▁செல்வ": 8453,
      "▁சல்": 8454,
      "▁பணத்தை": 8455,
      "▁+": 8456,
      "▁பவரையும்,": 8457,
      "▁ஆகியவற்றில்": 8458,
      "▁ஊட்ட": 8459,
      "▁சாக": 8460,
      "▁நீடித்த": 8461,
      "▁ஊழல்": 8462,
      "▁ஹைதரா": 8463,
      "▁நவம்பர்": 8464,
      "மண்டல": 8465,
      "▁எக்ஸ்": 8466,
      "▁வெளியேற": 8467,
      "▁கொரிந்திய": 8468,
      "▁கைவிட": 8469,
      "▁கோரி": 8470,
      "ெடுத்து": 8471,
      "iv": 8472,
      "ாவசிய": 8473,
      "▁சமூ": 8474,
      "▁சர்ச்சை": 8475,
      "ச்சத்து": 8476,
      "▁ஏற்படும்.": 8477,
      "ம்பா": 8478,
      "▁ஏசாயா": 8479,
      "▁அதற்க": 8480,
      "▁கிரா": 8481,
      "▁வீரா": 8482,
      "ுப": 8483,
      "▁கட்டமை": 8484,
      "▁கரை": 8485,
      "▁தாக்குதலுக்கு": 8486,
      "து)": 8487,
      "▁அன்ன": 8488,
      "தொரு": 8489,
      "ிகளுக்கான": 8490,
      "▁சம்பவங்கள்": 8491,
      "சூ": 8492,
      "▁மனிதன்": 8493,
      "ட்டுக்கு": 8494,
      "ிருக்கிறார்": 8495,
      "▁ரூ.2": 8496,
      "ினால்,": 8497,
      "▁இயலா": 8498,
      "ஹீ": 8499,
      "▁அபிவிரு": 8500,
      "▁பற்றா": 8501,
      "ோவில்": 8502,
      "▁காய்ச்ச": 8503,
      "▁முறையை": 8504,
      "▁தொகுதிகளில்": 8505,
      "▁அணிக்கு": 8506,
      "▁ஒலிம்ப": 8507,
      "ன்பது": 8508,
      "▁அட்டை": 8509,
      "▁விதமான": 8510,
      "ெயின்": 8511,
      "▁உலகப்": 8512,
      "▁பூர்த்தி": 8513,
      "▁நாளுக்கு": 8514,
      "▁பரிசோதனைக்காக": 8515,
      "▁வைத்துக்": 8516,
      "▁செயல்படுத்து": 8517,
      "தாவ": 8518,
      "▁மரப": 8519,
      "▁அமைப்புகள்": 8520,
      "▁கைப்பற்றி": 8521,
      "▁வேட்பாளர்": 8522,
      "▁இருந்தால்,": 8523,
      "▁(T": 8524,
      "▁J": 8525,
      "க்கெட்": 8526,
      "▁அப்படித்த": 8527,
      "மாகச்": 8528,
      "▁மாய": 8529,
      "ுடு": 8530,
      "▁□": 8531,
      "▁அப்புற": 8532,
      "ங்களையும்,": 8533,
      "▁டிசம்பர்": 8534,
      "▁மன்மோகன்": 8535,
      "▁தள்ளி": 8536,
      "ையைத்": 8537,
      "▁வெளிநாடு": 8538,
      "நிதி": 8539,
      "வடைந்த": 8540,
      "▁பேரிட": 8541,
      "▁2013": 8542,
      "வண": 8543,
      "▁முடியாமல்": 8544,
      "ிருந்தேன்.": 8545,
      "ங்கம்": 8546,
      "▁நடன": 8547,
      "▁பாடல்": 8548,
      "ார்களோ": 8549,
      "படு": 8550,
      "▁சண்ட": 8551,
      "▁வைத்தார்.": 8552,
      "▁ராஜஸ்தான்": 8553,
      "நிச்சயமாக": 8554,
      "ண்டு,": 8555,
      "▁அநேகர்": 8556,
      "▁சுரங்க": 8557,
      "▁குறித்தும்": 8558,
      "▁ரஜினிகாந்த்": 8559,
      "▁இணைக்க": 8560,
      "▁உம்மை": 8561,
      "▁தேவன்": 8562,
      "▁முன்பாக": 8563,
      "லையில்": 8564,
      "விட்டது": 8565,
      "▁மாலை": 8566,
      "ிருந்தால்": 8567,
      "▁கம்யூனி": 8568,
      "ம்?": 8569,
      "▁புத்தகம்": 8570,
      "▁ஒத்தி": 8571,
      "▁விளங்க": 8572,
      "▁மனிதர்கள்": 8573,
      "▁இணைந்த": 8574,
      "▁ஹூண்டாய்": 8575,
      "▁வருவது": 8576,
      "▁கண்காணிப்பு": 8577,
      "ட்டும்.": 8578,
      "▁ஆஃப்": 8579,
      "▁படுகாயம்": 8580,
      "▁என்பதற்கு": 8581,
      "த்திற்குள்": 8582,
      "க்காடு": 8583,
      "▁போலீசில்": 8584,
      "▁உயிர்த்த": 8585,
      "ரா,": 8586,
      "▁தாங்க": 8587,
      "▁பிரிக்க": 8588,
      "▁நினைத்து": 8589,
      "▁வாரியம்": 8590,
      "▁மாபெரும்": 8591,
      "▁என்பவர்": 8592,
      "வரான": 8593,
      "▁எரிவாயு": 8594,
      "ம்பண்ண": 8595,
      "மாகிய": 8596,
      "ண்டு.": 8597,
      "வதே": 8598,
      "▁எளிதில்": 8599,
      "▁வெல்ல": 8600,
      "விட்டேன்.": 8601,
      "க்கூடும்": 8602,
      "▁அத்தாட்ச": 8603,
      "▁படுகாயமடைந்த": 8604,
      "ைச்": 8605,
      "▁அழுத்தம்": 8606,
      "▁தெரியாத": 8607,
      "▁தங்கம்": 8608,
      "ெயில்": 8609,
      "▁துவக்க": 8610,
      "▁அணுக": 8611,
      "னான": 8612,
      "▁எளிய": 8613,
      "▁உள்ளதாக": 8614,
      "▁பாதுகாப்பான": 8615,
      "▁தகவலை": 8616,
      "பீ": 8617,
      "▁அமைச்சர்கள்": 8618,
      "▁வார்த்தைகள்": 8619,
      "▁ரஹ்": 8620,
      "▁டாலர்": 8621,
      "▁வெவ்வேறு": 8622,
      "வரம்": 8623,
      "▁விவாக": 8624,
      "▁அதிகரித்துள்ளது.": 8625,
      "▁காற்ற": 8626,
      "▁சுரேஷ்": 8627,
      "மேலும்": 8628,
      "▁இந்நிலையில்,": 8629,
      "▁திகழ": 8630,
      "▁நிதியுதவி": 8631,
      "▁(I": 8632,
      "▁பட்டு": 8633,
      "▁போதும்": 8634,
      "▁சாய": 8635,
      "▁மேன": 8636,
      "▁4,": 8637,
      "▁துணி": 8638,
      "▁ஆனாலும்,": 8639,
      "▁வெளியான": 8640,
      "▁கற்றுக்கொள்ள": 8641,
      "▁இரங்கல்": 8642,
      "ாளர்களின்": 8643,
      "▁38": 8644,
      "▁ராஜினா": 8645,
      "▁நிலவு": 8646,
      "▁பிரபலமான": 8647,
      "▁தொடா்": 8648,
      "▁சந்தையில்": 8649,
      "▁காரணமாக,": 8650,
      "▁மாற்றங்கள்": 8651,
      "▁ஈடுபட்டு": 8652,
      "மென": 8653,
      "▁கடவுளுக்கு": 8654,
      "ov": 8655,
      "ீர்.": 8656,
      "யிற்சி": 8657,
      "ame": 8658,
      "செய்து": 8659,
      "றுப்பு": 8660,
      "▁கணினி": 8661,
      "▁கொடுத்தார்.": 8662,
      "▁மாணவ,": 8663,
      "வர்த்த": 8664,
      "▁சம்பவத்தில்": 8665,
      "ாராம்.": 8666,
      "▁டன்": 8667,
      "▁சொல்வது": 8668,
      "கட": 8669,
      "▁சரக்கு": 8670,
      "▁பராமரி": 8671,
      "▁முதலாளித்துவ": 8672,
      "▁வருவாய": 8673,
      "▁செயல்த": 8674,
      "▁250": 8675,
      "ab": 8676,
      "ரீம்": 8677,
      "▁கொடுக்கப்பட்ட": 8678,
      "ாக்ஸ்": 8679,
      "ல.": 8680,
      "▁சஞ்ச": 8681,
      "ற்சி": 8682,
      "▁ராஜினாமா": 8683,
      "▁பதிவி": 8684,
      "▁சரி,": 8685,
      "▁தயார்": 8686,
      "▁கும்ப": 8687,
      "▁போலீசா": 8688,
      "▁சுரு": 8689,
      "▁அறுவை": 8690,
      "▁பொறியியல்": 8691,
      "ிக்ஸ்": 8692,
      "▁டாஸ்": 8693,
      "தற்கான": 8694,
      "முறையாக": 8695,
      "னுக்கும்": 8696,
      "▁கடினமான": 8697,
      "தில்லை": 8698,
      "▁ஆற்றல்": 8699,
      "▁கலந்துகொண்டனர்.": 8700,
      "▁கர்நாடகா": 8701,
      "▁எதற்காக": 8702,
      "▁உரிமைகள்": 8703,
      "ேர்": 8704,
      "▁உணர்ச்ச": 8705,
      "▁ஜென": 8706,
      "▁“ந": 8707,
      "னாள": 8708,
      "hi": 8709,
      "▁நண்பர்கள்": 8710,
      "▁திடீரென": 8711,
      "▁மறுபடியும்": 8712,
      "ஹித்": 8713,
      "▁அபிஷ": 8714,
      "களையும்,": 8715,
      "▁“ம": 8716,
      "▁வழிமுறை": 8717,
      "▁அமல்ப": 8718,
      "சாலையில்": 8719,
      "ப்பூர்": 8720,
      "▁யாருக்கு": 8721,
      "▁தொழில்நுட்பம்": 8722,
      "▁அடிமை": 8723,
      "▁வளர்க்க": 8724,
      "▁நியமி": 8725,
      "▁அடைந்தனர்.": 8726,
      "▁என,": 8727,
      "▁அளித்தார்.": 8728,
      "வரையில்": 8729,
      "ச்சின்": 8730,
      "▁தூய்மை": 8731,
      "▁இதுவும்": 8732,
      "▁தயவு": 8733,
      "▁காரின்": 8734,
      "-20": 8735,
      "▁ரிச": 8736,
      "டிக்கும்": 8737,
      "▁பதிவாக": 8738,
      "▁கொண்டாட்ட": 8739,
      "வில்லை,": 8740,
      "▁அவரைப்": 8741,
      "▁இதன்போது": 8742,
      "ந்துள்ளார்.": 8743,
      "கிழ": 8744,
      "▁பரிதாப": 8745,
      "▁உண்மையாக": 8746,
      "▁தனு": 8747,
      "▁விவசாயிகளின்": 8748,
      "▁வழக்கறி": 8749,
      "டங்கு": 8750,
      "ிகார": 8751,
      "ப்படுத்தப்பட்ட": 8752,
      "▁நூற்று": 8753,
      "த்தது": 8754,
      "▁பிலி": 8755,
      "டியே": 8756,
      "▁நேர்வ": 8757,
      "▁மண்ண": 8758,
      "▁செயற்கை": 8759,
      "▁களமிற": 8760,
      "▁பேரை": 8761,
      "ிகிறது.": 8762,
      "▁நாடுகளுக்கு": 8763,
      "▁ஆண்டின்": 8764,
      "▁இப்": 8765,
      "ோர்ட்": 8766,
      "▁நிஜ": 8767,
      "▁இறங்க": 8768,
      "▁வரம்பு": 8769,
      "-6": 8770,
      "▁பழனி": 8771,
      "ல்ஸ்": 8772,
      "▁விபர": 8773,
      "▁ஸ்மார": 8774,
      "ம்பரம்": 8775,
      "▁அழிக்க": 8776,
      "▁கொரிந்தியர்": 8777,
      "▁வாய்": 8778,
      "▁ஓவிய": 8779,
      "▁மகிழ்ச்சிய": 8780,
      "▁டீஸ்ப": 8781,
      "▁என்பதைக்": 8782,
      "▁சிக்கி": 8783,
      "▁கொடூர": 8784,
      "▁அணியில்": 8785,
      "▁எடுக்கப்பட்ட": 8786,
      "▁பயன்பாடு": 8787,
      "▁விடுதி,": 8788,
      "பால்": 8789,
      "▁சோத": 8790,
      "▁செய்யப்படு": 8791,
      "▁நெறி": 8792,
      "பக்த": 8793,
      "ிங்": 8794,
      "▁இந்தோ": 8795,
      "▁வரையில்": 8796,
      "ல்வி": 8797,
      "த்தொகை": 8798,
      "▁இவ்வளவு": 8799,
      "▁விவாதி": 8800,
      "▁மாநக": 8801,
      "▁விரும்புகிறேன்.": 8802,
      "▁பயணி": 8803,
      "லம்,": 8804,
      "▁அளிக்கப்பட்டது.": 8805,
      "▁எங்களுடைய": 8806,
      "▁பின்த": 8807,
      "▁கேம": 8808,
      "▁சேமிப்பு": 8809,
      "▁சுட்டு": 8810,
      "▁தெரியும்": 8811,
      "!\"": 8812,
      "▁மலே": 8813,
      "னையாக": 8814,
      "▁இஸ்ரவேல": 8815,
      "od": 8816,
      "▁சாட்சி": 8817,
      "▁நடித்துள்ளனர்.": 8818,
      "யும்": 8819,
      "ண்டின்": 8820,
      "▁ஏதே": 8821,
      "ிருந்தார்கள்.": 8822,
      "திக்கு": 8823,
      "மாகும்": 8824,
      "▁அவர்களும்": 8825,
      "ங்கியது.": 8826,
      "ழிக்க": 8827,
      "ேக்": 8828,
      "▁புகு": 8829,
      "▁எழுந்த": 8830,
      "▁விட்டும்": 8831,
      "▁சமைய": 8832,
      "▁சீதார": 8833,
      "போன": 8834,
      "▁சாதக": 8835,
      "பய": 8836,
      "▁பென்": 8837,
      "▁வசூல்": 8838,
      "▁குறைந்து": 8839,
      "▁மின": 8840,
      "▁இயக்கி": 8841,
      "க்கூடாது": 8842,
      "▁ஆஸ்ப": 8843,
      "ங்களிடம்": 8844,
      "நிலையை": 8845,
      "▁பின்பற்று": 8846,
      "வில்லையா?": 8847,
      "▁சொல்ற": 8848,
      "▁மேலான": 8849,
      "▁இளைய": 8850,
      "▁துன்பு": 8851,
      "▁மாசு": 8852,
      "▁அரிய": 8853,
      "▁தெரிவிக்கப்பட்டது.": 8854,
      "▁அதில்,": 8855,
      "▁கொள்முதல்": 8856,
      "▁நம்பிக்கைய": 8857,
      "▁அல்ல,": 8858,
      "▁நடவடிக்கையும்": 8859,
      "சியம்": 8860,
      "▁தலைமுறை": 8861,
      "▁செயல்படும்": 8862,
      "▁n": 8863,
      "▁அதிஷ்ட": 8864,
      "ாய்ந்து": 8865,
      "▁வேண்டுகோ": 8866,
      "தொ": 8867,
      "▁அவர்களைப்": 8868,
      "▁லை": 8869,
      "சிடி": 8870,
      "க்கிறேன்.": 8871,
      "▁வீச": 8872,
      "ழக்க": 8873,
      "▁கட்டளைய": 8874,
      "▁மறந்து": 8875,
      "▁பூர்வ": 8876,
      "ுள்ளது": 8877,
      "▁பொருந்த": 8878,
      "சியில்": 8879,
      "்கிறது.": 8880,
      "ெற்ற": 8881,
      "விக்": 8882,
      "▁முகா": 8883,
      "னிக்க": 8884,
      "▁\"\"எ": 8885,
      "க்குறைய": 8886,
      "▁துர": 8887,
      "▁இடி": 8888,
      "▁டிவி": 8889,
      "வது,": 8890,
      "ரியும்": 8891,
      "▁நிலைத்த": 8892,
      "▁சம்ம": 8893,
      "▁காணப்படுகிறது.": 8894,
      "▁வேலைய": 8895,
      "▁வீட்டை": 8896,
      "▁அமைச்சகத்தின்": 8897,
      "▁டொனால்": 8898,
      "▁வாழ்வாதார": 8899,
      "/-": 8900,
      "ிற்று.": 8901,
      "▁என்னவென்ற": 8902,
      "ஹாச": 8903,
      "▁தரப்பு": 8904,
      "▁குடியிருப்பு": 8905,
      "▁அனும": 8906,
      "▁அறிவிய": 8907,
      "▁தரிச": 8908,
      "▁பிரகாஷ்": 8909,
      "▁அதற்குப்": 8910,
      "▁விஷயங்கள்": 8911,
      "▁மூன்றாம்": 8912,
      "க்ட": 8913,
      "▁(மு": 8914,
      "▁எனக்கும்": 8915,
      "▁போலீசார": 8916,
      "▁இனிய": 8917,
      "▁முகம்": 8918,
      "▁வழங்கப்பட்ட": 8919,
      "▁இருக்கின்றன": 8920,
      "▁வீட்டுக்கு": 8921,
      "▁ஆளுநர்": 8922,
      "op": 8923,
      "▁\"\"\"எ": 8924,
      "▁ஆக்": 8925,
      "▁சகோதரர்": 8926,
      "ரெ": 8927,
      "▁நிறுவனங்களின்": 8928,
      "▁இயக்குன": 8929,
      "▁நிர்மலா": 8930,
      "ியைச்": 8931,
      "▁பெய்து": 8932,
      "▁யுவ": 8933,
      "▁திரையு": 8934,
      "பைல்": 8935,
      "▁சென்": 8936,
      "▁ஆதரி": 8937,
      "▁வகைய": 8938,
      "▁உட்பட்ட": 8939,
      "▁நித்திய": 8940,
      "▁படையினர்": 8941,
      "ப்பாட்ட": 8942,
      "▁தொழிற்சங்க": 8943,
      "லுக்கான": 8944,
      "தாம்.": 8945,
      "▁ஹரிய": 8946,
      "▁பணியாளர்கள்": 8947,
      "ig": 8948,
      "ல்கள": 8949,
      "ல்களுக்கு": 8950,
      "▁மெய்ய": 8951,
      "▁கொன்ற": 8952,
      "▁தமிழகம்": 8953,
      "▁நிறுவனம்,": 8954,
      "▁வரையிலான": 8955,
      "▁முதிய": 8956,
      "?\"": 8957,
      "▁தொடர்ந்து,": 8958,
      "னாய்வு": 8959,
      "▁இல்லைய": 8960,
      "▁மேற்கொள்ளப்பட்டு": 8961,
      "▁பண்பு": 8962,
      "▁வழக்குகள்": 8963,
      "▁எஸ்யூவி": 8964,
      "▁ஒன்றுக்கு": 8965,
      "▁அச்சுறுத்த": 8966,
      "▁இவற்றில்": 8967,
      "▁அங்கீகார": 8968,
      "▁பார்க்கலாம்.": 8969,
      "▁(M": 8970,
      "▁திறனையும்": 8971,
      "▁உருவான": 8972,
      "▁பொறுப்பே": 8973,
      "▁எளிதாக": 8974,
      "▁பிரான்ஸ்": 8975,
      "▁கிலோமீட்டர்": 8976,
      "▁தரம்": 8977,
      "▁இருக்கு.": 8978,
      "▁கையா": 8979,
      "▁யெகோவாவ": 8980,
      "▁பரிசீ": 8981,
      "▁முன்னிலை": 8982,
      "▁கையில்": 8983,
      "▁அனுப்பு": 8984,
      "▁விரும்பவில்லை.": 8985,
      "▁இழப்ப": 8986,
      "▁தங்களின்": 8987,
      "▁அவளுடைய": 8988,
      "▁புத்தி": 8989,
      "▁விருந்த": 8990,
      "▁மொழியில்": 8991,
      "▁வரவேற்க": 8992,
      "▁நடிப்பில்": 8993,
      "II": 8994,
      "ப்போம்": 8995,
      "▁கோட்ட": 8996,
      "▁அவரால்": 8997,
      "▁அனுபவம்": 8998,
      "▁விழிப்புணர்வு": 8999,
      "▁ஆகஸ்ட்": 9000,
      "சக்தி": 9001,
      "▁சேதுபதி": 9002,
      "▁நேபாள": 9003,
      "▁‘இ": 9004,
      "▁கோப்ப": 9005,
      "▁பகுதியை": 9006,
      "▁எல்லாவற்றையும்": 9007,
      "▁அனுமதிக்கப்பட்டுள்ள": 9008,
      "ூரண": 9009,
      "▁தாவர": 9010,
      "▁தேங்க": 9011,
      "▁பிரதமரின்": 9012,
      "▁கப்பல்": 9013,
      "▁ஒன்றாகும்.": 9014,
      "▁சைக்கி": 9015,
      "▁ஆக்கிரமி": 9016,
      "▁ஏவு": 9017,
      "ினருக்கு": 9018,
      "▁சாப்பிடு": 9019,
      "▁பெருங்க": 9020,
      "▁மாநிலங்கள": 9021,
      "ையிலிருந்து": 9022,
      "▁சிந்திக்க": 9023,
      "▁வழிகாட்டு": 9024,
      "▁செய்தியாள": 9025,
      "▁கழகம்": 9026,
      "வுடைய": 9027,
      "முனை": 9028,
      "40": 9029,
      "ிகளும்,": 9030,
      "▁சமயம்": 9031,
      "▁48": 9032,
      "▁அணிய": 9033,
      "▁வலுவான": 9034,
      "▁வைக்கும்": 9035,
      "▁சதவீதமாக": 9036,
      "▁காணப்படும்": 9037,
      "▁நடித்துள்ள": 9038,
      "▁வசித்து": 9039,
      "▁தங்களை": 9040,
      "▁தங்கிய": 9041,
      "வுலக": 9042,
      "ன்னும்": 9043,
      "ில்லியில்": 9044,
      "சமான": 9045,
      "▁உண்ண": 9046,
      "▁மேல்முறைய": 9047,
      "ாது,": 9048,
      "▁இம்ம": 9049,
      "▁படுக்க": 9050,
      "▁நியூசிலாந்து": 9051,
      "▁துண்ட": 9052,
      "▁நடத்தப்பட்ட": 9053,
      "▁முதலமைச்ச": 9054,
      "▁பாப": 9055,
      "▁42": 9056,
      "▁பிரதமராக": 9057,
      "ாயின்": 9058,
      "▁மாட்டேன்.": 9059,
      "▁நெருக்கடி": 9060,
      "▁பழி": 9061,
      "▁நாணய": 9062,
      "▁நிலம்": 9063,
      "▁விழித்த": 9064,
      "்போ": 9065,
      "▁அழைத்துச்": 9066,
      "▁வினா": 9067,
      "▁தோன்று": 9068,
      "▁அவரே": 9069,
      "▁மேற்கொள்": 9070,
      "ண்கள்": 9071,
      "▁ஏக்கர்": 9072,
      "▁தெற்க": 9073,
      "y)": 9074,
      "▁முடிவை": 9075,
      "ாங்க.": 9076,
      "த்ம": 9077,
      "▁பேரும்": 9078,
      "▁விவரி": 9079,
      "▁கப்": 9080,
      "▁காலக": 9081,
      "னி,": 9082,
      "▁புறக்கணி": 9083,
      "மடைந்து": 9084,
      "19": 9085,
      "▁வின": 9086,
      "ோம்?": 9087,
      "▁பர்": 9088,
      "▁போதிய": 9089,
      "▁தெரிவு": 9090,
      "▁வாழ்ந்து": 9091,
      "▁பாடல்கள்": 9092,
      "ந்தனர்.": 9093,
      "ாக்கிய": 9094,
      "▁வைட்ட": 9095,
      "▁உருவ": 9096,
      "▁உறை": 9097,
      "ுமாறு": 9098,
      "▁அளிக்கிறது.": 9099,
      "▁பிரெஞ்சு": 9100,
      "▁குறைபாடு": 9101,
      "▁செய்யும்.": 9102,
      "▁கட்டும்": 9103,
      "ியாகும்.": 9104,
      "▁கதாநாயக": 9105,
      "ரும": 9106,
      "▁கோலி": 9107,
      "▁சுட்டிக்காட்ட": 9108,
      "▁முக்கியமாக": 9109,
      "▁அருண்": 9110,
      "▁சிந்தித்து": 9111,
      "வைத்த": 9112,
      "▁உதவுகிறது.": 9113,
      "▁சந்தேகம்": 9114,
      "▁மையங்கள்": 9115,
      "ப்பையும்": 9116,
      "▁தனிந": 9117,
      "▁\"ஆ": 9118,
      "▁உயிர்த்தெழு": 9119,
      "--": 9120,
      "ter": 9121,
      "▁பூமியின்": 9122,
      "▁கணவன்": 9123,
      "வருகிறது.": 9124,
      "▁விதமாக": 9125,
      "▁பரவலாக": 9126,
      "ராம்": 9127,
      "▁எக்ஸ்ப": 9128,
      "▁சட்டத்தை": 9129,
      "▁ஈடுபட்டனர்.": 9130,
      "▁சாம": 9131,
      "▁மேலே": 9132,
      "▁வழிவகு": 9133,
      "▁தீமோ": 9134,
      "ியா,": 9135,
      "▁கவனமாக": 9136,
      "▁அத்தியாவசிய": 9137,
      "மட்டு": 9138,
      "▁நரக": 9139,
      "▁யாரையும்": 9140,
      "▁8,": 9141,
      "மடைய": 9142,
      "ானில்": 9143,
      "▁தயாரித்து": 9144,
      "▁உருவாக்கப்பட்ட": 9145,
      "▁மகாத்மா": 9146,
      "▁39": 9147,
      "ைகள்,": 9148,
      "▁விரும்புவ": 9149,
      "▁நாயுடு": 9150,
      "im": 9151,
      "▁பிரதமர்,": 9152,
      "▁போட்டியிடு": 9153,
      "▁வந்தது": 9154,
      "▁அடிப்படையிலான": 9155,
      "▁முடிந்து": 9156,
      "▁இஸ்லாமிய": 9157,
      "ார்களா?": 9158,
      "▁தரவு": 9159,
      "▁இயல்பு": 9160,
      "▁அபார": 9161,
      "▁திரையுலக": 9162,
      "▁பெய்த": 9163,
      "▁பகை": 9164,
      "ச்சல": 9165,
      "▁நிபந்த": 9166,
      "▁திருப்த": 9167,
      "வாகும்.": 9168,
      "▁சுவி": 9169,
      "▁இன்ப": 9170,
      "சி.": 9171,
      "ச்சொ": 9172,
      "▁என்னென்ன": 9173,
      "▁வெளிப்படுத்துதல்": 9174,
      "▁உரையாற்ற": 9175,
      "ந்தின்": 9176,
      "▁மறைந்த": 9177,
      "▁அளித்துள்ளது.": 9178,
      "▁மாணவியர்": 9179,
      "▁பொதுச்": 9180,
      "வரும்,": 9181,
      "▁தாவீது": 9182,
      "os": 9183,
      "ணிகள்": 9184,
      "கொள்": 9185,
      "▁சொல்லிய": 9186,
      "ோடி": 9187,
      "▁நகர்": 9188,
      "மையுடன்": 9189,
      "▁வைத்தியசாலையில்": 9190,
      "பொ": 9191,
      "ேயும்": 9192,
      "▁விடை": 9193,
      "▁அதோடு": 9194,
      "ப்போல": 9195,
      "ிருப்பதை": 9196,
      "செல்": 9197,
      "▁சாத்தான": 9198,
      "▁மணிக்கு": 9199,
      "ைக்கு": 9200,
      "▁என்றால்,": 9201,
      "பவர்": 9202,
      "▁பில": 9203,
      "▁தொடரை": 9204,
      "▁பயனிய": 9205,
      "னல்": 9206,
      "ல்லாத": 9207,
      "▁தயாரி": 9208,
      "▁குண்ட": 9209,
      "▁சட்டம்,": 9210,
      "▁விற்க": 9211,
      "▁தூக்கி": 9212,
      "ார்கள்.\"": 9213,
      "▁பரந்த": 9214,
      "▁மட்டுமின்றி": 9215,
      "▁எடுத்துக்கொள்ள": 9216,
      "▁பிரசா": 9217,
      "▁ஐபி": 9218,
      "▁அருங்கா": 9219,
      "▁சீதாராம": 9220,
      "▁பனி": 9221,
      "ிற்ப": 9222,
      "மையைக்": 9223,
      "▁ஷெ": 9224,
      "நாளில்": 9225,
      "▁விரைவாக": 9226,
      "▁லிமிட": 9227,
      "▁முதலீட்டு": 9228,
      "▁நிகழ்ந்த": 9229,
      "▁நன்றி.": 9230,
      "▁பின்னணி": 9231,
      "▁5,": 9232,
      "▁அப்து": 9233,
      "▁எட": 9234,
      "ங்கள்!": 9235,
      "▁வளர்ந்த": 9236,
      "க்காரர்கள்": 9237,
      "▁இறப்பு": 9238,
      "▁கழிவு": 9239,
      "▁படுகொ": 9240,
      "▁கடற்படை": 9241,
      "▁முன்னுரிமை": 9242,
      "▁எடுக்கப்படும்": 9243,
      "▁பெட்ட": 9244,
      "▁காட்டுகிறது.": 9245,
      "▁ஏற்படவில்லை.": 9246,
      "▁உடற்ப": 9247,
      "▁ஓ.": 9248,
      "▁மகிழ்": 9249,
      "▁மோடியின்": 9250,
      "▁அடங்கும்.": 9251,
      "ேந்திர": 9252,
      "▁யாக்கோ": 9253,
      "▁ஜனநாயகக்": 9254,
      "▁வாயிலாக": 9255,
      "▁(அல்லாஹ்": 9256,
      "▁g": 9257,
      "ட்டிங்": 9258,
      "▁அருங்காட்சிய": 9259,
      "▁பலவீன": 9260,
      "▁ஈரான்": 9261,
      "▁வெளியாகவில்லை.": 9262,
      "▁வடி": 9263,
      "▁மோகன்": 9264,
      "▁சான்று": 9265,
      "▁கோடியாக": 9266,
      "▁சமாளிக்க": 9267,
      "▁நுகர்வ": 9268,
      "▁இதனைத்": 9269,
      "்யூ": 9270,
      "வை,": 9271,
      "▁காலங்களில்": 9272,
      "▁அருமையான": 9273,
      "▁ஸ்பூன்": 9274,
      "▁அலுவலர்": 9275,
      "▁ஆதரவாக": 9276,
      "▁இறக்குமதி": 9277,
      "களில்,": 9278,
      "▁செய்துகொண்ட": 9279,
      "▁எனக்குப்": 9280,
      "▁தொடங்கியது.": 9281,
      "▁தீபாவளி": 9282,
      "▁கவனிய": 9283,
      "a)": 9284,
      "▁இவர்களை": 9285,
      "▁பிளா": 9286,
      "▁ஜப்பான்": 9287,
      "▁திரைய": 9288,
      "▁மிருக": 9289,
      "▁பதிந்து": 9290,
      "▁வெளியில்": 9291,
      "▁ஈர": 9292,
      "ர்களும்,": 9293,
      "▁உயிரிழந்தார்.": 9294,
      "1,": 9295,
      "▁சாவ": 9296,
      "▁அஜித்": 9297,
      "▁நோக்கு": 9298,
      "▁முக்கியம்.": 9299,
      "▁ஆண்டுகளாக": 9300,
      "▁நல்லது.": 9301,
      "▁கிங்": 9302,
      "▁திடீர்": 9303,
      "▁மீற": 9304,
      "▁அரசு,": 9305,
      "ச்சு.": 9306,
      "▁அப்போஸ்தலன்": 9307,
      "▁தெரிந்துகொள்ள": 9308,
      "▁வென்று": 9309,
      "ா.": 9310,
      "ளித்து": 9311,
      "▁பணியாற்றி": 9312,
      "தலில்": 9313,
      "ப்படம்": 9314,
      "ர்களைக்": 9315,
      "▁நினைவில்": 9316,
      "▁இண்ட": 9317,
      "▁நேற்று": 9318,
      "மையில்,": 9319,
      "▁அங்கிருந்த": 9320,
      "ap": 9321,
      "▁தேவனுடைய": 9322,
      "▁கற்க": 9323,
      "▁சென்றார்.": 9324,
      "▁யாதவ்": 9325,
      "14": 9326,
      "ப்பைக்": 9327,
      "▁தயாரித்த": 9328,
      "▁துறை,": 9329,
      "▁குறுகிய": 9330,
      "▁வழங்கப்பட்டு": 9331,
      "▁இத்தால": 9332,
      "▁வாங்கி": 9333,
      "மையையும்": 9334,
      "▁வணங்க": 9335,
      "▁விசாரணையில்": 9336,
      "ரவ": 9337,
      "▁இவர்களில்": 9338,
      "▁சமர்ப்ப": 9339,
      "▁அர்ப்பணி": 9340,
      "புற": 9341,
      "டிகள்": 9342,
      "▁பட்ச": 9343,
      "▁கொழ": 9344,
      "▁வெளிப்படுத்தும்": 9345,
      "▁பூஜ": 9346,
      "னீ": 9347,
      "▁பிஎஸ்": 9348,
      "▁பிக": 9349,
      "▁சோக": 9350,
      "▁இதைக்": 9351,
      "▁இருக்கவில்லை.": 9352,
      "▁உபகர": 9353,
      "▁விசாரணையை": 9354,
      "ுவரு": 9355,
      "▁வல்லு": 9356,
      "▁கட்டி": 9357,
      "வனும்": 9358,
      "▁கூறுவீராக": 9359,
      "▁மாறாக,": 9360,
      "▁வயத": 9361,
      "▁உடல்நல": 9362,
      "▁தெளிவு": 9363,
      "ak": 9364,
      "த்திட": 9365,
      "▁விலகி": 9366,
      "▁உள்க": 9367,
      "▁(D": 9368,
      "▁வளர்த்து": 9369,
      "முடியாது.": 9370,
      "▁கூடுதலான": 9371,
      "▁மந்த": 9372,
      "▁ஆரம்பத்தில்": 9373,
      "▁மோசமாக": 9374,
      "▁சிவசே": 9375,
      "▁முதல்வராக": 9376,
      "▁தொகைய": 9377,
      "▁“த": 9378,
      "▁அதனால்தான்": 9379,
      "▁ல்,": 9380,
      "வாங்க": 9381,
      "ஐ.": 9382,
      "▁சதவிகிதம்": 9383,
      "▁மஞ்சள்": 9384,
      "▁ஏதேனும்": 9385,
      "த்தூர்": 9386,
      "ாய்.": 9387,
      "▁கண்டிப்பாக": 9388,
      "▁நபர்கள்": 9389,
      "▁விமர்ச": 9390,
      "நெ": 9391,
      "ண்ணு": 9392,
      "▁அதிகரிக்கும்": 9393,
      "க்கப்பட்டுள்ளது": 9394,
      "▁டெல்லி:": 9395,
      "▁எல்லாமே": 9396,
      "▁உண்மையை": 9397,
      "▁முயற்சிகளை": 9398,
      "ர்ஸ்": 9399,
      "▁சேர்ம": 9400,
      "▁இரும்பு": 9401,
      "வர்களுடன்": 9402,
      "▁பட்ஜெட்": 9403,
      "க்ஸ": 9404,
      "▁அரசியல்வாத": 9405,
      "ாதே": 9406,
      "▁படத்துக்கு": 9407,
      "சியுங்கள்.": 9408,
      "▁இத்திட்டம்": 9409,
      "▁சாட்ட": 9410,
      "▁ஊர்": 9411,
      "▁2012": 9412,
      "▁:⁠": 9413,
      "▁எதிர்பார்ப்ப": 9414,
      "▁தலைநக": 9415,
      "▁என்பதைப்": 9416,
      "▁பண்ணை": 9417,
      "▁ஒருமுறை": 9418,
      "ஸ்வர்": 9419,
      "▁உள்ளாட்சி": 9420,
      "▁the": 9421,
      "▁இருப்பார்கள்.": 9422,
      "ிக்கிறார்.": 9423,
      "▁அப்": 9424,
      "▁மெல்ல": 9425,
      "▁யோகி": 9426,
      "▁பொருட்டு": 9427,
      "▁மாதங்களுக்கு": 9428,
      "▁ஏற்படுத்திய": 9429,
      "▁தொகுத": 9430,
      "எல்ஏ": 9431,
      "▁சமயங்களில்": 9432,
      "லும்,": 9433,
      "வணை": 9434,
      "▁பாடசாலை": 9435,
      "▁லோக்ச": 9436,
      "த்தான்.": 9437,
      "▁சூர்": 9438,
      "▁நடக்கிறது.": 9439,
      "▁ஜப்பான": 9440,
      "▁பாஜகவ": 9441,
      "▁புகைப்படம்": 9442,
      "▁அவர்கள்,": 9443,
      "▁கருவ": 9444,
      "▁வெளியாகியுள்ளது.": 9445,
      "▁நியாயமான": 9446,
      "▁முரண்ப": 9447,
      "▁=": 9448,
      "ிகர்": 9449,
      "▁அறிவிக்கப்பட்ட": 9450,
      "தல்ல.": 9451,
      "ளிப்ப": 9452,
      "ப்பட்டுள்ளார்.": 9453,
      "கவலை": 9454,
      "க்ச": 9455,
      "▁கொள்ளலாம்.": 9456,
      "▁65": 9457,
      "▁என்னைப்": 9458,
      "▁இவ்வி": 9459,
      "▁தளம்": 9460,
      "ர்தான்": 9461,
      "ிகளு": 9462,
      "▁இல்லையா?": 9463,
      "பலி": 9464,
      "▁ஒளிய": 9465,
      "▁நிகழ்வில்": 9466,
      "ிக்கொண்டு": 9467,
      "▁“என்ன": 9468,
      "▁புரோ": 9469,
      "▁பாரத": 9470,
      "▁எரிப": 9471,
      "▁மூலக்கூ": 9472,
      "முடியாத": 9473,
      "▁வடகிழக்கு": 9474,
      "பாக": 9475,
      "▁இவரை": 9476,
      "ப்பாடி": 9477,
      "▁சொல்லு": 9478,
      "▁குறிக்கோ": 9479,
      "▁திரள": 9480,
      "▁நேச": 9481,
      "▁ஈடுபட": 9482,
      "▁உட்படுத்த": 9483,
      "▁மதம்": 9484,
      "ப்பார்கள்": 9485,
      "▁வது": 9486,
      "த்தோலிக்க": 9487,
      "ராகிய": 9488,
      "▁கள்ள": 9489,
      "▁செய்தல்": 9490,
      "▁வேண்டுமான": 9491,
      "▁நிலக்க": 9492,
      "க்கிடையே": 9493,
      "▁விழுந்து": 9494,
      "▁கிமீ": 9495,
      "▁அது.": 9496,
      "▁44": 9497,
      "விரோத": 9498,
      "ன்பி": 9499,
      "▁செய்யலாம்.": 9500,
      "▁கொண்டிருக்கிற": 9501,
      "▁ஈடுபடு": 9502,
      "▁வில்ல": 9503,
      "சுக்கு": 9504,
      "3,": 9505,
      "▁பாக்கிய": 9506,
      "▁கடத்த": 9507,
      "▁எனப்": 9508,
      "▁பின்னால்": 9509,
      "▁கட்டாயம்": 9510,
      "▁%s": 9511,
      "▁நாச": 9512,
      "வல": 9513,
      "▁அசை": 9514,
      "▁காட்டிய": 9515,
      "▁கடலோர": 9516,
      "ுவதற்கான": 9517,
      "ோடே": 9518,
      "▁அ.": 9519,
      "▁இருந்தும்": 9520,
      "▁வதக்கவும்.": 9521,
      "▁சபா": 9522,
      "▁தவறாக": 9523,
      "▁(என்று": 9524,
      "▁கருத்தை": 9525,
      "▁நயன்த": 9526,
      "▁மன்னிப்ப": 9527,
      "▁ஐரோப்ப": 9528,
      "்டி": 9529,
      "▁மோதி": 9530,
      "▁மோடிக்கு": 9531,
      "▁அங்குள்ள": 9532,
      "▁சுகாதாரம்": 9533,
      "▁அவா": 9534,
      "▁பலப்படுத்த": 9535,
      "▁தர்ம": 9536,
      "▁இருந்தேன்.": 9537,
      "▁நிலையங்கள்": 9538,
      "▁பள்ளிகளில்": 9539,
      "ெல்வே": 9540,
      "▁\"எ": 9541,
      "▁சாலைகள்": 9542,
      "த்தலைவர்": 9543,
      "▁பெண்களை": 9544,
      "தைய": 9545,
      "▁பெர்": 9546,
      "▁அந்தஸ்த": 9547,
      "th": 9548,
      "பந்து": 9549,
      "▁பாய": 9550,
      "▁தாக்கிய": 9551,
      "ரித": 9552,
      "-18": 9553,
      "முய": 9554,
      "ான்.\"": 9555,
      "▁நம்மால்": 9556,
      "ப்ரவரி": 9557,
      "▁விட்டனர்.": 9558,
      "▁தனிமை": 9559,
      "▁முகமது": 9560,
      "ோடும்": 9561,
      "மா,": 9562,
      "▁துடு": 9563,
      "▁கிறிஸ்துவின்": 9564,
      "▁குற": 9565,
      "▁போன்றவற்ற": 9566,
      "▁தரமான": 9567,
      "▁விளையாட": 9568,
      "▁கைப்பற்றிய": 9569,
      "வீக": 9570,
      "▁வெளியாகும்": 9571,
      "▁தளபதி": 9572,
      "▁பொறுத்தவரை": 9573,
      "▁ரண": 9574,
      "▁அப்போஸ்தல": 9575,
      "▁‘அ": 9576,
      "▁கையாள": 9577,
      "ப்போக": 9578,
      "▁போ்": 9579,
      "தோடு": 9580,
      "▁கோஹ்": 9581,
      "▁எம்எல்ஏ": 9582,
      "ment": 9583,
      "▁கத்தோலிக்க": 9584,
      "த்தூ": 9585,
      "▁ஏற்படுத்தும்": 9586,
      "▁செவி": 9587,
      "ளித்தார்.": 9588,
      "ாய்?": 9589,
      "▁என்கிறார்": 9590,
      "ை,": 9591,
      "▁காஃபி": 9592,
[...]
