{
  "version": "1.0",
  "truncation": null,
  "padding": null,
  "added_tokens": [
    {
      "id": 0,
      "content": "<s>",
      "single_word": false,
      "lstrip": false,
      "rstrip": false,
      "normalized": false,
      "special": true
    },
    {
      "id": 1,
      "content": "<pad>",
      "single_word": false,
      "lstrip": false,
      "rstrip": false,
      "normalized": false,
      "special": true
    },
    {
      "id": 2,
      "content": "</s>",
      "single_word": false,
      "lstrip": false,
      "rstrip": false,
      "normalized": false,
      "special": true
    },
    {
      "id": 3,
      "content": "<unk>",
      "single_word": false,
      "lstrip": false,
      "rstrip": false,
      "normalized": false,
      "special": true
    },
    {
      "id": 4,
      "content": "<mask>",
      "single_word": false,
      "lstrip": false,
      "rstrip": false,
      "normalized": false,
      "special": true
    }
  ],
  "normalizer": {
    "type": "Sequence",
    "normalizers": [
      {
        "type": "NFKC"
      },
      {
        "type": "Lowercase"
      }
    ]
  },
  "pre_tokenizer": {
    "type": "ByteLevel",
    "add_prefix_space": true,
    "trim_offsets": true,
    "use_regex": true
  },
  "post_processor": {
    "type": "TemplateProcessing",
    "single": [
      {
        "SpecialToken": {
          "id": "<s>",
          "type_id": 0
        }
      },
      {
        "Sequence": {
          "id": "A",
          "type_id": 0
        }
      },
      {
        "SpecialToken": {
          "id": "</s>",
          "type_id": 0
        }
      }
    ],
    "pair": [
      {
        "Sequence": {
          "id": "A",
          "type_id": 0
        }
      },
      {
        "Sequence": {
          "id": "B",
          "type_id": 1
        }
      }
    ],
    "special_tokens": {
      "</s>": {
        "id": "</s>",
        "ids": [
          2
        ],
        "tokens": [
          "</s>"
        ]
      },
      "<mask>": {
        "id": "<mask>",
        "ids": [
          9999
        ],
        "tokens": [
          "<mask>"
        ]
      },
      "<pad>": {
        "id": "<pad>",
        "ids": [
          1
        ],
        "tokens": [
          "<pad>"
        ]
      },
      "<s>": {
        "id": "<s>",
        "ids": [
          0
        ],
        "tokens": [
          "<s>"
        ]
      },
      "<unk>": {
        "id": "<unk>",
        "ids": [
          3
        ],
        "tokens": [
          "<unk>"
        ]
      }
    }
  },
  "decoder": {
    "type": "ByteLevel",
    "add_prefix_space": true,
    "trim_offsets": true,
    "use_regex": true
  },
  "model": {
    "type": "BPE",
    "dropout": null,
    "unk_token": "<unk>",
    "continuing_subword_prefix": null,
    "end_of_word_suffix": null,
    "fuse_unk": false,
    "byte_fallback": false,
    "vocab": {
      "<s>": 0,
      "<pad>": 1,
      "</s>": 2,
      "<unk>": 3,
      "<mask>": 4,
      "!": 5,
      "\"": 6,
      "#": 7,
      "$": 8,
      "%": 9,
      "&": 10,
      "'": 11,
      "(": 12,
      ")": 13,
      "*": 14,
      "+": 15,
      ",": 16,
      "-": 17,
      ".": 18,
      "/": 19,
      "0": 20,
      "1": 21,
      "2": 22,
      "3": 23,
      "4": 24,
      "5": 25,
      "6": 26,
      "7": 27,
      "8": 28,
      "9": 29,
      ":": 30,
      ";": 31,
      "<": 32,
      "=": 33,
      ">": 34,
      "?": 35,
      "@": 36,
      "[": 37,
      "\\": 38,
      "]": 39,
      "^": 40,
      "_": 41,
      "`": 42,
      "a": 43,
      "b": 44,
      "c": 45,
      "d": 46,
      "e": 47,
      "f": 48,
      "g": 49,
      "h": 50,
      "i": 51,
      "j": 52,
      "k": 53,
      "l": 54,
      "m": 55,
      "n": 56,
      "o": 57,
      "p": 58,
      "q": 59,
      "r": 60,
      "s": 61,
      "t": 62,
      "u": 63,
      "v": 64,
      "w": 65,
      "x": 66,
      "y": 67,
      "z": 68,
      "{": 69,
      "|": 70,
      "}": 71,
      "~": 72,
      "¢": 73,
      "©": 74,
      "»": 75,
      "¿": 76,
      "Ã": 77,
      "â": 78,
      "ï": 79,
      "ĉ": 80,
      "Ġ": 81,
      "Ģ": 82,
      "ģ": 83,
      "Ħ": 84,
      "ĭ": 85,
      "į": 86,
      "ĵ": 87,
      "ĺ": 88,
      "Ļ": 89,
      "ľ": 90,
      "Ŀ": 91,
      "Ġt": 92,
      "he": 93,
      "Ġa": 94,
      "in": 95,
      "Ġthe": 96,
      "re": 97,
      "Ġs": 98,
      "on": 99,
      "Ġw": 100,
      "er": 101,
      "is": 102,
      "Ġc": 103,
      "at": 104,
      "Ġo": 105,
      "en": 106,
      "Ġp": 107,
      "Ġb": 108,
      "ed": 109,
      "an": 110,
      "Ġin": 111,
      "Ġf": 112,
      "it": 113,
      "Ġm": 114,
      "es": 115,
      "Ġh": 116,
      "or": 117,
      "Ġd": 118,
      "Ġan": 119,
      "ar": 120,
      "Ġof": 121,
      "al": 122,
      "ing": 123,
      "ou": 124,
      "Ġto": 125,
      "as": 126,
      "Ġth": 127,
      "Ġand": 128,
      "Ġn": 129,
      "il": 130,
      "ion": 131,
      "ic": 132,
      "Ġl": 133,
      "ent": 134,
      "ro": 135,
      "Ġg": 136,
      "Ġis": 137,
      "Ġre": 138,
      "Ġbe": 139,
      "le": 140,
      "ve": 141,
      "Ġe": 142,
      "Ġhe": 143,
      "id": 144,
      "st": 145,
      "om": 146,
      "ct": 147,
      "ot": 148,
      "ra": 149,
      "ol": 150,
      "im": 151,
      "ver": 152,
      "Ġfor": 153,
      "ad": 154,
      "Ġu": 155,
      "Ġy": 156,
      "ut": 157,
      "am": 158,
      "Ġon": 159,
      "ur": 160,
      "ly": 161,
      "ation": 162,
      "et": 163,
      "Ġst": 164,
      "Ġit": 165,
      "Ġwe": 166,
      "ay": 167,
      "Ġwh": 168,
      "ir": 169,
      "ow": 170,
      "Ġthat": 171,
      "ist": 172,
      "Ġal": 173,
      "ce": 174,
      "se": 175,
      "ill": 176,
      "Ġk": 177,
      "ig": 178,
      "Ġthis": 179,
      "Ġyou": 180,
      "Ġde": 181,
      "Ġare": 182,
      "Ġha": 183,
      "ch": 184,
      "od": 185,
      "ment": 186,
      "Ġj": 187,
      "Ġcon": 188,
      "Ġi": 189,
      "Ġas": 190,
      "Ġwas": 191,
      "Ġr": 192,
      "ith": 193,
      "ak": 194,
      "ul": 195,
      "Ġpro": 196,
      "ers": 197,
      "ri": 198,
      "Ġch": 199,
      "Ġv": 200,
      "res": 201,
      "Ġ1": 202,
      "Ġnot": 203,
      "her": 204,
      "Ġhas": 205,
      "ld": 206,
      "est": 207,
      "Ġwith": 208,
      "th": 209,
      "us": 210,
      "Ġse": 211,
      "Ġhave": 212,
      "op": 213,
      "di": 214,
      "Ġsh": 215,
      "Ġsu": 216,
      "and": 217,
      "Ġcom": 218,
      "ate": 219,
      "Ġwill": 220,
      "Ġat": 221,
      "Ġne": 222,
      "\"\"": 223,
      "pp": 224,
      "Ġgo": 225,
      "Ġby": 226,
      "ge": 227,
      "nd": 228,
      "ter": 229,
      "nt": 230,
      "ain": 231,
      "Ġ2": 232,
      "ice": 233,
      "Ġindi": 234,
      "Ġsa": 235,
      "red": 236,
      "Ġwor": 237,
      "Ġex": 238,
      "ess": 239,
      "art": 240,
      "if": 241,
      "el": 242,
      "os": 243,
      "rom": 244,
      "um": 245,
      "Ġall": 246,
      "iv": 247,
      "Ġdo": 248,
      "ies": 249,
      "Ġthey": 250,
      "ort": 251,
      "ab": 252,
      "Ġpol": 253,
      "ht": 254,
      "Ġfrom": 255,
      "Ġhis": 256,
      "Ġme": 257,
      "ity": 258,
      "ac": 259,
      "Ġ(": 260,
      "Ġso": 261,
      "Ġmo": 262,
      "Ġsp": 263,
      "Ġcou": 264,
      "ant": 265,
      "qu": 266,
      "Ġbeen": 267,
      "ie": 268,
      "un": 269,
      "ect": 270,
      "Ġbut": 271,
      "Ġmin": 272,
      "Ġwhat": 273,
      "Ġwere": 274,
      "ive": 275,
      "ah": 276,
      "Ġra": 277,
      "Ġor": 278,
      "ci": 279,
      "ud": 280,
      "Ġthere": 281,
      "so": 282,
      "end": 283,
      "Ġle": 284,
      "Ġpe": 285,
      "00": 286,
      "Ġno": 287,
      "ard": 288,
      "Ġman": 289,
      "all": 290,
      "ust": 291,
      "ther": 292,
      "Ġsaid": 293,
      "Ġab": 294,
      "Ġlo": 295,
      "Ġindia": 296,
      "ated": 297,
      "Ġar": 298,
      "ction": 299,
      "em": 300,
      "Ġun": 301,
      "Ġalso": 302,
      "ime": 303,
      "Ġminist": 304,
      "ry": 305,
      "Ġcan": 306,
      "ight": 307,
      "ome": 308,
      "Ġwho": 309,
      "Ġim": 310,
      "Ġpolice": 311,
      "ous": 312,
      "Ġad": 313,
      "Ġpeop": 314,
      "Ġtheir": 315,
      "ould": 316,
      "vern": 317,
      "Ġpeople": 318,
      "Ġac": 319,
      "Ġthem": 320,
      "Ġpl": 321,
      "ans": 322,
      "ag": 323,
      "ast": 324,
      "Ġgovern": 325,
      "Ġus": 326,
      "ong": 327,
      "ap": 328,
      "Ġen": 329,
      "hi": 330,
      "'s": 331,
      "are": 332,
      "Ġinc": 333,
      "Ġag": 334,
      "Ġam": 335,
      "Ġwhe": 336,
      "Ġhow": 337,
      "out": 338,
      "ric": 339,
      "Ġone": 340,
      "Ġres": 341,
      "ure": 342,
      "ress": 343,
      "pl": 344,
      "Ġgovernment": 345,
      "one": 346,
      "Ġfil": 347,
      "Ġhad": 348,
      "ok": 349,
      "Ġaf": 350,
      "amil": 351,
      "Ġint": 352,
      "ident": 353,
      "Ġpart": 354,
      "very": 355,
      "ore": 356,
      "ble": 357,
      "ear": 358,
      "ru": 359,
      "Ġminister": 360,
      "ide": 361,
      "Ġpr": 362,
      "Ġup": 363,
      "Ġhim": 364,
      "our": 365,
      "ik": 366,
      "av": 367,
      "Ġdis": 368,
      "pt": 369,
      "Ġrs": 370,
      "ase": 371,
      "ov": 372,
      "age": 373,
      "ire": 374,
      "oug": 375,
      "Ġnew": 376,
      "du": 377,
      "Ġout": 378,
      "Ġgod": 379,
      "ance": 380,
      "Ġfilm": 381,
      "Ġyour": 382,
      "Ġwork": 383,
      "Ġ-": 384,
      "Ġcont": 385,
      "Ġper": 386,
      "ary": 387,
      "ake": 388,
      "nder": 389,
      "Ġoff": 390,
      "ame": 391,
      "ine": 392,
      "..": 393,
      "Ġmy": 394,
      "Ġ3": 395,
      "Ġcomp": 396,
      "ions": 397,
      "Ġother": 398,
      "Ġour": 399,
      "ater": 400,
      "ical": 401,
      "ult": 402,
      "ations": 403,
      "Ġcomm": 404,
      "Ġits": 405,
      "ll": 406,
      "\"\"\"": 407,
      "now": 408,
      "Ġte": 409,
      "ose": 410,
      "Ġapp": 411,
      "Ġunder": 412,
      "Ġtw": 413,
      "Ġshe": 414,
      "Ġact": 415,
      "port": 416,
      "ich": 417,
      "Ġabout": 418,
      "Ġro": 419,
      "ays": 420,
      "ish": 421,
      "Ġje": 422,
      "ild": 423,
      "ind": 424,
      "Ġco": 425,
      "Ġinv": 426,
      "ren": 427,
      "au": 428,
      "Ġev": 429,
      "Ġreg": 430,
      "Ġsc": 431,
      "Ġ20": 432,
      "ue": 433,
      "Ġcl": 434,
      "vel": 435,
      "per": 436,
      "Ġpres": 437,
      "ath": 438,
      "ence": 439,
      "ia": 440,
      "ord": 441,
      "ound": 442,
      "ang": 443,
      "ber": 444,
      "Ġknow": 445,
      "Ġover": 446,
      "Ġtr": 447,
      "iz": 448,
      "ai": 449,
      "Ġacc": 450,
      "cial": 451,
      "Ġwhen": 452,
      "Ġser": 453,
      "ack": 454,
      "ial": 455,
      "ings": 456,
      "Ġstate": 457,
      "Ġmore": 458,
      "ank": 459,
      "ace": 460,
      "hed": 461,
      "Ġqu": 462,
      "ach": 463,
      "Ġany": 464,
      "ff": 465,
      "Ġtra": 466,
      "ck": 467,
      "Ġdid": 468,
      "Ġfir": 469,
      "Ġwhich": 470,
      "Ġtime": 471,
      "ass": 472,
      "Ġmar": 473,
      "ree": 474,
      "ep": 475,
      "Ġcro": 476,
      "ail": 477,
      "orm": 478,
      "low": 479,
      "ted": 480,
      "Ġjeh": 481,
      "ough": 482,
      "ovah": 483,
      "og": 484,
      "Ġtamil": 485,
      "Ġfe": 486,
      "able": 487,
      "Ġjehovah": 488,
      "Ġsome": 489,
      "Ġtwo": 490,
      "ition": 491,
      "Ġyear": 492,
      "Ġmany": 493,
      "ign": 494,
      "Ġthen": 495,
      "ife": 496,
      "Ġagain": 497,
      "Ġ5": 498,
      "Ġworld": 499,
      "Ġher": 500,
      "ike": 501,
      "Ġwould": 502,
      "Ġmod": 503,
      "ates": 504,
      "Ġcount": 505,
      "Ġpre": 506,
      "Ġspe": 507,
      "Ġ\"": 508,
      "Ġdist": 509,
      "ood": 510,
      "Ġafter": 511,
      "Ġfirst": 512,
      "Ġshould": 513,
      "Ġpo": 514,
      "ens": 515,
      "ational": 516,
      "Ġbec": 517,
      "Ġatt": 518,
      "ual": 519,
      "ple": 520,
      "Ġinto": 521,
      "Ġif": 522,
      "Ġthese": 523,
      "Ġrec": 524,
      "Ġbo": 525,
      "reat": 526,
      "ied": 527,
      ".\"": 528,
      "ctor": 529,
      "we": 530,
      "Ġsec": 531,
      "ont": 532,
      "Ġcent": 533,
      "Ġmad": 534,
      "ons": 535,
      "Ġ4": 536,
      "Ġcol": 537,
      "ious": 538,
      "Ġinvest": 539,
      "rit": 540,
      "ital": 541,
      "ond": 542,
      "ved": 543,
      "ness": 544,
      "Ġinf": 545,
      "ub": 546,
      "arm": 547,
      "ible": 548,
      "Ġevery": 549,
      "Ġchild": 550,
      "Ġindian": 551,
      "Ġpra": 552,
      "Ġrel": 553,
      "Ġlike": 554,
      "ise": 555,
      "Ġneed": 556,
      "lic": 557,
      "ile": 558,
      "ents": 559,
      "ever": 560,
      "Ġind": 561,
      "Ġdec": 562,
      "ram": 563,
      "ful": 564,
      "Ġele": 565,
      "ered": 566,
      "ip": 567,
      "Ġ'": 568,
      "Ġpers": 569,
      "ities": 570,
      "Ġtak": 571,
      "Ġbeing": 572,
      "Ġbet": 573,
      "Ġbl": 574,
      "ced": 575,
      "rest": 576,
      "Ġinter": 577,
      "Ġcour": 578,
      "Ġla": 579,
      "Ġexp": 580,
      "Ġthose": 581,
      "ces": 582,
      "Ġday": 583,
      "Ġthan": 584,
      "Ġadd": 585,
      "Ġagainst": 586,
      "ward": 587,
      "Ġsuch": 588,
      "Ġear": 589,
      "Ġonly": 590,
      "sel": 591,
      "Ġhapp": 592,
      "Ġstud": 593,
      "Ġjo": 594,
      "fe": 595,
      "les": 596,
      "vers": 597,
      "ating": 598,
      "Ġmat": 599,
      "Ġcong": 600,
      "Ġmed": 601,
      "me": 602,
      "Ġprime": 603,
      "te": 604,
      "ief": 605,
      "ian": 606,
      "Ġlead": 607,
      "Ġgr": 608,
      "Ġem": 609,
      "rict": 610,
      "uring": 611,
      "Ġ201": 612,
      "Ġ\"\"\"": 613,
      "Ġdire": 614,
      "Ġprov": 615,
      "old": 616,
      "Ġhig": 617,
      "act": 618,
      "iss": 619,
      "Ġ19": 620,
      "ory": 621,
      "Ġgood": 622,
      "Ġlife": 623,
      "Ġinvestig": 624,
      "Ġhowever": 625,
      "Ġhel": 626,
      "cc": 627,
      "oth": 628,
      "Ġcase": 629,
      "Ġrem": 630,
      "Ġwom": 631,
      "Ġjust": 632,
      "Ġbr": 633,
      "Ġsay": 634,
      "Ġform": 635,
      "Ġdel": 636,
      "Ġwhy": 637,
      "other": 638,
      "ject": 639,
      "Ġmade": 640,
      "ased": 641,
      "akh": 642,
      "ell": 643,
      "osp": 644,
      "Ġph": 645,
      "aj": 646,
      "the": 647,
      "arn": 648,
      "Ġhelp": 649,
      "ink": 650,
      "Ġche": 651,
      "ite": 652,
      "rent": 653,
      "Ġcons": 654,
      "Ġdistrict": 655,
      "Ġget": 656,
      "Ġdep": 657,
      "Ġ6": 658,
      "Ġvery": 659,
      "Ġthr": 660,
      "adu": 661,
      "wn": 662,
      "pe": 663,
      "Ġwell": 664,
      "cy": 665,
      "ally": 666,
      "Ġchr": 667,
      "Ġfamil": 668,
      "Ġmay": 669,
      "Ġcountry": 670,
      "hip": 671,
      "Ġprodu": 672,
      "velop": 673,
      "lud": 674,
      "Ġcor": 675,
      "Ġfol": 676,
      "Ġmodi": 677,
      "Ġsee": 678,
      "Ġdevelop": 679,
      "Ġresp": 680,
      "Ġpresident": 681,
      "fore": 682,
      "Ġfin": 683,
      "urn": 684,
      "Ġsupp": 685,
      "cted": 686,
      "Ġoffic": 687,
      "Ġcourt": 688,
      "Ġcar": 689,
      "Ġsub": 690,
      "Ġdont": 691,
      "Ġwater": 692,
      "Ġhosp": 693,
      "han": 694,
      "Ġdoes": 695,
      "Ġchrist": 696,
      "Ġhospital": 697,
      "Ġke": 698,
      "oc": 699,
      "Ġeven": 700,
      "Ġass": 701,
      "Ġserv": 702,
      "Ġlakh": 703,
      "ause": 704,
      "Ġduring": 705,
      "Ġgiv": 706,
      "Ġchief": 707,
      "Ġfollow": 708,
      "rib": 709,
      "alth": 710,
      "Ġcrore": 711,
      "20": 712,
      "way": 713,
      "Ġright": 714,
      "Ġbel": 715,
      "Ġraj": 716,
      "Ġdes": 717,
      "Ġben": 718,
      "mb": 719,
      "Ġnadu": 720,
      "Ġpow": 721,
      "Ġnum": 722,
      "Ġgu": 723,
      "...": 724,
      "Ġsch": 725,
      "ited": 726,
      "man": 727,
      "own": 728,
      "Ġinst": 729,
      "tain": 730,
      "led": 731,
      "Ġtake": 732,
      "ody": 733,
      "ween": 734,
      "ments": 735,
      "ool": 736,
      "ors": 737,
      "ket": 738,
      "Ġthrough": 739,
      "Ġbetween": 740,
      "ather": 741,
      "Ġcould": 742,
      "uth": 743,
      "ured": 744,
      "hing": 745,
      "Ġchildren": 746,
      "Ġtaken": 747,
      "get": 748,
      "Ġent": 749,
      "Ġhere": 750,
      "Ġdif": 751,
      "gan": 752,
      "day": 753,
      "Ġhigh": 754,
      "ha": 755,
      "Ġinclud": 756,
      "000": 757,
      "int": 758,
      "Ġmost": 759,
      "Ġeng": 760,
      "Ġreport": 761,
      "der": 762,
      "ount": 763,
      "Ġgen": 764,
      "Ġ7": 765,
      "ict": 766,
      "li": 767,
      "ures": 768,
      "Ġsing": 769,
      "Ġcome": 770,
      "Ġmeet": 771,
      "ked": 772,
      "Ġmu": 773,
      "esus": 774,
      "jp": 775,
      "Ġboth": 776,
      "Ġob": 777,
      "Ġed": 778,
      "Ġimp": 779,
      "ost": 780,
      "Ġpar": 781,
      "oy": 782,
      "Ġjesus": 783,
      "Ġlet": 784,
      "Ġfa": 785,
      "Ġ10": 786,
      "Ġsy": 787,
      "Ġhealth": 788,
      "ised": 789,
      "Ġsin": 790,
      "ands": 791,
      "oss": 792,
      "Ġsm": 793,
      "Ġsur": 794,
      "Ġmon": 795,
      "Ġfl": 796,
      "Ġconst": 797,
      "ution": 798,
      "ged": 799,
      "Ġdem": 800,
      "Ġset": 801,
      "Ġpolit": 802,
      "Ġbro": 803,
      "Ġpub": 804,
      "esh": 805,
      "Ġincident": 806,
      "Ġinj": 807,
      "Ġfamily": 808,
      "Ġnational": 809,
      "Ġyears": 810,
      "med": 811,
      "Ġbjp": 812,
      "Ġschool": 813,
      "Ġvi": 814,
      "ral": 815,
      "uc": 816,
      "Ġmake": 817,
      "ash": 818,
      "ving": 819,
      ".\"\"\"": 820,
      "Ġann": 821,
      "Ġway": 822,
      "Ġcall": 823,
      "Ġperson": 824,
      "Ġarrest": 825,
      "Ġwhere": 826,
      "ves": 827,
      "eral": 828,
      "Ġprog": 829,
      "Ġpri": 830,
      "Ġ8": 831,
      "Ġbu": 832,
      "Ġprot": 833,
      "ks": 834,
      "ific": 835,
      "Ġcongress": 836,
      "vie": 837,
      "xt": 838,
      "Ġ\"\"": 839,
      "its": 840,
      "Ġparty": 841,
      "Ġwant": 842,
      "ected": 843,
      "Ġopp": 844,
      "Ġtrans": 845,
      "ib": 846,
      "ared": 847,
      "Ġthree": 848,
      "ange": 849,
      "Ġbible": 850,
      "aug": 851,
      "con": 852,
      "Ġref": 853,
      "Ġiss": 854,
      "),": 855,
      "ural": 856,
      "Ġback": 857,
      "ision": 858,
      "Ġaff": 859,
      "ative": 860,
      "Ġter": 861,
      "Ġinform": 862,
      "ph": 863,
      "hes": 864,
      "'t": 865,
      "Ġstudents": 866,
      "ft": 867,
      "Ġtal": 868,
      "Ġcontin": 869,
      "Ġfur": 870,
      "ef": 871,
      "ided": 872,
      "ives": 873,
      "Ġav": 874,
      "Ġnumber": 875,
      "Ġrep": 876,
      "up": 877,
      "ug": 878,
      "ought": 879,
      "har": 880,
      "Ġeff": 881,
      "cept": 882,
      "read": 883,
      "Ġread": 884,
      "Ġstart": 885,
      "als": 886,
      "ning": 887,
      "Ġhum": 888,
      "ss": 889,
      "ission": 890,
      "und": 891,
      "Ġexam": 892,
      "ting": 893,
      "Ġmust": 894,
      "Ġwomen": 895,
      "Ġdet": 896,
      "Ġcap": 897,
      "ctions": 898,
      "blem": 899,
      "olog": 900,
      "Ġend": 901,
      "Ġincre": 902,
      "Ġfurther": 903,
      "Ġbefore": 904,
      "Ġvar": 905,
      "Ġgiven": 906,
      "Ġcur": 907,
      "Ġquest": 908,
      "Ġbus": 909,
      "Ġlook": 910,
      "Ġproblem": 911,
      "Ġkill": 912,
      "Ġplay": 913,
      "ya": 914,
      "Ġsocial": 915,
      "Ġdeath": 916,
      "Ġarrested": 917,
      "Ġlove": 918,
      "Ġhappen": 919,
      "Ġlater": 920,
      "Ġnow": 921,
      "Ġhome": 922,
      "ten": 923,
      "Ġpresent": 924,
      "Ġwhile": 925,
      "ism": 926,
      "Ġdelhi": 927,
      "ne": 928,
      "Ġimport": 929,
      "Ġlast": 930,
      "ouse": 931,
      "Ġdevelopment": 932,
      "Ġconf": 933,
      "ility": 934,
      "ular": 935,
      "Ġgoing": 936,
      "Ġadm": 937,
      "Ġsou": 938,
      "cer": 939,
      "Ġtoo": 940,
      "ics": 941,
      "Ġ15": 942,
      "Ġamong": 943,
      "used": 944,
      "Ġgreat": 945,
      "row": 946,
      "Ġdown": 947,
      "ians": 948,
      "Ġpower": 949,
      "Ġword": 950,
      "istan": 951,
      "Ġ[": 952,
      "Ġbecause": 953,
      "Ġcolle": 954,
      "ries": 955,
      "rong": 956,
      "Ġfarm": 957,
      "Ġshall": 958,
      "Ġallah": 959,
      "Ġsupport": 960,
      "Ġlong": 961,
      "imes": 962,
      "self": 963,
      "Ġstates": 964,
      "Ġpartic": 965,
      "Ġearth": 966,
      "Ġyet": 967,
      "cess": 968,
      "air": 969,
      "Ġmus": 970,
      "Ġintern": 971,
      "ndra": 972,
      "ock": 973,
      "Ġlaw": 974,
      "Ġpublic": 975,
      "Ġregard": 976,
      "Ġrele": 977,
      "Ġking": 978,
      "Ġdisc": 979,
      "ave": 980,
      "Ġest": 981,
      "ins": 982,
      "Ġtest": 983,
      "Ġson": 984,
      "Ġap": 985,
      "plain": 986,
      "Ġothers": 987,
      "Ġ9": 988,
      "Ġdiffe": 989,
      "Ġplace": 990,
      "Ġgods": 991,
      "Ġshow": 992,
      "Ġsche": 993,
      "Ġgl": 994,
      "ried": 995,
      "nn": 996,
      "Ġsol": 997,
      "Ġcr": 998,
      "itu": 999,
      "ars": 1000,
      "arent": 1001,
      "itness": 1002,
      "Ġins": 1003,
      "Ġnare": 1004,
      "Ġfore": 1005,
      "ret": 1006,
      "Ġsame": 1007,
      "Ġwrit": 1008,
      "Ġop": 1009,
      "Ġtru": 1010,
      "Ġnarendra": 1011,
      "osed": 1012,
      "Ġlord": 1013,
      "conom": 1014,
      "Ġpass": 1015,
      "Ġrece": 1016,
      "Ġsal": 1017,
      "Ġappro": 1018,
      "Ġve": 1019,
      "Ġmet": 1020,
      "ently": 1021,
      "ages": 1022,
      "aking": 1023,
      "ants": 1024,
      "Ġspir": 1025,
      "Ġthats": 1026,
      "rol": 1027,
      "Ġbelie": 1028,
      "ized": 1029,
      "ax": 1030,
      "Ġanother": 1031,
      "Ġinte": 1032,
      "Ġpost": 1033,
      "Ġcle": 1034,
      "Ġlar": 1035,
      "Ġloc": 1036,
      "Ġhouse": 1037,
      "Ġwitness": 1038,
      "Ġfound": 1039,
      "Ġprom": 1040,
      "Ġpa": 1041,
      "Ġair": 1042,
      "Ġvis": 1043,
      "ived": 1044,
      "thing": 1045,
      "Ġbook": 1046,
      "Ġret": 1047,
      "ivers": 1048,
      "Ġart": 1049,
      "Ġeach": 1050,
      "Ġeconom": 1051,
      "Ġthings": 1052,
      "Ġ12": 1053,
      "Ġregist": 1054,
      "Ġcre": 1055,
      "Ġsim": 1056,
      "amp": 1057,
      "Ġdef": 1058,
      "Ġcomple": 1059,
      "Ġnever": 1060,
      "Ġdr": 1061,
      "uss": 1062,
      "Ġtem": 1063,
      "Ġmuch": 1064,
      "ute": 1065,
      "Ġext": 1066,
      "Ġinjured": 1067,
      "Ġspirit": 1068,
      "Ġfac": 1069,
      "Ġjehovahs": 1070,
      "Ġeduc": 1071,
      "oun": 1072,
      "Ġful": 1073,
      "riend": 1074,
      "Ġtoday": 1075,
      "Ġheav": 1076,
      "ines": 1077,
      "ys": 1078,
      "Ġocc": 1079,
      "Ġresult": 1080,
      "nnai": 1081,
      "Ġdepart": 1082,
      "eng": 1083,
      "Ġmatter": 1084,
      "Ġnor": 1085,
      "Ġorgan": 1086,
      "Ġbank": 1087,
      "Ġfather": 1088,
      "Ġpet": 1089,
      "Ġchennai": 1090,
      "Ġsever": 1091,
      "Ġsays": 1092,
      "ob": 1093,
      "Ġown": 1094,
      "ann": 1095,
      "ists": 1096,
      "Ġthink": 1097,
      "Ġdev": 1098,
      "ention": 1099,
      "Ġbenef": 1100,
      "Ġofficial": 1101,
      "ven": 1102,
      "Ġseveral": 1103,
      "ices": 1104,
      "Ġpak": 1105,
      "Ġfar": 1106,
      "ats": 1107,
      "Ġmil": 1108,
      "ined": 1109,
      "Ġwar": 1110,
      "ty": 1111,
      "ues": 1112,
      "Ġfriend": 1113,
      "ately": 1114,
      "Ġname": 1115,
      "Ġparent": 1116,
      "Ġministry": 1117,
      "ering": 1118,
      "iness": 1119,
      "Ġmonth": 1120,
      "Ġreas": 1121,
      "Ġsw": 1122,
      "ended": 1123,
      "Ġhead": 1124,
      "Ġsign": 1125,
      "ued": 1126,
      "stem": 1127,
      "Ġcond": 1128,
      "Ġshri": 1129,
      "Ġhand": 1130,
      "Ġroad": 1131,
      "ploy": 1132,
      "Ġprogram": 1133,
      "Ġchar": 1134,
      ").": 1135,
      "Ġspecial": 1136,
      "Ġce": 1137,
      "Ġgre": 1138,
      "Ġunion": 1139,
      "itted": 1140,
      "Ġaction": 1141,
      "Ġz": 1142,
      "ick": 1143,
      "ished": 1144,
      "Ġdone": 1145,
      "Ġpakistan": 1146,
      "Ġrequ": 1147,
      "lf": 1148,
      "Ġdied": 1149,
      "Ġsince": 1150,
      "Ġsoon": 1151,
      "arch": 1152,
      "ases": 1153,
      "Ġused": 1154,
      "Ġpur": 1155,
      "Ġvir": 1156,
      "Ġsent": 1157,
      "Ġuse": 1158,
      "Ġproject": 1159,
      "Ġmah": 1160,
      "Ġmen": 1161,
      "Ġdirector": 1162,
      "Ġfour": 1163,
      "Ġimportant": 1164,
      "Ġtook": 1165,
      "ati": 1166,
      "Ġteam": 1167,
      "Ġadv": 1168,
      "Ġmain": 1169,
      "Ġ200": 1170,
      "ix": 1171,
      "umar": 1172,
      "Ġfollowing": 1173,
      "ts": 1174,
      "Ġheart": 1175,
      "Ġsystem": 1176,
      "ng": 1177,
      "Ġfood": 1178,
      "not": 1179,
      "Ġpm": 1180,
      "Ġgive": 1181,
      "Ġmeeting": 1182,
      "Ġdays": 1183,
      "ides": 1184,
      "uk": 1185,
      "ection": 1186,
      "Ġfire": 1187,
      "Ġdifferent": 1188,
      "Ġstill": 1189,
      "chn": 1190,
      "omet": 1191,
      "Ġcurrent": 1192,
      "att": 1193,
      "Ġfr": 1194,
      "Ġ11": 1195,
      "Ġmovie": 1196,
      "Ġrun": 1197,
      "oot": 1198,
      "Ġmal": 1199,
      "Ġlit": 1200,
      "ove": 1201,
      "form": 1202,
      "Ġpan": 1203,
      "Ġformer": 1204,
      "Ġinvestigation": 1205,
      "Ġnext": 1206,
      "Ġcer": 1207,
      "Ġbody": 1208,
      "Ġel": 1209,
      "Ġbest": 1210,
      "dom": 1211,
      "Ġsingh": 1212,
      "Ġfaith": 1213,
      "ety": 1214,
      "Ġcost": 1215,
      "Ġkeep": 1216,
      "Ġdue": 1217,
      "Ġpolitical": 1218,
      "Ġgand": 1219,
      "Ġdon": 1220,
      "az": 1221,
      "ata": 1222,
      "ways": 1223,
      "Ġcity": 1224,
      "Ġsecond": 1225,
      "Ġtimes": 1226,
      "Ġca": 1227,
      "Ġkilled": 1228,
      "Ġparents": 1229,
      "Ġnews": 1230,
      "Ġjud": 1231,
      "Ġwon": 1232,
      "Ġreal": 1233,
      "Ġasked": 1234,
      "Ġland": 1235,
      "gal": 1236,
      "Ġaccord": 1237,
      "Ġopen": 1238,
      "Ġincluding": 1239,
      "stand": 1240,
      "Ġindust": 1241,
      "jay": 1242,
      "Ġfarmers": 1243,
      "Ġmother": 1244,
      "Ġprop": 1245,
      "ining": 1246,
      "Ġaway": 1247,
      "Ġtechn": 1248,
      "Ġ&": 1249,
      "cent": 1250,
      "Ġfew": 1251,
      "oup": 1252,
      "Ġmaj": 1253,
      "Ġvill": 1254,
      "Ġattack": 1255,
      "Ġcommun": 1256,
      "Ġparticip": 1257,
      "Ġdepartment": 1258,
      "Ġlaun": 1259,
      "Ġinternational": 1260,
      "Ġannoun": 1261,
      "ina": 1262,
      "Ġcalled": 1263,
      "Ġmill": 1264,
      "Ġquestion": 1265,
      "Ġbrother": 1266,
      "bs": 1267,
      "Ġgandhi": 1268,
      "Ġhuman": 1269,
      "Ġpop": 1270,
      "Ġcame": 1271,
      "udi": 1272,
      "Ġvarious": 1273,
      "Ġtot": 1274,
      "Ġarea": 1275,
      "Ġcare": 1276,
      "ually": 1277,
      "atch": 1278,
      "Ġput": 1279,
      "Ġexper": 1280,
      "Ġwin": 1281,
      "Ġstand": 1282,
      "ched": 1283,
      "Ġgroup": 1284,
      "Ġsk": 1285,
      "Ġmedia": 1286,
      "Ġbecome": 1287,
      "Ġbuild": 1288,
      "ana": 1289,
      "Ġtrue": 1290,
      "king": 1291,
      "Ġsecret": 1292,
      "Ġsitu": 1293,
      "Ġregistered": 1294,
      "Ġposs": 1295,
      "Ġinformation": 1296,
      "oney": 1297,
      "eric": 1298,
      "Ġval": 1299,
      "Ġsen": 1300,
      "de": 1301,
      "ration": 1302,
      "Ġsl": 1303,
      "Ġinvestigating": 1304,
      "urity": 1305,
      "Ġlist": 1306,
      "Ġcentral": 1307,
      "Ġ14": 1308,
      "Ġgrow": 1309,
      "Ġcannot": 1310,
      "ls": 1311,
      "Ġsri": 1312,
      "Ġmajor": 1313,
      "Ġeducation": 1314,
      "medi": 1315,
      "Ġdi": 1316,
      "Ġbig": 1317,
      "Ġyoung": 1318,
      "Ġnothing": 1319,
      "umb": 1320,
      "Ġprev": 1321,
      "ament": 1322,
      "Ġscheme": 1323,
      "eration": 1324,
      "iving": 1325,
      "Ġturn": 1326,
      "Ġgra": 1327,
      "wards": 1328,
      "Ġmot": 1329,
      "Ġgot": 1330,
      "Ġsucc": 1331,
      "Ġmemb": 1332,
      "Ġorder": 1333,
      "Ġsouth": 1334,
      "Ġnear": 1335,
      "angu": 1336,
      "Ġinterest": 1337,
      "Ġsci": 1338,
      "Ġvide": 1339,
      "Ġgir": 1340,
      "Ġans": 1341,
      "Ġmembers": 1342,
      "orts": 1343,
      "Ġfilms": 1344,
      "ross": 1345,
      "land": 1346,
      "Ġ18": 1347,
      "ired": 1348,
      "Ġimmedi": 1349,
      "ala": 1350,
      "Ġprad": 1351,
      "Ġhist": 1352,
      "Ġram": 1353,
      "ified": 1354,
      "Ġwife": 1355,
      "Ġfeel": 1356,
      "gy": 1357,
      "osition": 1358,
      "Ġrelig": 1359,
      "Ġfun": 1360,
      "reme": 1361,
      "Ġsecurity": 1362,
      "Ġcondu": 1363,
      "Ġremain": 1364,
      "Ġtruth": 1365,
      "ency": 1366,
      "Ġconn": 1367,
      "Ġaccording": 1368,
      "Ġaround": 1369,
      "rat": 1370,
      "gest": 1371,
      "Ġlot": 1372,
      "cl": 1373,
      "Ġtel": 1374,
      "ship": 1375,
      "Ġsomet": 1376,
      "Ġlearn": 1377,
      "Ġspot": 1378,
      "Ġprotest": 1379,
      "Ġcountries": 1380,
      "Ġbas": 1381,
      "ology": 1382,
      "Ġclass": 1383,
      "Ġfind": 1384,
      "Ġ13": 1385,
      "Ġsuff": 1386,
      "Ġmem": 1387,
      "Ġsuccess": 1388,
      "ror": 1389,
      "Ġcomplain": 1390,
      "Ġlangu": 1391,
      "Ġold": 1392,
      "ote": 1393,
      "Ġlevel": 1394,
      "Ġthir": 1395,
      "Ġwithout": 1396,
      "Ġcompan": 1397,
      "ield": 1398,
      "na": 1399,
      "Ġplan": 1400,
      "Ġallow": 1401,
      "Ġcommit": 1402,
      "Ġworking": 1403,
      "Ġvie": 1404,
      "Ġunderstand": 1405,
      "Ġpersons": 1406,
      "Ġtreat": 1407,
      "Ġview": 1408,
      "Ġinstit": 1409,
      "ination": 1410,
      "Ġface": 1411,
      "Ġemploy": 1412,
      "Ġcoun": 1413,
      "Ġ25": 1414,
      "ek": 1415,
      "Ġir": 1416,
      "Ġstarted": 1417,
      "Ġwitnesses": 1418,
      "Ġmarket": 1419,
      "Ġoper": 1420,
      "Ġtotal": 1421,
      "ying": 1422,
      "Ġmoney": 1423,
      "ned": 1424,
      "Ġdiv": 1425,
      "Ġrest": 1426,
      "Ġsan": 1427,
      "Ġauth": 1428,
      "Ġchange": 1429,
      "tern": 1430,
      "ior": 1431,
      "Ġreason": 1432,
      "Ġheld": 1433,
      "less": 1434,
      "Ġvijay": 1435,
      "aim": 1436,
      "ges": 1437,
      "Ġunivers": 1438,
      "Ġavail": 1439,
      "19": 1440,
      "lish": 1441,
      "ature": 1442,
      "ality": 1443,
      "Ġ50": 1444,
      "Ġlive": 1445,
      "Ġcrores": 1446,
      "Ġwest": 1447,
      "Ġtre": 1448,
      "Ġpriv": 1449,
      "Ġengine": 1450,
      "selves": 1451,
      "Ġbeg": 1452,
      "ples": 1453,
      "Ġlarge": 1454,
      "Ġreturn": 1455,
      "semb": 1456,
      "Ġaccept": 1457,
      "Ġleaders": 1458,
      "Ġactor": 1459,
      "Ġple": 1460,
      "ulture": 1461,
      "Ġequ": 1462,
      "bo": 1463,
      "Ġevent": 1464,
      "Ġmedical": 1465,
      "Ġleft": 1466,
      "Ġhin": 1467,
      "ily": 1468,
      "com": 1469,
      "Ġchang": 1470,
      "Ġhon": 1471,
      "Ġacross": 1472,
      "Ġdoing": 1473,
      "Ġhy": 1474,
      "rael": 1475,
      "Ġ16": 1476,
      "Ġmess": 1477,
      "Ġur": 1478,
      "Ġbeh": 1479,
      "Ġsab": 1480,
      "Ġknown": 1481,
      "wh": 1482,
      "Ġservice": 1483,
      "ani": 1484,
      "Ġrole": 1485,
      "Ġarm": 1486,
      "Ġwent": 1487,
      "Ġpradesh": 1488,
      "ern": 1489,
      "ruct": 1490,
      "Ġisrael": 1491,
      "Ġtold": 1492,
      "Ġeas": 1493,
      "ready": 1494,
      "Ġworks": 1495,
      "iver": 1496,
      "Ġaccount": 1497,
      "Ġassemb": 1498,
      "Ġupon": 1499,
      "Ġauthor": 1500,
      "Ġdri": 1501,
      "Ġgeneral": 1502,
      "Ġsmall": 1503,
      "Ġchristian": 1504,
      "Ġsituation": 1505,
      "Ġpun": 1506,
      "Ġimple": 1507,
      "Ġlank": 1508,
      "Ġareas": 1509,
      "ush": 1510,
      "Ġmusic": 1511,
      "Ġalready": 1512,
      "Ġvideo": 1513,
      "Ġsat": 1514,
      "Ġalong": 1515,
      "Ġpeace": 1516,
      "Ġexample": 1517,
      "Ġunt": 1518,
      "pr": 1519,
      "Ġaw": 1520,
      ",\"\"": 1521,
      "Ġassist": 1522,
      "Ġexpress": 1523,
      "Ġpress": 1524,
      "Ġreceived": 1525,
      "Ġkingdom": 1526,
      "rying": 1527,
      "Ġelection": 1528,
      "br": 1529,
      "aring": 1530,
      "Ġfear": 1531,
      "ium": 1532,
      "Ġimplement": 1533,
      "Ġelect": 1534,
      "Ġcommission": 1535,
      "Ġsoci": 1536,
      "Ġ17": 1537,
      "Ġbre": 1538,
      "Ġstren": 1539,
      "Ġpay": 1540,
      "Ġkumar": 1541,
      "Ġdetail": 1542,
      "Ġmean": 1543,
      "orn": 1544,
      "Ġdecl": 1545,
      "tle": 1546,
      "reg": 1547,
      "Ġtell": 1548,
      "icle": 1549,
      "Ġdra": 1550,
      "ling": 1551,
      "Ġissue": 1552,
      "Ġthank": 1553,
      "Ġstreng": 1554,
      "Ġwoman": 1555,
      "Ġpray": 1556,
      "Ġfight": 1557,
      "Ġunited": 1558,
      "ke": 1559,
      "Ġes": 1560,
      "ruction": 1561,
      "body": 1562,
      "Ġbusiness": 1563,
      "Ġpaul": 1564,
      "Ġ100": 1565,
      "por": 1566,
      "Ġdirected": 1567,
      "Ġbelieve": 1568,
      "Ġprof": 1569,
      "Ġimmediately": 1570,
      "Ġeveryone": 1571,
      "Ġrul": 1572,
      "ctors": 1573,
      "Ġansw": 1574,
      "Ġcontrol": 1575,
      "Ġconcer": 1576,
      "Ġpoint": 1577,
      "ope": 1578,
      "Ġreleased": 1579,
      "Ġmight": 1580,
      "Ġcurrently": 1581,
      "Ġameric": 1582,
      "ump": 1583,
      "Ġtoget": 1584,
      "Ġtogether": 1585,
      "Ġaut": 1586,
      "ortun": 1587,
      "Ġaccident": 1588,
      "Ġclear": 1589,
      "Ġdaug": 1590,
      "inist": 1591,
      "Ġspeak": 1592,
      "amm": 1593,
      "rence": 1594,
      "Ġdiscuss": 1595,
      "Ġmind": 1596,
      "hter": 1597,
      "Ġassembly": 1598,
      "ner": 1599,
      "Ġactiv": 1600,
      "Ġwrong": 1601,
      "Ġmove": 1602,
      "aw": 1603,
      "Ġrespons": 1604,
      "Ġbir": 1605,
      "Ġrese": 1606,
      "gr": 1607,
      "Ġexperi": 1608,
      "Ġbh": 1609,
      "ulation": 1610,
      "Ġconsid": 1611,
      "Ġfund": 1612,
      "Ġstop": 1613,
      "Ġpercent": 1614,
      "Ġrespect": 1615,
      "Ġprin": 1616,
      "Ġreported": 1617,
      "Ġ/": 1618,
      "Ġhappy": 1619,
      "Ġeffect": 1620,
      "ising": 1621,
      "Ġbased": 1622,
      "Ġagric": 1623,
      "Ġvisit": 1624,
      "Ġ30": 1625,
      "Ġfinan": 1626,
      "Ġdecision": 1627,
      "Ġanything": 1628,
      "Ġcamp": 1629,
      "Ġdest": 1630,
      "Ġinit": 1631,
      "Ġnorth": 1632,
      "Ġhard": 1633,
      "Ġregion": 1634,
      "Ġrail": 1635,
      "ury": 1636,
      "ames": 1637,
      "Ġhus": 1638,
      "Ġelections": 1639,
      "Ġrah": 1640,
      "Ġfree": 1641,
      "Ġrain": 1642,
      "Ġyouth": 1643,
      "Ġprovided": 1644,
      "cing": 1645,
      "uv": 1646,
      "ger": 1647,
      "Ġaddition": 1648,
      "go": 1649,
      "Ġtax": 1650,
      "Ġdead": 1651,
      "Ġbring": 1652,
      "Ġfriends": 1653,
      "Ġsup": 1654,
      "eal": 1655,
      "Ġey": 1656,
      "Ġservices": 1657,
      "mes": 1658,
      "Ġoil": 1659,
      "Ġcertain": 1660,
      "Ġstrong": 1661,
      "af": 1662,
      "Ġinde": 1663,
      "Ġever": 1664,
      "Ġeconomic": 1665,
      "Ġden": 1666,
      "Ġleg": 1667,
      "que": 1668,
      "Ġhappened": 1669,
      "Ġfive": 1670,
      "aka": 1671,
      "anth": 1672,
      "men": 1673,
      "Ġproblems": 1674,
      "Ġhar": 1675,
      "Ġsure": 1676,
      "ugu": 1677,
      "Ġperi": 1678,
      "Ġviol": 1679,
      "Ġkind": 1680,
      "Ġimpro": 1681,
      "Ġbill": 1682,
      "Ġprocess": 1683,
      "Ġglob": 1684,
      "oh": 1685,
      "Ġestab": 1686,
      "ale": 1687,
      "201": 1688,
      "pect": 1689,
      "Ġut": 1690,
      "ara": 1691,
      "Ġchina": 1692,
      "ize": 1693,
      "Ġtemple": 1694,
      "ma": 1695,
      "Ġinvol": 1696,
      "Ġthing": 1697,
      "ember": 1698,
      "Ġthous": 1699,
      "Ġthought": 1700,
      "Ġer": 1701,
      "Ġsum": 1702,
      "uro": 1703,
      "uty": 1704,
      "Ġcomplaint": 1705,
      "Ġseen": 1706,
      "app": 1707,
      "mk": 1708,
      "Ġtelugu": 1709,
      "Ġcand": 1710,
      "Ġoffice": 1711,
      "inted": 1712,
      "itions": 1713,
      "acher": 1714,
      "Ġblood": 1715,
      "rug": 1716,
      "Ġdidnt": 1717,
      "Ġlab": 1718,
      "Ġwords": 1719,
      "Ġfut": 1720,
      "Ġlives": 1721,
      "bi": 1722,
      "Ġworkers": 1723,
      "Ġaddress": 1724,
      "Ġhusb": 1725,
      "Ġadminist": 1726,
      "Ġmur": 1727,
      "ript": 1728,
      "Ġdam": 1729,
      "Ġru": 1730,
      "Ġmilit": 1731,
      "ences": 1732,
      "Ġalways": 1733,
      "Ġuniversity": 1734,
      "ically": 1735,
      "Ġspok": 1736,
      "ns": 1737,
      "asion": 1738,
      "Ġrelations": 1739,
      "fic": 1740,
      "sequ": 1741,
      "Ġthough": 1742,
      "ises": 1743,
      "Ġones": 1744,
      "Ġmaking": 1745,
      "Ġfull": 1746,
      "Ġavailable": 1747,
      "Ġthus": 1748,
      "ither": 1749,
      "Ġsuper": 1750,
      "50": 1751,
      "aching": 1752,
      "Ġtreatment": 1753,
      "Ġaust": 1754,
      "view": 1755,
      "Ġplac": 1756,
      "ee": 1757,
      "Ġcontinue": 1758,
      "ached": 1759,
      "Ġveh": 1760,
      "idence": 1761,
      "ark": 1762,
      "Ġsupreme": 1763,
      "Ġpast": 1764,
      "Ġopportun": 1765,
      "Ġtraining": 1766,
      "Ġtri": 1767,
      "uge": 1768,
      "Ġrecord": 1769,
      "Ġcandid": 1770,
      "vi": 1771,
      "Ġled": 1772,
      "Ġofficials": 1773,
      "Ġcit": 1774,
      "Ġneeds": 1775,
      "Ġsecretary": 1776,
      "ricket": 1777,
      "reed": 1778,
      "Ġprep": 1779,
      "Ġlow": 1780,
      "Ġmillion": 1781,
      "Ġfinancial": 1782,
      "ait": 1783,
      "Ġenc": 1784,
      "Ġlost": 1785,
      "Ġaward": 1786,
      "ura": 1787,
      "Ġcricket": 1788,
      "Ġsabha": 1789,
      "Ġperiod": 1790,
      "Ġbud": 1791,
      "ayal": 1792,
      "ms": 1793,
      "Ġperform": 1794,
      "Ġfuture": 1795,
      "Ġhol": 1796,
      "erala": 1797,
      "Ġkarn": 1798,
      "Ġprovide": 1799,
      "Ġfail": 1800,
      "Ġcollege": 1801,
      "Ġbetter": 1802,
      "Ġwatch": 1803,
      "ici": 1804,
      "Ġbi": 1805,
      "Ġincrease": 1806,
      "Ġstep": 1807,
      "Ġbecame": 1808,
      "Ġtop": 1809,
      "Ġmeas": 1810,
      "soci": 1811,
      "uted": 1812,
      "Ġvict": 1813,
      "Ġmor": 1814,
      "els": 1815,
      "Ġkerala": 1816,
      "Ġlight": 1817,
      ".'": 1818,
      "Ġleader": 1819,
      "Ġlim": 1820,
      "Ġcause": 1821,
      "Ġcoop": 1822,
      "umbai": 1823,
      "Ġexpected": 1824,
      "Ġpolic": 1825,
      "ending": 1826,
      "Ġannounced": 1827,
      "Ġtrib": 1828,
      "Ġbab": 1829,
      "Ġfield": 1830,
      "Ġmeans": 1831,
      "Ġliving": 1832,
      "ushed": 1833,
      "Ġchristians": 1834,
      "Ġfunction": 1835,
      "Ġshort": 1836,
      "Ġcele": 1837,
      "Ġclaim": 1838,
      "Ġ.": 1839,
      "Ġterror": 1840,
      "Ġage": 1841,
      "Ġcal": 1842,
      "Ġstudy": 1843,
      "Ġfel": 1844,
      "Ġsomething": 1845,
      "Ġjob": 1846,
      "ari": 1847,
      "Ġdeep": 1848,
      "Ġoften": 1849,
      "Ġach": 1850,
      "vid": 1851,
      "Ġparli": 1852,
      "Ġassoci": 1853,
      "Ġtour": 1854,
      "aged": 1855,
      "Ġbad": 1856,
      "Ġhost": 1857,
      "ashm": 1858,
      "to": 1859,
      "ataka": 1860,
      "Ġpain": 1861,
      "ets": 1862,
      "Ġmer": 1863,
      "ims": 1864,
      "Ġmumbai": 1865,
      "Ġhold": 1866,
      "Ġchall": 1867,
      "Ġsam": 1868,
      "Ġclose": 1869,
      "Ġless": 1870,
      "Ġboard": 1871,
      "Ġparliament": 1872,
      "Ġwarn": 1873,
      "akes": 1874,
      "Ġcommitte": 1875,
      "Ġstory": 1876,
      "Ġadded": 1877,
      "Ġsaying": 1878,
      "Ġver": 1879,
      "Ġdemoc": 1880,
      "Ġvillage": 1881,
      "uck": 1882,
      "Ġ24": 1883,
      "ilar": 1884,
      "of": 1885,
      "Ġproper": 1886,
      "Ġhusband": 1887,
      "Ġmag": 1888,
      "Ġfact": 1889,
      "Ġdise": 1890,
      "Ġaustral": 1891,
      "Ġkarnataka": 1892,
      "cies": 1893,
      "ork": 1894,
      "Ġcrit": 1895,
      "Ġdeb": 1896,
      "Ġens": 1897,
      "Ġhistory": 1898,
      "lished": 1899,
      "Ġredu": 1900,
      "Ġresearch": 1901,
      "Ġcases": 1902,
      "Ġpric": 1903,
      "Ġoccasion": 1904,
      "Ġcab": 1905,
      "be": 1906,
      "ashmir": 1907,
      "Ġtaking": 1908,
      "ada": 1909,
      "Ġfans": 1910,
      "Ġteacher": 1911,
      "Ġant": 1912,
      "Ġill": 1913,
      "Ġdou": 1914,
      "ilities": 1915,
      "Ġtechnology": 1916,
      "Ġcongreg": 1917,
      "ances": 1918,
      "Ġeverything": 1919,
      "Ġwithin": 1920,
      "Ġgave": 1921,
      "Ġtherefore": 1922,
      "Ġanswer": 1923,
      "ches": 1924,
      "ones": 1925,
      "Ġred": 1926,
      "Ġkashmir": 1927,
      "oura": 1928,
      "Ġnation": 1929,
      "Ġps": 1930,
      "Ġ22": 1931,
      "ledge": 1932,
      "Ġprogramme": 1933,
      "erv": 1934,
      "Ġprivate": 1935,
      "ization": 1936,
      "Ġreally": 1937,
      "ps": 1938,
      "Ġpict": 1939,
      "Ġhaving": 1940,
      "aras": 1941,
      "Ġindeed": 1942,
      "Ġinformed": 1943,
      "aram": 1944,
      "Ġwhats": 1945,
      "Ġpossible": 1946,
      "ony": 1947,
      "Ġsimilar": 1948,
      "ointed": 1949,
      "Ġprogress": 1950,
      "Ġgold": 1951,
      "Ġcitiz": 1952,
      "Ġhope": 1953,
      "wal": 1954,
      "Ġfall": 1955,
      "ibility": 1956,
      "Ġlocal": 1957,
      "oid": 1958,
      "Ġlaunched": 1959,
      "Ġty": 1960,
      "Ġeuro": 1961,
      "Ġsug": 1962,
      "Ġattended": 1963,
      "Ġmanage": 1964,
      "ped": 1965,
      "Ġdies": 1966,
      "airs": 1967,
      "inal": 1968,
      "asing": 1969,
      "Ġdetails": 1970,
      "Ġnight": 1971,
      "Ġ21": 1972,
      "Ġdistricts": 1973,
      "Ġcommon": 1974,
      "Ġself": 1975,
      "Ġrahul": 1976,
      "Ġbuilding": 1977,
      "Ġdemand": 1978,
      "Ġcoron": 1979,
      "Ġgirl": 1980,
      "idd": 1981,
      "inet": 1982,
      "Ġprice": 1983,
      "utions": 1984,
      "Ġhimself": 1985,
      "Ġsele": 1986,
      "whe": 1987,
      "Ġrev": 1988,
      "Ġdaughter": 1989,
      "Ġcov": 1990,
      "Ġachie": 1991,
      "Ġrecently": 1992,
      "bh": 1993,
      "Ġask": 1994,
      "oses": 1995,
      "Ġ199": 1996,
      "Ġwhom": 1997,
      "Ġident": 1998,
      "Ġcoming": 1999,
      "Ġpract": 2000,
      "Ġphot": 2001,
      "Ġsociety": 2002,
      "Ġweek": 2003,
      "Ġord": 2004,
      "Ġschools": 2005,
      "Ġlittle": 2006,
      "Ġbengal": 2007,
      "Ġjustice": 2008,
      "Ġbrought": 2009,
      "amed": 2010,
      "ergy": 2011,
      "Ġquestions": 2012,
      "Ġhous": 2013,
      "Ġlok": 2014,
      "rote": 2015,
      "Ġconv": 2016,
      "Ġlanguage": 2017,
      "Ġbra": 2018,
      "Ġable": 2019,
      "Ġsector": 2020,
      "ession": 2021,
      "Ġcommittee": 2022,
      "Ġapplic": 2023,
      "Ġseries": 2024,
      "Ġenter": 2025,
      "Ġparties": 2026,
      "eds": 2027,
      "ification": 2028,
      "ultural": 2029,
      "Ġdiffic": 2030,
      "ours": 2031,
      "Ġdifficult": 2032,
      "ential": 2033,
      "Ġreve": 2034,
      "Ġcentre": 2035,
      "Ġwrote": 2036,
      "aries": 2037,
      "ison": 2038,
      "Ġwic": 2039,
      "Ġtalk": 2040,
      "Ġspiritual": 2041,
      "rate": 2042,
      "Ġwritten": 2043,
      "ites": 2044,
      "Ġheavy": 2045,
      "rodu": 2046,
      "Ġ0": 2047,
      "line": 2048,
      "Ġshoot": 2049,
      "Ġspread": 2050,
      "Ġsix": 2051,
      "irc": 2052,
      "atives": 2053,
      "Ġport": 2054,
      "ories": 2055,
      "Ġconsider": 2056,
      "Ġwelf": 2057,
      "Ġwelfare": 2058,
      "sh": 2059,
      "Ġdeal": 2060,
      "Ġdisp": 2061,
      "ops": 2062,
      "Ġtir": 2063,
      "Ġcabinet": 2064,
      "ption": 2065,
      "Ġhal": 2066,
      "Ġpati": 2067,
      "Ġenv": 2068,
      "Ġcomplete": 2069,
      "Ġknowledge": 2070,
      "Ġestim": 2071,
      "ained": 2072,
      "Ġlanka": 2073,
      "Ġafric": 2074,
      "Ġjan": 2075,
      "Ġx": 2076,
      "Ġmass": 2077,
      "Ġcant": 2078,
      "Ġstatement": 2079,
      "Ġadmitted": 2080,
      "Ġhindi": 2081,
      "Ġamount": 2082,
      "ira": 2083,
      "Ġwal": 2084,
      "ored": 2085,
      "Ġpolitics": 2086,
      "Ġ2018": 2087,
      "Ġyes": 2088,
      "Ġmarried": 2089,
      "eous": 2090,
      "ws": 2091,
      "Ġjoh": 2092,
      "iding": 2093,
      "Ġconstruction": 2094,
      "Ġindustry": 2095,
      "Ġstat": 2096,
      "icles": 2097,
      "Ġdrink": 2098,
      "amb": 2099,
      "Ġtrad": 2100,
      "Ġtheres": 2101,
      "Ġparticipated": 2102,
      "Ġaffected": 2103,
      "Ġagree": 2104,
      "ids": 2105,
      "Ġonce": 2106,
      "Ġaccused": 2107,
      "Ġglobal": 2108,
      "agar": 2109,
      "Ġmilitary": 2110,
      "arat": 2111,
      "ude": 2112,
      "Ġcreated": 2113,
      "Ġserious": 2114,
      "yal": 2115,
      "Ġeurope": 2116,
      "Ġseats": 2117,
      "Ġsong": 2118,
      "Ġfiled": 2119,
      "Ġjour": 2120,
      "Ġentire": 2121,
      "Ġmatch": 2122,
      "ival": 2123,
      "Ġpal": 2124,
      "Ġste": 2125,
      "Ġearli": 2126,
      "Ġworship": 2127,
      "Ġcourse": 2128,
      "itation": 2129,
      "Ġnat": 2130,
      "Ġmonths": 2131,
      "Ġloss": 2132,
      "Ġthemselves": 2133,
      "Ġinn": 2134,
      "Ġproduct": 2135,
      "Ġcapital": 2136,
      "Ġproduction": 2137,
      "mi": 2138,
      "Ġexplain": 2139,
      "Ġcorpor": 2140,
      "ade": 2141,
      "Ġger": 2142,
      "Ġforeign": 2143,
      "Ġelectric": 2144,
      "Ġapost": 2145,
      "Ġ40": 2146,
      "Ġstar": 2147,
      "Ġefforts": 2148,
      "avir": 2149,
      "Ġcomes": 2150,
      "Ġbenefit": 2151,
      "Ġsus": 2152,
      "Ġrushed": 2153,
      "ging": 2154,
      "Ġstri": 2155,
      "htra": 2156,
      "aster": 2157,
      "Ġrural": 2158,
      "ream": 2159,
      "Ġrepres": 2160,
      "ructure": 2161,
      "Ġpoor": 2162,
      "Ġiniti": 2163,
      "Ġforce": 2164,
      "Ġfeat": 2165,
      "Ġprinci": 2166,
      "Ġopposition": 2167,
      "Ġcust": 2168,
      "Ġanyone": 2169,
      "ension": 2170,
      "Ġcirc": 2171,
      "Ġbrothers": 2172,
      "Ġobject": 2173,
      "Ġthird": 2174,
      "Ġcompany": 2175,
      "ards": 2176,
      "oice": 2177,
      "Ġciv": 2178,
      "rast": 2179,
      "Ġbegan": 2180,
      "Ġarmy": 2181,
      "Ġmanagement": 2182,
      "Ġbal": 2183,
      "Ġtowards": 2184,
      "Ġavoid": 2185,
      "Ġeyes": 2186,
      "Ġmarri": 2187,
      "by": 2188,
      "pped": 2189,
      "Ġstay": 2190,
      "Ġhen": 2191,
      "Ġtrust": 2192,
      "abad": 2193,
      "ively": 2194,
      "Ġbirth": 2195,
      "ners": 2196,
      "Ġmult": 2197,
      "Ġprophe": 2198,
      "Ġissued": 2199,
      "Ġnet": 2200,
      "Ġenergy": 2201,
      "Ġfinance": 2202,
      "igh": 2203,
      "ened": 2204,
      "Ġkar": 2205,
      "Ġvot": 2206,
      "Ġseem": 2207,
      "new": 2208,
      "Ġenj": 2209,
      "uram": 2210,
      "oor": 2211,
      "Ġdirect": 2212,
      "Ġfinal": 2213,
      "Ġconnection": 2214,
      "Ġcitizens": 2215,
      "Ġabove": 2216,
      "Ġruns": 2217,
      "Ġobs": 2218,
      "Ġalle": 2219,
      "Ġministers": 2220,
      "co": 2221,
      "cil": 2222,
      "uries": 2223,
      "Ġarticle": 2224,
      "Ġaffairs": 2225,
      "Ġrelease": 2226,
      "Ġbless": 2227,
      "crib": 2228,
      "Ġpurp": 2229,
      "ify": 2230,
      "Ġprices": 2231,
      "Ġlikely": 2232,
      "rs": 2233,
      "Ġnations": 2234,
      "Ġappre": 2235,
      "avirus": 2236,
      "Ġcelebr": 2237,
      "Ġcommand": 2238,
      "Ġpolicy": 2239,
      "cle": 2240,
      "ters": 2241,
      "Ġ2020": 2242,
      "Ġearlier": 2243,
      "Ġgrowth": 2244,
      "vere": 2245,
      "Ġscript": 2246,
      "Ġneeded": 2247,
      "Ġsil": 2248,
      "Ġaustralia": 2249,
      "Ġcongregation": 2250,
      "Ġtur": 2251,
      "Ġcompet": 2252,
      "Ġearly": 2253,
      "Ġcoronavirus": 2254,
      "Ġmotor": 2255,
      "ift": 2256,
      "Ġtown": 2257,
      "arma": 2258,
      "Ġhuge": 2259,
      "Ġeast": 2260,
      "Ġtor": 2261,
      "Ġnecess": 2262,
      "Ġproduced": 2263,
      "Ġshare": 2264,
      "omes": 2265,
      "Ġconduct": 2266,
      "Ġcontrib": 2267,
      "Ġpat": 2268,
      "aled": 2269,
      "Ġenjoy": 2270,
      "Ġmiss": 2271,
      "Ġcreat": 2272,
      "Ġexist": 2273,
      "Ġindivid": 2274,
      "Ġcoll": 2275,
      "bel": 2276,
      "ference": 2277,
      "Ġconstit": 2278,
      "Ġexperience": 2279,
      "Ġide": 2280,
      "Ġfamilies": 2281,
      "Ġdav": 2282,
      "aff": 2283,
      "Ġexpl": 2284,
      "Ġnon": 2285,
      "Ġhit": 2286,
      "Ġpot": 2287,
      "Ġmarriage": 2288,
      "Ġdesign": 2289,
      "Ġrom": 2290,
      "Ġgener": 2291,
      "Ġofficer": 2292,
      "Ġleave": 2293,
      "itter": 2294,
      "Ġencoura": 2295,
      "Ġbrit": 2296,
      "Ġrate": 2297,
      "Ġ,": 2298,
      "Ġeld": 2299,
      "Ġeat": 2300,
      "Ġparts": 2301,
      "Ġinclude": 2302,
      "Ġbar": 2303,
      "Ġcup": 2304,
      "ains": 2305,
      "Ġbudget": 2306,
      "Ġgerman": 2307,
      "Ġli": 2308,
      "arashtra": 2309,
      "fully": 2310,
      "aps": 2311,
      "che": 2312,
      "Ġplaces": 2313,
      "oms": 2314,
      "Ġcivil": 2315,
      "Ġbang": 2316,
      "Ġsenior": 2317,
      "Ġforg": 2318,
      "over": 2319,
      "Ġbegin": 2320,
      "Ġsist": 2321,
      "Ġpopulation": 2322,
      "Ġdecided": 2323,
      "Ġuntil": 2324,
      "Ġstudi": 2325,
      "Ġguj": 2326,
      "Ġ23": 2327,
      "ication": 2328,
      "Ġrights": 2329,
      "Ġstrengthe": 2330,
      "Ġindias": 2331,
      "Ġscience": 2332,
      "ec": 2333,
      "Ġ%": 2334,
      "Ġsea": 2335,
      "Ġsex": 2336,
      "Ġmaharashtra": 2337,
      "Ġactivities": 2338,
      "Ġindividual": 2339,
      "ert": 2340,
      "Ġleast": 2341,
      "imum": 2342,
      "Ġtele": 2343,
      "Ġma": 2344,
      "Ġassistance": 2345,
      "Ġmember": 2346,
      "Ġincreased": 2347,
      "Ġeconomy": 2348,
      "Ġsep": 2349,
      "Ġgone": 2350,
      "Ġhence": 2351,
      "Ġshock": 2352,
      "wood": 2353,
      "ton": 2354,
      "Ġdate": 2355,
      "Ġriver": 2356,
      "Ġjohn": 2357,
      "Ġbur": 2358,
      "Ġmission": 2359,
      "Ġreached": 2360,
      "Ġkhan": 2361,
      "Ġpersonal": 2362,
      "Ġelse": 2363,
      "ban": 2364,
      "Ġsour": 2365,
      "sequently": 2366,
      "Ġrepresent": 2367,
      "Ġanim": 2368,
      "Ġhands": 2369,
      "Ġbhar": 2370,
      "Ġdoub": 2371,
      "Ġcaused": 2372,
      "Ġflow": 2373,
      "ogra": 2374,
      "Ġluck": 2375,
      "Ġreligion": 2376,
      "Ġsac": 2377,
      "iron": 2378,
      "Ġfine": 2379,
      "Ġnobody": 2380,
      "Ġdom": 2381,
      "Ġmater": 2382,
      "Ġlod": 2383,
      "Ġsingle": 2384,
      "ring": 2385,
      "araj": 2386,
      "ron": 2387,
      "Ġincome": 2388,
      "Ġgetting": 2389,
      "Ġsaw": 2390,
      "Ġstation": 2391,
      "ds": 2392,
      "Ġcast": 2393,
      "Ġwait": 2394,
      "Ġsuic": 2395,
      "Ġdisci": 2396,
      "Ġban": 2397,
      "Ġwhole": 2398,
      "Ġgreen": 2399,
      "Ġsearch": 2400,
      "Ġmount": 2401,
      "Ġpetrol": 2402,
      "mber": 2403,
      "for": 2404,
      "Ġcut": 2405,
      "Ġspeaking": 2406,
      "Ġclean": 2407,
      "Ġactress": 2408,
      "Ġpage": 2409,
      "Ġside": 2410,
      "Ġphys": 2411,
      "Ġcentury": 2412,
      "Ġthousands": 2413,
      "empt": 2414,
      "Ġten": 2415,
      "Ġarri": 2416,
      "hold": 2417,
      "Ġcin": 2418,
      "Ġtrade": 2419,
      "Ġresol": 2420,
      "Ġenviron": 2421,
      "Ġtrump": 2422,
      "Ġagriculture": 2423,
      "iance": 2424,
      "une": 2425,
      "rish": 2426,
      "Ġstated": 2427,
      "ham": 2428,
      "Ġtransport": 2429,
      "pal": 2430,
      "Ġexpect": 2431,
      "Ġge": 2432,
      "Ġconducted": 2433,
      "Ġscient": 2434,
      "Ġmis": 2435,
      "Ġtill": 2436,
      "cu": 2437,
      "Ġmom": 2438,
      "Ġline": 2439,
      "Ġvol": 2440,
      "Ġpanch": 2441,
      "overed": 2442,
      "Ġfis": 2443,
      "Ġplayed": 2444,
      "Ġcompleted": 2445,
      "tar": 2446,
      "ery": 2447,
      "Ġruss": 2448,
      "utes": 2449,
      "Ġreject": 2450,
      "Ġdoctors": 2451,
      "Ġissues": 2452,
      "Ġenvironment": 2453,
      "Ġthreat": 2454,
      "Ġmaintain": 2455,
      "Ġappreci": 2456,
      "Ġcooperation": 2457,
      "Ġusing": 2458,
      "Ġpopular": 2459,
      "Ġcovid": 2460,
      "Ġinvolved": 2461,
      "isions": 2462,
      "Ġdh": 2463,
      "Ġtravel": 2464,
      "Ġofficers": 2465,
      "epend": 2466,
      "Ġ2017": 2467,
      "Ġimm": 2468,
      "Ġrelationship": 2469,
      "Ġwind": 2470,
      "Ġimprove": 2471,
      "aught": 2472,
      "Ġdistrib": 2473,
      "Ġprevent": 2474,
      "Ġoccur": 2475,
      "Ġkey": 2476,
      "iful": 2477,
      "Ġgujarat": 2478,
      "Ġgrant": 2479,
      "itive": 2480,
      "engers": 2481,
      "Ġgovernments": 2482,
      "Ġdisease": 2483,
      "Ġforces": 2484,
      "hood": 2485,
      "Ġresc": 2486,
      "Ġworth": 2487,
      "Ġcouncil": 2488,
      "Ġground": 2489,
      "Ġheaven": 2490,
      "Ġregarding": 2491,
      "ogn": 2492,
      "Ġreligious": 2493,
      "Ġaware": 2494,
      "Ġbelong": 2495,
      "Ġwis": 2496,
      "side": 2497,
      "lit": 2498,
      "Ġdiesel": 2499,
      "war": 2500,
      "Ġdeter": 2501,
      "Ġstars": 2502,
      "Ġvice": 2503,
      "apan": 2504,
      "Ġexcept": 2505,
      "Ġtar": 2506,
      "Ġintrodu": 2507,
      "Ġbehind": 2508,
      "come": 2509,
      "Ġcondition": 2510,
      "la": 2511,
      "fer": 2512,
      "Ġspec": 2513,
      "gu": 2514,
      "Ġaccom": 2515,
      "po": 2516,
      "isation": 2517,
      "Ġwhether": 2518,
      "Ġran": 2519,
      "lo": 2520,
      "Ġdece": 2521,
      "Ġamerican": 2522,
      "Ġshooting": 2523,
      "nel": 2524,
      "Ġsuicide": 2525,
      "otion": 2526,
      "Ġfront": 2527,
      "Ġju": 2528,
      "Ġfoc": 2529,
      "cap": 2530,
      "yed": 2531,
      "Ġdmk": 2532,
      "mit": 2533,
      "ung": 2534,
      "Ġbes": 2535,
      "Ġfoot": 2536,
      "Ġdefence": 2537,
      "Ġinfrast": 2538,
      "Ġfav": 2539,
      "Ġfest": 2540,
      "Ġenglish": 2541,
      "uf": 2542,
      "Ġunderway": 2543,
      "ability": 2544,
      "lywood": 2545,
      "illed": 2546,
      "athi": 2547,
      "Ġgar": 2548,
      "Ġways": 2549,
      "Ġrecogn": 2550,
      "Ġterm": 2551,
      "Ġresour": 2552,
      "Ġet": 2553,
      "Ġfulf": 2554,
      "cell": 2555,
      "Ġadministration": 2556,
      "Ġcinem": 2557,
      "Ġpanchay": 2558,
      "Ġbasis": 2559,
      "Ġlaunch": 2560,
      "Ġhigher": 2561,
      "Ġbea": 2562,
      "Ġbol": 2563,
      "Ġalone": 2564,
      "cially": 2565,
      "Ġrighteous": 2566,
      "Ġremember": 2567,
      "Ġparticular": 2568,
      "ier": 2569,
      "Ġdavid": 2570,
      "Ġviral": 2571,
      "ceed": 2572,
      "Ġnorm": 2573,
      "Ġafrica": 2574,
      "Ġkm": 2575,
      "Ġprojects": 2576,
      "Ġamb": 2577,
      "Ġsle": 2578,
      "Ġcommunity": 2579,
      "hra": 2580,
      "Ġmeasures": 2581,
      "Ġreports": 2582,
      "Ġshah": 2583,
      "Ġemer": 2584,
      "ees": 2585,
      "val": 2586,
      "kar": 2587,
      "Ġworked": 2588,
      "Ġ28": 2589,
      "lu": 2590,
      "Ġresponsibility": 2591,
      "Ġsurpr": 2592,
      "Ġallowed": 2593,
      "10": 2594,
      "Ġready": 2595,
      "Ġharm": 2596,
      "ami": 2597,
      "Ġ2019": 2598,
      "itude": 2599,
      "oud": 2600,
      "Ġmob": 2601,
      "Ġincreasing": 2602,
      "most": 2603,
      "resh": 2604,
      "Ġsurely": 2605,
      "Ġconstitu": 2606,
      "Ġenough": 2607,
      "atic": 2608,
      "Ġforest": 2609,
      "Ġinfrastructure": 2610,
      "Ġhalf": 2611,
      "itor": 2612,
      "Ġris": 2613,
      "onse": 2614,
      "rem": 2615,
      "ode": 2616,
      "Ġdestro": 2617,
      "ott": 2618,
      "Ġhouses": 2619,
      "Ġmodern": 2620,
      "Ġnecessary": 2621,
      "Ġprotect": 2622,
      "Ġestablish": 2623,
      "Ġchand": 2624,
      "Ġmusl": 2625,
      "Ġmaterial": 2626,
      "Ġfru": 2627,
      "Ġlodged": 2628,
      "Ġ60": 2629,
      "Ġkam": 2630,
      "Ġcy": 2631,
      "Ġcandidates": 2632,
      "Ġneg": 2633,
      "ech": 2634,
      "Ġvalue": 2635,
      "Ġholy": 2636,
      "Ġrepl": 2637,
      "Ġsharma": 2638,
      "Ġlargest": 2639,
      "pur": 2640,
      "ilt": 2641,
      "Ġappear": 2642,
      "Ġisl": 2643,
      "Ġrequest": 2644,
      "Ġknows": 2645,
      "Ġresults": 2646,
      "Ġforward": 2647,
      "mar": 2648,
      "Ġsupply": 2649,
      "Ġjapan": 2650,
      "Ġlooking": 2651,
      "Ġquality": 2652,
      "ening": 2653,
      "Ġpurpose": 2654,
      "Ġrich": 2655,
      "aily": 2656,
      "ler": 2657,
      "Ġviolence": 2658,
      "ratic": 2659,
      "ran": 2660,
      "Ġorig": 2661,
      "Ġtit": 2662,
      "ract": 2663,
      "Ġfreed": 2664,
      "rop": 2665,
      "bre": 2666,
      "rad": 2667,
      "Ġsust": 2668,
      "pecially": 2669,
      "Ġnav": 2670,
      "going": 2671,
      "Ġdaily": 2672,
      "Ġteachers": 2673,
      "Ġplease": 2674,
      "adi": 2675,
      "Ġindepend": 2676,
      "Ġbod": 2677,
      "after": 2678,
      "Ġbat": 2679,
      "Ġresponse": 2680,
      "Ġserve": 2681,
      "Ġ31": 2682,
      "Ġsubject": 2683,
      ".,": 2684,
      "Ġacted": 2685,
      "Ġtraff": 2686,
      "Ġhero": 2687,
      "uru": 2688,
      "Ġdig": 2689,
      "Ġfollowed": 2690,
      "Ġcert": 2691,
      "Ġabs": 2692,
      "Ġinstitute": 2693,
      "Ġkann": 2694,
      "Ġrailway": 2695,
      "Ġheard": 2696,
      "Ġchanged": 2697,
      "Ġqual": 2698,
      "Ġplant": 2699,
      "Ġroads": 2700,
      "Ġcbi": 2701,
      "Ġsad": 2702,
      "Ġpassed": 2703,
      "Ġchair": 2704,
      "Ġespecially": 2705,
      "Ġcover": 2706,
      "Ġkan": 2707,
      "ammu": 2708,
      "Ġcheck": 2709,
      "uses": 2710,
      "Ġpand": 2711,
      "Ġengland": 2712,
      "ograph": 2713,
      "Ġess": 2714,
      "Ġmessage": 2715,
      "Ġ500": 2716,
      "Ġdeclared": 2717,
      "erc": 2718,
      "Ġpen": 2719,
      "sp": 2720,
      "Ġange": 2721,
      "Ġmakes": 2722,
      "aign": 2723,
      "Ġopportunity": 2724,
      "ufact": 2725,
      "Ġcontinued": 2726,
      "Ġinsp": 2727,
      "Ġdeg": 2728,
      "Ġnatural": 2729,
      "Ġraised": 2730,
      "Ġtext": 2731,
      "Ġpos": 2732,
      "Ġrequired": 2733,
      "Ġvehicles": 2734,
      "Ġmanufact": 2735,
      "Ġletter": 2736,
      "Ġbaby": 2737,
      "Ġachieve": 2738,
      "apt": 2739,
      "undred": 2740,
      "Ġ26": 2741,
      "Ġcampaign": 2742,
      "work": 2743,
      "Ġposition": 2744,
      "Ġroles": 2745,
      "ayalam": 2746,
      "Ġcharact": 2747,
      "Ġconsum": 2748,
      "Ġcop": 2749,
      "Ġblack": 2750,
      "Ġbow": 2751,
      "Ġjammu": 2752,
      "Ġadditional": 2753,
      "ables": 2754,
      "ali": 2755,
      "Ġhundred": 2756,
      "Ġchur": 2757,
      "Ġyog": 2758,
      "Ġregular": 2759,
      "ril": 2760,
      "den": 2761,
      "icated": 2762,
      "Ġfeatures": 2763,
      "Ġreasons": 2764,
      "isl": 2765,
      "than": 2766,
      "ipp": 2767,
      "Ġmention": 2768,
      "Ġsun": 2769,
      "Ġeasy": 2770,
      "Ġrespond": 2771,
      "Ġemployment": 2772,
      "Ġphil": 2773,
      "Ġattend": 2774,
      "aly": 2775,
      "Ġspace": 2776,
      "nal": 2777,
      "Ġliter": 2778,
      "Ġensure": 2779,
      "Ġwond": 2780,
      "Ġskill": 2781,
      "enced": 2782,
      "ense": 2783,
      "Ġ27": 2784,
      "aves": 2785,
      "Ġye": 2786,
      "Ġtry": 2787,
      "Ġsaf": 2788,
      "wise": 2789,
      "rog": 2790,
      "Ġdeputy": 2791,
      "Ġjoint": 2792,
      "Ġappointed": 2793,
      "Ġ?": 2794,
      "year": 2795,
      "Ġvari": 2796,
      "Ġminor": 2797,
      "let": 2798,
      "alm": 2799,
      "though": 2800,
      "Ġreven": 2801,
      "Ġsubsequently": 2802,
      "Ġmurder": 2803,
      "Ġprim": 2804,
      "Ġlocated": 2805,
      "Ġjoy": 2806,
      "Ġrather": 2807,
      "Ġwel": 2808,
      "Ġattention": 2809,
      "Ġuttar": 2810,
      "Ġflood": 2811,
      "Ġlat": 2812,
      "Ġreview": 2813,
      "ably": 2814,
      "Ġcontest": 2815,
      "Ġexec": 2816,
      "Ġdata": 2817,
      "Ġtwitter": 2818,
      "sec": 2819,
      "Ġdoesnt": 2820,
      "Ġsons": 2821,
      "\"\".\"": 2822,
      "Ġmalayalam": 2823,
      "head": 2824,
      "ator": 2825,
      "lect": 2826,
      "Ġira": 2827,
      "Ġmedic": 2828,
      "Ġannounce": 2829,
      "play": 2830,
      "Ġlink": 2831,
      "Ġhur": 2832,
      "Ġschemes": 2833,
      "Ġchanges": 2834,
      "Ġlanguages": 2835,
      "Ġestimated": 2836,
      "Ġdesp": 2837,
      "bed": 2838,
      "Ġalthough": 2839,
      "Ġleading": 2840,
      "Ġrevealed": 2841,
      "ower": 2842,
      "Ġfig": 2843,
      "emic": 2844,
      "Ġdang": 2845,
      "Ġtrain": 2846,
      "Ġetc": 2847,
      "Ġauthority": 2848,
      "Ġstre": 2849,
      "rial": 2850,
      "where": 2851,
      "Ġded": 2852,
      "Ġstrength": 2853,
      "ney": 2854,
      "quir": 2855,
      "Ġcommer": 2856,
      "Ġfal": 2857,
      "ators": 2858,
      "Ġlucky": 2859,
      "Ġarr": 2860,
      "Ġsignific": 2861,
      "Ġeither": 2862,
      "Ġfacilities": 2863,
      "erous": 2864,
      "Ġrelated": 2865,
      "Ġapostle": 2866,
      "Ġbelow": 2867,
      "Ġ2016": 2868,
      "Ġhistor": 2869,
      "Ġpaid": 2870,
      "Ġsurv": 2871,
      "unt": 2872,
      "Ġrefused": 2873,
      "Ġshiv": 2874,
      "erve": 2875,
      "Ġjudge": 2876,
      "urs": 2877,
      "ze": 2878,
      "ley": 2879,
      "ires": 2880,
      "Ġiraq": 2881,
      "Ġspoke": 2882,
      "Ġpersonnel": 2883,
      "Ġtraffic": 2884,
      "hod": 2885,
      "Ġjer": 2886,
      "Ġbooks": 2887,
      "Ġpressure": 2888,
      "Ġsusp": 2889,
      "Ġguid": 2890,
      "Ġlakhs": 2891,
      "Ġpath": 2892,
      "Ġfreedom": 2893,
      "Ġappeal": 2894,
      "Ġbord": 2895,
      "Ġsafe": 2896,
      "Ġgroups": 2897,
      "Ġsteps": 2898,
      "aper": 2899,
      "ratul": 2900,
      "ighb": 2901,
      "Ġdescrib": 2902,
      "Ġdrug": 2903,
      "Ġcontinu": 2904,
      "Ġblock": 2905,
      "this": 2906,
      "Ġbreak": 2907,
      "Ġbodies": 2908,
      "Ġmax": 2909,
      "Ġvers": 2910,
      "mission": 2911,
      "Ġdriver": 2912,
      "ason": 2913,
      "Ġpowder": 2914,
      "Ġai": 2915,
      "Ġneighb": 2916,
      "Ġconfir": 2917,
      "Ġ198": 2918,
      "atory": 2919,
      "hy": 2920,
      "Ġinjuries": 2921,
      "Ġlegisl": 2922,
      "cient": 2923,
      "Ġbenefits": 2924,
      "Ġcertainly": 2925,
      "itha": 2926,
      "hest": 2927,
      "Ġrajin": 2928,
      "Ġplaying": 2929,
      "Ġsepar": 2930,
      "Ġven": 2931,
      "Ġrule": 2932,
      "Ġzeal": 2933,
      "Ġshared": 2934,
      "Ġconference": 2935,
      "Ġseven": 2936,
      "Ġcolour": 2937,
      "Ġwicket": 2938,
      "rugg": 2939,
      "Ġnamed": 2940,
      "Ġcorporation": 2941,
      "Ġbesides": 2942,
      "Ġcities": 2943,
      "Ġattempt": 2944,
      "Ġsound": 2945,
      "Ġturned": 2946,
      "Ġfast": 2947,
      "Ġgiving": 2948,
      "Ġstrugg": 2949,
      "Ġkoh": 2950,
      "Ġcarrying": 2951,
      "Ġdevote": 2952,
      "Ġseized": 2953,
      "Ġindustrial": 2954,
      "ankar": 2955,
      "Ġexerc": 2956,
      "Ġcongratul": 2957,
      "Ġandhra": 2958,
      "Ġdemon": 2959,
      "Ġsleep": 2960,
      "rect": 2961,
      "ama": 2962,
      "aired": 2963,
      "Ġsubs": 2964,
      "Ġsevere": 2965,
      "Ġshot": 2966,
      "Ġgame": 2967,
      "Ġisnt": 2968,
      "lling": 2969,
      "Ġpsalm": 2970,
      "ka": 2971,
      "Ġconnect": 2972,
      "Ġbollywood": 2973,
      "Ġcapac": 2974,
      "Ġlimited": 2975,
      "vent": 2976,
      "Ġairport": 2977,
      "Ġsuggest": 2978,
      "lad": 2979,
      "gar": 2980,
      "know": 2981,
      "Ġunit": 2982,
      "well": 2983,
      "Ġborn": 2984,
      "Ġculture": 2985,
      "Ġstudent": 2986,
      "Ġonline": 2987,
      "Ġsafety": 2988,
      "rif": 2989,
      "Ġwanted": 2990,
      "while": 2991,
      "ological": 2992,
      "Ġcred": 2993,
      "uel": 2994,
      "Ġdie": 2995,
      "Ġcam": 2996,
      "Ġoffer": 2997,
      "Ġfalse": 2998,
      "Ġmethod": 2999,
      "belie": 3000,
      "Ġestablished": 3001,
      "Ġrecovered": 3002,
      "Ġmr": 3003,
      "Ġdream": 3004,
      "Ġsports": 3005,
      "Ġnone": 3006,
      "aiah": 3007,
      "action": 3008,
      "Ġrains": 3009,
      "Ġkept": 3010,
      "Ġpicture": 3011,
      "urai": 3012,
      "Ġfaithful": 3013,
      "Ġalliance": 3014,
      "Ġmark": 3015,
      "Ġgirls": 3016,
      "Ġrecent": 3017,
      "ev": 3018,
      "jab": 3019,
      "Ġproviding": 3020,
      "Ġcinema": 3021,
      "Ġnar": 3022,
      "Ġmulti": 3023,
      "Ġaccess": 3024,
      "Ġgrand": 3025,
      "Ġmoved": 3026,
      "Ġsoldi": 3027,
      "Ġprevious": 3028,
      "Ġvac": 3029,
      "Ġcouple": 3030,
      "Ġq": 3031,
      "osing": 3032,
      "mp": 3033,
      "usion": 3034,
      "Ġdeterm": 3035,
      "Ġmou": 3036,
      "Ġfailed": 3037,
      "Ġprotection": 3038,
      "eth": 3039,
      "Ġwhose": 3040,
      "Ġapart": 3041,
      "fall": 3042,
      "Ġauthorities": 3043,
      "Ġteams": 3044,
      "Ġcarried": 3045,
      "Ġimplemented": 3046,
      "Ġdocu": 3047,
      "Ġaccepted": 3048,
      "Ġ29": 3049,
      "Ġexpressed": 3050,
      "ressed": 3051,
      "Ġopt": 3052,
      "Ġago": 3053,
      "bers": 3054,
      "Ġfem": 3055,
      "Ġrecom": 3056,
      "30": 3057,
      "Ġcaptain": 3058,
      "urance": 3059,
      "bit": 3060,
      "Ġapplication": 3061,
      "nam": 3062,
      "Ġinstitutions": 3063,
      "Ġstra": 3064,
      "Ġwhite": 3065,
      "kind": 3066,
      "Ġgri": 3067,
      "Ġemp": 3068,
      "Ġkohli": 3069,
      "Ġboy": 3070,
      "Ġcreate": 3071,
      "Ġaug": 3072,
      "encies": 3073,
      "Ġcontro": 3074,
      "Ġsurve": 3075,
      "Ġsomeone": 3076,
      "iled": 3077,
      "Ġ$": 3078,
      "Ġtarget": 3079,
      "imb": 3080,
      "attle": 3081,
      "Ġara": 3082,
      "Ġcomb": 3083,
      "Ġpoll": 3084,
      "Ġinvestment": 3085,
      "Ġtro": 3086,
      "Ġast": 3087,
      "Ġmovement": 3088,
      "rage": 3089,
      "Ġmorning": 3090,
      "Ġrajas": 3091,
      "Ġsar": 3092,
      "Ġsalt": 3093,
      "Ġevil": 3094,
      "Ġcho": 3095,
      "Ġagricultural": 3096,
      "Ġevidence": 3097,
      "Ġiran": 3098,
      "Ġtradition": 3099,
      "ends": 3100,
      "Ġphone": 3101,
      "Ġitself": 3102,
      "Ġhear": 3103,
      "Ġpunjab": 3104,
      "ey": 3105,
      "Ġurban": 3106,
      "Ġep": 3107,
      "Ġtou": 3108,
      "Ġna": 3109,
      "Ġtim": 3110,
      "Ġbanks": 3111,
      "Ġancient": 3112,
      "Ġsuffering": 3113,
      "Ġrevenue": 3114,
      "ead": 3115,
      "18": 3116,
      "ager": 3117,
      "Ġhindu": 3118,
      "Ġhelped": 3119,
      "Ġtrying": 3120,
      "Ġstaff": 3121,
      "racy": 3122,
      "Ġscre": 3123,
      "Ġdevotees": 3124,
      "Ġhappening": 3125,
      "clud": 3126,
      "inary": 3127,
      "Ġfrance": 3128,
      "Ġamit": 3129,
      "Ġanti": 3130,
      "Ġyourself": 3131,
      "Ġpul": 3132,
      "Ġprayer": 3133,
      "Ġtalking": 3134,
      "Ġjail": 3135,
      "Ġfelt": 3136,
      "Ġservants": 3137,
      "Ġemployees": 3138,
      "Ġprison": 3139,
      "imate": 3140,
      "Ġcapacity": 3141,
      "Ġ35": 3142,
      "light": 3143,
      "atever": 3144,
      "Ġinflu": 3145,
      "Ġconstitution": 3146,
      "Ġchallen": 3147,
      "Ġic": 3148,
      "Ġsave": 3149,
      "Ġconditions": 3150,
      "Ġneither": 3151,
      "Ġstal": 3152,
      "Ġmilk": 3153,
      "ja": 3154,
      "dy": 3155,
      "Ġoffered": 3156,
      "Ġchalleng": 3157,
      "Ġdeveloped": 3158,
      "Ġlegal": 3159,
      "Ġinvestigations": 3160,
      "Ġlt": 3161,
      "Ġvehicle": 3162,
      "litre": 3163,
      "wan": 3164,
      "fect": 3165,
      "Ġimpact": 3166,
      "Ġhumans": 3167,
      "Ġspeech": 3168,
      "Ġgreater": 3169,
      "Ġreceive": 3170,
      "Ġdemocratic": 3171,
      "ublic": 3172,
      "ifted": 3173,
      "Ġay": 3174,
      "Ġjournal": 3175,
      "Ġnort": 3176,
      "Ġrise": 3177,
      "Ġheat": 3178,
      "Ġpunish": 3179,
      "Ġintegr": 3180,
      "Ġmemor": 3181,
      "Ġsir": 3182,
      "Ġrajasthan": 3183,
      "jee": 3184,
      "Ġcoast": 3185,
      "Ġpeter": 3186,
      "Ġkap": 3187,
      "Ġsud": 3188,
      "Ġfish": 3189,
      "Ġwhatever": 3190,
      "hit": 3191,
      "ene": 3192,
      "Ġmankind": 3193,
      "Ġwide": 3194,
      "Ġgovernor": 3195,
      "Ġmodel": 3196,
      "Ġinaug": 3197,
      "Ġid": 3198,
      "Ġacts": 3199,
      "Ġgradu": 3200,
      "Ġkrish": 3201,
      "25": 3202,
      "rench": 3203,
      "Ġagreement": 3204,
      "inated": 3205,
      "Ġchem": 3206,
      "Ġopportunities": 3207,
      "Ġapply": 3208,
      "Ġmarch": 3209,
      "Ġrules": 3210,
      "erved": 3211,
      "Ġcell": 3212,
      "Ġcompanies": 3213,
      "Ġrequire": 3214,
      "ots": 3215,
      "Ġsqu": 3216,
      "Ġpublished": 3217,
      "Ġinternet": 3218,
      "Ġcris": 3219,
      "gment": 3220,
      "vies": 3221,
      "oted": 3222,
      "Ġ300": 3223,
      "Ġgives": 3224,
      "Ġaver": 3225,
      "Ġment": 3226,
      "Ġinstead": 3227,
      "Ġtorque": 3228,
      ".)": 3229,
      "Ġtalks": 3230,
      "antly": 3231,
      "Ġpassengers": 3232,
      "Ġcm": 3233,
      "Ġcomposed": 3234,
      "15": 3235,
      "uti": 3236,
      "Ġsense": 3237,
      "Ġchurch": 3238,
      "Ġwise": 3239,
      "usal": 3240,
      "Ġprepared": 3241,
      "no": 3242,
      "Ġsr": 3243,
      "Ġtom": 3244,
      "Ġfocus": 3245,
      "Ġlay": 3246,
      "idered": 3247,
      "Ġtend": 3248,
      "anned": 3249,
      "Ġstopped": 3250,
      "Ġmadh": 3251,
      "Ġconcerned": 3252,
      "uary": 3253,
      "Ġfellow": 3254,
      "gs": 3255,
      "Ġunderstanding": 3256,
      "Ġmeetings": 3257,
      "Ġproducts": 3258,
      "Ġgrowing": 3259,
      "Ġmajority": 3260,
      "Ġamerica": 3261,
      "Ġforth": 3262,
      "Ġsection": 3263,
      "Ġlock": 3264,
      "Ġmoment": 3265,
      "Ġawards": 3266,
      "Ġapproved": 3267,
      "Ġcentres": 3268,
      "Ġtakes": 3269,
      "Ġprior": 3270,
      "Ġcrisis": 3271,
      "Ġreach": 3272,
      "Ġthroughout": 3273,
      "Ġcharacter": 3274,
      "Ġimplementation": 3275,
      "Ġbillion": 3276,
      "200": 3277,
      "iddle": 3278,
      "Ġcertific": 3279,
      "Ġcommitted": 3280,
      "ivity": 3281,
      "Ġmic": 3282,
      "Ġthinking": 3283,
      "Ġaudi": 3284,
      "Ġsanction": 3285,
      "do": 3286,
      "Ġcomput": 3287,
      "Ġrepublic": 3288,
      "alls": 3289,
      "ii": 3290,
      "Ġdoubt": 3291,
      "Ġteach": 3292,
      "Ġmovies": 3293,
      "Ġmoses": 3294,
      "Ġconsidered": 3295,
      "Ġtv": 3296,
      "ikanth": 3297,
      "mitted": 3298,
      "Ġlisten": 3299,
      "Ġassociation": 3300,
      "down": 3301,
      "Ġnote": 3302,
      "ex": 3303,
      "Ġash": 3304,
      "Ġsit": 3305,
      "Ġhes": 3306,
      "Ġbritish": 3307,
      "Ġgree": 3308,
      "raft": 3309,
      "Ġresign": 3310,
      "Ġbeaut": 3311,
      "?\"": 3312,
      "Ġ2014": 3313,
      "Ġquick": 3314,
      "Ġsuccessful": 3315,
      "Ġincludes": 3316,
      "era": 3317,
      "Ġwonder": 3318,
      "Ġkh": 3319,
      "Ġfile": 3320,
      "Ġapril": 3321,
      "Ġoutside": 3322,
      "Ġwrite": 3323,
      "gn": 3324,
      "Ġessential": 3325,
      "oll": 3326,
      "Ġlaws": 3327,
      "endra": 3328,
      "Ġcounsel": 3329,
      "Ġgoes": 3330,
      "use": 3331,
      "Ġsatan": 3332,
      "hab": 3333,
      "Ġresources": 3334,
      "Ġfell": 3335,
      "Ġmix": 3336,
      "ply": 3337,
      "12": 3338,
      "Ġrejected": 3339,
      "Ġinside": 3340,
      "Ġplays": 3341,
      "Ġdenied": 3342,
      "Ġasia": 3343,
      "Ġreform": 3344,
      "Ġtried": 3345,
      "Ġ70": 3346,
      "Ġtoward": 3347,
      "Ġhighest": 3348,
      "Ġjoined": 3349,
      "Ġunits": 3350,
      "Ġcrime": 3351,
      "Ġautom": 3352,
      "Ġchill": 3353,
      "Ġspeed": 3354,
      "eness": 3355,
      "Ġmahind": 3356,
      "Ġbuilt": 3357,
      "500": 3358,
      "ghan": 3359,
      "Ġmas": 3360,
      "alore": 3361,
      "Ġevents": 3362,
      "Ġpatients": 3363,
      "iy": 3364,
      "Ġbapt": 3365,
      "olution": 3366,
      "Ġpartners": 3367,
      "rupt": 3368,
      "Ġserved": 3369,
      "Ġthousand": 3370,
      "bhp": 3371,
      "Ġremov": 3372,
      "Ġorganization": 3373,
      "Ġexamination": 3374,
      "Ġpetition": 3375,
      "Ġdraw": 3376,
      "quiry": 3377,
      "Ġ2015": 3378,
      "Ġannouncement": 3379,
      "alitha": 3380,
      "Ġshar": 3381,
      "Ġrelief": 3382,
      "fort": 3383,
      "Ġrefer": 3384,
      "Ġinnov": 3385,
      "Ġthereafter": 3386,
      "Ġmeanwhile": 3387,
      "Ġlands": 3388,
      "Ġkore": 3389,
      "Ġfestival": 3390,
      "Ġsolution": 3391,
      "chan": 3392,
      "'m": 3393,
      "Ġfeet": 3394,
      "Ġextreme": 3395,
      "Ġcritic": 3396,
      "Ġcomment": 3397,
      "Ġalmost": 3398,
      "Ġdemonst": 3399,
      "Ġresur": 3400,
      "14": 3401,
      "Ġheavens": 3402,
      "Ġmiddle": 3403,
      "Ġhospitals": 3404,
      "Ġtransl": 3405,
      "aya": 3406,
      "Ġstrate": 3407,
      "inese": 3408,
      "Ġsuffered": 3409,
      "Ġrajinikanth": 3410,
      "wide": 3411,
      "Ġ37": 3412,
      "Ġpoints": 3413,
      "Ġnut": 3414,
      ",'": 3415,
      "icip": 3416,
      "Ġpros": 3417,
      "Ġcontinues": 3418,
      "book": 3419,
      "Ġcompletely": 3420,
      "nm": 3421,
      "Ġseek": 3422,
      "Ġcondem": 3423,
      "indi": 3424,
      "Ġformed": 3425,
      "Ġcandidate": 3426,
      "Ġinterview": 3427,
      "Ġjayal": 3428,
      "Ġeuropean": 3429,
      "Ġhealthy": 3430,
      "Ġfre": 3431,
      "Ġreading": 3432,
      "Ġgas": 3433,
      "Ġfort": 3434,
      "Ġjobs": 3435,
      "Ġarch": 3436,
      "Ġdespite": 3437,
      "Ġpictures": 3438,
      "Ġmist": 3439,
      "Ġkannada": 3440,
      "Ġbasic": 3441,
      "Ġknew": 3442,
      "mo": 3443,
      "Ġhearing": 3444,
      "Ġmaximum": 3445,
      "Ġbeautiful": 3446,
      "Ġang": 3447,
      "sc": 3448,
      "Ġshows": 3449,
      "hib": 3450,
      "Ġdefe": 3451,
      "Ġinstru": 3452,
      "Ġreturned": 3453,
      "Ġfrench": 3454,
      "mon": 3455,
      "isf": 3456,
      "Ġhelps": 3457,
      "Ġmand": 3458,
      "dh": 3459,
      "su": 3460,
      "Ġcross": 3461,
      "Ġactually": 3462,
      "Ġkings": 3463,
      "Ġemb": 3464,
      "Ġpanchayat": 3465,
      "17": 3466,
      "ternal": 3467,
      "Ġmadurai": 3468,
      "enger": 3469,
      "Ġprophet": 3470,
      "Ġdisplay": 3471,
      "Ġjayalalitha": 3472,
      "Ġfed": 3473,
      "Ġmatthe": 3474,
      "Ġmun": 3475,
      "Ġloving": 3476,
      "Ġterrit": 3477,
      "kh": 3478,
      "Ġarrange": 3479,
      "Ġrecomm": 3480,
      "Ġclaimed": 3481,
      "Ġrap": 3482,
      "Ġnearly": 3483,
      "cious": 3484,
      "inent": 3485,
      "Ġoct": 3486,
      "Ġbul": 3487,
      "mer": 3488,
      "Ġdoctor": 3489,
      "Ġsource": 3490,
      "Ġsiv": 3491,
      "Ġphysical": 3492,
      "ault": 3493,
      "Ġoperations": 3494,
      "Ġaffect": 3495,
      "Ġsometimes": 3496,
      "Ġahead": 3497,
      "Ġwed": 3498,
      "ald": 3499,
      "alled": 3500,
      "Ġbom": 3501,
      "Ġstudies": 3502,
      "Ġhot": 3503,
      "Ġcontact": 3504,
      "Ġrevel": 3505,
      "Ġeffort": 3506,
      "Ġrussia": 3507,
      "Ġactors": 3508,
      "Ġdemocracy": 3509,
      "Ġtesting": 3510,
      "Ġtyp": 3511,
      "Ġcredit": 3512,
      "vision": 3513,
      "Ġpil": 3514,
      "rown": 3515,
      "Ġfirm": 3516,
      "Ġmatthew": 3517,
      "Ġseason": 3518,
      "hu": 3519,
      "ervation": 3520,
      "Ġcult": 3521,
      "Ġindians": 3522,
      "Ġsoldiers": 3523,
      "Ġclosed": 3524,
      "Ġshankar": 3525,
      "Ġquite": 3526,
      "Ġhappens": 3527,
      "Ġlate": 3528,
      "Ġinaugur": 3529,
      "pri": 3530,
      "Ġchinese": 3531,
      "Ġkamal": 3532,
      "Ġmotorcy": 3533,
      "abor": 3534,
      "Ġdirection": 3535,
      "Ġnature": 3536,
      "Ġvictory": 3537,
      "wor": 3538,
      "Ġloan": 3539,
      "Ġvoice": 3540,
      "Ġconstituency": 3541,
      "Ġod": 3542,
      "admk": 3543,
      "ta": 3544,
      "Ġrisk": 3545,
      "Ġmentioned": 3546,
      "Ġrout": 3547,
      "coming": 3548,
      "ladesh": 3549,
      "Ġhomes": 3550,
      "Ġmatters": 3551,
      "spe": 3552,
      "Ġincluded": 3553,
      "haps": 3554,
      "Ġproduce": 3555,
      "Ġplans": 3556,
      "Ġpred": 3557,
      "put": 3558,
      "Ġrescue": 3559,
      "Ġhours": 3560,
      "Ġforget": 3561,
      "Ġbihar": 3562,
      "Ġ32": 3563,
      "Ġvirat": 3564,
      "itate": 3565,
      "Ġlearning": 3566,
      "Ġwisdom": 3567,
      "inger": 3568,
      "Ġafghan": 3569,
      "Ġsept": 3570,
      "Ġcerem": 3571,
      "Ġsongs": 3572,
      "Ġsoul": 3573,
      "Ġcharge": 3574,
      "Ġelected": 3575,
      "Ġhearts": 3576,
      "usalem": 3577,
      "Ġprovin": 3578,
      "Ġwish": 3579,
      "lled": 3580,
      "Ġresponsible": 3581,
      "Ġmobile": 3582,
      "Ġlankan": 3583,
      "Ġmagaz": 3584,
      "Ġmillions": 3585,
      "ounded": 3586,
      "istic": 3587,
      "Ġmaruti": 3588,
      "Ġ80": 3589,
      "icial": 3590,
      "Ġcash": 3591,
      "Ġdesire": 3592,
      "Ġjerusalem": 3593,
      "Ġsugar": 3594,
      "Ġteaching": 3595,
      "Ġpreaching": 3596,
      "Ġweak": 3597,
      "iction": 3598,
      "Ġlets": 3599,
      "Ġnormal": 3600,
      "hers": 3601,
      "Ġlonger": 3602,
      "Ġsacrif": 3603,
      "Ġwont": 3604,
      "16": 3605,
      "ateg": 3606,
      "Ġexc": 3607,
      "Ġcoal": 3608,
      "Ġopened": 3609,
      "Ġperhaps": 3610,
      "pan": 3611,
      "Ġbuy": 3612,
      "ression": 3613,
      "Ġbharat": 3614,
      "Ġcard": 3615,
      "Ġbroad": 3616,
      "Ġresident": 3617,
      "ika": 3618,
      "izing": 3619,
      "Ġaiadmk": 3620,
      "Ġcru": 3621,
      "Ġscriptures": 3622,
      "Ġagreed": 3623,
      "Ġroom": 3624,
      "Ġfully": 3625,
      "ique": 3626,
      "Ġhappiness": 3627,
      "Ġprimary": 3628,
      "asan": 3629,
      "Ġacqu": 3630,
      "Ġoperation": 3631,
      "ties": 3632,
      "Ġlad": 3633,
      "Ġrank": 3634,
      "Ġworlds": 3635,
      "Ġaim": 3636,
      "Ġnumbers": 3637,
      "Ġeight": 3638,
      "what": 3639,
      "Ġjune": 3640,
      "Ġ150": 3641,
      "aks": 3642,
      "Ġunto": 3643,
      "Ġpeoples": 3644,
      "ato": 3645,
      "ese": 3646,
      "Ġgermany": 3647,
      "Ġund": 3648,
      "derabad": 3649,
      "Ġperformance": 3650,
      "Ġunf": 3651,
      "Ġcreation": 3652,
      "erative": 3653,
      "Ġstatus": 3654,
      "Ġml": 3655,
      "Ġdoor": 3656,
      "Ġrepe": 3657,
      "Ġlack": 3658,
      "Ġfactor": 3659,
      "Ġpolitic": 3660,
      "ips": 3661,
      "Ġbangladesh": 3662,
      "Ġfemale": 3663,
      "Ġcomfort": 3664,
      "gh": 3665,
      "Ġresurre": 3666,
      "Ġsn": 3667,
      "eared": 3668,
      "Ġpositive": 3669,
      "Ġcateg": 3670,
      "Ġsimple": 3671,
      "Ġdeaths": 3672,
      "Ġvit": 3673,
      "ously": 3674,
      "Ġboys": 3675,
      "arters": 3676,
      "Ġcouldnt": 3677,
      "Ġdisapp": 3678,
      "Ġhyderabad": 3679,
      "Ġexcell": 3680,
      "ented": 3681,
      "Ġvision": 3682,
      "ensive": 3683,
      "Ġescap": 3684,
      "Ġbran": 3685,
      "Ġcancer": 3686,
      "thy": 3687,
      "Ġjuly": 3688,
      "40": 3689,
      "miss": 3690,
      "Ġacting": 3691,
      "Ġmos": 3692,
      "Ġalleged": 3693,
      "Ġnearby": 3694,
      "Ġwickets": 3695,
      "Ġadop": 3696,
      "uled": 3697,
      "Ġmeaning": 3698,
      "Ġreward": 3699,
      "Ġauto": 3700,
      "Ġhor": 3701,
      "amy": 3702,
      "Ġreply": 3703,
      "oj": 3704,
      "21": 3705,
      "Ġtype": 3706,
      "Ġbeat": 3707,
      "akk": 3708,
      "Ġnames": 3709,
      "igation": 3710,
      "Ġenem": 3711,
      "Ġtransfer": 3712,
      "Ġgets": 3713,
      "Ġordered": 3714,
      "Ġsisters": 3715,
      "Ġsexual": 3716,
      "Ġfinally": 3717,
      "Ġcontain": 3718,
      "Ġdestroyed": 3719,
      "Ġchallenge": 3720,
      "Ġpriest": 3721,
      "Ġpack": 3722,
      "Ġchop": 3723,
      "acy": 3724,
      "Ġflight": 3725,
      "Ġ197": 3726,
      "Ġtwe": 3727,
      "Ġsigns": 3728,
      "ione": 3729,
      "Ġbox": 3730,
      "lt": 3731,
      "Ġsatisf": 3732,
      "Ġprovides": 3733,
      "Ġhostel": 3734,
      "Ġchairman": 3735,
      "Ġwicked": 3736,
      "Ġlooked": 3737,
      "Ġborder": 3738,
      "Ġprotests": 3739,
      "Ġintroduced": 3740,
      "'.": 3741,
      "Ġstruggle": 3742,
      "ras": 3743,
      "ray": 3744,
      "ades": 3745,
      "Ġdisciples": 3746,
      "Ġweight": 3747,
      "estic": 3748,
      "Ġaverage": 3749,
      "ows": 3750,
      "inth": 3751,
      "Ġbeginning": 3752,
      "Ġisland": 3753,
      "Ġarab": 3754,
      "ane": 3755,
      "Ġalloc": 3756,
      "Ġshocked": 3757,
      "Ġlond": 3758,
      "Ġfat": 3759,
      "Ġmach": 3760,
      "Ġthanks": 3761,
      "Ġloved": 3762,
      "Ġsite": 3763,
      "Ġconfidence": 3764,
      "Ġsubsid": 3765,
      "Ġdrinking": 3766,
      "Ġnit": 3767,
      "Ġexch": 3768,
      "Ġacad": 3769,
      "Ġhousehold": 3770,
      "rated": 3771,
      "orrow": 3772,
      "Ġapproach": 3773,
      "Ġfacing": 3774,
      "Ġpunishment": 3775,
      "Ġmassive": 3776,
      "ae": 3777,
      "Ġselected": 3778,
      "Ġidea": 3779,
      "60": 3780,
      "Ġil": 3781,
      "Ġexercise": 3782,
      "Ġdiscussed": 3783,
      "oming": 3784,
      "Ġsister": 3785,
      "Ġ33": 3786,
      "Ġequal": 3787,
      "Ġtemper": 3788,
      "Ġannual": 3789,
      "back": 3790,
      "nes": 3791,
      "Ġassign": 3792,
      "Ġreb": 3793,
      "Ġengineering": 3794,
      "Ġislam": 3795,
      "Ġclearly": 3796,
      "Ġrunning": 3797,
      "'re": 3798,
      "Ġjay": 3799,
      "Ġwashing": 3800,
      "Ġcenter": 3801,
      "Ġwat": 3802,
      "\\\"\"": 3803,
      "Ġfruit": 3804,
      "Ġrecorded": 3805,
      "Ġphoto": 3806,
      "Ġencourage": 3807,
      "Ġlie": 3808,
      "Ġyork": 3809,
      "Ġign": 3810,
      "Ġswe": 3811,
      "Ġcondol": 3812,
      "Ġwants": 3813,
      "oke": 3814,
      "Ġinitial": 3815,
      "Ġsend": 3816,
      "Ġconfirmed": 3817,
      "uki": 3818,
      "Ġbelievers": 3819,
      "Ġpione": 3820,
      "vind": 3821,
      "Ġwaiting": 3822,
      "Ġlabour": 3823,
      "Ġcharges": 3824,
      "Ġsides": 3825,
      "Ġsimply": 3826,
      "oint": 3827,
      "Ġkol": 3828,
      "Ġvote": 3829,
      "onda": 3830,
      "Ġkapoor": 3831,
      "Ġelder": 3832,
      "Ġseptember": 3833,
      "Ġlived": 3834,
      "aches": 3835,
      "oking": 3836,
      "Ġdecisions": 3837,
      "Ġcolleges": 3838,
      "ortem": 3839,
      "Ġgeneration": 3840,
      "Ġstalin": 3841,
      "olic": 3842,
      "here": 3843,
      "isha": 3844,
      "Ġimportance": 3845,
      "Ġgard": 3846,
      "Ġattacks": 3847,
      "Ġprogrammes": 3848,
      "Ġcustom": 3849,
      "Ġwarning": 3850,
      "Ġvillages": 3851,
      "asting": 3852,
      "Ġbush": 3853,
      "Ġgarlic": 3854,
      "ding": 3855,
      "io": 3856,
      "vt": 3857,
      "Ġlondon": 3858,
      "Ġslow": 3859,
      "Ġstreet": 3860,
      "Ġdidn": 3861,
      "Ġsuz": 3862,
      "Ġveget": 3863,
      "Ġdark": 3864,
      "Ġsimilarly": 3865,
      "Ġfair": 3866,
      "ena": 3867,
      "Ġdele": 3868,
      "Ġamaz": 3869,
      "ober": 3870,
      "Ġindic": 3871,
      "Ġopin": 3872,
      "Ġelders": 3873,
      "dra": 3874,
      "Ġjayalalithaa": 3875,
      "char": 3876,
      "Ġruling": 3877,
      "Ġwestern": 3878,
      "Ġgames": 3879,
      "Ġeducational": 3880,
      "Ġlearned": 3881,
      "Ġdigital": 3882,
      "Ġstandard": 3883,
      "Ġcarry": 3884,
      "Ġseed": 3885,
      "Ġevening": 3886,
      "anda": 3887,
      "eted": 3888,
      "Ġadj": 3889,
      "Ġsens": 3890,
      "ucle": 3891,
      "Ġzealand": 3892,
      "Ġrailways": 3893,
      "Ġtas": 3894,
      "Ġanimals": 3895,
      "Ġhebre": 3896,
      "eks": 3897,
      "ifest": 3898,
      "Ġpowerful": 3899,
      "Ġgoal": 3900,
      "Ġonion": 3901,
      "Ġah": 3902,
      "Ġbrid": 3903,
      "Ġtruly": 3904,
      "amin": 3905,
      "Ġexport": 3906,
      "ox": 3907,
      "Ġsurvey": 3908,
      "Ġpad": 3909,
      "Ġburn": 3910,
      "wd": 3911,
      "Ġive": 3912,
      "Ġfisher": 3913,
      "ems": 3914,
      "Ġprovision": 3915,
      "Ġmut": 3916,
      "apuram": 3917,
      "Ġsuzuki": 3918,
      "set": 3919,
      "Ġreduce": 3920,
      "Ġnewsp": 3921,
      "Ġschol": 3922,
      "Ġsigned": 3923,
      "yan": 3924,
      "Ġcapt": 3925,
      "Ġthou": 3926,
      "Ġbelieved": 3927,
      "Ġfoundation": 3928,
      "Ġcultural": 3929,
      "ruption": 3930,
      "Ġdetained": 3931,
      "Ġaj": 3932,
      "Ġundert": 3933,
      "Ġstandards": 3934,
      "Ġprob": 3935,
      "Ġindustries": 3936,
      "icient": 3937,
      "Ġhall": 3938,
      "Ġnath": 3939,
      "Ġcomplex": 3940,
      "ground": 3941,
      "Ġimper": 3942,
      "Ġtrou": 3943,
      "Ġcommissioner": 3944,
      "Ġtree": 3945,
      "ses": 3946,
      "Ġregional": 3947,
      "angana": 3948,
      "inder": 3949,
      "Ġeastern": 3950,
      "Ġstage": 3951,
      "Ġapproval": 3952,
      "Ġprobe": 3953,
      "Ġsession": 3954,
      "Ġdamaged": 3955,
      "gypt": 3956,
      "Ġidentified": 3957,
      "Ġceremony": 3958,
      "Ġdegree": 3959,
      "Ġtreated": 3960,
      "Ġproud": 3961,
      "Ġplat": 3962,
      "ams": 3963,
      "Ġimag": 3964,
      "Ġcritical": 3965,
      "Ġwild": 3966,
      "Ġdecember": 3967,
      "Ġconflic": 3968,
      "ken": 3969,
      "Ġsoft": 3970,
      "Ġterms": 3971,
      "Ġinquiry": 3972,
      "Ġmp": 3973,
      "Ġwarm": 3974,
      "Ġduty": 3975,
      "Ġprem": 3976,
      "Ġnucle": 3977,
      "Ġchaired": 3978,
      "Ġaugust": 3979,
      "Ġgain": 3980,
      "Ġquar": 3981,
      "iling": 3982,
      "Ġphase": 3983,
      "Ġsanctioned": 3984,
      "Ġnag": 3985,
      "Ġwalk": 3986,
      "uke": 3987,
      "Ġchallenges": 3988,
      "road": 3989,
      "Ġcauses": 3990,
      "Ġsched": 3991,
      "Ġsudden": 3992,
      "Ġappropri": 3993,
      "raham": 3994,
      "Ġstr": 3995,
      "Ġhell": 3996,
      "Ġactive": 3997,
      "Ġdemanded": 3998,
      "Ġprofession": 3999,
      "Ġindividuals": 4000,
      "Ġchemical": 4001,
      "Ġcas": 4002,
      "Ġegypt": 4003,
      "Ġsignificant": 4004,
      "Ġshifted": 4005,
      "Ġfunds": 4006,
      "Ġbiggest": 4007,
      "Ġgranted": 4008,
      "Ġvirus": 4009,
      "Ġarrived": 4010,
      "atore": 4011,
      "Ġbengaluru": 4012,
      "akumar": 4013,
      "Ġround": 4014,
      "Ġseeking": 4015,
      "raid": 4016,
      "hern": 4017,
      "Ġsales": 4018,
      "Ġmyself": 4019,
      "Ġsubst": 4020,
      "Ġpotential": 4021,
      "Ġrainfall": 4022,
      "Ġspent": 4023,
      "Ġaccounts": 4024,
      "Ġoctober": 4025,
      "edi": 4026,
      "Ġoccup": 4027,
      "Ġsustain": 4028,
      "ares": 4029,
      "Ġarun": 4030,
      "Ġmonitor": 4031,
      "Ġserving": 4032,
      "Ġweb": 4033,
      "Ġtrees": 4034,
      "Ġmercy": 4035,
      "Ġchance": 4036,
      "Ġourselves": 4037,
      "pper": 4038,
      "Ġmuk": 4039,
      "more": 4040,
      "Ġcorrect": 4041,
      "imbatore": 4042,
      "Ġlog": 4043,
      "Ġparad": 4044,
      "Ġclasses": 4045,
      "Ġlik": 4046,
      "Ġweap": 4047,
      "ateral": 4048,
      "Ġwebs": 4049,
      "Ġfulfill": 4050,
      "rep": 4051,
      "Ġwealth": 4052,
      "Ġconcern": 4053,
      "hel": 4054,
      "right": 4055,
      "Ġafraid": 4056,
      "Ġeye": 4057,
      "Ġtaught": 4058,
      "Ġbit": 4059,
      "Ġinterests": 4060,
      "ini": 4061,
      "Ġhundreds": 4062,
      "Ġmlas": 4063,
      "Ġplanning": 4064,
      "22": 4065,
      "Ġweeks": 4066,
      "Ġwid": 4067,
      "Ġremained": 4068,
      "Ġpromise": 4069,
      "Ġpud": 4070,
      "Ġrange": 4071,
      "Ġpension": 4072,
      "Ġprover": 4073,
      "Ġargu": 4074,
      "eties": 4075,
      "Ġshown": 4076,
      "Ġupd": 4077,
      "Ġcircum": 4078,
      "Ġjoin": 4079,
      "Ġstudying": 4080,
      "Ġjanuary": 4081,
      "ols": 4082,
      "Ġcoimbatore": 4083,
      "Ġproperty": 4084,
      "Ġguidance": 4085,
      "Ġfighting": 4086,
      "Ġparticularly": 4087,
      "Ġafghanistan": 4088,
      "Ġpractice": 4089,
      "kash": 4090,
      "Ġmanner": 4091,
      "Ġperfect": 4092,
      "Ġexisting": 4093,
      "gency": 4094,
      "Ġprincipal": 4095,
      "Ġnay": 4096,
      "Ġcrim": 4097,
      "Ġnoted": 4098,
      "Ġcommercial": 4099,
      "Ġcompetition": 4100,
      "itable": 4101,
      "Ġnove": 4102,
      "Ġdonald": 4103,
      "Ġeffective": 4104,
      "ammad": 4105,
      "Ġbattle": 4106,
      "utive": 4107,
      "ull": 4108,
      "Ġlower": 4109,
      "Ġstrike": 4110,
      "gen": 4111,
      "ti": 4112,
      "Ġstress": 4113,
      "Ġconvention": 4114,
      "inate": 4115,
      "Ġstrengthen": 4116,
      "Ġnir": 4117,
      "Ġdiscussion": 4118,
      "Ġconclud": 4119,
      "pers": 4120,
      "Ġdecide": 4121,
      "Ġbag": 4122,
      "Ġnovember": 4123,
      "ulated": 4124,
      "Ġleadership": 4125,
      "Ġnorthern": 4126,
      "Ġtests": 4127,
      "ware": 4128,
      "Ġkids": 4129,
      "Ġrapid": 4130,
      "Ġelectricity": 4131,
      "Ġpu": 4132,
      "arily": 4133,
      "Ġ45": 4134,
      "Ġgreek": 4135,
      "Ġtear": 4136,
      "Ġmohan": 4137,
      "yond": 4138,
      "Ġabraham": 4139,
      "Ġbenefici": 4140,
      "avan": 4141,
      "....": 4142,
      "oned": 4143,
      "ris": 4144,
      "Ġjourney": 4145,
      "da": 4146,
      "Ġnom": 4147,
      "11": 4148,
      "Ġchamp": 4149,
      "Ġhurt": 4150,
      "Ġscheduled": 4151,
      "inite": 4152,
      "Ġbond": 4153,
      "Ġcomputer": 4154,
      "anced": 4155,
      "Ġlies": 4156,
      "Ġnagar": 4157,
      "Ġdistribution": 4158,
      "Ġwriting": 4159,
      "Ġdiseases": 4160,
      "Ġtata": 4161,
      "Ġpromised": 4162,
      "Ġlevels": 4163,
      "Ġassistant": 4164,
      "nath": 4165,
      "Ġconsult": 4166,
      "pects": 4167,
      "Ġcontrovers": 4168,
      "Ġamend": 4169,
      "Ġbeyond": 4170,
      "cles": 4171,
      "Ġbound": 4172,
      "aging": 4173,
      "Ġextended": 4174,
      "Ġpleas": 4175,
      "Ġsmart": 4176,
      "Ġmaster": 4177,
      "iles": 4178,
      "Ġobtain": 4179,
      "Ġpresented": 4180,
      "Ġpurch": 4181,
      "Ġsystems": 4182,
      "Ġjudgment": 4183,
      "Ġisaiah": 4184,
      "Ġended": 4185,
      "Ġtrains": 4186,
      "yle": 4187,
      "icit": 4188,
      "Ġrice": 4189,
      "ils": 4190,
      "Ġhanded": 4191,
      "ili": 4192,
      "rative": 4193,
      "Ġmid": 4194,
      "Ġexplained": 4195,
      "Ġnetwork": 4196,
      "ball": 4197,
      "Ġseems": 4198,
      "Ġmoreover": 4199,
      "Ġsold": 4200,
      "Ġfam": 4201,
      "Ġdamage": 4202,
      "Ġtelevision": 4203,
      "phone": 4204,
      "Ġdeliver": 4205,
      "Ġleaves": 4206,
      "Ġvisited": 4207,
      "Ġfix": 4208,
      "hters": 4209,
      "Ġrupe": 4210,
      "Ġdaughters": 4211,
      "Ġthoughts": 4212,
      "Ġprofess": 4213,
      "Ġgather": 4214,
      "Ġtouch": 4215,
      "Ġscored": 4216,
      "iting": 4217,
      "Ġguar": 4218,
      "using": 4219,
      "Ġtourism": 4220,
      "jun": 4221,
      "Ġworldwide": 4222,
      "vert": 4223,
      "Ġmahindra": 4224,
      "cal": 4225,
      "pro": 4226,
      "verse": 4227,
      "Ġfee": 4228,
      "ca": 4229,
      "Ġemph": 4230,
      "Ġremains": 4231,
      "Ġdivision": 4232,
      "Ġnotice": 4233,
      "Ġmuslims": 4234,
      "Ġactivity": 4235,
      "Ġgram": 4236,
      "Ġpresence": 4237,
      "Ġyoga": 4238,
      "Ġusually": 4239,
      "Ġvotes": 4240,
      "adav": 4241,
      "Ġsund": 4242,
      "thern": 4243,
      "oring": 4244,
      "Ġspoken": 4245,
      "Ġconducting": 4246,
      "Ġawareness": 4247,
      "Ġrob": 4248,
      "Ġnuclear": 4249,
      "Ġravi": 4250,
      "Ġrohit": 4251,
      "Ġfrequ": 4252,
      "Ġterrorism": 4253,
      "Ġali": 4254,
      "Ġseeds": 4255,
      "Ġinsurance": 4256,
      "Ġteas": 4257,
      "Ġproduces": 4258,
      "ilateral": 4259,
      "Ġvik": 4260,
      "Ġfourth": 4261,
      "Ġrevelation": 4262,
      "Ġextremely": 4263,
      "Ġpromote": 4264,
      "Ġmuslim": 4265,
      "Ġcorinth": 4266,
      "Ġwasnt": 4267,
      "mortem": 4268,
      "Ġtrack": 4269,
      "Ġspecific": 4270,
      "Ġmicro": 4271,
      "uri": 4272,
      "Ġjames": 4273,
      "/-": 4274,
      "hen": 4275,
      "verty": 4276,
      "Ġpoverty": 4277,
      "aving": 4278,
      "Ġexamples": 4279,
      "Ġseth": 4280,
      "Ġwashington": 4281,
      "Ġwilling": 4282,
      "Ġconvers": 4283,
      "Ġagency": 4284,
      "my": 4285,
      "Ġpolls": 4286,
      "Ġradi": 4287,
      "Ġdisaster": 4288,
      "iri": 4289,
      "Ġreality": 4290,
      "ume": 4291,
      "Ġdifference": 4292,
      "Ġactions": 4293,
      "Ġgoods": 4294,
      "Ġ90": 4295,
      "Ġbecomes": 4296,
      "Ġtechnical": 4297,
      "Ġshowed": 4298,
      "Ġ75": 4299,
      "Ġkal": 4300,
      "Ġbail": 4301,
      "Ġvictims": 4302,
      "Ġgang": 4303,
      "Ġmagazine": 4304,
      "ague": 4305,
      "Ġcollabor": 4306,
      "Ġsouthern": 4307,
      "Ġplatform": 4308,
      "uch": 4309,
      "Ġly": 4310,
      "Ġworry": 4311,
      "Ġorganisation": 4312,
      "Ġliterature": 4313,
      "Ġuk": 4314,
      "Ġms": 4315,
      "Ġseeing": 4316,
      "Ġsolar": 4317,
      "Ġfaced": 4318,
      "Ġpraise": 4319,
      "iture": 4320,
      "Ġexternal": 4321,
      "Ġappropriate": 4322,
      "Ġproposed": 4323,
      "Ġcustody": 4324,
      "Ġbroke": 4325,
      "Ġprinciples": 4326,
      "Ġ+": 4327,
      "Ġwelcome": 4328,
      "Ġ:": 4329,
      "Ġtransform": 4330,
      "Ġunique": 4331,
      "Ġcars": 4332,
      "Ġmissing": 4333,
      "Ġtable": 4334,
      "Ġcommunication": 4335,
      "Ġskin": 4336,
      "Ġsonia": 4337,
      "lies": 4338,
      "Ġkeeping": 4339,
      "Ġbuildings": 4340,
      "Ġfishermen": 4341,
      "Ġ194": 4342,
      "Ġposted": 4343,
      "hammad": 4344,
      "Ġkorea": 4345,
      "Ġsupported": 4346,
      "Ġscientists": 4347,
      "Ġhind": 4348,
      "Ġbelief": 4349,
      "Ġbomb": 4350,
      "Ġsuc": 4351,
      "Ġcultiv": 4352,
      "rary": 4353,
      "hered": 4354,
      "craft": 4355,
      "Ġpandemic": 4356,
      "Ġanimal": 4357,
      "?\"\"\"": 4358,
      "Ġbear": 4359,
      "Ġimage": 4360,
      "oked": 4361,
      "Ġfacility": 4362,
      "Ġreporters": 4363,
      "anded": 4364,
      "abh": 4365,
      "Ġjews": 4366,
      "ployed": 4367,
      "Ġhom": 4368,
      "Ġindependence": 4369,
      "Ġpregn": 4370,
      "Ġthiruv": 4371,
      "Ġcitizenship": 4372,
      "Ġdomestic": 4373,
      "Ġalleg": 4374,
      "Ġconsequ": 4375,
      "cript": 4376,
      "Ġ400": 4377,
      "upathi": 4378,
      "Ġextra": 4379,
      "Ġerror": 4380,
      "Ġkil": 4381,
      "Ġreportedly": 4382,
      "rences": 4383,
      "Ġstock": 4384,
      "Ġoverse": 4385,
      "Ġginger": 4386,
      "Ġgun": 4387,
      "Ġdisbelie": 4388,
      "Ġsurf": 4389,
      "Ġvirt": 4390,
      "Ġox": 4391,
      "ula": 4392,
      "Ġanger": 4393,
      "Ġfif": 4394,
      "ij": 4395,
      "Ġimmediate": 4396,
      "Ġdispute": 4397,
      "ellig": 4398,
      "Ġhighlight": 4399,
      "Ġexact": 4400,
      "Ġcra": 4401,
      "Ġaltern": 4402,
      "Ġcath": 4403,
      "Ġnotification": 4404,
      "Ġrock": 4405,
      "Ġgst": 4406,
      "kata": 4407,
      "Ġcorruption": 4408,
      "Ġheadqu": 4409,
      "Ġclimate": 4410,
      "Ġlabor": 4411,
      "pm": 4412,
      "Ġperman": 4413,
      "Ġforms": 4414,
      "Ġchann": 4415,
      "Ġfeelings": 4416,
      "Ġillust": 4417,
      "ashed": 4418,
      "Ġpras": 4419,
      "Ġspecies": 4420,
      "Ġappeared": 4421,
      "Ġclos": 4422,
      "Ġproverbs": 4423,
      "Ġjos": 4424,
      "Ġequip": 4425,
      "Ġsummit": 4426,
      "Ġpie": 4427,
      "Ġjose": 4428,
      "Ġplayers": 4429,
      "equ": 4430,
      "Ġwithdra": 4431,
      "Ġtoss": 4432,
      "Ġlimit": 4433,
      "Ġhaasan": 4434,
      "Ġfunctioning": 4435,
      "gra": 4436,
      "Ġlaug": 4437,
      "athy": 4438,
      "aryana": 4439,
      "they": 4440,
      "Ġphotos": 4441,
      "Ġemphas": 4442,
      "lied": 4443,
      "Ġball": 4444,
      "Ġcourage": 4445,
      "Ġfle": 4446,
      "Ġpark": 4447,
      "Ġdirectly": 4448,
      "va": 4449,
      "Ġhill": 4450,
      "hens": 4451,
      "Ġ34": 4452,
      "Ġchap": 4453,
      "Ġgovt": 4454,
      "Ġmere": 4455,
      "Ġremoved": 4456,
      "Ġproducer": 4457,
      "Ġmunicip": 4458,
      "Ġprayers": 4459,
      "Ġcalls": 4460,
      "Ġpartnership": 4461,
      "time": 4462,
      "Ġdeveloping": 4463,
      "Ġplaced": 4464,
      "Ġresurrection": 4465,
      "Ġprivile": 4466,
      "ayan": 4467,
      "Ġfeed": 4468,
      "Ġparadise": 4469,
      "lon": 4470,
      "aced": 4471,
      "Ġfra": 4472,
      "Ġunable": 4473,
      "Ġbecoming": 4474,
      "ooth": 4475,
      "Ġadvice": 4476,
      "Ġhop": 4477,
      "Ġchoose": 4478,
      "arc": 4479,
      "Ġcolor": 4480,
      "Ġsick": 4481,
      "Ġmedicine": 4482,
      "Ġelectron": 4483,
      "Ġyouths": 4484,
      "Ġdrugs": 4485,
      "Ġlib": 4486,
      "Ġcry": 4487,
      "Ġharyana": 4488,
      "Ġopposed": 4489,
      "Ġtaluk": 4490,
      "Ġexpend": 4491,
      "Ġmadhya": 4492,
      "Ġrej": 4493,
      "Ġfacil": 4494,
      "Ġhonda": 4495,
      "Ġsymb": 4496,
      "Ġminimum": 4497,
      "Ġintellig": 4498,
      "udd": 4499,
      "Ġregul": 4500,
      "Ġdescribed": 4501,
      "Ġmeasure": 4502,
      "india": 4503,
      "ext": 4504,
      "like": 4505,
      "west": 4506,
      "Ġnotes": 4507,
      "Ġawarded": 4508,
      "Ġcold": 4509,
      "Ġdedicated": 4510,
      "Ġdismiss": 4511,
      "Ġsetting": 4512,
      "Ġcompens": 4513,
      "poon": 4514,
      "Ġdeli": 4515,
      "ga": 4516,
      "Ġremaining": 4517,
      "Ġbase": 4518,
      "Ġsucceed": 4519,
      "Ġeth": 4520,
      "Ġreceiving": 4521,
      "Ġlose": 4522,
      "Ġroyal": 4523,
      "Ġsuresh": 4524,
      "Ġwriter": 4525,
      "Ġpropos": 4526,
      "Ġfacebook": 4527,
      "Ġlegislative": 4528,
      "Ġwaste": 4529,
      "Ġchoice": 4530,
      "Ġflu": 4531,
      "Ġyadav": 4532,
      "Ġliber": 4533,
      "Ġvish": 4534,
      "Ġgal": 4535,
      "Ġinfluence": 4536,
      "Ġwebsite": 4537,
      "Ġshut": 4538,
      "aji": 4539,
      "Ġdocument": 4540,
      "Ġ36": 4541,
      "Ġaccordingly": 4542,
      "Ġmish": 4543,
      "Ġdin": 4544,
      "Ġattitude": 4545,
      "Ġtelangana": 4546,
      "Ġkolkata": 4547,
      "raj": 4548,
      "Ġseriously": 4549,
      "iya": 4550,
      "Ġkov": 4551,
      "Ġhair": 4552,
      "Ġsuffer": 4553,
      "Ġquickly": 4554,
      "Ġcompared": 4555,
      "Ġmanufacturing": 4556,
      "Ġopinion": 4557,
      "Ġdebut": 4558,
      "Ġaccompan": 4559,
      "Ġmotorcycle": 4560,
      "Ġfeb": 4561,
      "Ġrajap": 4562,
      "Ġseparate": 4563,
      "cul": 4564,
      "his": 4565,
      "Ġlatest": 4566,
      "imately": 4567,
      "Ġorigin": 4568,
      "Ġquestioned": 4569,
      "there": 4570,
      "Ġsym": 4571,
      "Ġpowers": 4572,
      "dp": 4573,
      "Ġflag": 4574,
      "Ġsethupathi": 4575,
      "Ġcircumst": 4576,
      "Ġaid": 4577,
      "Ġsacrifice": 4578,
      "asi": 4579,
      "Ġupcoming": 4580,
      "Ġ2011": 4581,
      "Ġsale": 4582,
      "Ġbranch": 4583,
      "Ġbri": 4584,
      "Ġemotion": 4585,
      "iah": 4586,
      "Ġjew": 4587,
      "erate": 4588,
      "Ġabroad": 4589,
      "Ġbehav": 4590,
      "Ġroman": 4591,
      "Ġii": 4592,
      "Ġraja": 4593,
      "Ġversion": 4594,
      "Ġaad": 4595,
      "Ġgift": 4596,
      "Ġscientific": 4597,
      "Ġinvited": 4598,
      "Ġrelatives": 4599,
      "Ġangels": 4600,
      "Ġresulted": 4601,
      "Ġ--": 4602,
      "Ġvital": 4603,
      "Ġheaded": 4604,
      "Ġdivine": 4605,
      "tion": 4606,
      "Ġsought": 4607,
      "Ġselect": 4608,
      "Ġdial": 4609,
      "arya": 4610,
      "Ġvent": 4611,
      "Ġdhan": 4612,
      "Ġkn": 4613,
      "Ġreflect": 4614,
      "Ġverily": 4615,
      "Ġongoing": 4616,
      "Ġfram": 4617,
      "Ġselection": 4618,
      "Ġcanada": 4619,
      "Ġdal": 4620,
      "Ġ195": 4621,
      "undai": 4622,
      "99": 4623,
      "Ġstanding": 4624,
      "Ġrising": 4625,
      "Ġwinning": 4626,
      "Ġstone": 4627,
      "Ġanointed": 4628,
      "ander": 4629,
      "Ġsurr": 4630,
      "Ġhousing": 4631,
      "Ġ...": 4632,
      "Ġeverybody": 4633,
      "Ġcourts": 4634,
      "Ġmel": 4635,
      "Ġhyundai": 4636,
      "gic": 4637,
      "Ġji": 4638,
      "wing": 4639,
      "Ġhavent": 4640,
      "Ġexchange": 4641,
      "Ġ2013": 4642,
      "wered": 4643,
      "lying": 4644,
      "Ġvan": 4645,
      "mohan": 4646,
      "Ġtitle": 4647,
      "Ġdro": 4648,
      "Ġwhos": 4649,
      "Ġdelay": 4650,
      "Ġsources": 4651,
      "pet": 4652,
      "Ġhour": 4653,
      "aken": 4654,
      "Ġsubsidy": 4655,
      "Ġdear": 4656,
      "Ġpermission": 4657,
      "Ġsett": 4658,
      "Ġchandra": 4659,
      "Ġplants": 4660,
      "Ġurged": 4661,
      "Ġcelebrated": 4662,
      "Ġka": 4663,
      "Ġboost": 4664,
      "Ġjoseph": 4665,
      "ming": 4666,
      "enant": 4667,
      "Ġsky": 4668,
      "Ġcrowd": 4669,
      "Ġok": 4670,
      "Ġmental": 4671,
      "Ġcounter": 4672,
      "Ġmoving": 4673,
      "Ġtribal": 4674,
      "Ġcat": 4675,
      "Ġoffering": 4676,
      "Ġguard": 4677,
      "Ġwarned": 4678,
      "aration": 4679,
      "Ġseat": 4680,
      "Ġeventually": 4681,
      "Ġmultiple": 4682,
      "Ġ196": 4683,
      "Ġinvestigated": 4684,
      "Ġtraditional": 4685,
      "Ġrid": 4686,
      "Ġawake": 4687,
      "Ġprovince": 4688,
      "Ġoce": 4689,
      "Ġliqu": 4690,
      "aker": 4691,
      "Ġmanifest": 4692,
      "Ġloyal": 4693,
      "ping": 4694,
      "Ġresist": 4695,
      "pher": 4696,
      "Ġtroops": 4697,
      "Ġcove": 4698,
      "Ġannivers": 4699,
      "Ġsurprised": 4700,
      "astic": 4701,
      "Ġwedding": 4702,
      "Ġinitiative": 4703,
      "Ġopening": 4704,
      "off": 4705,
      "Ġscreen": 4706,
      "nan": 4707,
      "Ġdram": 4708,
      "Ġundergoing": 4709,
      "Ġmig": 4710,
      "Ġkid": 4711,
      "Ġtrial": 4712,
      "Ġassociated": 4713,
      "Ġprize": 4714,
      "zz": 4715,
      "Ġemergency": 4716,
      "13": 4717,
      "Ġspend": 4718,
      "Ġoccurred": 4719,
      "Ġmemorial": 4720,
      "Ġdwell": 4721,
      "you": 4722,
      "Ġanswers": 4723,
      "Ġadvis": 4724,
      "cs": 4725,
      "arked": 4726,
      "Ġfathers": 4727,
      "Ġcircumstances": 4728,
      "Ġsand": 4729,
      "ster": 4730,
      "elled": 4731,
      "Ġmechan": 4732,
      "Ġeasily": 4733,
      "Ġfavor": 4734,
      "Ġdangerous": 4735,
      "Ġpeak": 4736,
      "Ġcorinthians": 4737,
      "xic": 4738,
      "Ġstor": 4739,
      "Ġcompl": 4740,
      "Ġindependent": 4741,
      "alli": 4742,
      "Ġgreatest": 4743,
      "Ġproc": 4744,
      "Ġprakash": 4745,
      "rene": 4746,
      "Ġhyd": 4747,
      "Ġscholars": 4748,
      "Ġcode": 4749,
      "ruary": 4750,
      "Ġoly": 4751,
      "Ġdiscipl": 4752,
      "icket": 4753,
      "Ġadministrative": 4754,
      "aste": 4755,
      "Ġentered": 4756,
      "Ġhighly": 4757,
      "that": 4758,
      "anged": 4759,
      "iveness": 4760,
      "Ġrefuge": 4761,
      "speed": 4762,
      "Ġstrict": 4763,
      "Ġforever": 4764,
      "Ġorganized": 4765,
      "Ġcaught": 4766,
      "Ġanniversary": 4767,
      "Ġolymp": 4768,
      "Ġbib": 4769,
      "enty": 4770,
      "Ġhonor": 4771,
      "Ġinitiatives": 4772,
      "Ġfavour": 4773,
      "Ġlaid": 4774,
      "Ġdelight": 4775,
      "Ġorganised": 4776,
      "Ġperformed": 4777,
      "Ġchilli": 4778,
      "iced": 4779,
      "Ġstories": 4780,
      "Ġjanata": 4781,
      "Ġheavenly": 4782,
      "Ġrevolution": 4783,
      "Ġwall": 4784,
      "ancy": 4785,
      "Ġalc": 4786,
      "rim": 4787,
      "vest": 4788,
      "Ġleng": 4789,
      "Ġleads": 4790,
      "Ġinterested": 4791,
      "araman": 4792,
      "Ġloans": 4793,
      "Ġblast": 4794,
      "dict": 4795,
      "Ġreduced": 4796,
      "Ġorders": 4797,
      "Ġpanic": 4798,
      "Ġlif": 4799,
      "Ġmessenger": 4800,
      "Ġinnings": 4801,
      "Ġtiruv": 4802,
      "ria": 4803,
      "Ġeating": 4804,
      "akar": 4805,
      "Ġcertificate": 4806,
      "Ġprominent": 4807,
      "oured": 4808,
      "Ġheadquarters": 4809,
      "Ġshops": 4810,
      "Ġinterrog": 4811,
      "Ġnumerous": 4812,
      "Ġbackward": 4813,
      "Ġexpenditure": 4814,
      "Ġdouble": 4815,
      "rah": 4816,
      "Ġalive": 4817,
      "Ġparticipate": 4818,
      "Ġlockdown": 4819,
      "mala": 4820,
      "Ġrajya": 4821,
      "Ġsilver": 4822,
      "Ġability": 4823,
      "oting": 4824,
      "Ġdrive": 4825,
      "ellow": 4826,
      "rees": 4827,
      "Ġrussian": 4828,
      "Ġalcoh": 4829,
      "Ġbangalore": 4830,
      "Ġremove": 4831,
      "Ġoffices": 4832,
      "Ġfollowers": 4833,
      "Ġdemands": 4834,
      "Ġfruits": 4835,
      "inations": 4836,
      "Ġrescued": 4837,
      "Ġdepartments": 4838,
      "Ġtoll": 4839,
      "Ġunity": 4840,
      "Ġmuse": 4841,
      "Ġpossess": 4842,
      "oti": 4843,
      "Ġmarkets": 4844,
      "resp": 4845,
      "othy": 4846,
      "but": 4847,
      "Ġadam": 4848,
      "ography": 4849,
      "Ġprove": 4850,
      "Ġcompr": 4851,
      "Ġfeature": 4852,
      "Ġsympt": 4853,
      "Ġblessings": 4854,
      "Ġsocialist": 4855,
      "Ġluke": 4856,
      "Ġdeeds": 4857,
      "80": 4858,
      "meric": 4859,
      "Ġinitiated": 4860,
      "Ġdebate": 4861,
      "ructed": 4862,
      "Ġsush": 4863,
      "Ġadvance": 4864,
      "Ġearthqu": 4865,
      "Ġrally": 4866,
      "Ġmanmohan": 4867,
      "Ġbackground": 4868,
      "Ġ250": 4869,
      "Ġmary": 4870,
      "Ġaircraft": 4871,
      "Ġspokes": 4872,
      "Ġtrip": 4873,
      "Ġmart": 4874,
      "Ġpermanent": 4875,
      "Ġmeant": 4876,
      "pre": 4877,
      "wer": 4878,
      "Ġoptions": 4879,
      "Ġder": 4880,
      "Ġasking": 4881,
      "Ġbraz": 4882,
      "Ġrates": 4883,
      "Ġnepal": 4884,
      "ensions": 4885,
      "Ġcareer": 4886,
      "Ġdistributed": 4887,
      "Ġincidents": 4888,
      "Ġdut": 4889,
      "Ġcamera": 4890,
      "overy": 4891,
      "Ġwonderful": 4892,
      "aded": 4893,
      "Ġoffers": 4894,
      "Ġtypes": 4895,
      "mod": 4896,
      "Ġproved": 4897,
      "Ġentry": 4898,
      "Ġobjective": 4899,
      "Ġpate": 4900,
      "tenance": 4901,
      "Ġpromises": 4902,
      "Ġturmeric": 4903,
      "rd": 4904,
      "Ġaz": 4905,
      "Ġtrave": 4906,
      "Ġgeor": 4907,
      "Ġaccompl": 4908,
      "Ġrighteousness": 4909,
      "Ġsuv": 4910,
      "Ġisol": 4911,
      "Ġisraelites": 4912,
      "Ġstrongly": 4913,
      "Ġreddy": 4914,
      "rew": 4915,
      "Ġkilling": 4916,
      "Ġfebruary": 4917,
      "Ġeg": 4918,
      "lesh": 4919,
      "\"\",": 4920,
      "Ġpages": 4921,
      "Ġirr": 4922,
      "Ġweapons": 4923,
      "wa": 4924,
      "Ġsharing": 4925,
      "Ġassault": 4926,
      "Ġanswered": 4927,
      "Ġnewspaper": 4928,
      "Ġincl": 4929,
      "Ġcontext": 4930,
      "Ġstorage": 4931,
      "Ġhelping": 4932,
      "Ġshap": 4933,
      "Ġsupporting": 4934,
      "Ġmaintenance": 4935,
      "Ġverdict": 4936,
      "pi": 4937,
      "Ġtruck": 4938,
      "Ġspeaker": 4939,
      "Ġdoll": 4940,
      "Ġknowing": 4941,
      "Ġrajnath": 4942,
      "Ġcontribution": 4943,
      "Ġinspired": 4944,
      "Ġadvant": 4945,
      "Ġviews": 4946,
      "Ġsena": 4947,
      "ji": 4948,
      "Ġsight": 4949,
      "Ġconfident": 4950,
      "Ġnine": 4951,
      "Ġestablishment": 4952,
      "Ġlines": 4953,
      "idu": 4954,
      "Ġscale": 4955,
      "Ġfollows": 4956,
      "Ġintegrated": 4957,
      "tower": 4958,
      "ambaram": 4959,
      "Ġpolicies": 4960,
      "Ġtask": 4961,
      "ores": 4962,
      "elines": 4963,
      "Ġglory": 4964,
      "Ġcontains": 4965,
      "Ġheight": 4966,
      "Ġenhan": 4967,
      "Ġcoord": 4968,
      "Ġclaims": 4969,
      "Ġolder": 4970,
      "Ġdivided": 4971,
      "Ġdestruction": 4972,
      "Ġscore": 4973,
      "Ġfeeling": 4974,
      "Ġbegun": 4975,
      "Ġpayment": 4976,
      "Ġmuseum": 4977,
      "Ġtimothy": 4978,
      "Ġsheep": 4979,
      "Ġsort": 4980,
      "Ġrace": 4981,
      "zy": 4982,
      "Ġorganiz": 4983,
      "Ġmant": 4984,
      "Ġsubmitted": 4985,
      "Ġapproves": 4986,
      "Ġwishes": 4987,
      "bar": 4988,
      "Ġfuel": 4989,
      "Ġ)": 4990,
      "Ġcreator": 4991,
      "Ġfamous": 4992,
      "Ġtemperature": 4993,
      "Ġcontent": 4994,
      "hem": 4995,
      "Ġcontinuing": 4996,
      "Ġak": 4997,
      "Ġsav": 4998,
      "Ġtreas": 4999,
      "Ġexecutive": 5000,
      "Ġvacc": 5001,
      "Ġscene": 5002,
      "Ġdetermined": 5003,
      "Ġmouth": 5004,
      "Ġstations": 5005,
      "Ġentertain": 5006,
      "apore": 5007,
      "standing": 5008,
      "Ġvalues": 5009,
      "Ġcriminal": 5010,
      "zes": 5011,
      "Ġmam": 5012,
      "Ġcompon": 5013,
      "ius": 5014,
      "Ġsize": 5015,
      "Ġrivers": 5016,
      "abled": 5017,
      "Ġunderst": 5018,
      "Ġapplications": 5019,
      "Ġoption": 5020,
      "ky": 5021,
      "Ġpenal": 5022,
      "Ġcompensation": 5023,
      "Ġconsist": 5024,
      "Ġbegins": 5025,
      "Ġfill": 5026,
      "Ġnab": 5027,
      "Ġitems": 5028,
      "Ġprint": 5029,
      "Ġwatchtower": 5030,
      "Ġceleb": 5031,
      "veli": 5032,
      "Ġbilateral": 5033,
      "based": 5034,
      "35": 5035,
      "vation": 5036,
      "Ġsaved": 5037,
      "Ġbaptized": 5038,
      "Ġmanufacture": 5039,
      "known": 5040,
      "Ġcondolences": 5041,
      "alai": 5042,
      "ender": 5043,
      "Ġenable": 5044,
      "Ġsith": 5045,
      "Ġ!": 5046,
      "Ġresolution": 5047,
      "Ġcrops": 5048,
      "Ġterrorist": 5049,
      "inar": 5050,
      "Ġsell": 5051,
      "Ġdance": 5052,
      "Ġbeneficiaries": 5053,
      "Ġbed": 5054,
      "Ġdetailed": 5055,
      "Ġsections": 5056,
      "Ġconstructed": 5057,
      "Ġanx": 5058,
      "lasting": 5059,
      "Ġasian": 5060,
      "Ġprofessor": 5061,
      "Ġcatholic": 5062,
      "Ġcomments": 5063,
      "Ġdub": 5064,
      "Ġcolom": 5065,
      "Ġmonitoring": 5066,
      "Ġguide": 5067,
      "claim": 5068,
      "Ġvegetables": 5069,
      "Ġconflict": 5070,
      "Ġgoals": 5071,
      "Ġterrorists": 5072,
      "Ġcosts": 5073,
      "cast": 5074,
      "Ġmothers": 5075,
      "Ġadult": 5076,
      "Ġarrangements": 5077,
      "Ġlength": 5078,
      "90": 5079,
      "Ġimposed": 5080,
      "Ġextent": 5081,
      "Ġprosper": 5082,
      "Ġrecommend": 5083,
      "24": 5084,
      "Ġdepos": 5085,
      "Ġflesh": 5086,
      "Ġcareful": 5087,
      "Ġrao": 5088,
      "agers": 5089,
      "Ġ38": 5090,
      "Ġcollect": 5091,
      "oe": 5092,
      "Ġiron": 5093,
      "pping": 5094,
      "Ġmunicipal": 5095,
      "aksh": 5096,
      "Ġsolom": 5097,
      "idden": 5098,
      "Ġmatches": 5099,
      "Ġwa": 5100,
      "Ġstake": 5101,
      "reprene": 5102,
      "Ġblessed": 5103,
      "Ġarticles": 5104,
      "alf": 5105,
      "Ġraman": 5106,
      "Ġskills": 5107,
      "Ġfert": 5108,
      "Ġsymptoms": 5109,
      "Ġstood": 5110,
      "Ġpaper": 5111,
      "Ġplanned": 5112,
      "Ġ2012": 5113,
      "Ġfailure": 5114,
      "Ġenterpr": 5115,
      "Ġbirthday": 5116,
      "oni": 5117,
      "Ġrat": 5118,
      "Ġrepresentatives": 5119,
      "usive": 5120,
      "person": 5121,
      "Ġdeleg": 5122,
      "Ġkovind": 5123,
      "'ve": 5124,
      "Ġeverlasting": 5125,
      "Ġachieved": 5126,
      "Ġfulfilled": 5127,
      "ashes": 5128,
      "Ġvell": 5129,
      "Ġbelongs": 5130,
      "Ġorganis": 5131,
      "Ġchampions": 5132,
      "Ġconcept": 5133,
      "Ġcancell": 5134,
      "Ġnavy": 5135,
      "Ġpatient": 5136,
      "iment": 5137,
      "Ġamendment": 5138,
      "Ġkg": 5139,
      "Ġotherwise": 5140,
      "Ġwash": 5141,
      "tery": 5142,
      "Ġmoon": 5143,
      "ester": 5144,
      "Ġcenturies": 5145,
      "Ġbuses": 5146,
      "Ġterritory": 5147,
      "Ġdiscussions": 5148,
      "Ġscared": 5149,
      "Ġvitamin": 5150,
      "Ġrajiv": 5151,
      "rid": 5152,
      "Ġworried": 5153,
      "Ġnaidu": 5154,
      "Ġcovered": 5155,
      "Ġprasad": 5156,
      "Ġconcl": 5157,
      "Ġcompound": 5158,
      "Ġtrig": 5159,
      "Ġsitharaman": 5160,
      "Ġrad": 5161,
      "Ġhabit": 5162,
      "Ġarmed": 5163,
      "Ġentreprene": 5164,
      "Ġtank": 5165,
      "Ġresidents": 5166,
      "rant": 5167,
      "Ġproceed": 5168,
      "Ġislands": 5169,
      "Ġstraight": 5170,
      "abet": 5171,
      "Ġguest": 5172,
      "Ġoriginal": 5173,
      "och": 5174,
      "Ġlic": 5175,
      "Ġjag": 5176,
      "uff": 5177,
      "Ġbowl": 5178,
      "Ġwidely": 5179,
      "Ġec": 5180,
      "Ġcasual": 5181,
      "unel": 5182,
      "Ġutil": 5183,
      "Ġheres": 5184,
      "Ġque": 5185,
      "Ġmotiv": 5186,
      "Ġmira": 5187,
      "Ġnegative": 5188,
      "istics": 5189,
      "Ġcau": 5190,
      "Ġwors": 5191,
      "Ġearn": 5192,
      "Ġhasnt": 5193,
      "Ġille": 5194,
      "pa": 5195,
      "Ġahmed": 5196,
      "Ġanybody": 5197,
      "Ġparliamentary": 5198,
      "inam": 5199,
      "Ġstudied": 5200,
      "Ġdocuments": 5201,
      "Ġconcerning": 5202,
      "Ġweather": 5203,
      "Ġcommunities": 5204,
      "Ġdelive": 5205,
      "Ġshop": 5206,
      "Ġfit": 5207,
      "Ġreplied": 5208,
      "Ġoppos": 5209,
      "Ġmountain": 5210,
      "Ġwelcom": 5211,
      "Ġpersec": 5212,
      "Ġreforms": 5213,
      "Ġmi": 5214,
      "Ġcontract": 5215,
      "Ġocean": 5216,
      "Ġpure": 5217,
      "van": 5218,
      "Ġaud": 5219,
      "ych": 5220,
      "icted": 5221,
      "jan": 5222,
      "Ġsain": 5223,
      "Ġappoint": 5224,
      "Ġrespectively": 5225,
      "Ġpakistani": 5226,
      "Ġstands": 5227,
      "iger": 5228,
      "Ġchid": 5229,
      "Ġfundament": 5230,
      "Ġraise": 5231,
      "Ġarjun": 5232,
      "Ġmiles": 5233,
      "Ġproof": 5234,
      "rap": 5235,
      "Ġdy": 5236,
      "Ġsins": 5237,
      "ateful": 5238,
      "Ġpractices": 5239,
      "cers": 5240,
      "Ġbridge": 5241,
      "',": 5242,
      "Ġregistration": 5243,
      "Ġpresidential": 5244,
      "23": 5245,
      "under": 5246,
      "Ġaudience": 5247,
      "Ġpatel": 5248,
      "Ġsaudi": 5249,
      "Ġmort": 5250,
      "Ġmarg": 5251,
      "Ġvolunt": 5252,
      "atma": 5253,
      "Ġkindness": 5254,
      "Ġmedium": 5255,
      "alam": 5256,
      "Ġdeployed": 5257,
      "Ġsocieties": 5258,
      "Ġpap": 5259,
      "wali": 5260,
      "Ġbroken": 5261,
      "rer": 5262,
      "Ġsectors": 5263,
      "unelveli": 5264,
      "Ġnam": 5265,
      "Ġproced": 5266,
      "Ġtheat": 5267,
      "Ġaddressing": 5268,
      "Ġhonour": 5269,
      "Ġnirmala": 5270,
      "Ġmerc": 5271,
      "Ġbritain": 5272,
      "het": 5273,
      "Ġeffects": 5274,
      "Ġexperienced": 5275,
      "Ġthee": 5276,
      "Ġinstitution": 5277,
      "Ġexpression": 5278,
      "Ġltd": 5279,
      "Ġabd": 5280,
      "Ġdriving": 5281,
      "gery": 5282,
      "Ġelig": 5283,
      "Ġequipment": 5284,
      "cp": 5285,
      "Ġwatching": 5286,
      "ojana": 5287,
      "Ġsang": 5288,
      "Ġsovere": 5289,
      "Ġplayer": 5290,
      "Ġfriendship": 5291,
      "force": 5292,
      "avur": 5293,
      "Ġreferred": 5294,
      "Ġobserved": 5295,
      "room": 5296,
      "Ġmale": 5297,
      "Ġcovenant": 5298,
      "Ġsuddenly": 5299,
      "Ġfled": 5300,
      "Ġsingapore": 5301,
      "ottai": 5302,
      "nament": 5303,
      "oles": 5304,
      "Ġobl": 5305,
      "Ġkrishna": 5306,
      "Ġdepend": 5307,
      "Ġprizes": 5308,
      "Ġdani": 5309,
      "Ġinhab": 5310,
      "agn": 5311,
      "Ġthy": 5312,
      "Ġras": 5313,
      "Ġassured": 5314,
      "Ġpending": 5315,
      "rics": 5316,
      "Ġgh": 5317,
      "Ġsalem": 5318,
      "Ġfilled": 5319,
      "Ġengaged": 5320,
      "Ġcreating": 5321,
      "Ġharmony": 5322,
      "Ġdialog": 5323,
      "Ġbrazil": 5324,
      "plom": 5325,
      "Ġregularly": 5326,
      "Ġlawy": 5327,
      "alu": 5328,
      "Ġconsequences": 5329,
      "Ġodi": 5330,
      "Ġton": 5331,
      "Ġagg": 5332,
      "Ġhonest": 5333,
      "Ġalcohol": 5334,
      "Ġbirds": 5335,
      "Ġvia": 5336,
      "Ġsolid": 5337,
      "osen": 5338,
      "Ġsuccessfully": 5339,
      "iant": 5340,
      "ulf": 5341,
      "Ġparticipation": 5342,
      "Ġdelivered": 5343,
      "hance": 5344,
      "yar": 5345,
      "Ġwaters": 5346,
      "Ġvs": 5347,
      "Ġovers": 5348,
      "Ġprabh": 5349,
      "Ġabsol": 5350,
      "erjee": 5351,
      "Ġsoil": 5352,
      "Ġmountains": 5353,
      "Ġric": 5354,
      "Ġexplains": 5355,
      "Ġchidambaram": 5356,
      "Ġ\\\"\"": 5357,
      "Ġpriority": 5358,
      "Ġenhance": 5359,
      "Ġcompare": 5360,
      "jri": 5361,
      "Ġcompass": 5362,
      "Ġdistance": 5363,
      "Ġfloor": 5364,
      "Ġaband": 5365,
      "Ġdecades": 5366,
      "with": 5367,
      "Ġjaw": 5368,
      "Ġdiet": 5369,
      "Ġframe": 5370,
      "ota": 5371,
      "Ġsettle": 5372,
      "Ġcompre": 5373,
      "],": 5374,
      "Ġ48": 5375,
      "Ġblind": 5376,
      "Ġtong": 5377,
      "son": 5378,
      "Ġinteresting": 5379,
      "Ġpollution": 5380,
      "Ġinstance": 5381,
      "Ġrepeated": 5382,
      "alys": 5383,
      "Ġrestrict": 5384,
      "Ġinnovation": 5385,
      "Ġsustained": 5386,
      "Ġsem": 5387,
      "Ġafford": 5388,
      "garh": 5389,
      "Ġreaction": 5390,
      "Ġmarks": 5391,
      "Ġsecure": 5392,
      "Ġbabylon": 5393,
      "Ġhistorical": 5394,
      "Ġdanger": 5395,
      "Ġintelligence": 5396,
      "Ġtrouble": 5397,
      "Ġgat": 5398,
      "Ġprovisions": 5399,
      "Ġmagn": 5400,
      "Ġapostles": 5401,
      "Ġgear": 5402,
      "Ġchosen": 5403,
      "Ġbringing": 5404,
      "Ġarg": 5405,
      "Ġblue": 5406,
      "Ġremind": 5407,
      "Ġgenes": 5408,
      "Ġyounger": 5409,
      "Ġsurvived": 5410,
      "Ġdad": 5411,
      "ologies": 5412,
      "'ll": 5413,
      "how": 5414,
      "Ġatm": 5415,
      "Ġ44": 5416,
      "Ġfresh": 5417,
      "Ġbrings": 5418,
      "bsp": 5419,
      "Ġprofit": 5420,
      "Ġsuspended": 5421,
      "Ġjudicial": 5422,
      "Ġdan": 5423,
      "iring": 5424,
      "Ġalt": 5425,
      "Ġkejri": 5426,
      "Ġchanging": 5427,
      "Ġworst": 5428,
      "Ġstrengthening": 5429,
      "Ġpurs": 5430,
      "osh": 5431,
      "Ġcoach": 5432,
      "Ġshortly": 5433,
      "Ġinaugurated": 5434,
      "porary": 5435,
      "Ġscen": 5436,
      "Ġtirunelveli": 5437,
      "Ġfold": 5438,
      "Ġspo": 5439,
      "Ġsustainable": 5440,
      "Ġromans": 5441,
      "Ġsearching": 5442,
      "Ġmahatma": 5443,
      "iet": 5444,
      "Ġstorm": 5445,
      "Ġ125": 5446,
      "Ġfields": 5447,
      "Ġmadras": 5448,
      "Ġtemples": 5449,
      "iation": 5450,
      "Ġyellow": 5451,
      "Ġinher": 5452,
      "Ġwindow": 5453,
      "Ġwear": 5454,
      "Ġapprox": 5455,
      "Ġ65": 5456,
      "Ġintens": 5457,
      "Ġmotors": 5458,
      "Ġappreciation": 5459,
      "Ġbrief": 5460,
      "Ġcelebrations": 5461,
      "javur": 5462,
      "Ġindies": 5463,
      "Ġdry": 5464,
      "Ġafrican": 5465,
      "Ġbanerjee": 5466,
      "Ġber": 5467,
      "Ġkarun": 5468,
      "Ġdesigned": 5469,
      "Ġyourselves": 5470,
      "udh": 5471,
      "Ġbharati": 5472,
      "75": 5473,
      "Ġsurface": 5474,
      "Ġangry": 5475,
      "Ġwhoever": 5476,
      "Ġindones": 5477,
      "Ġforgive": 5478,
      "Ġtrained": 5479,
      "Ġtomato": 5480,
      "Ġrare": 5481,
      "Ġcauvery": 5482,
      "Ġsecondary": 5483,
      "Ġassam": 5484,
      "osop": 5485,
      "Ġplus": 5486,
      "certain": 5487,
      "Ġabsolute": 5488,
      "Ġexhib": 5489,
      "ikh": 5490,
      "anka": 5491,
      "rel": 5492,
      "Ġleague": 5493,
      "Ġswit": 5494,
      "kes": 5495,
      "Ġpac": 5496,
      "Ġregime": 5497,
      "Ġexperts": 5498,
      "Ġforced": 5499,
      "Ġbehalf": 5500,
      "Ġfixed": 5501,
      "Ġjun": 5502,
      "bon": 5503,
      "Ġlikewise": 5504,
      "Ġkejriwal": 5505,
      "Ġho": 5506,
      "Ġbs": 5507,
      "Ġfoods": 5508,
      "Ġresource": 5509,
      "Ġalternative": 5510,
      "Ġarvind": 5511,
      "icate": 5512,
      "Ġvikram": 5513,
      "athan": 5514,
      "Ġprotesters": 5515,
      "Ġipl": 5516,
      "Ġdeeply": 5517,
      "Ġcollector": 5518,
      "heast": 5519,
      "Ġvid": 5520,
      "Ġdefinite": 5521,
      "agiri": 5522,
      "Ġholding": 5523,
      "Ġdiplom": 5524,
      "Ġyogi": 5525,
      "allur": 5526,
      "Ġpoet": 5527,
      "Ġ42": 5528,
      "Ġasp": 5529,
      "Ġcopy": 5530,
      "Ġmetro": 5531,
      "Ġelim": 5532,
      "Ġevident": 5533,
      "Ġbench": 5534,
      "Ġslave": 5535,
      "Ġaddressed": 5536,
      "Ġaccidents": 5537,
      "Ġdismissed": 5538,
      "ications": 5539,
      "Ġallegations": 5540,
      "):": 5541,
      "days": 5542,
      "Ġmedal": 5543,
      "grad": 5544,
      "Ġaks": 5545,
      "Ġimagine": 5546,
      "ployment": 5547,
      "Ġpsych": 5548,
      "inals": 5549,
      "Ġdhoni": 5550,
      "Ġphilipp": 5551,
      "Ġclot": 5552,
      "Ġdivor": 5553,
      "ifying": 5554,
      "Ġpresently": 5555,
      "Ġbrand": 5556,
      "Ġphilosop": 5557,
      "Ġwood": 5558,
      "Ġresearc": 5559,
      "Ġcommitment": 5560,
      "rition": 5561,
      "Ġleaving": 5562,
      "Ġrequires": 5563,
      "Ġstarting": 5564,
      "Ġcrop": 5565,
      "arsh": 5566,
      "Ġclar": 5567,
      "Ġquit": 5568,
      "Ġwelcomed": 5569,
      "Ġonions": 5570,
      "Ġcourses": 5571,
      "Ġvictim": 5572,
      "Ġrupees": 5573,
      "tty": 5574,
      "asc": 5575,
      "Ġchh": 5576,
      "ivals": 5577,
      "Ġacknow": 5578,
      "Ġconver": 5579,
      "Ġappreciate": 5580,
      "].": 5581,
      "Ġltte": 5582,
      "Ġfarmer": 5583,
      "opal": 5584,
      "Ġcollection": 5585,
      "Ġvig": 5586,
      "Ġdiwali": 5587,
      "Ġearthquake": 5588,
      "Ġship": 5589,
      "Ġacres": 5590,
      "Ġdign": 5591,
      "Ġsolomon": 5592,
      "Ġthanjavur": 5593,
      "mal": 5594,
      "Ġcocon": 5595,
      "Ġult": 5596,
      "Ġdebt": 5597,
      "Ġencouraged": 5598,
      "Ġcoconut": 5599,
      "Ġunve": 5600,
      "Ġproducing": 5601,
      "Ġpanchayats": 5602,
      "box": 5603,
      "Ġnegoti": 5604,
      "Ġguarant": 5605,
      "Ġadequ": 5606,
      "Ġglad": 5607,
      "onic": 5608,
      "Ġassess": 5609,
      "Ġsquad": 5610,
      "Ġallocated": 5611,
      "Ġinteract": 5612,
      "Ġglor": 5613,
      "nic": 5614,
      "Ġoh": 5615,
      "Ġrear": 5616,
      "Ġposts": 5617,
      "part": 5618,
      "vention": 5619,
      "Ġunem": 5620,
      "Ġappreciated": 5621,
      "Ġodisha": 5622,
      "Ġobedi": 5623,
      "70": 5624,
      "Ġbalance": 5625,
      "uls": 5626,
      "Ġargument": 5627,
      "ibilities": 5628,
      "Ġshowing": 5629,
      "Ġliveli": 5630,
      "Ġcontroversy": 5631,
      "Ġjewish": 5632,
      "Ġstructure": 5633,
      "ilty": 5634,
      "Ġjack": 5635,
      "Ġmarketing": 5636,
      "Ġharvest": 5637,
      "Ġgathered": 5638,
      "Ġfiring": 5639,
      "Ġtournament": 5640,
      "Ġrenew": 5641,
      "herry": 5642,
      "Ġjudges": 5643,
      "Ġapolog": 5644,
      "Ġchopped": 5645,
      "anis": 5646,
      "Ġdravid": 5647,
      "Ġhighways": 5648,
      "arian": 5649,
      "Ġarms": 5650,
      "Ġlivelihood": 5651,
      "Ġba": 5652,
      "Ġexplos": 5653,
      "Ġorganisations": 5654,
      "ba": 5655,
      "Ġalert": 5656,
      "Ġdiabet": 5657,
      "Ġfalls": 5658,
      "mm": 5659,
      "Ġdeceased": 5660,
      "Ġchapter": 5661,
      "erted": 5662,
      "Ġmistake": 5663,
      "iday": 5664,
      "Ġreact": 5665,
      "Ġrelative": 5666,
      "Ġsas": 5667,
      "Ġvast": 5668,
      "Ġusers": 5669,
      "Ġheads": 5670,
      "Ġveter": 5671,
      "Ġguidelines": 5672,
      "Ġitaly": 5673,
      "Ġinstall": 5674,
      "Ġresolve": 5675,
      "Ġsoftware": 5676,
      "idhi": 5677,
      "pective": 5678,
      "Ġcategory": 5679,
      "Ġenemies": 5680,
      "Ġuncle": 5681,
      "Ġ\"\"\",": 5682,
      "Ġattract": 5683,
      "Ġproposal": 5684,
      "Ġcommerce": 5685,
      "lis": 5686,
      "Ġanand": 5687,
      "miah": 5688,
      "Ġcancelled": 5689,
      "Ġtea": 5690,
      "Ġdil": 5691,
      "Ġrum": 5692,
      "Ġlooks": 5693,
      "oo": 5694,
      "aling": 5695,
      "Ġoverall": 5696,
      "Ġaccompanied": 5697,
      "ctv": 5698,
      "ita": 5699,
      "Ġpioneer": 5700,
      "Ġsport": 5701,
      "Ġunions": 5702,
      "Ġengage": 5703,
      "Ġattacked": 5704,
      "Ġgenerally": 5705,
      "rers": 5706,
      "Ġmoral": 5707,
      "Ġvellore": 5708,
      "Ġunbelie": 5709,
      "iny": 5710,
      "Ġconnected": 5711,
      "Ġpregnant": 5712,
      "Ġtric": 5713,
      "ila": 5714,
      "Ġlocation": 5715,
      "asw": 5716,
      "lets": 5717,
      "Ġcertificates": 5718,
      "Ġcum": 5719,
      "Ġregions": 5720,
      "Ġidentify": 5721,
      "agram": 5722,
      "Ġ2000": 5723,
      "Ġbeauty": 5724,
      "Ġband": 5725,
      "Ġdaniel": 5726,
      "Ġstyle": 5727,
      "Ġdifferently": 5728,
      "Ġsummer": 5729,
      "Ġprote": 5730,
      "nadu": 5731,
      "Ġtab": 5732,
      "2017": 5733,
      "kumar": 5734,
      "Ġyojana": 5735,
      "Ġacadem": 5736,
      "100": 5737,
      "Ġbehold": 5738,
      "Ġpromotion": 5739,
      "Ġpursu": 5740,
      "Ġrape": 5741,
      "Ġlake": 5742,
      "Ġties": 5743,
      "oration": 5744,
      "Ġtrem": 5745,
      "Ġwilli": 5746,
      "Ġblessing": 5747,
      "Ġirrigation": 5748,
      "Ġcctv": 5749,
      "Ġmarry": 5750,
      "Ġdoesn": 5751,
      "Ġkarth": 5752,
      "Ġvenk": 5753,
      "Ġinitially": 5754,
      "Ġpowered": 5755,
      "Ġcalling": 5756,
      "Ġinvolve": 5757,
      "Ġconve": 5758,
      "Ġmode": 5759,
      "Ġtalked": 5760,
      "uts": 5761,
      "Ġplane": 5762,
      "Ġren": 5763,
      "Ġemotional": 5764,
      "Ġsacred": 5765,
      "Ġtweeted": 5766,
      "Ġdefeat": 5767,
      "Ġmodels": 5768,
      "Ġwinners": 5769,
      "Ġestimates": 5770,
      "Ġfootball": 5771,
      "Ġtbsp": 5772,
      "Ġgarden": 5773,
      "Ġbor": 5774,
      "Ġqualities": 5775,
      "Ġtwice": 5776,
      "Ġhistoric": 5777,
      "Ġnayanth": 5778,
      "Ġexcellent": 5779,
      "Ġcolombo": 5780,
      "Ġprocessing": 5781,
      "aman": 5782,
      "Ġholds": 5783,
      "Ġcorporate": 5784,
      "Ġyoure": 5785,
      "Ġmanaged": 5786,
      "Ġmeal": 5787,
      "Ġadvised": 5788,
      "Ġnoah": 5789,
      "Ġescape": 5790,
      "Ġsor": 5791,
      "Ġexpectations": 5792,
      "Ġspan": 5793,
      "Ġclosely": 5794,
      "Ġconstituencies": 5795,
      "Ġinfection": 5796,
      "Ġimprovement": 5797,
      "Ġsrin": 5798,
      "star": 5799,
      "osphere": 5800,
      "Ġtears": 5801,
      "Ġfundamental": 5802,
      "Ġclick": 5803,
      "Ġorganizations": 5804,
      "Ġsymbol": 5805,
      "cr": 5806,
      "theless": 5807,
      "Ġbusy": 5808,
      "Ġruled": 5809,
      "Ġcollaboration": 5810,
      "Ġeager": 5811,
      "Ġguilty": 5812,
      "Ġrepent": 5813,
      "Ġprofessional": 5814,
      "Ġinternal": 5815,
      "Ġmethods": 5816,
      "Ġdhanush": 5817,
      "Ġdevil": 5818,
      "ipped": 5819,
      "Ġremem": 5820,
      "Ġnevertheless": 5821,
      "Ġgreet": 5822,
      "Ġstore": 5823,
      "Ġmans": 5824,
      "Ġnayanthara": 5825,
      "Ġfaces": 5826,
      "Ġsurprise": 5827,
      "icious": 5828,
      "Ġstir": 5829,
      "Ġrecords": 5830,
      "chin": 5831,
      "Ġcoalition": 5832,
      "Ġwives": 5833,
      "Ġthor": 5834,
      "uting": 5835,
      "Ġbrain": 5836,
      "Ġagencies": 5837,
      "Ġmurd": 5838,
      "Ġillegal": 5839,
      "Ġunknown": 5840,
      "Ġplea": 5841,
      "Ġquarter": 5842,
      "Ġ39": 5843,
      "iciency": 5844,
      "Ġideas": 5845,
      "Ġgoa": 5846,
      "Ġquant": 5847,
      "omy": 5848,
      "Ġservant": 5849,
      "veni": 5850,
      "Ġjapanese": 5851,
      "Ġpic": 5852,
      "Ġunderstood": 5853,
      "owed": 5854,
      "Ġpradhan": 5855,
      "Ġprophecy": 5856,
      "Ġmit": 5857,
      "Ġcharged": 5858,
      "Ġtotally": 5859,
      "respond": 5860,
      "Ġshr": 5861,
      "Ġexperiences": 5862,
      "itage": 5863,
      "Ġtamilnadu": 5864,
      "Ġadvantage": 5865,
      "Ġstead": 5866,
      "Ġkilomet": 5867,
      "Ġconversation": 5868,
      "Ġobey": 5869,
      "Ġincreases": 5870,
      "Ġroute": 5871,
      "2018": 5872,
      "Ġupto": 5873,
      "Ġobama": 5874,
      "actions": 5875,
      "bu": 5876,
      "Ġimpl": 5877,
      "Ġdestroy": 5878,
      "Ġbanned": 5879,
      "Ġaustralian": 5880,
      "Ġwins": 5881,
      "Ġinjury": 5882,
      "Ġcooperative": 5883,
      "Ġnovel": 5884,
      "Ġinspect": 5885,
      "Ġrahman": 5886,
      "met": 5887,
      "enses": 5888,
      "Ġfiles": 5889,
      "Ġteen": 5890,
      "Ġpalanis": 5891,
      "Ġwars": 5892,
      "ero": 5893,
      "eless": 5894,
      "Ġarts": 5895,
      "ias": 5896,
      "Ġconcent": 5897,
      "Ġfault": 5898,
      "eper": 5899,
      "Ġbats": 5900,
      "Ġsurround": 5901,
      "Ġtransp": 5902,
      "iff": 5903,
      "Ġparticipants": 5904,
      "akrish": 5905,
      "Ġtells": 5906,
      "lor": 5907,
      "Ġspiritually": 5908,
      "Ġpattern": 5909,
      "Ġcycl": 5910,
      "Ġintegrity": 5911,
      "Ġjac": 5912,
      "god": 5913,
      "Ġresolved": 5914,
      "Ġidentity": 5915,
      "Ġgodly": 5916,
      "Ġimproved": 5917,
      "edy": 5918,
      "Ġcricketer": 5919,
      "Ġ43": 5920,
      "Ġwalking": 5921,
      "Ġtherein": 5922,
      "Ġmanager": 5923,
      "Ġadvert": 5924,
      "Ġconstant": 5925,
      "Ġenjoyed": 5926,
      "pay": 5927,
      "Ġpoly": 5928,
      "Ġpurchase": 5929,
      "Ġdistress": 5930,
      "khand": 5931,
      "pass": 5932,
      "vant": 5933,
      "Ġtaste": 5934,
      "erves": 5935,
      "Ġoutl": 5936,
      "Ġeve": 5937,
      "Ġimproving": 5938,
      "Ġuser": 5939,
      "Ġtrail": 5940,
      "Ġhebrew": 5941,
      "Ġallot": 5942,
      "Ġoutrage": 5943,
      "Ġpriy": 5944,
      "Ġcorrespond": 5945,
      "Ġteaspoon": 5946,
      "Ġimposs": 5947,
      "agon": 5948,
      "Ġcomprehens": 5949,
      "Ġedition": 5950,
      "Ġrang": 5951,
      "Ġimplementing": 5952,
      "upp": 5953,
      "Ġmalays": 5954,
      "Ġprepare": 5955,
      "Ġvariety": 5956,
      "Ġheritage": 5957,
      "Ġgrateful": 5958,
      "inton": 5959,
      "asa": 5960,
      "Ġseverely": 5961,
      "Ġcoastal": 5962,
      "%.": 5963,
      "adium": 5964,
      "Ġanalys": 5965,
      "Ġbabu": 5966,
      "Ġdiscipline": 5967,
      "Ġsquare": 5968,
      "vam": 5969,
      "arted": 5970,
      "Ġfactors": 5971,
      "Ġgenu": 5972,
      "Ġgriev": 5973,
      "Ġaids": 5974,
      "Ġvive": 5975,
      "Ġpit": 5976,
      "Ġmerciful": 5977,
      "Ġpractical": 5978,
      "ida": 5979,
      "Ġforb": 5980,
      "Ġentr": 5981,
      "Ġanna": 5982,
      "rations": 5983,
      "tt": 5984,
      "Ġphotograph": 5985,
      "Ġfought": 5986,
      "2020": 5987,
      "ounder": 5988,
      ",...": 5989,
      "Ġja": 5990,
      "Ġregret": 5991,
      "can": 5992,
      "Ġpartner": 5993,
      "Ġ600": 5994,
      "Ġrequested": 5995,
      "rison": 5996,
      "Ġenemy": 5997,
      "Ġsituated": 5998,
      "Ġproclaim": 5999,
      "Ġanywhere": 6000,
      "gi": 6001,
      "Ġrecovery": 6002,
      "Ġexactly": 6003,
      "28": 6004,
      "Ġcells": 6005,
      "Ġmps": 6006,
      "rain": 6007,
      "Ġtaxes": 6008,
      "Ġbure": 6009,
      "Ġdifferences": 6010,
      "Ġpoliticians": 6011,
      "Ġrajapaks": 6012,
      "Ġcongregations": 6013,
      "Ġmustard": 6014,
      "Ġreturns": 6015,
      "Ġpolitician": 6016,
      "pres": 6017,
      "Ġrealize": 6018,
      "Ġdeny": 6019,
      "Ġts": 6020,
      "ception": 6021,
      "Ġchannel": 6022,
      "Ġresponded": 6023,
      "Ġadequate": 6024,
      "Ġease": 6025,
      "Ġreserve": 6026,
      "Ġstrategy": 6027,
      "Ġdu": 6028,
      "rific": 6029,
      "Ġcrying": 6030,
      "ront": 6031,
      "Ġgreatly": 6032,
      "Ġbreath": 6033,
      "adh": 6034,
      "Ġdrawn": 6035,
      "Ġcongratulations": 6036,
      "akers": 6037,
      "Ġbreast": 6038,
      "Ġharass": 6039,
      "uit": 6040,
      "Ġcondemned": 6041,
      "Ġmamata": 6042,
      "Ġfertil": 6043,
      "Ġaspects": 6044,
      "Ġmanual": 6045,
      "Ġvalley": 6046,
      "Ġappears": 6047,
      "Ġmla": 6048,
      "Ġabuse": 6049,
      "Ġregister": 6050,
      "Ġhath": 6051,
      "ading": 6052,
      "atell": 6053,
      "ipur": 6054,
      "Ġshepher": 6055,
      "Ġadvoc": 6056,
      "Ġcommunist": 6057,
      "wami": 6058,
      "Ġves": 6059,
      "Ġtension": 6060,
      "Ġticket": 6061,
      "Ġcaste": 6062,
      "Ġpersonality": 6063,
      "Ġjhar": 6064,
      "Ġchol": 6065,
      "Ġmemory": 6066,
      "yl": 6067,
      "Ġtoil": 6068,
      "Ġabund": 6069,
      "Ġautomatic": 6070,
      "Ġdrop": 6071,
      "Ġyuv": 6072,
      "Ġamazing": 6073,
      "Ġvel": 6074,
      "Ġacademic": 6075,
      "Ġmishap": 6076,
      "Ġimpossible": 6077,
      "Ġcook": 6078,
      "Ġelderly": 6079,
      "operative": 6080,
      "Ġnewly": 6081,
      "Ġbharatiya": 6082,
      "Ġhat": 6083,
      "Ġmexic": 6084,
      "achal": 6085,
      "Ġproperties": 6086,
      "Ġforgot": 6087,
      "Ġearned": 6088,
      "Ġsitting": 6089,
      "Ġrav": 6090,
      "Ġapproximately": 6091,
      "45": 6092,
      "iter": 6093,
      "Ġtitled": 6094,
      "Ġbureau": 6095,
      "ques": 6096,
      "Ġconstituted": 6097,
      "Ġajith": 6098,
      "Ġadvanced": 6099,
      "Ġlear": 6100,
      "Ġtower": 6101,
      "ressive": 6102,
      "Ġtelling": 6103,
      "don": 6104,
      "Ġ=": 6105,
      "Ġfigure": 6106,
      "Ġpassing": 6107,
      "point": 6108,
      "usted": 6109,
      "ishing": 6110,
      "Ġeverywhere": 6111,
      "Ġgenuine": 6112,
      "Ġdated": 6113,
      "Ġprocure": 6114,
      "Ġcamps": 6115,
      "Ġspreading": 6116,
      "who": 6117,
      "Ġvalu": 6118,
      "Ġopposite": 6119,
      "Ġwr": 6120,
      "Ġtested": 6121,
      "Ġtechnologies": 6122,
      "Ġath": 6123,
      "Ġlearnt": 6124,
      "Ġstrategic": 6125,
      "Ġblow": 6126,
      "Ġlesson": 6127,
      "hay": 6128,
      "vious": 6129,
      "Ġsant": 6130,
      "Ġupset": 6131,
      "akumari": 6132,
      "Ġcrucial": 6133,
      "Ġnad": 6134,
      "Ġdirectorate": 6135,
      "Ġupgrad": 6136,
      "Ġpainful": 6137,
      "Ġ55": 6138,
      "Ġsalary": 6139,
      "mense": 6140,
      "Ġenth": 6141,
      "Ġhebrews": 6142,
      "mas": 6143,
      "Ġconnectivity": 6144,
      "Ġmineral": 6145,
      "Ġimmense": 6146,
      "Ġconservation": 6147,
      "Ġmaterials": 6148,
      "cont": 6149,
      "ruck": 6150,
      "Ġhandle": 6151,
      "Ġcompassion": 6152,
      "26": 6153,
      "Ġrequirements": 6154,
      "Ġsatell": 6155,
      "Ġharsh": 6156,
      "Ġda": 6157,
      "Ġpill": 6158,
      "Ġdiss": 6159,
      "Ġga": 6160,
      "Ġneh": 6161,
      "Ġpride": 6162,
      "Ġlev": 6163,
      "Ġuses": 6164,
      "Ġtransferred": 6165,
      "Ġnic": 6166,
      "Ġsolutions": 6167,
      "Ġprince": 6168,
      "Ġbc": 6169,
      "Ġflour": 6170,
      "Ġhighway": 6171,
      "Ġentertainment": 6172,
      "Ġtough": 6173,
      "Ġassum": 6174,
      "rier": 6175,
      "Ġprivilege": 6176,
      "Ġprecious": 6177,
      "Ġdefinitely": 6178,
      "Ġprobably": 6179,
      "Ġradio": 6180,
      "Ġlibrary": 6181,
      "Ġ_": 6182,
      "Ġviolent": 6183,
      "Ġpick": 6184,
      "Ġjon": 6185,
      "Ġstadium": 6186,
      "isted": 6187,
      "Ġcongratulated": 6188,
      "Ġbread": 6189,
      "Ġgrown": 6190,
      "gered": 6191,
      "Ġoutstanding": 6192,
      "Ġmedicines": 6193,
      "Ġgrew": 6194,
      "Ġsed": 6195,
      "Ġ49": 6196,
      "Ġassets": 6197,
      "Ġartist": 6198,
      "Ġenvironmental": 6199,
      "Ġcondemn": 6200,
      "pol": 6201,
      "Ġillness": 6202,
      "Ġtiruch": 6203,
      "Ġfunctions": 6204,
      "govern": 6205,
      "Ġcriticism": 6206,
      "care": 6207,
      "Ġtomorrow": 6208,
      "Ġcloser": 6209,
      "lal": 6210,
      "Ġroy": 6211,
      "Ġspeaks": 6212,
      "Ġgenesis": 6213,
      "Ġpeaceful": 6214,
      "Ġbibles": 6215,
      "Ġfinished": 6216,
      "Ġramesh": 6217,
      "Ġrajapaksa": 6218,
      "bert": 6219,
      "Ġlabou": 6220,
      "cience": 6221,
      "Ġsmoking": 6222,
      "Ġconvin": 6223,
      "born": 6224,
      "Ġworse": 6225,
      "Ġtrend": 6226,
      "Ġwing": 6227,
      "Ġdistin": 6228,
      "anna": 6229,
      "Ġresearchers": 6230,
      "Ġfan": 6231,
      "2016": 6232,
      "Ġsincere": 6233,
      "Ġcul": 6234,
      "Ġovercome": 6235,
      "Ġexception": 6236,
      "Ġsalman": 6237,
      "Ġachievement": 6238,
      "ersel": 6239,
      "Ġbach": 6240,
      "aked": 6241,
      "Ġapplied": 6242,
      "Ġproducers": 6243,
      "just": 6244,
      "Ġforgiveness": 6245,
      "Ġconcluded": 6246,
      "Ġ120": 6247,
      "Ġswaraj": 6248,
      "Ġpace": 6249,
      "Ġtransmission": 6250,
      "Ġ193": 6251,
      "win": 6252,
      "Ġmich": 6253,
      "Ġexpand": 6254,
      "bur": 6255,
      "Ġjudah": 6256,
      "Ġvalid": 6257,
      "Ġconsumer": 6258,
      "Ġsinger": 6259,
      "Ġsasik": 6260,
      "Ġprograms": 6261,
      "Ġconcerns": 6262,
      "Ġmighty": 6263,
      "Ġenterprises": 6264,
      "Ġbaj": 6265,
      "Ġsurprising": 6266,
      "Ġhung": 6267,
      "Ġgur": 6268,
      "Ġrose": 6269,
      "Ġmantri": 6270,
      "ardhan": 6271,
      "ava": 6272,
      "ultan": 6273,
      "Ġquiet": 6274,
      "Ġvideos": 6275,
      "key": 6276,
      "Ġstayed": 6277,
      "Ġpurposes": 6278,
      "Ġstreets": 6279,
      "Ġapparent": 6280,
      "Ġtheme": 6281,
      "Ġfran": 6282,
      "Ġindonesia": 6283,
      "ux": 6284,
      "Ġtables": 6285,
      "Ġkaj": 6286,
      "araoh": 6287,
      "Ġcelebrate": 6288,
      "Ġpuduc": 6289,
      "Ġthrow": 6290,
      "Ġzone": 6291,
      "Ġpauls": 6292,
      "Ġcontribute": 6293,
      "Ġappealed": 6294,
      ".\"\"": 6295,
      "Ġdim": 6296,
      "Ġaccur": 6297,
      "Ġyield": 6298,
      "Ġdirectors": 6299,
      "Ġinstalled": 6300,
      "Ġfalling": 6301,
      "Ġthreatened": 6302,
      "Ġtheyre": 6303,
      "Ġacid": 6304,
      "Ġtag": 6305,
      "Ġobtained": 6306,
      "Ġgathering": 6307,
      "Ġjuice": 6308,
      "Ġempower": 6309,
      "Ġvivek": 6310,
      "Ġpatience": 6311,
      "Ġscoot": 6312,
      "Ġanymore": 6313,
      "Ġpreviously": 6314,
      "Ġnil": 6315,
      "Ġattending": 6316,
      "Ġblame": 6317,
      "Ġreligions": 6318,
      "Ġadopted": 6319,
      "Ġjharkhand": 6320,
      "Ġminutes": 6321,
      "Ġshocking": 6322,
      "ifts": 6323,
      "Ġ47": 6324,
      "Ġfishing": 6325,
      "Ġformation": 6326,
      "Ġsets": 6327,
      "board": 6328,
      "habil": 6329,
      "300": 6330,
      "Ġspect": 6331,
      "lin": 6332,
      "wadi": 6333,
      "Ġinteg": 6334,
      "Ġstream": 6335,
      "Ġuseful": 6336,
      "Ġsufficient": 6337,
      "Ġfacts": 6338,
      "Ġimages": 6339,
      "Ġape": 6340,
      "ingu": 6341,
      "Ġclin": 6342,
      "ube": 6343,
      "Ġbehavior": 6344,
      "Ġelements": 6345,
      "Ġcalm": 6346,
      "Ġeligible": 6347,
      "Ġbott": 6348,
      "Ġexcl": 6349,
      "Ġdevice": 6350,
      "Ġdharm": 6351,
      "Ġdegrees": 6352,
      "Ġvin": 6353,
      "ecture": 6354,
      "field": 6355,
      "oir": 6356,
      "prit": 6357,
      "Ġpond": 6358,
      "Ġextend": 6359,
      "Ġbuddh": 6360,
      "Ġthorough": 6361,
      "erselvam": 6362,
      "eding": 6363,
      "Ġletters": 6364,
      "Ġhyp": 6365,
      "Ġcudd": 6366,
      "Ġpriests": 6367,
      "Ġatmosphere": 6368,
      "Ġrub": 6369,
      "Ġlarger": 6370,
      "Ġcatch": 6371,
      "Ġvolume": 6372,
      "Ġpuducherry": 6373,
      "lected": 6374,
      "Ġobvious": 6375,
      "Ġwitnessed": 6376,
      "dr": 6377,
      "urb": 6378,
      "Ġsubmit": 6379,
      "Ġreduction": 6380,
      "Ġsunday": 6381,
      "Ġseemed": 6382,
      "attis": 6383,
      "olen": 6384,
      "ayam": 6385,
      "cked": 6386,
      "Ġprevail": 6387,
      "Ġmir": 6388,
      "Ġhab": 6389,
      "Ġdesires": 6390,
      "ifies": 6391,
      "Ġsanct": 6392,
      "Ġmild": 6393,
      "pted": 6394,
      "Ġclash": 6395,
      "Ġtourists": 6396,
      "Ġeu": 6397,
      "Ġbah": 6398,
      "Ġuniversities": 6399,
      "Ġmutual": 6400,
      "Ġspain": 6401,
      "Ġgrat": 6402,
      "produ": 6403,
      "Ġpanne": 6404,
      "Ġglobe": 6405,
      "Ġcontesting": 6406,
      "Ġpleasure": 6407,
      "apse": 6408,
      "Ġfactory": 6409,
      "Ġlosing": 6410,
      "Ġcrash": 6411,
      "Ġnarayan": 6412,
      "Ġstruct": 6413,
      "Ġspr": 6414,
      "Ġcarefully": 6415,
      "Ġcitizen": 6416,
      "--": 6417,
      "Ġfool": 6418,
      "Ġprinciple": 6419,
      "Ġdar": 6420,
      "Ġlying": 6421,
      "Ġpolicemen": 6422,
      "27": 6423,
      "Ġtriggered": 6424,
      "lands": 6425,
      "Ġrehabil": 6426,
      "Ġreplace": 6427,
      "ulam": 6428,
      "Ġforet": 6429,
      "deep": 6430,
      "Ġfloods": 6431,
      "Ġexcess": 6432,
      "eav": 6433,
      "nu": 6434,
      "ica": 6435,
      "Ġstarts": 6436,
      "Ġfarming": 6437,
      "Ġcomplaints": 6438,
      "attisgarh": 6439,
      "soon": 6440,
      "Ġendeav": 6441,
      "Ġupper": 6442,
      "andum": 6443,
      "Ġmuhammad": 6444,
      "Ġvoting": 6445,
      "za": 6446,
      "Ġremark": 6447,
      "Ġarabia": 6448,
      "Ġexpo": 6449,
      "Ġlinked": 6450,
      "mark": 6451,
      "Ġreserv": 6452,
      "Ġshel": 6453,
      "Ġcool": 6454,
      "Ġinstagram": 6455,
      "Ġnamely": 6456,
      "Ġskipp": 6457,
      "Ġmessengers": 6458,
      "Ġlosses": 6459,
      "Ġpron": 6460,
      "Ġparticipating": 6461,
      "Ġsteel": 6462,
      "Ġasks": 6463,
      "haar": 6464,
      "lim": 6465,
      "Ġstolen": 6466,
      "Ġxi": 6467,
      "Ġstatue": 6468,
      "Ġrapidly": 6469,
      "Ġnaz": 6470,
      "Ġ1000": 6471,
      "Ġcontrast": 6472,
      "Ġcomprehensive": 6473,
      "03": 6474,
      "bal": 6475,
      "Ġpieces": 6476,
      "Ġoath": 6477,
      "ishw": 6478,
      "Ġpointed": 6479,
      "Ġ800": 6480,
      "Ġamongst": 6481,
      "Ġtranslation": 6482,
      "Ġpilgr": 6483,
      "Ġfifth": 6484,
      "Ġdiabetes": 6485,
      "Ġmainly": 6486,
      "Ġmaintained": 6487,
      "Ġrecognized": 6488,
      "Ġlal": 6489,
      "Ġgan": 6490,
      "Ġteachings": 6491,
      "Ġaside": 6492,
      "Ġcollected": 6493,
      "Ġindex": 6494,
      "Ġtrials": 6495,
      "Ġmerely": 6496,
      "Ġconce": 6497,
      "Ġrans": 6498,
      "Ġextension": 6499,
      "Ġfiscal": 6500,
      "rupted": 6501,
      "Ġelectronic": 6502,
      "Ġwomens": 6503,
      "Ġdivers": 6504,
      "law": 6505,
      "Ġtongue": 6506,
      "sa": 6507,
      "Ġadity": 6508,
      "cription": 6509,
      "Ġgrief": 6510,
      "Ġstarred": 6511,
      "Ġbright": 6512,
      "Ġpalaniswami": 6513,
      "Ġol": 6514,
      "dule": 6515,
      "Ġturning": 6516,
      "Ġfeatured": 6517,
      "Ġdomin": 6518,
      "Ġshame": 6519,
      "Ġwalked": 6520,
      "ounced": 6521,
      "Ġemerged": 6522,
      "rible": 6523,
      "Ġvisiting": 6524,
      "Ġburden": 6525,
      "Ġmemorandum": 6526,
      "Ġdesc": 6527,
      "Ġfacilitate": 6528,
      "Ġcards": 6529,
      "Ġdischar": 6530,
      "Ġcustoms": 6531,
      "Ġrevised": 6532,
      "Ġpackage": 6533,
      "Ġcausing": 6534,
      "Ġexistence": 6535,
      "break": 6536,
      "Ġkarunan": 6537,
      "Ġescaped": 6538,
      "Ġworshi": 6539,
      "Ġhide": 6540,
      "Ġ46": 6541,
      "Ġensuring": 6542,
      "Ġfederal": 6543,
      "44": 6544,
      "Ġnice": 6545,
      "Ġimran": 6546,
      "Ġapple": 6547,
      "Ġdevast": 6548,
      "Ġbeneficial": 6549,
      "Ġdreams": 6550,
      "Ġakshay": 6551,
      "Ġpip": 6552,
      "Ġassigned": 6553,
      "Ġdevotion": 6554,
      "Ġgeorge": 6555,
      "Ġsid": 6556,
      "Ġneighbour": 6557,
      "Ġmonthly": 6558,
      "Ġqur": 6559,
      "2015": 6560,
      "Ġislamic": 6561,
      "Ġapex": 6562,
      "Ġpanneerselvam": 6563,
      "Ġvoters": 6564,
      "she": 6565,
      "Ġdarkness": 6566,
      "Ġcuddalore": 6567,
      "remiah": 6568,
      "Ġnurs": 6569,
      "Ġresigned": 6570,
      "Ġrecall": 6571,
      "Ġeditor": 6572,
      "Ġputting": 6573,
      "Ġwick": 6574,
      "Ġcollaps": 6575,
      "Ġminority": 6576,
      "Ġparis": 6577,
      "Ġconsequently": 6578,
      "Ġrecon": 6579,
      "Ġjeremiah": 6580,
      "Ġclust": 6581,
      "cond": 6582,
      "Ġpolling": 6583,
      "Ġanxi": 6584,
      "Ġaspir": 6585,
      "Ġproperly": 6586,
      "Ġconclusion": 6587,
      "Ġguided": 6588,
      "Ġmete": 6589,
      "Ġempire": 6590,
      "ois": 6591,
      "Ġwounded": 6592,
      "Ġvul": 6593,
      "Ġisn": 6594,
      "Ġoutput": 6595,
      "water": 6596,
      "Ġpromoting": 6597,
      "Ġterritories": 6598,
      "Ġtravelling": 6599,
      "Ġconscience": 6600,
      "2014": 6601,
      "Ġaishw": 6602,
      "Ġpriced": 6603,
      "Ġsho": 6604,
      "hawan": 6605,
      "asters": 6606,
      "Ġimprison": 6607,
      "Ġschedule": 6608,
      "Ġgardens": 6609,
      "tr": 6610,
      "cribed": 6611,
      "!\"": 6612,
      "Ġnutrition": 6613,
      "Ġclothes": 6614,
      "Ġkeer": 6615,
      "Ġcustomers": 6616,
      "ahar": 6617,
      "Ġcloth": 6618,
      "Ġsanjay": 6619,
      "erving": 6620,
      "Ġalm": 6621,
      "Ġgovernance": 6622,
      "Ġcattle": 6623,
      "Ġhaz": 6624,
      "ela": 6625,
      "Ġcompletion": 6626,
      "Ġcasualties": 6627,
      "Ġchose": 6628,
      "atically": 6629,
      "arr": 6630,
      "Ġtodays": 6631,
      "Ġconsidering": 6632,
      "Ġreveal": 6633,
      "Ġaishwarya": 6634,
      "Ġdiscovered": 6635,
      "Ġsites": 6636,
      "Ġanalysis": 6637,
      "Ġrender": 6638,
      "Ġgoog": 6639,
      "Ġinfected": 6640,
      "2019": 6641,
      "Ġdecre": 6642,
      "oral": 6643,
      "Ġelite": 6644,
      "Ġdedication": 6645,
      "Ġcelebration": 6646,
      "Ġkul": 6647,
      "Ġprevention": 6648,
      "Ġallegedly": 6649,
      "enn": 6650,
      "Ġsalvation": 6651,
      "Ġexplan": 6652,
      "Ġti": 6653,
      "Ġmonsoon": 6654,
      "Ġwake": 6655,
      "Ġva": 6656,
      "Ġrecover": 6657,
      "Ġexamined": 6658,
      "Ġpasses": 6659,
      "Ġtam": 6660,
      "ael": 6661,
      "Ġbay": 6662,
      "Ġpune": 6663,
      "Ġtoler": 6664,
      "je": 6665,
      "ership": 6666,
      "ache": 6667,
      "Ġcapable": 6668,
      "Ġgraduate": 6669,
      "yr": 6670,
      "Ġsachin": 6671,
      "Ġpharaoh": 6672,
      "Ġpossibility": 6673,
      "Ġpaste": 6674,
      "Ġcommanded": 6675,
      "izes": 6676,
      "Ġ2005": 6677,
      "Ġsurvive": 6678,
      "Ġdefeated": 6679,
      "Ġroot": 6680,
      "Ġgolden": 6681,
      "Ġnan": 6682,
      "Ġjournalists": 6683,
      "Ġsweet": 6684,
      "Ġscholarship": 6685,
      "Ġreign": 6686,
      "km": 6687,
      "Ġpump": 6688,
      "Ġexpans": 6689,
      "Ġshout": 6690,
      "Ġforests": 6691,
      "Ġcategories": 6692,
      "Ġmukher": 6693,
      "Ġskipper": 6694,
      "lex": 6695,
      "Ġpriyanka": 6696,
      "apatt": 6697,
      "place": 6698,
      "Ġsupposed": 6699,
      "Ġapproached": 6700,
      "Ġward": 6701,
      "Ġwage": 6702,
      "riya": 6703,
      "ima": 6704,
      "ushka": 6705,
      "mun": 6706,
      "Ġice": 6707,
      "Ġchampionship": 6708,
      "Ġarrangement": 6709,
      "inc": 6710,
      "Ġflock": 6711,
      "Ġcrimes": 6712,
      "Ġsurgery": 6713,
      "Ġfallen": 6714,
      "Ġdrama": 6715,
      "Ġviz": 6716,
      "Ġhun": 6717,
      "Ġchildhood": 6718,
      "Ġsciences": 6719,
      "bl": 6720,
      "Ġjump": 6721,
      "aved": 6722,
      "Ġclub": 6723,
      "Ġarchit": 6724,
      "Ġmt": 6725,
      "Ġshowc": 6726,
      "Ġpetro": 6727,
      "Ġdecline": 6728,
      "Ġstones": 6729,
      "Ġprocurement": 6730,
      "Ġplanet": 6731,
      "05": 6732,
      "Ġpreparation": 6733,
      "Ġaadhaar": 6734,
      "Ġinhabit": 6735,
      "Ġbid": 6736,
      "Ġcommits": 6737,
      "Ġacademy": 6738,
      "Ġsemi": 6739,
      "Ġmoham": 6740,
      "Ġchristianity": 6741,
      "ĠĠ": 6742,
      "uration": 6743,
      "Ġexists": 6744,
      "Ġclashes": 6745,
      "Ġchhattisgarh": 6746,
      "aswamy": 6747,
      "pread": 6748,
      "Ġaims": 6749,
      "etic": 6750,
      "Ġdifficulties": 6751,
      "Ġdelivery": 6752,
      "Ġinherit": 6753,
      "Ġmeteor": 6754,
      "Ġdog": 6755,
      "Ġraw": 6756,
      "Ġretire": 6757,
      "Ġlistening": 6758,
      "Ġordinary": 6759,
      "hm": 6760,
      "Ġformula": 6761,
      "ortic": 6762,
      "Ġtribes": 6763,
      "Ġwages": 6764,
      "Ġcombined": 6765,
      "ador": 6766,
      "Ġwides": 6767,
      "Ġfederation": 6768,
      "odh": 6769,
      "oda": 6770,
      "iverse": 6771,
      "Ġnative": 6772,
      "Ġcorona": 6773,
      "Ġtweet": 6774,
      "Ġbike": 6775,
      "Ġcovering": 6776,
      "Ġangel": 6777,
      "Ġmexico": 6778,
      "Ġchrists": 6779,
      "Ġlots": 6780,
      "Ġvessel": 6781,
      "Ġtemporary": 6782,
      "Ġ2001": 6783,
      "Ġcamer": 6784,
      "Ġbaptism": 6785,
      "29": 6786,
      "ales": 6787,
      "Ġencouraging": 6788,
      "Ġflights": 6789,
      "Ġwidespread": 6790,
      "Ġmail": 6791,
      "Ġaffection": 6792,
      "Ġunfortun": 6793,
      "Ġmostly": 6794,
      "Ġvoc": 6795,
      "Ġpalest": 6796,
      "Ġinvestments": 6797,
      "Ġbatt": 6798,
      "opsy": 6799,
      "Ġunless": 6800,
      "Ġsuspect": 6801,
      "Ġjacob": 6802,
      "Ġhoney": 6803,
      "racted": 6804,
      "Ġthereby": 6805,
      "Ġparam": 6806,
      "Ġayush": 6807,
      "Ġoutcome": 6808,
      "Ġ64": 6809,
      "Ġmond": 6810,
      "unk": 6811,
      "Ġgoogle": 6812,
      "Ġuniverse": 6813,
      "Ġ54": 6814,
      "Ġbrig": 6815,
      "organ": 6816,
      "Ġspending": 6817,
      "Ġimperial": 6818,
      "Ġcompar": 6819,
      "Ġfrequently": 6820,
      "Ġpreach": 6821,
      "Ġconstruct": 6822,
      "Ġstarring": 6823,
      "Ġcow": 6824,
      "itating": 6825,
      "orter": 6826,
      "Ġformal": 6827,
      "Ġadi": 6828,
      "Ġbeach": 6829,
      "Ġjam": 6830,
      "Ġkills": 6831,
      "Ġkajal": 6832,
      "Ġvad": 6833,
      "Ġempt": 6834,
      "Ġbadly": 6835,
      "Ġdevi": 6836,
      "Ġburnt": 6837,
      "Ġhindus": 6838,
      "Ġcens": 6839,
      "itary": 6840,
      "Ġexpansion": 6841,
      "term": 6842,
      "Ġrelax": 6843,
      "Ġoperating": 6844,
      "Ġthankful": 6845,
      "Ġdust": 6846,
      "Ġrot": 6847,
      "Ġconsideration": 6848,
      "Ġmac": 6849,
      "Ġtorment": 6850,
      "Ġaam": 6851,
      "entions": 6852,
      "Ġera": 6853,
      "Ġrespective": 6854,
      "Ġtun": 6855,
      "Ġsel": 6856,
      "Ġ2006": 6857,
      "Ġsamaj": 6858,
      "Ġsubstant": 6859,
      "Ġselling": 6860,
      "Ġinfl": 6861,
      "Ġmoves": 6862,
      "Ġministerial": 6863,
      "Ġworker": 6864,
      "Ġobserve": 6865,
      "Ġdepression": 6866,
      "Ġgearbox": 6867,
      "Ġtiruchira": 6868,
      "urt": 6869,
      "Ġsmith": 6870,
      "Ġundertaken": 6871,
      "Ġhate": 6872,
      "Ġtob": 6873,
      "Ġcompos": 6874,
      "captain": 6875,
      "Ġcountrys": 6876,
      "Ġautopsy": 6877,
      "cher": 6878,
      "Ġdemanding": 6879,
      "Ġmukherjee": 6880,
      "Ġmine": 6881,
      "Ġabled": 6882,
      "Ġpran": 6883,
      "Ġpermitted": 6884,
      "inating": 6885,
      "Ġ2008": 6886,
      "Ġkinds": 6887,
      "Ġneighbours": 6888,
      "Ġenhanced": 6889,
      "Ġped": 6890,
      "Ġcarbon": 6891,
      "Ġkrishn": 6892,
      "ibly": 6893,
      "Ġminds": 6894,
      "Ġtrailer": 6895,
      "Ġarent": 6896,
      "Ġwheel": 6897,
      "Ġsushma": 6898,
      "Ġconstantly": 6899,
      "Ġransom": 6900,
      "Ġtort": 6901,
      "Ġcolon": 6902,
      "Ġkeeps": 6903,
      "linder": 6904,
      "oph": 6905,
      "Ġroll": 6906,
      "Ġwhereas": 6907,
      "Ġlisted": 6908,
      "Ġliquid": 6909,
      "mc": 6910,
      "Ġanushka": 6911,
      "Ġrecognize": 6912,
      "Ġbachchan": 6913,
      "Ġmaintaining": 6914,
      "Ġmohammed": 6915,
      "Ġstrengthened": 6916,
      "Ġconc": 6917,
      "Ġcampus": 6918,
      "Ġmurdered": 6919,
      "Ġadds": 6920,
      "Ġhardship": 6921,
      "fast": 6922,
      "Ġlaksh": 6923,
      "Ġsupporters": 6924,
      "Ġshortage": 6925,
      "Ġsasikala": 6926,
      "Ġelement": 6927,
      "heries": 6928,
      "arks": 6929,
      "abilities": 6930,
      "Ġpossession": 6931,
      "rants": 6932,
      "Ġwearing": 6933,
      "Ġephes": 6934,
      "Ġgent": 6935,
      "viet": 6936,
      "Ġstruck": 6937,
      "Ġ350": 6938,
      "elling": 6939,
      "Ġdiagn": 6940,
      "exp": 6941,
      "Ġolympics": 6942,
      "gir": 6943,
      "Ġpublis": 6944,
      "Ġprosperity": 6945,
      "Ġud": 6946,
      "word": 6947,
      "ught": 6948,
      "remes": 6949,
      "Ġpas": 6950,
      "Ġ2007": 6951,
      "Ġexplo": 6952,
      "36": 6953,
      "Ġez": 6954,
      "Ġaar": 6955,
      "Ġstab": 6956,
      "Ġjin": 6957,
      "Ġ52": 6958,
      "Ġpassenger": 6959,
      "match": 6960,
      "izers": 6961,
      "Ġaudit": 6962,
      "Ġinvestors": 6963,
      "Ġprotected": 6964,
      "Ġmap": 6965,
      "Ġgate": 6966,
      "Ġhealthcare": 6967,
      "Ġuniversal": 6968,
      "was": 6969,
      "Ġstick": 6970,
      "Ġgoverning": 6971,
      "Ġpotato": 6972,
      "tamil": 6973,
      "agan": 6974,
      "Ġafflic": 6975,
      "Ġokay": 6976,
      "fire": 6977,
      "gov": 6978,
      "Ġ41": 6979,
      "Ġcs": 6980,
      "Ġventure": 6981,
      "Ġpersonally": 6982,
      "Ġmotion": 6983,
      "Ġaccommod": 6984,
      "Ġpursue": 6985,
      "Ġsuggestions": 6986,
      "Ġtn": 6987,
      "Ġtool": 6988,
      "Ġgad": 6989,
      "Ġunveiled": 6990,
      "Ġtheory": 6991,
      "Ġanaly": 6992,
      "Ġplain": 6993,
      "Ġinfect": 6994,
      "Ġbhag": 6995,
      "Ġchillies": 6996,
      "Ġstret": 6997,
      "Ġjait": 6998,
      "Ġfisheries": 6999,
      "Ġfortun": 7000,
      "inity": 7001,
      "Ġvillagers": 7002,
      "Ġhumanity": 7003,
      "Ġswift": 7004,
      "Ġincor": 7005,
      "Ġrecru": 7006,
      "Ġsuggested": 7007,
      "Ġreaching": 7008,
      "Ġwheat": 7009,
      "Ġremote": 7010,
      "ww": 7011,
      "Ġ2004": 7012,
      "Ġpepper": 7013,
      "Ġsword": 7014,
      "iot": 7015,
      "Ġlocations": 7016,
      "when": 7017,
      "look": 7018,
      "37": 7019,
      "iban": 7020,
      "Ġmalaysia": 7021,
      "Ġreservoir": 7022,
      "Ġintense": 7023,
      "Ġscriptural": 7024,
      "Ġgenerations": 7025,
      "Ġfinding": 7026,
      "Ġportion": 7027,
      "Ġdeliber": 7028,
      "Ġprec": 7029,
      "Ġmessages": 7030,
      "Ġdeclined": 7031,
      "Ġtowns": 7032,
      "Ġinput": 7033,
      "Ġsyria": 7034,
      "Ġvisible": 7035,
      "Ġwinter": 7036,
      "Ġlegs": 7037,
      "Ġunlike": 7038,
      "Ġamid": 7039,
      "Ġmathem": 7040,
      "Ġretired": 7041,
      "Ġfever": 7042,
      "Ġinnoc": 7043,
      "Ġprisoners": 7044,
      "Ġdisord": 7045,
      "Ġexamine": 7046,
      "Ġtransg": 7047,
      "vis": 7048,
      "anath": 7049,
      "ashi": 7050,
      "edia": 7051,
      "Ġrent": 7052,
      "Ġprayed": 7053,
      "Ġtraveling": 7054,
      "Ġtender": 7055,
      "Ġallocation": 7056,
      "Ġframework": 7057,
      "state": 7058,
      "orted": 7059,
      "Ġengineer": 7060,
      "Ġindira": 7061,
      "antic": 7062,
      "Ġsubjects": 7063,
      "Ġballs": 7064,
      "Ġcontributed": 7065,
      "Ġcoverage": 7066,
      "ulate": 7067,
      "Ġcontem": 7068,
      "Ġcoff": 7069,
      "yam": 7070,
      "eries": 7071,
      "Ġkit": 7072,
      "Ġdropped": 7073,
      "Ġworksh": 7074,
      "osis": 7075,
      "Ġloves": 7076,
      "Ġrajesh": 7077,
      "Ġfriendly": 7078,
      "Ġsentence": 7079,
      "Ġimmig": 7080,
      "Ġbelonging": 7081,
      "Ġsituations": 7082,
      "president": 7083,
      "bjp": 7084,
      "roid": 7085,
      "Ġguru": 7086,
      "Ġsplit": 7087,
      "Ġfrust": 7088,
      "akrishnan": 7089,
      "Ġmeat": 7090,
      "Ġestate": 7091,
      "Ġhortic": 7092,
      "run": 7093,
      "inch": 7094,
      "Ġresidence": 7095,
      "Ġends": 7096,
      "iar": 7097,
      "Ġsind": 7098,
      "Ġstable": 7099,
      "elt": 7100,
      "Ġsupplies": 7101,
      "Ġmeets": 7102,
      "Ġrepresented": 7103,
      "Ġfigures": 7104,
      "ullah": 7105,
      "Ġgifts": 7106,
      "Ġinvolves": 7107,
      "ancing": 7108,
      "Ġmachine": 7109,
      "Ġaccurate": 7110,
      "Ġshape": 7111,
      "04": 7112,
      "Ġheed": 7113,
      "anasi": 7114,
      "Ġexpert": 7115,
      "65": 7116,
      "Ġgross": 7117,
      "Ġconscious": 7118,
      "Ġchallenging": 7119,
      "khar": 7120,
      "Ġori": 7121,
      "Ġimitate": 7122,
      "Ġcad": 7123,
      "Ġfurn": 7124,
      "Ġbutter": 7125,
      "Ġjai": 7126,
      "Ġabandoned": 7127,
      "Ġtamils": 7128,
      "Ġkarunanidhi": 7129,
      "Ġtobac": 7130,
      "jah": 7131,
      "Ġeli": 7132,
      "Ġvas": 7133,
      "Ġoperational": 7134,
      "Ġrecommended": 7135,
      "Ġpuduk": 7136,
      "Ġprefer": 7137,
      "Ġwrites": 7138,
      "Ġfiref": 7139,
      "why": 7140,
      "Ġinvolving": 7141,
      "Ġfestivals": 7142,
      "Ġneighbor": 7143,
      "Ġsettled": 7144,
      "from": 7145,
      "tra": 7146,
      "Ġacceptable": 7147,
      "Ġpenalty": 7148,
      "Ġrehabilitation": 7149,
      "Ġentit": 7150,
      "Ġtelephone": 7151,
      "bered": 7152,
      "Ġsidd": 7153,
      "Ġstages": 7154,
      "inghe": 7155,
      "Ġintervention": 7156,
      "Ġsorry": 7157,
      "Ġassociate": 7158,
      "Ġportal": 7159,
      "Ġexceed": 7160,
      "Ġtight": 7161,
      "Ġmistakes": 7162,
      "95": 7163,
      "Ġdemise": 7164,
      "Ġicc": 7165,
      "Ġsnow": 7166,
      "Ġthereof": 7167,
      "Ġusa": 7168,
      "Ġoutbreak": 7169,
      "Ġmechanism": 7170,
      "Ġdivorce": 7171,
      "Ġvulner": 7172,
      "Ġjohns": 7173,
      "Ġabsolutely": 7174,
      "Ġturns": 7175,
      "Ġattempts": 7176,
      "Ġexhibition": 7177,
      "Ġjaitley": 7178,
      "Ġtobacco": 7179,
      "Ġhumble": 7180,
      "Ġwhenever": 7181,
      "Ġstatements": 7182,
      "Ġlessons": 7183,
      "Ġkeerthy": 7184,
      "Ġreference": 7185,
      "Ġital": 7186,
      "Ġengines": 7187,
      "Ġrealized": 7188,
      "Ġib": 7189,
      "Ġ2003": 7190,
      "Ġsatans": 7191,
      "Ġaimed": 7192,
      "Ġglass": 7193,
      "Ġprotesting": 7194,
      "Ġallows": 7195,
      "Ġunemployment": 7196,
      "Ġforum": 7197,
      "rie": 7198,
      "Ġsolve": 7199,
      "Ġrival": 7200,
      "Ġcope": 7201,
      "Ġgm": 7202,
      "Ġsparked": 7203,
      "Ġexpenses": 7204,
      "Ġcharacters": 7205,
      "Ġbrown": 7206,
      "Ġpaying": 7207,
      "Ġcaptured": 7208,
      "Ġrecommendations": 7209,
      "Ġenforce": 7210,
      "Ġpilot": 7211,
      "Ġenthus": 7212,
      "Ġmichael": 7213,
      "raman": 7214,
      "Ġgrace": 7215,
      "Ġresponsibilities": 7216,
      "Ġprophets": 7217,
      "Ġelector": 7218,
      "Ġcontinuous": 7219,
      "Ġconqu": 7220,
      "Ġneck": 7221,
      "Ġslog": 7222,
      "cium": 7223,
      "Ġinvestigate": 7224,
      "Ġunbelievers": 7225,
      "hal": 7226,
      "Ġadding": 7227,
      "Ġborders": 7228,
      "Ġconsists": 7229,
      "Ġequality": 7230,
      "Ġyester": 7231,
      "tha": 7232,
      "Ġconfusion": 7233,
      "Ġvolunte": 7234,
      "arations": 7235,
      "Ġappearance": 7236,
      "Ġrejoice": 7237,
      "Ġfi": 7238,
      "Ġretain": 7239,
      "stit": 7240,
      "Ġviewed": 7241,
      "Ġhouseholds": 7242,
      "Ġvaccine": 7243,
      "Ġhidden": 7244,
      "Ġeleph": 7245,
      "Ġfunding": 7246,
      "Ġbitter": 7247,
      "otal": 7248,
      "Ġsevent": 7249,
      "Ġdiscer": 7250,
      "Ġdefault": 7251,
      "Ġprotein": 7252,
      "Ġaggar": 7253,
      "Ġinvitation": 7254,
      "Ġ56": 7255,
      "Ġvisits": 7256,
      "Ġsecretari": 7257,
      "Ġguarantee": 7258,
      "iran": 7259,
      "Ġ2002": 7260,
      "alle": 7261,
      "Ġford": 7262,
      "Ġspin": 7263,
      "Ġpublications": 7264,
      "Ġjournalist": 7265,
      "Ġrequirement": 7266,
      "iration": 7267,
      "Ġcompetitions": 7268,
      "Ġweakness": 7269,
      "Ġsoviet": 7270,
      "Ġrecognition": 7271,
      "Ġaggarwal": 7272,
      "Ġalarm": 7273,
      "Ġincent": 7274,
      "Ġcaut": 7275,
      "Ġaccomplish": 7276,
      "Ġfolk": 7277,
      "Ġorganic": 7278,
      "Ġfulfillment": 7279,
      "Ġrati": 7280,
      "Ġearthly": 7281,
      "Ġbenefited": 7282,
      "Ġsride": 7283,
      "Ġburning": 7284,
      "nty": 7285,
      "Ġboil": 7286,
      "Ġoccupation": 7287,
      "aces": 7288,
      "Ġvoted": 7289,
      "Ġgreetings": 7290,
      "Ġacce": 7291,
      "Ġeasier": 7292,
      "rase": 7293,
      "Ġbought": 7294,
      "Ġprohib": 7295,
      "Ġseconds": 7296,
      "Ġwarner": 7297,
      "Ġmixed": 7298,
      "Ġshak": 7299,
      "umn": 7300,
      "Ġraising": 7301,
      "Ġlocals": 7302,
      "Ġcalcium": 7303,
      "Ġcircuit": 7304,
      "holders": 7305,
      "Ġdisob": 7306,
      "Ġbethel": 7307,
      "Ġvaranasi": 7308,
      "Ġendure": 7309,
      "Ġcollapsed": 7310,
      "Ġwine": 7311,
      "Ġdownlo": 7312,
      "Ġdeficit": 7313,
      "Ġcautious": 7314,
      "ki": 7315,
      "Ġinhabitants": 7316,
      "06": 7317,
      "Ġshares": 7318,
      "Ġbird": 7319,
      "Ġallotted": 7320,
      "85": 7321,
      "Ġdual": 7322,
      "Ġplenty": 7323,
      "Ġsanitation": 7324,
      "Ġcollapse": 7325,
      "Ġprimarily": 7326,
      "leum": 7327,
      "amalai": 7328,
      "Ġhorse": 7329,
      "whel": 7330,
      "33": 7331,
      "Ġconsumption": 7332,
      "bc": 7333,
      "Ġconfig": 7334,
      "Ġvisitors": 7335,
      "Ġtransportation": 7336,
      "iast": 7337,
      "Ġbot": 7338,
      "cts": 7339,
      "rip": 7340,
      "Ġcub": 7341,
      "Ġload": 7342,
      "Ġattrib": 7343,
      "Ġsmoke": 7344,
      "Ġentirely": 7345,
      "cheep": 7346,
      "Ġflowers": 7347,
      "Ġsharp": 7348,
      "writ": 7349,
      "Ġmagic": 7350,
      "hin": 7351,
      "Ġperspective": 7352,
      "Ġisraeli": 7353,
      "Ġcher": 7354,
      "Ġnotified": 7355,
      "iforn": 7356,
      "Ġeffectively": 7357,
      "Ġlawyer": 7358,
      "Ġtremend": 7359,
      "hs": 7360,
      "Ġsatur": 7361,
      "Ġemail": 7362,
      "Ġsyn": 7363,
      "Ġcomponent": 7364,
      "Ġtheni": 7365,
      "Ġdevices": 7366,
      "Ġduties": 7367,
      "Ġacknowled": 7368,
      "cheepuram": 7369,
      "Ġlights": 7370,
      "eline": 7371,
      "Ġintel": 7372,
      "Ġ2009": 7373,
      "Ġsilent": 7374,
      "Ġwave": 7375,
      "Ġobst": 7376,
      "Ġimmun": 7377,
      "life": 7378,
      "Ġreasonable": 7379,
      "Ġfer": 7380,
      "ourge": 7381,
      "Ġprotestors": 7382,
      "Ġtroub": 7383,
      "Ġnehru": 7384,
      "Ġscooter": 7385,
      "Ġrai": 7386,
      "nis": 7387,
      "dian": 7388,
      "Ġisolated": 7389,
      "Ġindig": 7390,
      "Ġlady": 7391,
      "Ġsmaller": 7392,
      "apers": 7393,
      "Ġashok": 7394,
      "indig": 7395,
      "Ġgrants": 7396,
      "Ġcaliforn": 7397,
      "bir": 7398,
      "Ġyesterday": 7399,
      "gre": 7400,
      "Ġtransf": 7401,
      "Ġethnic": 7402,
      "Ġexplanation": 7403,
      "ignty": 7404,
      "Ġsole": 7405,
      "apur": 7406,
      "Ġverses": 7407,
      "Ġstressed": 7408,
      "Ġchain": 7409,
      "Ġahmedabad": 7410,
      "aren": 7411,
      "Ġcore": 7412,
      "appadi": 7413,
      "Ġstrikes": 7414,
      "Ġisa": 7415,
      "Ġidol": 7416,
      "Ġtsun": 7417,
      "Ġfired": 7418,
      "Ġ370": 7419,
      "Ġoverwhel": 7420,
      "Ġcurren": 7421,
      "Ġsmt": 7422,
      "Ġbanking": 7423,
      "ukudi": 7424,
      "Ġslight": 7425,
      "Ġraped": 7426,
      "Ġmissionary": 7427,
      "Ġassignment": 7428,
      "Ġpersecution": 7429,
      "Ġsovereignty": 7430,
      "has": 7431,
      "Ġble": 7432,
      "Ġrow": 7433,
      "Ġwrongdo": 7434,
      "aur": 7435,
      "Ġdiscl": 7436,
      "Ġsamuel": 7437,
      "Ġadjust": 7438,
      "Ġquoted": 7439,
      "Ġforetold": 7440,
      "ded": 7441,
      "remesinghe": 7442,
      "lines": 7443,
      "Ġhang": 7444,
      "Ġdair": 7445,
      "Ġascertain": 7446,
      "Ġutter": 7447,
      "Ġmanaging": 7448,
      "Ġovert": 7449,
      "estion": 7450,
      "Ġheavily": 7451,
      "Ġwindows": 7452,
      "Ġprocedure": 7453,
      "Ġsib": 7454,
      "Ġtoy": 7455,
      "Ġtranslated": 7456,
      "Ġkarthik": 7457,
      "Ġlabourers": 7458,
      "Ġposter": 7459,
      "Ġpush": 7460,
      "Ġupl": 7461,
      "Ġlemon": 7462,
      "Ġfees": 7463,
      "Ġexports": 7464,
      "Ġdialogue": 7465,
      "ndered": 7466,
      "Ġtourist": 7467,
      "Ġsubstantial": 7468,
      "indigul": 7469,
      "Ġ|": 7470,
      "Ġjudgement": 7471,
      "Ġrestrictions": 7472,
      "Ġarise": 7473,
      "Ġham": 7474,
      "Ġ51": 7475,
      "Ġresignation": 7476,
      "Ġhub": 7477,
      "acle": 7478,
      "Ġedappadi": 7479,
      "Ġeru": 7480,
      "Ġgradually": 7481,
      "Ġmetres": 7482,
      "Ġdefend": 7483,
      "Ġbeliefs": 7484,
      "Ġfraud": 7485,
      "tm": 7486,
      "Ġalex": 7487,
      "Ġatom": 7488,
      "Ġowner": 7489,
      "Ġkancheepuram": 7490,
      "Ġnaval": 7491,
      "Ġreviews": 7492,
      "Ġanxiety": 7493,
      "Ġsecular": 7494,
      "Ġefficiency": 7495,
      "Ġceo": 7496,
      "Ġax": 7497,
      "arur": 7498,
      "Ġcha": 7499,
      "Ġtwenty": 7500,
      "Ġinjust": 7501,
      "Ġfab": 7502,
      "itan": 7503,
      "Ġmahinda": 7504,
      "Ġwickremesinghe": 7505,
      "Ġempty": 7506,
      "will": 7507,
      "Ġaviation": 7508,
      "Ġvaluable": 7509,
      "Ġmate": 7510,
      "Ġstamp": 7511,
      "Ġpreparing": 7512,
      "ole": 7513,
      "Ġsark": 7514,
      "Ġgall": 7515,
      "iments": 7516,
      "ching": 7517,
      "Ġintention": 7518,
      "ounter": 7519,
      "Ġratio": 7520,
      "Ġmk": 7521,
      "Ġsworn": 7522,
      "eshwar": 7523,
      "Ġrelevant": 7524,
      "Ġentrepreneur": 7525,
      "Ġrenewable": 7526,
      "dha": 7527,
      "Ġhits": 7528,
      "father": 7529,
      "gent": 7530,
      "aughter": 7531,
      "Ġhotel": 7532,
      "fit": 7533,
      "iest": 7534,
      "sm": 7535,
      "Ġsuitable": 7536,
      "cycl": 7537,
      "Ġ\"\"\"\"": 7538,
      "Ġadmon": 7539,
      "Ġplastic": 7540,
      "Ġdindigul": 7541,
      "Ġsatellite": 7542,
      "Ġ2010": 7543,
      "Ġchristend": 7544,
      "hara": 7545,
      "Ġsacrifices": 7546,
      "Ġadults": 7547,
      "Ġsecretariat": 7548,
      "omin": 7549,
      "Ġpetroleum": 7550,
      "Ġtap": 7551,
      "ider": 7552,
      "Ġunjust": 7553,
      "Ġlegend": 7554,
      "Ġreducing": 7555,
      "Ġdollar": 7556,
      "Ġgratitude": 7557,
      "ille": 7558,
      "Ġdealing": 7559,
      "level": 7560,
      "Ġserver": 7561,
      "Ġformat": 7562,
      "Ġimpart": 7563,
      "Ġbatting": 7564,
      "oided": 7565,
      "Ġcommod": 7566,
      "Ġhostels": 7567,
      "Ġcriticised": 7568,
      "oothukudi": 7569,
      "ental": 7570,
      "Ġsiris": 7571,
      "Ġspanish": 7572,
      "Ġpicked": 7573,
      "Ġcalifornia": 7574,
      "eria": 7575,
      "Ġliv": 7576,
      "Ġruler": 7577,
      "Ġforgotten": 7578,
      "rates": 7579,
      "hend": 7580,
      "Ġfocused": 7581,
      "64": 7582,
      "Ġsaul": 7583,
      "unal": 7584,
      "soever": 7585,
      "Ġquarters": 7586,
      "atti": 7587,
      "sem": 7588,
      "Ġrab": 7589,
      "Ġwriters": 7590,
      "Ġpreca": 7591,
      "Ġentering": 7592,
      "Ġavoided": 7593,
      "Ġreplaced": 7594,
      "Ġhydro": 7595,
      "Ġvardhan": 7596,
      "Ġanticip": 7597,
      "Ġstrive": 7598,
      "Ġtensions": 7599,
      "Ġhospitalised": 7600,
      "Ġswami": 7601,
      "Ġpleased": 7602,
      "Ġassass": 7603,
      "Ġinstrument": 7604,
      "apattinam": 7605,
      "Ġpled": 7606,
      "Ġactual": 7607,
      "Ġastray": 7608,
      "Ġsout": 7609,
      "Ġthom": 7610,
      "Ġpreced": 7611,
      "Ġmasks": 7612,
      "Ġeggs": 7613,
      "mates": 7614,
      "ounds": 7615,
      "Ġelectrical": 7616,
      "Ġharassment": 7617,
      "600": 7618,
      "Ġimperfect": 7619,
      "Ġsirisena": 7620,
      "phy": 7621,
      "Ġdefense": 7622,
      "Ġerode": 7623,
      "Ġminorities": 7624,
      "Ġyuvan": 7625,
      "Ġsuit": 7626,
      "Ġevalu": 7627,
      "Ġhelpful": 7628,
      "Ġscripture": 7629,
      "Ġkath": 7630,
      "Ġdistingu": 7631,
      "Ġremarks": 7632,
      "Ġpublication": 7633,
      "Ġranil": 7634,
      "uz": 7635,
      "Ġspring": 7636,
      "Ġambass": 7637,
      "Ġcoffee": 7638,
      "liness": 7639,
      "Ġmated": 7640,
      "sters": 7641,
      "Ġheroine": 7642,
      "icing": 7643,
      "otions": 7644,
      "Ġindicated": 7645,
      "Ġsatisfaction": 7646,
      "Ġom": 7647,
      "Ġjewell": 7648,
      "Ġsuperstar": 7649,
      "Ġtributes": 7650,
      "Ġrepresents": 7651,
      "Ġencouragement": 7652,
      "jud": 7653,
      "log": 7654,
      "vp": 7655,
      "igar": 7656,
      "Ġlikes": 7657,
      "77": 7658,
      "oz": 7659,
      "uction": 7660,
      "Ġcloud": 7661,
      "Ġupdates": 7662,
      "Ġflee": 7663,
      "Ġpiv": 7664,
      "agam": 7665,
      "Ġmyan": 7666,
      "Ġalongside": 7667,
      "Ġsurrounding": 7668,
      "Ġgained": 7669,
      "Ġnetwor": 7670,
      "Ġmud": 7671,
      "Ġsamples": 7672,
      "icts": 7673,
      "Ġachievements": 7674,
      "Ġrebell": 7675,
      "Ġbath": 7676,
      "rolled": 7677,
      "akur": 7678,
      "attered": 7679,
      "Ġquestioning": 7680,
      "Ġoldest": 7681,
      "Ġpreparations": 7682,
      "Ġcreatures": 7683,
      "Ġchurches": 7684,
      "Ġempowerment": 7685,
      "isc": 7686,
      "Ġmarked": 7687,
      "Ġpanel": 7688,
      "akaran": 7689,
      "Ġnaw": 7690,
      "enth": 7691,
      "Ġstun": 7692,
      "anti": 7693,
      "Ġaged": 7694,
      "ksha": 7695,
      "Ġ01": 7696,
      "Ġtsunami": 7697,
      "Ġtonnes": 7698,
      "Ġfame": 7699,
      "ighty": 7700,
      "Ġstatistics": 7701,
      "Ġtouched": 7702,
      "ny": 7703,
      "Ġmole": 7704,
      "Ġherself": 7705,
      "upuram": 7706,
      "Ġsuperior": 7707,
      "01": 7708,
      "400": 7709,
      "isition": 7710,
      "Ġsimpl": 7711,
      "Ġturbo": 7712,
      "Ġdeterior": 7713,
      "Ġinterrogated": 7714,
      "Ġgro": 7715,
      "Ġbajaj": 7716,
      "Ġvo": 7717,
      "Ġsmooth": 7718,
      "Ġ85": 7719,
      "Ġfootage": 7720,
      "Ġspokesperson": 7721,
      "Ġchin": 7722,
      "Ġsinha": 7723,
      "power": 7724,
      "Ġships": 7725,
      "Ġ2021": 7726,
      "09": 7727,
      "wara": 7728,
      "ashion": 7729,
      "Ġmotorcycles": 7730,
      "Ġhike": 7731,
      "izer": 7732,
      "Ġlargely": 7733,
      "Ġpunished": 7734,
      "Ġiraqi": 7735,
      "Ġfly": 7736,
      "Ġfake": 7737,
      "Ġregulations": 7738,
      "eep": 7739,
      "Ġdeclaration": 7740,
      "07": 7741,
      "Ġphones": 7742,
      "asions": 7743,
      "roll": 7744,
      "ushan": 7745,
      "Ġlatin": 7746,
      "Ġlun": 7747,
      "Ġencounter": 7748,
      "apuri": 7749,
      "brid": 7750,
      "Ġdollars": 7751,
      "Ġtsp": 7752,
      "Ġboat": 7753,
      "Ġpercentage": 7754,
      "Ġsees": 7755,
      "Ġcenters": 7756,
      "long": 7757,
      "say": 7758,
      "Ġsod": 7759,
      "Ġincon": 7760,
      "Ġterrible": 7761,
      "Ġdrivers": 7762,
      "Ġpranab": 7763,
      "Ġgaz": 7764,
      "ushing": 7765,
      "Ġdoors": 7766,
      "Ġunp": 7767,
      "Ġrome": 7768,
      "Ġsadd": 7769,
      "Ġmonday": 7770,
      "Ġthoothukudi": 7771,
      "Ġ63": 7772,
      "Ġdraft": 7773,
      "Ġstronger": 7774,
      "Ġambul": 7775,
      "Ġexem": 7776,
      "Ġpremi": 7777,
      "Ġsabar": 7778,
      "Ġmurug": 7779,
      "Ġportug": 7780,
      "Ġanil": 7781,
      "omach": 7782,
      "ipping": 7783,
      "Ġganga": 7784,
      "Ġtelecom": 7785,
      "Ġladakh": 7786,
      "Ġemployed": 7787,
      "Ġarchae": 7788,
      "arer": 7789,
      "Ġtraged": 7790,
      "Ġinstructions": 7791,
      "itated": 7792,
      "Ġwouldnt": 7793,
      "Ġsupplied": 7794,
      "Ġcb": 7795,
      "Ġattendance": 7796,
      "Ġpresidents": 7797,
      "Ġ1990": 7798,
      "Ġslowly": 7799,
      "Ġeveryday": 7800,
      "Ġwitnessing": 7801,
      "Ġfasc": 7802,
      "Ġhereafter": 7803,
      "Ġviet": 7804,
      "atics": 7805,
      "Ġborrow": 7806,
      "Ġrit": 7807,
      "Ġdisbelieve": 7808,
      "Ġentitled": 7809,
      "atures": 7810,
      "Ġcolours": 7811,
      "thi": 7812,
      "yes": 7813,
      "enda": 7814,
      "Ġcommence": 7815,
      "Ġ58": 7816,
      "Ġflat": 7817,
      "Ġturkey": 7818,
      "urally": 7819,
      "Ġuns": 7820,
      "Ġrelating": 7821,
      "Ġmetal": 7822,
      "Ġfears": 7823,
      "Ġintroduction": 7824,
      "Ġastron": 7825,
      "Ġsettlement": 7826,
      "illa": 7827,
      "Ġkeen": 7828,
      "Ġconfront": 7829,
      "Ġ130": 7830,
      "Ġrelationships": 7831,
      "Ġvariant": 7832,
      "Ġpiece": 7833,
      "Ġhusbands": 7834,
      "ultaneous": 7835,
      "Ġsequ": 7836,
      "rich": 7837,
      "hua": 7838,
      "Ġoxy": 7839,
      "Ġramanath": 7840,
      "iform": 7841,
      "Ġthanked": 7842,
      "Ġmyanmar": 7843,
      "Ġsaving": 7844,
      "Ġ53": 7845,
      "Ġreturning": 7846,
      "Ġdrag": 7847,
      "Ġincreasingly": 7848,
      "Ġmeteorological": 7849,
      "Ġcommonly": 7850,
      "Ġcomponents": 7851,
      "Ġtheatre": 7852,
      "Ġtremendous": 7853,
      "Ġintellect": 7854,
      "Ġdress": 7855,
      "Ġbell": 7856,
      "Ġcomedy": 7857,
      "assium": 7858,
      "Ġoppose": 7859,
      "Ġsigning": 7860,
      "Ġelectoral": 7861,
      "Ġgap": 7862,
      "Ġsimultaneous": 7863,
      "Ġcombat": 7864,
      "Ġari": 7865,
      "Ġkong": 7866,
      "Ġconfirm": 7867,
      "Ġrupee": 7868,
      "Ġsom": 7869,
      "eter": 7870,
      "Ġaspect": 7871,
      "Ġestimate": 7872,
      "Ġlaboratory": 7873,
      "Ġbeast": 7874,
      "earing": 7875,
      "Ġdelayed": 7876,
      "08": 7877,
      "yas": 7878,
      "Ġkorean": 7879,
      "Ġpostp": 7880,
      "Ġsilk": 7881,
      "rc": 7882,
      "Ġnegotiations": 7883,
      "Ġassessment": 7884,
      "Ġgenerated": 7885,
      "Ġtendul": 7886,
      "Ġreferring": 7887,
      "Ġnagapattinam": 7888,
      "Ġrak": 7889,
      "Ġplot": 7890,
      "Ġhypoc": 7891,
      "Ġchristmas": 7892,
      "Ġcalc": 7893,
      "Ġqueen": 7894,
      "Ġpacific": 7895,
      "Ġpivotal": 7896,
      "Ġtall": 7897,
      "ocratic": 7898,
      "Ġhatred": 7899,
      "Ġhunt": 7900,
      "omen": 7901,
      "alur": 7902,
      "Ġencycl": 7903,
      "Ġinterven": 7904,
      "Ġpatna": 7905,
      "Ġinnocent": 7906,
      "Ġbooked": 7907,
      "Ġglobally": 7908,
      "worthy": 7909,
      "Ġpremium": 7910,
      "Ġtack": 7911,
      "Ġexh": 7912,
      "essions": 7913,
      "ago": 7914,
      "isement": 7915,
      "Ġvillupuram": 7916,
      "Ġavailability": 7917,
      "Ġpotassium": 7918,
      "Ġdifficulty": 7919,
      "Ġtrading": 7920,
      "Ġsi": 7921,
      "Ġjal": 7922,
      "Ġlimits": 7923,
      "Ġcurrency": 7924,
      "Ġphases": 7925,
      "Ġstaying": 7926,
      "Ġpsalmist": 7927,
      "Ġbatsman": 7928,
      "Ġmour": 7929,
      "imala": 7930,
      "Ġcrown": 7931,
      "Ġmessiah": 7932,
      "Ġjaish": 7933,
      "Ġdates": 7934,
      "Ġroof": 7935,
      "Ġfrequent": 7936,
      "?'": 7937,
      "Ġki": 7938,
      "Ġwilliams": 7939,
      "Ġpour": 7940,
      "Ġrepair": 7941,
      "Ġvijayan": 7942,
      "Ġexcited": 7943,
      "Ġfacult": 7944,
      "Ġconsiderable": 7945,
      "Ġpremier": 7946,
      "aran": 7947,
      "Ġmaybe": 7948,
      "Ġdeclare": 7949,
      "Ġweve": 7950,
      "Ġpalm": 7951,
      "Ġknock": 7952,
      "Ġstability": 7953,
      "Ġdescribe": 7954,
      "Ġchemicals": 7955,
      "Ġphilosophy": 7956,
      "Ġ700": 7957,
      "Ġthail": 7958,
      "Ġfurthermore": 7959,
      "Ġsouls": 7960,
      "Ġ95": 7961,
      "Ġsafegu": 7962,
      "Ġrefugees": 7963,
      "Ġathlet": 7964,
      "Ġspokesman": 7965,
      "Ġfolder": 7966,
      "Ġencyclop": 7967,
      "Ġsard": 7968,
      "Ġchast": 7969,
      "Ġthrone": 7970,
      "Ġlaunches": 7971,
      "Ġdetermine": 7972,
      "rian": 7973,
      "rolog": 7974,
      "rogen": 7975,
      "ford": 7976,
      "Ġfashion": 7977,
      "Ġeternal": 7978,
      "imal": 7979,
      "Ġshiva": 7980,
      "pf": 7981,
      "Ġtan": 7982,
      "ingly": 7983,
      "Ġken": 7984,
      "Ġproductivity": 7985,
      "akhand": 7986,
      "Ġofficially": 7987,
      "Ġdestination": 7988,
      "Ġvictor": 7989,
      "Ġsridevi": 7990,
      "ctr": 7991,
      "Ġpraised": 7992,
      "Ġsolved": 7993,
      "Ġequipped": 7994,
      "Ġaffordable": 7995,
      "02": 7996,
      "ikk": 7997,
      "Ġhonoured": 7998,
      "Ġscenes": 7999,
      "Ġculprit": 8000,
      "Ġitalian": 8001,
      "Ġinner": 8002,
      "Ġmarvel": 8003,
      "Ġequival": 8004,
      "Ġkrishnagiri": 8005,
      "98": 8006,
      "sy": 8007,
      "Ġfounder": 8008,
      "Ġjewellery": 8009,
      "Ġblocks": 8010,
      "Ġartists": 8011,
      "Ġoccasions": 8012,
      "akshi": 8013,
      "Ġcontrary": 8014,
      "Ġpretty": 8015,
      "Ġbrut": 8016,
      "Ġimpressed": 8017,
      "Ġresulting": 8018,
      "Ġtalent": 8019,
      "Ġacceler": 8020,
      "Ġtendulkar": 8021,
      "wari": 8022,
      "Ġtools": 8023,
      "Ġreaders": 8024,
      "Ġurge": 8025,
      "Ġperforming": 8026,
      "Ġhills": 8027,
      "Ġappointment": 8028,
      "lock": 8029,
      "Ġdrown": 8030,
      "Ġragh": 8031,
      "Ġtempt": 8032,
      "Ġ@": 8033,
      "any": 8034,
      "atha": 8035,
      "anga": 8036,
      "Ġ110": 8037,
      "Ġtribulation": 8038,
      "ople": 8039,
      "Ġ72": 8040,
      "Ġcorrid": 8041,
      "Ġoperated": 8042,
      "antha": 8043,
      "Ġindicate": 8044,
      "Ġannum": 8045,
      "Ġpalestin": 8046,
      "Ġapparently": 8047,
      "oom": 8048,
      "Ġdiscrim": 8049,
      "Ġsegment": 8050,
      "Ġmyth": 8051,
      "isan": 8052,
      "encing": 8053,
      "Ġserves": 8054,
      "ez": 8055,
      "Ġconsol": 8056,
      "Ġtraditions": 8057,
      "uous": 8058,
      "Ġspecified": 8059,
      "Ġraining": 8060,
      "Ġforgiving": 8061,
      "Ġcongratulate": 8062,
      "Ġoutlay": 8063,
      "Ġvaj": 8064,
      "Ġgrave": 8065,
      "Ġtreasure": 8066,
      "fare": 8067,
      "Ġexal": 8068,
      "Ġbusinesses": 8069,
      "Ġbalanced": 8070,
      "Ġarranged": 8071,
      "Ġsignificantly": 8072,
      "Ġdrawing": 8073,
      "ua": 8074,
      "Ġthailand": 8075,
      "Ġevolution": 8076,
      "Ġretail": 8077,
      "Ġarrive": 8078,
      "Ġinnovative": 8079,
      "Ġliquor": 8080,
      "Ġramanathapuram": 8081,
      "ele": 8082,
      "Ġbin": 8083,
      "Ġdefined": 8084,
      "Ġcuts": 8085,
      "Ġuttarakhand": 8086,
      "Ġconcess": 8087,
      "Ġages": 8088,
      "zer": 8089,
      "Ġrein": 8090,
      "Ġcanad": 8091,
      "Ġcori": 8092,
      "Ġtaliban": 8093,
      "Ġsignificance": 8094,
      "Ġcommented": 8095,
      "Ġmachines": 8096,
      "Ġrepeatedly": 8097,
      "vin": 8098,
      "Ġagenda": 8099,
      "Ġears": 8100,
      "Ġamericans": 8101,
      "Ġnorms": 8102,
      "Ġconnections": 8103,
      "government": 8104,
      "adoss": 8105,
      "Ġcrushed": 8106,
      "Ġqualified": 8107,
      "Ġwalls": 8108,
      "akkal": 8109,
      "wheel": 8110,
      "Ġfib": 8111,
      "Ġdisplayed": 8112,
      "Ġquran": 8113,
      "Ġoxygen": 8114,
      "Ġcorrupt": 8115,
      "Ġrefers": 8116,
      "Ġevac": 8117,
      "iable": 8118,
      "Ġdecade": 8119,
      "Ġcease": 8120,
      "Ġfriday": 8121,
      "Ġfeels": 8122,
      "Ġdeposit": 8123,
      "32": 8124,
      "cot": 8125,
      "Ġtribute": 8126,
      "Ġcinemat": 8127,
      "Ġcrack": 8128,
      "Ġolympic": 8129,
      "Ġshed": 8130,
      "achi": 8131,
      "Ġmarathi": 8132,
      "Ġentrepreneurs": 8133,
      "Ġeagerly": 8134,
      "Ġbjps": 8135,
      "Ġvulnerable": 8136,
      "yakumari": 8137,
      "Ġnod": 8138,
      "Ġdepends": 8139,
      "Ġviolation": 8140,
      "Ġcoriander": 8141,
      "Ġdhawan": 8142,
      "Ġgosp": 8143,
      "Ġinsight": 8144,
      "Ġemotions": 8145,
      "Ġpositions": 8146,
      "48": 8147,
      "hand": 8148,
      "Ġreservation": 8149,
      "Ġbhut": 8150,
      "Ġmobil": 8151,
      "Ġprabhu": 8152,
      "Ġconvinced": 8153,
      "Ġremarkable": 8154,
      "Ġinjustice": 8155,
      "Ġcot": 8156,
      "Ġring": 8157,
      "Ġseas": 8158,
      "Ġspl": 8159,
      "Ġpayments": 8160,
      "Ġintroduce": 8161,
      "Ġchallenged": 8162,
      "oved": 8163,
      "Ġvigil": 8164,
      "Ġcommenced": 8165,
      "uals": 8166,
      "Ġsinging": 8167,
      "Ġsacrific": 8168,
      "iti": 8169,
      "Ġunpre": 8170,
      "Ġcontrad": 8171,
      "Ġcooking": 8172,
      "ferences": 8173,
      "Ġpropag": 8174,
      "Ġcorporations": 8175,
      "Ġcomprom": 8176,
      "Ġsmile": 8177,
      "Ġmaith": 8178,
      "Ġdescend": 8179,
      "utation": 8180,
      "Ġdoctr": 8181,
      "cedented": 8182,
      "Ġnationalist": 8183,
      "Ġkilometres": 8184,
      "Ġpent": 8185,
      "Ġlos": 8186,
      "ola": 8187,
      "Ġintended": 8188,
      "Ġempow": 8189,
      "Ġoblig": 8190,
      "Ġadityanath": 8191,
      "Ġ*": 8192,
      "Ġpresided": 8193,
      "Ġpersist": 8194,
      "Ġwherever": 8195,
      "Ġseparated": 8196,
      "odhya": 8197,
      "Ġupro": 8198,
      "Ġjoining": 8199,
      "Ġfighter": 8200,
      "Ġflo": 8201,
      "Ġncp": 8202,
      "Ġkur": 8203,
      "Ġsurre": 8204,
      "Ġswach": 8205,
      "Ġcontrolled": 8206,
      "see": 8207,
      "illion": 8208,
      "Ġchart": 8209,
      "Ġ2022": 8210,
      "Ġportra": 8211,
      "Ġgrass": 8212,
      "Ġtomatoes": 8213,
      "cel": 8214,
      "Ġprosec": 8215,
      "Ġsavings": 8216,
      "Ġobjectives": 8217,
      "Ġkanyakumari": 8218,
      "Ġaffects": 8219,
      "Ġfirmly": 8220,
      "Ġire": 8221,
      "Ġdriven": 8222,
      "Ġarrives": 8223,
      "Ġayodhya": 8224,
      "Ġsessions": 8225,
      "Ġchances": 8226,
      "Ġcrew": 8227,
      "Ġescal": 8228,
      "Ġnortheast": 8229,
      "Ġsatisfied": 8230,
      "Ġdignity": 8231,
      "Ġonwards": 8232,
      "aha": 8233,
      "Ġthrill": 8234,
      "Ġscientist": 8235,
      "Ġpatt": 8236,
      "Ġmm": 8237,
      "Ġchat": 8238,
      "Ġattain": 8239,
      "Ġtraders": 8240,
      "arajan": 8241,
      "Ġdelegation": 8242,
      "otes": 8243,
      "chi": 8244,
      "Ġ67": 8245,
      "Ġretirement": 8246,
      "bing": 8247,
      "aria": 8248,
      "Ġrbi": 8249,
      "ifications": 8250,
      "pc": 8251,
      "Ġsikh": 8252,
      "keeper": 8253,
      "Ġunprecedented": 8254,
      "onomy": 8255,
      "Ġclim": 8256,
      "Ġdisputes": 8257,
      "Ġpremises": 8258,
      "47": 8259,
      "Ġnoticed": 8260,
      "itt": 8261,
      "Ġcooperate": 8262,
      "Ġthomas": 8263,
      "Ġtired": 8264,
      "arti": 8265,
      "fere": 8266,
      "Ġcrude": 8267,
      "Ġpalace": 8268,
      "Ġqualification": 8269,
      "Ġbridges": 8270,
      "Ġvirtual": 8271,
      "kari": 8272,
      "Ġjy": 8273,
      "Ġconsp": 8274,
      "Ġbottom": 8275,
      "spr": 8276,
      "Ġtid": 8277,
      "ora": 8278,
      "Ġshes": 8279,
      "Ġnewspapers": 8280,
      "expected": 8281,
      "bage": 8282,
      "Ġprompt": 8283,
      "Ġawait": 8284,
      "Ġcalam": 8285,
      "Ġmissionaries": 8286,
      "Ġcomprising": 8287,
      "Ġhunger": 8288,
      "Ġephesians": 8289,
      "Ġmilitants": 8290,
      "Ġmodis": 8291,
      "Ġnilgir": 8292,
      "agues": 8293,
      "Ġrajini": 8294,
      "Ġinconveni": 8295,
      "Ġpassword": 8296,
      "Ġbelieves": 8297,
      "Ġswed": 8298,
      "Ġlitre": 8299,
      "Ġinstitutes": 8300,
      "Ġestablishing": 8301,
      "Ġbattery": 8302,
      "Ġprobing": 8303,
      "Ġretali": 8304,
      "Ġprocesses": 8305,
      "Ġcivilians": 8306,
      "gies": 8307,
      "Ġpuja": 8308,
      "oes": 8309,
      "Ġcompuls": 8310,
      "Ġbrigade": 8311,
      "felt": 8312,
      "Ġexposed": 8313,
      "Ġcomplained": 8314,
      "Ġcycle": 8315,
      "Ġdisbelievers": 8316,
      "inery": 8317,
      "Ġenabled": 8318,
      "Ġecos": 8319,
      "Ġnilgiris": 8320,
      "Ġved": 8321,
      "eping": 8322,
      "Ġsiva": 8323,
      "Ġhorticulture": 8324,
      "Ġsq": 8325,
      "Ġkaly": 8326,
      "Ġmano": 8327,
      "Ġrealise": 8328,
      "bly": 8329,
      "hala": 8330,
      "Ġindo": 8331,
      "Ġextensive": 8332,
      "Ġbeaten": 8333,
      "Ġdelighted": 8334,
      "ourgeois": 8335,
      "istry": 8336,
      "Ġinse": 8337,
      "Ġ1999": 8338,
      "Ġpadma": 8339,
      "olved": 8340,
      "Ġdharmapuri": 8341,
      "aic": 8342,
      "Ġpharm": 8343,
      "xture": 8344,
      "Ġdiam": 8345,
      "agaraj": 8346,
      "Ġrepresentative": 8347,
      "Ġprinting": 8348,
      "96": 8349,
      "ppers": 8350,
      "Ġsoldier": 8351,
      "Ġdisappoint": 8352,
      "Ġgrams": 8353,
      "nav": 8354,
      "Ġannually": 8355,
      "hesh": 8356,
      "Ġallowing": 8357,
      "Ġinvolvement": 8358,
      "uter": 8359,
      "Ġabhi": 8360,
      "Ġchildrens": 8361,
      "Ġwhatsapp": 8362,
      "Ġsexually": 8363,
      "Ġdinesh": 8364,
      "Ġabdul": 8365,
      "Ġther": 8366,
      "Ġpair": 8367,
      "ocol": 8368,
      "Ġwherein": 8369,
      "Ġconfused": 8370,
      "Ġranks": 8371,
      "Ġthiruvan": 8372,
      "Ġenforcement": 8373,
      "Ġlivest": 8374,
      "38": 8375,
      "Ġtig": 8376,
      "Ġdepth": 8377,
      "Ġintim": 8378,
      "Ġmissile": 8379,
      "cluding": 8380,
      "Ġ1914": 8381,
      "ugg": 8382,
      "Ġadmit": 8383,
      "Ġbigger": 8384,
      "Ġsending": 8385,
      "ni": 8386,
      "net": 8387,
      "Ġinterim": 8388,
      "ukh": 8389,
      "ourable": 8390,
      "Ġdetermination": 8391,
      "Ġreci": 8392,
      "Ġpool": 8393,
      "Ġopposing": 8394,
      "Ġpaint": 8395,
      "Ġkab": 8396,
      "Ġloyalty": 8397,
      "Ġaer": 8398,
      "Ġfeared": 8399,
      "Ġfaster": 8400,
      "Ġunexpected": 8401,
      "ups": 8402,
      "Ġconsumers": 8403,
      "Ġprescribed": 8404,
      "Ġheartfelt": 8405,
      "Ġtribe": 8406,
      "Ġlivestock": 8407,
      "Ġug": 8408,
      "berg": 8409,
      "Ġsecretaries": 8410,
      "Ġexplosion": 8411,
      "Ġobserv": 8412,
      "Ġdoubts": 8413,
      "Ġpandey": 8414,
      "Ġmandatory": 8415,
      "uing": 8416,
      "Ġendurance": 8417,
      "ripala": 8418,
      "Ġpong": 8419,
      "Ġmg": 8420,
      "cket": 8421,
      "Ġowned": 8422,
      "Ġawa": 8423,
      "Ġresponding": 8424,
      "Ġsabarimala": 8425,
      "hearted": 8426,
      "Ġmatt": 8427,
      "Ġcouldn": 8428,
      "Ġdiscern": 8429,
      "Ġsaturday": 8430,
      "ipt": 8431,
      "var": 8432,
      "Ġmw": 8433,
      "Ġdiscoura": 8434,
      "Ġslaves": 8435,
      "Ġsleeping": 8436,
      "Ġmarty": 8437,
      "Ġhabits": 8438,
      "Ġtoyota": 8439,
      "uman": 8440,
      "Ġcopies": 8441,
      "Ġkne": 8442,
      "Ġdescribes": 8443,
      "Ġupdate": 8444,
      "tes": 8445,
      "Ġwip": 8446,
      "Ġindu": 8447,
      "Ġstomach": 8448,
      "Ġcommem": 8449,
      "Ġmaithripala": 8450,
      "fc": 8451,
      "national": 8452,
      "Ġgender": 8453,
      "Ġuniform": 8454,
      "Ġefficient": 8455,
      "Ġbreaking": 8456,
      "Ġdistinct": 8457,
      "Ġevacu": 8458,
      "55": 8459,
      "Ġtragedy": 8460,
      "Ġshell": 8461,
      "Ġserial": 8462,
      "have": 8463,
      "Ġpatri": 8464,
      "noon": 8465,
      "Ġinqu": 8466,
      "Ġadverse": 8467,
      "llor": 8468,
      "Ġ66": 8469,
      "Ġinstruction": 8470,
      "Ġambassador": 8471,
      "Ġnda": 8472,
      "Ġsarath": 8473,
      "Ġbehavi": 8474,
      "sar": 8475,
      "Ġbones": 8476,
      "ayi": 8477,
      "Ġrana": 8478,
      "Ġcultivation": 8479,
      "bhar": 8480,
      "Ġrooms": 8481,
      "Ġsmiled": 8482,
      "Ġobjects": 8483,
      "Ġexcellence": 8484,
      "Ġtiger": 8485,
      "ppa": 8486,
      "Ġ68": 8487,
      "ario": 8488,
      "Ġstrang": 8489,
      "Ġhighlighted": 8490,
      "rapy": 8491,
      "Ġtail": 8492,
      "Ġbearing": 8493,
      "Ġsuperint": 8494,
      "Ġresistance": 8495,
      "jit": 8496,
      "Ġkl": 8497,
      "Ġmedals": 8498,
      "ockey": 8499,
      "Ġcrossed": 8500,
      "Ġarguments": 8501,
      "Ġrobert": 8502,
      "Ġ59": 8503,
      "anthapuram": 8504,
      "car": 8505,
      "Ġshik": 8506,
      "Ġyours": 8507,
      "Ġrestored": 8508,
      "Ġbron": 8509,
      "ocation": 8510,
      "Ġhumility": 8511,
      "Ġturb": 8512,
      "Ġaudio": 8513,
      "Ġhighlights": 8514,
      "ule": 8515,
      "irt": 8516,
      "Ġcorre": 8517,
      "Ġconfer": 8518,
      "Ġbio": 8519,
      "Ġindicates": 8520,
      "Ġdas": 8521,
      "Ġinspiration": 8522,
      "Ġreleases": 8523,
      "Ġamitabh": 8524,
      "Ġbelieving": 8525,
      "Ġexecuted": 8526,
      "Ġdemonstration": 8527,
      "Ġbrics": 8528,
      "Ġecc": 8529,
      "Ġcruel": 8530,
      "rating": 8531,
      "outs": 8532,
      "Ġcontributions": 8533,
      "Ġdisappointed": 8534,
      "Ġbourgeois": 8535,
      "bour": 8536,
      "Ġcultivate": 8537,
      "Ġjoshua": 8538,
      "Ġaaron": 8539,
      "Ġcommend": 8540,
      "Ġembra": 8541,
      "Ġchannels": 8542,
      "Ġelectronics": 8543,
      "lings": 8544,
      "Ġos": 8545,
      "Ġsouthwest": 8546,
      "Ġexit": 8547,
      "Ġlatter": 8548,
      "Ġinspector": 8549,
      "Ġandroid": 8550,
      "oli": 8551,
      "Ġ160": 8552,
      "Ġ1995": 8553,
      "house": 8554,
      "Ġgdp": 8555,
      "Ġjoe": 8556,
      "Ġphysically": 8557,
      "gments": 8558,
      "held": 8559,
      "Ġflying": 8560,
      "Ġcompanions": 8561,
      "Ġaddresses": 8562,
      "Ġexecution": 8563,
      "Ġbranches": 8564,
      "Ġenact": 8565,
      "lessly": 8566,
      "spring": 8567,
      "Ġcraft": 8568,
      "Ġsixth": 8569,
      "Ġ#": 8570,
      "Ġagar": 8571,
      "Ġlinks": 8572,
      "ju": 8573,
      "Ġdairy": 8574,
      "Ġradh": 8575,
      "Ġtimely": 8576,
      "Ġbullet": 8577,
      "Ġstakeholders": 8578,
      "Ġobedience": 8579,
      "Ġusual": 8580,
      "portion": 8581,
      "Ġinvite": 8582,
      "Ġcontinuously": 8583,
      "Ġbonds": 8584,
      "Ġfluid": 8585,
      "Ġstructures": 8586,
      "Ġsafeguard": 8587,
      "Ġhopes": 8588,
      "Ġpoison": 8589,
      "Ġadditionally": 8590,
      "Ġpaddy": 8591,
      "Ġclothing": 8592,
      "Ġmurugadoss": 8593,
      "oon": 8594,
      "necess": 8595,
      "Ġerr": 8596,
      "Ġcommittees": 8597,
      "Ġlandsl": 8598,
      "Ġjohnson": 8599,
      "udes": 8600,
      "Ġpossibly": 8601,
      "Ġ1994": 8602,
      "Ġanc": 8603,
      "Ġstring": 8604,
      "Ġmeals": 8605,
      "Ġremake": 8606,
      "Ġhatch": 8607,
      "Ġjet": 8608,
      "people": 8609,
      "Ġcaution": 8610,
      "Ġvariants": 8611,
      "Ġtargets": 8612,
      "Ġguests": 8613,
      "Ġevidently": 8614,
      "Ġjointly": 8615,
      "ishes": 8616,
      "Ġfilmm": 8617,
      "Ġclergy": 8618,
      "Ġtribunal": 8619,
      "Ġireland": 8620,
      "Ġwinds": 8621,
      "Ġsans": 8622,
      "Ġtablespoon": 8623,
      "Ġindigen": 8624,
      "!\"\"\"": 8625,
      "Ġeconomics": 8626,
      "Ġlabs": 8627,
      "Ġroutine": 8628,
      "hee": 8629,
      "Ġatal": 8630,
      "Ġabsor": 8631,
      "Ġwhoso": 8632,
      "Ġlegislation": 8633,
      "eed": 8634,
      "aph": 8635,
      "Ġcounty": 8636,
      "Ġphotographs": 8637,
      "Ġpongal": 8638,
      "Ġsubraman": 8639,
      "Ġwithdrawn": 8640,
      "Ġshift": 8641,
      "Ġblamed": 8642,
      "Ġnarrow": 8643,
      "Ġajit": 8644,
      "Ġcried": 8645,
      "Ġmath": 8646,
      "Ġdisrupted": 8647,
      "Ġmarit": 8648,
      "Ġwinner": 8649,
      "Ġgrade": 8650,
      "Ġgrounds": 8651,
      "Ġmagazines": 8652,
      "Ġmanufacturer": 8653,
      "46": 8654,
      "name": 8655,
      "Ġharris": 8656,
      "Ġlasting": 8657,
      "Ġhockey": 8658,
      "Ġhect": 8659,
      "Ġslogans": 8660,
      "annamalai": 8661,
      "lers": 8662,
      "Ġactively": 8663,
      "mans": 8664,
      "Ġchilds": 8665,
      "Ġexpensive": 8666,
      "Ġsteve": 8667,
      "akkam": 8668,
      "Ġpoetry": 8669,
      "mou": 8670,
      "Ġquake": 8671,
      "Ġsumm": 8672,
      "Ġadvocate": 8673,
      "Ġdict": 8674,
      "Ġkim": 8675,
      "Ġ62": 8676,
      "Ġsentenced": 8677,
      "ropol": 8678,
      "Ġshepherd": 8679,
      "Ġminerals": 8680,
      "Ġphen": 8681,
      "askar": 8682,
      "Ġdrought": 8683,
      "Ġengineers": 8684,
      "Ġmasses": 8685,
      "Ġpioneers": 8686,
      "Ġabdullah": 8687,
      "Ġenorm": 8688,
      "Ġvenue": 8689,
      "pta": 8690,
      "Ġcovers": 8691,
      "class": 8692,
      "Ġnormally": 8693,
      "Ġacquisition": 8694,
      "Ġliked": 8695,
      "Ġcomprises": 8696,
      "iers": 8697,
      "Ġbind": 8698,
      "Ġorange": 8699,
      "Ġcounting": 8700,
      "Ġrespected": 8701,
      "Ġgreeted": 8702,
      "Ġcommunications": 8703,
      "Ġmagist": 8704,
      "Ġdravidar": 8705,
      "payee": 8706,
      "Ġmaritime": 8707,
      "cylinder": 8708,
      "Ġpetitions": 8709,
      "Ġfrank": 8710,
      "Ġresurrected": 8711,
      "unagar": 8712,
      "Ġattached": 8713,
      "Ġlokesh": 8714,
      "Ġarrival": 8715,
      "Ġgreece": 8716,
      "Ġmosque": 8717,
      "Ġkaz": 8718,
      "Ġhaven": 8719,
      "Ġadul": 8720,
      "Ġreveals": 8721,
      "Ġsovereign": 8722,
      "production": 8723,
      "Ġrestoration": 8724,
      "Ġdeepika": 8725,
      "Ġprospect": 8726,
      "Ġmodest": 8727,
      "Ġobe": 8728,
      "ificial": 8729,
      "Ġtransformation": 8730,
      "Ġoverseas": 8731,
      "Ġgadkari": 8732,
      "rum": 8733,
      "Ġdat": 8734,
      "Ġmoderate": 8735,
      "Ġgrievances": 8736,
      "76": 8737,
      "fection": 8738,
      "illance": 8739,
      "Ġrelation": 8740,
      "Ġcorn": 8741,
      "Ġlux": 8742,
      "Ġscuff": 8743,
      "Ġ99": 8744,
      "Ġgrie": 8745,
      "Ġthiruvananthapuram": 8746,
      "Ġtues": 8747,
      "Ġcure": 8748,
      "Ġpant": 8749,
      "Ġthrown": 8750,
      "Ġpraying": 8751,
      "Ġseeks": 8752,
      "Ġexaminations": 8753,
      "Ġlocked": 8754,
      "Ġsardar": 8755,
      "Ġ[]": 8756,
      "Ġpapers": 8757,
      "Ġrelatively": 8758,
      "Ġdischarged": 8759,
      "ori": 8760,
      "Ġconsec": 8761,
      "Ġleaf": 8762,
      "Ġrepro": 8763,
      "Ġpregnancy": 8764,
      "Ġnitin": 8765,
      "Ġsucceeded": 8766,
      "Ġconstitutional": 8767,
      "Ġmanohar": 8768,
      "Ġports": 8769,
      "Ġinteraction": 8770,
      "Ġgraph": 8771,
      "Ġroutes": 8772,
      "Ġlamp": 8773,
      "pak": 8774,
      "Ġthreats": 8775,
      "Ġpublishers": 8776,
      "Ġyam": 8777,
      "akse": 8778,
      "Ġunnecess": 8779,
      "Ġadvent": 8780,
      "Ġfavourite": 8781,
      "Ġfaculty": 8782,
      "mu": 8783,
      "asted": 8784,
      "Ġallowance": 8785,
      "Ġlayer": 8786,
      "sl": 8787,
      "Ġsung": 8788,
      "umes": 8789,
      "Ġcircle": 8790,
      "Ġremembered": 8791,
      "Ġprest": 8792,
      "Ġaccorded": 8793,
      "Ġpredomin": 8794,
      "iel": 8795,
      "Ġwarri": 8796,
      "Ġrevol": 8797,
      "Ġcommander": 8798,
      "Ġsimultaneously": 8799,
      "Ġsear": 8800,
      "Ġshad": 8801,
      "Ġcritics": 8802,
      "Ġsurveillance": 8803,
      "Ġcensus": 8804,
      "Ġhimachal": 8805,
      "2013": 8806,
      "Ġproceedings": 8807,
      "zen": 8808,
      "Ġbum": 8809,
      "Ġbold": 8810,
      "Ġisro": 8811,
      "Ġartificial": 8812,
      "top": 8813,
      "Ġthakur": 8814,
      "Ġresent": 8815,
      "Ġoffspring": 8816,
      "ilead": 8817,
      "Ġcaring": 8818,
      "Ġcyclone": 8819,
      "flow": 8820,
      "anes": 8821,
      "Ġrepay": 8822,
      "Ġmentally": 8823,
      "Ġautomob": 8824,
      "Ġrajapakse": 8825,
      "igarh": 8826,
      "34": 8827,
      "Ġkoch": 8828,
      "Ġdepri": 8829,
      "Ġfuneral": 8830,
      "Ġhardly": 8831,
      "Ġpulses": 8832,
      "Ġignore": 8833,
      "Ġajay": 8834,
      "asty": 8835,
      "Ġneut": 8836,
      "Ġadoles": 8837,
      "Ġsymp": 8838,
      "Ġoccurs": 8839,
      "Ġgopal": 8840,
      "child": 8841,
      "agra": 8842,
      "Ġsuspected": 8843,
      "Ġrejo": 8844,
      "Ġsettings": 8845,
      "ether": 8846,
      "Ġemphasis": 8847,
      "Ġcluster": 8848,
      "Ġpall": 8849,
      "Ġstim": 8850,
      "Ġobedient": 8851,
      "Ġcotton": 8852,
      "Ġjas": 8853,
      "aki": 8854,
      "Ġinterior": 8855,
      "Ġhandling": 8856,
      "Ġblocked": 8857,
      "Ġwatched": 8858,
      "oning": 8859,
      "Ġeducated": 8860,
      "Ġrumours": 8861,
      "Ġboss": 8862,
      "Ġmol": 8863,
      "roc": 8864,
      "Ġgor": 8865,
      "Ġcham": 8866,
      "Ġcoloss": 8867,
      "Ġelabor": 8868,
      "Ġadopt": 8869,
      "Ġtestim": 8870,
      "Ġreceipt": 8871,
      "Ġcopper": 8872,
      "Ġextraord": 8873,
      "31": 8874,
      "avi": 8875,
      "Ġgrain": 8876,
      "Ġrestore": 8877,
      "ursday": 8878,
      "Ġnawaz": 8879,
      "casting": 8880,
      "par": 8881,
      "Ġlovers": 8882,
      "arest": 8883,
      "Ġfinish": 8884,
      "Ġoriginally": 8885,
      "Ġafternoon": 8886,
      "apped": 8887,
      "Ġcomputers": 8888,
      "Ġvishal": 8889,
      "Ġcameras": 8890,
      "Ġ>": 8891,
      "Ġri": 8892,
      "Ġemployee": 8893,
      "Ġfighters": 8894,
      "Ġhan": 8895,
      "icks": 8896,
      "Ġgon": 8897,
      "Ġchrom": 8898,
      "Ġdisag": 8899,
      "Ġzero": 8900,
      "Ġverse": 8901,
      "Ġcapitalist": 8902,
      "Ġrevelations": 8903,
      "Ġinflation": 8904,
      "Ġprestig": 8905,
      "Ġheated": 8906,
      "Ġplate": 8907,
      "Ġadmission": 8908,
      "Ġprevented": 8909,
      "Ġignor": 8910,
      "Ġcryst": 8911,
      "86": 8912,
      "pes": 8913,
      "usions": 8914,
      "Ġedge": 8915,
      "Ġ1996": 8916,
      "Ġpleasant": 8917,
      "Ġbcci": 8918,
      "Ġbeings": 8919,
      "endar": 8920,
      "Ġincur": 8921,
      "Ġemper": 8922,
      "Ġgenerate": 8923,
      "ursed": 8924,
      "Ġembarr": 8925,
      "Ġembarrass": 8926,
      "pret": 8927,
      "Ġappe": 8928,
      "nesday": 8929,
      "des": 8930,
      "iques": 8931,
      "una": 8932,
      "Ġmyst": 8933,
      "Ġcontaining": 8934,
      "Ġwik": 8935,
      "Ġhong": 8936,
      "umber": 8937,
      "Ġcompetitive": 8938,
      "Ġcorresponding": 8939,
      "Ġimprisonment": 8940,
      "Ġpink": 8941,
      "Ġlifted": 8942,
      "Ġmoh": 8943,
      "Ġvietnam": 8944,
      "Ġhd": 8945,
      "Ġjur": 8946,
      "Ġiv": 8947,
      "Ġvine": 8948,
      "Ġexempt": 8949,
      "Ġmixture": 8950,
      "Ġfertilizers": 8951,
      "mn": 8952,
      "tn": 8953,
      "Ġprofile": 8954,
      "col": 8955,
      "Ġgains": 8956,
      "Ġgilead": 8957,
      "Ġdish": 8958,
      "Ġliberation": 8959,
      "itarian": 8960,
      "Ġconverted": 8961,
      "Ġcommodities": 8962,
      "Ġtuesday": 8963,
      "lar": 8964,
      "Ġlift": 8965,
      "Ġrefuse": 8966,
      "Ġconflicts": 8967,
      "Ġstro": 8968,
      "allah": 8969,
      "Ġpartial": 8970,
      "Ġdiverse": 8971,
      "Ġrulers": 8972,
      "Ġglorious": 8973,
      "Ġveloc": 8974,
      "Ġtu": 8975,
      "Ġwasn": 8976,
      "Ġ57": 8977,
      "Ġfatal": 8978,
      "Ġplatforms": 8979,
      "Ġtheft": 8980,
      "Ġsuriya": 8981,
[...]
