{
  "version": "1.0",
  "truncation": null,
  "padding": null,
  "added_tokens": [
    {
      "id": 0,
      "content": "<s>",
      "single_word": false,
      "lstrip": false,
      "rstrip": false,
      "normalized": false,
      "special": true
    },
    {
      "id": 1,
      "content": "<pad>",
      "single_word": false,
      "lstrip": false,
      "rstrip": false,
      "normalized": false,
      "special": true
    },
    {
      "id": 2,
      "content": "</s>",
      "single_word": false,
      "lstrip": false,
      "rstrip": false,
      "normalized": false,
      "special": true
    },
    {
      "id": 3,
      "content": "<unk>",
      "single_word": false,
      "lstrip": false,
      "rstrip": false,
      "normalized": false,
      "special": true
    },
    {
      "id": 4,
      "content": "<mask>",
      "single_word": false,
      "lstrip": false,
      "rstrip": false,
      "normalized": false,
      "special": true
    }
  ],
  "normalizer": {
    "type": "Sequence",
    "normalizers": [
      {
        "type": "NFKC"
      },
      {
        "type": "Lowercase"
      }
    ]
  },
  "pre_tokenizer": {
    "type": "Metaspace",
    "replacement": "▁",
    "add_prefix_space": true
  },
  "post_processor": {
    "type": "TemplateProcessing",
    "single": [
      {
        "SpecialToken": {
          "id": "<s>",
          "type_id": 0
        }
      },
      {
        "Sequence": {
          "id": "A",
          "type_id": 0
        }
      },
      {
        "SpecialToken": {
          "id": "</s>",
          "type_id": 0
        }
      }
    ],
    "pair": [
      {
        "Sequence": {
          "id": "A",
          "type_id": 0
        }
      },
      {
        "Sequence": {
          "id": "B",
          "type_id": 1
        }
      }
    ],
    "special_tokens": {
      "</s>": {
        "id": "</s>",
        "ids": [
          2
        ],
        "tokens": [
          "</s>"
        ]
      },
      "<mask>": {
        "id": "<mask>",
        "ids": [
          50264
        ],
        "tokens": [
          "<mask>"
        ]
      },
      "<pad>": {
        "id": "<pad>",
        "ids": [
          1
        ],
        "tokens": [
          "<pad>"
        ]
      },
      "<s>": {
        "id": "<s>",
        "ids": [
          0
        ],
        "tokens": [
          "<s>"
        ]
      },
      "<unk>": {
        "id": "<unk>",
        "ids": [
          3
        ],
        "tokens": [
          "<unk>"
        ]
      }
    }
  },
  "decoder": {
    "type": "Metaspace",
    "replacement": "▁",
    "add_prefix_space": true
  },
  "model": {
    "type": "BPE",
    "dropout": null,
    "unk_token": "<unk>",
    "continuing_subword_prefix": null,
    "end_of_word_suffix": null,
    "fuse_unk": false,
    "byte_fallback": false,
    "vocab": {
      "<s>": 0,
      "<pad>": 1,
      "</s>": 2,
      "<unk>": 3,
      "<mask>": 4,
      "\t": 5,
      "!": 6,
      "\"": 7,
      "#": 8,
      "$": 9,
      "%": 10,
      "&": 11,
      "'": 12,
      "(": 13,
      ")": 14,
      "*": 15,
      "+": 16,
      ",": 17,
      "-": 18,
      ".": 19,
      "/": 20,
      "0": 21,
      "1": 22,
      "2": 23,
      "3": 24,
      "4": 25,
      "5": 26,
      "6": 27,
      "7": 28,
      "8": 29,
      "9": 30,
      ":": 31,
      ";": 32,
      "<": 33,
      "=": 34,
      ">": 35,
      "?": 36,
      "@": 37,
      "[": 38,
      "\\": 39,
      "]": 40,
      "^": 41,
      "_": 42,
      "`": 43,
      "a": 44,
      "b": 45,
      "c": 46,
      "d": 47,
      "e": 48,
      "f": 49,
      "g": 50,
      "h": 51,
      "i": 52,
      "j": 53,
      "k": 54,
      "l": 55,
      "m": 56,
      "n": 57,
      "o": 58,
      "p": 59,
      "q": 60,
      "r": 61,
      "s": 62,
      "t": 63,
      "u": 64,
      "v": 65,
      "w": 66,
      "x": 67,
      "y": 68,
      "z": 69,
      "{": 70,
      "|": 71,
      "}": 72,
      "~": 73,
      "é": 74,
      "​": 75,
      "‍": 76,
      "–": 77,
      "‘": 78,
      "’": 79,
      "“": 80,
      "”": 81,
      "•": 82,
      "⁄": 83,
      "▁": 84,
      "﻿": 85,
      "▁t": 86,
      "he": 87,
      "▁a": 88,
      "in": 89,
      "▁the": 90,
      "re": 91,
      "▁s": 92,
      "on": 93,
      "▁w": 94,
      "er": 95,
      "is": 96,
      "▁c": 97,
      "at": 98,
      "▁o": 99,
      "en": 100,
      "▁p": 101,
      "▁b": 102,
      "ed": 103,
      "an": 104,
      "▁in": 105,
      "▁f": 106,
      "it": 107,
      "▁m": 108,
      "es": 109,
      "▁h": 110,
      "or": 111,
      "▁d": 112,
      "▁an": 113,
      "ar": 114,
      "▁of": 115,
      "al": 116,
      "ing": 117,
      "ou": 118,
      "▁to": 119,
      "as": 120,
      "▁th": 121,
      "▁and": 122,
      "▁n": 123,
      "il": 124,
      "ion": 125,
      "ic": 126,
      "▁l": 127,
      "ent": 128,
      "ro": 129,
      "▁g": 130,
      "▁is": 131,
      "▁re": 132,
      "▁be": 133,
      "le": 134,
      "ve": 135,
      "▁e": 136,
      "▁he": 137,
      "id": 138,
      "st": 139,
      "om": 140,
      "ct": 141,
      "ot": 142,
      "ra": 143,
      "ol": 144,
      "im": 145,
      "ver": 146,
      "▁for": 147,
      "ad": 148,
      "▁u": 149,
      "▁y": 150,
      "ut": 151,
      "am": 152,
      "▁on": 153,
      "ur": 154,
      "ly": 155,
      "ation": 156,
      "et": 157,
      "▁st": 158,
      "▁it": 159,
      "▁we": 160,
      "s.": 161,
      "ay": 162,
      "▁wh": 163,
      "ir": 164,
      "ow": 165,
      "▁that": 166,
      "ist": 167,
      "▁al": 168,
      "ce": 169,
      "se": 170,
      "ill": 171,
      "▁k": 172,
      "ig": 173,
      "▁this": 174,
      "▁you": 175,
      "▁de": 176,
      "▁are": 177,
      "▁ha": 178,
      "ch": 179,
      "od": 180,
      "ment": 181,
      "▁j": 182,
      "▁con": 183,
      "▁i": 184,
      "▁as": 185,
      "▁was": 186,
      "▁r": 187,
      "ith": 188,
      "ak": 189,
      "ul": 190,
      "▁pro": 191,
      "ri": 192,
      "▁ch": 193,
      "▁v": 194,
      "▁1": 195,
      "▁not": 196,
      "her": 197,
      "▁has": 198,
      "ld": 199,
      "est": 200,
      "▁with": 201,
      "th": 202,
      "res": 203,
      "▁se": 204,
      "e.": 205,
      "ers": 206,
      "▁su": 207,
      "▁have": 208,
      "op": 209,
      "di": 210,
      "▁sh": 211,
      "and": 212,
      "▁com": 213,
      "us": 214,
      "▁will": 215,
      "▁at": 216,
      "\"\"": 217,
      "▁ne": 218,
      "pp": 219,
      "▁go": 220,
      "ate": 221,
      "▁by": 222,
      "ter": 223,
      "nd": 224,
      "nt": 225,
      "ain": 226,
      "▁2": 227,
      "ag": 228,
      "▁indi": 229,
      "red": 230,
      "▁sa": 231,
      "▁wor": 232,
      "el": 233,
      "▁ex": 234,
      "if": 235,
      "art": 236,
      "s,": 237,
      "rom": 238,
      "um": 239,
      "▁all": 240,
      "iv": 241,
      "▁do": 242,
      "os": 243,
      "ice": 244,
      "ies": 245,
      "▁they": 246,
      "ort": 247,
      "ab": 248,
      "ed.": 249,
      "▁pol": 250,
      "▁from": 251,
      "ht": 252,
      "ess": 253,
      "▁his": 254,
      "ity": 255,
      "ac": 256,
      "▁(": 257,
      "▁so": 258,
      "▁mo": 259,
      "▁sp": 260,
      "▁cou": 261,
      "ant": 262,
      "qu": 263,
      "▁been": 264,
      "un": 265,
      "em": 266,
      "ect": 267,
      "▁but": 268,
      "▁min": 269,
      "▁what": 270,
      "▁were": 271,
      "ie": 272,
      "ive": 273,
      "ah": 274,
      "▁ra": 275,
      "▁or": 276,
      "ci": 277,
      "ud": 278,
      "▁there": 279,
      "so": 280,
      "end": 281,
      "▁pe": 282,
      "▁le": 283,
      "▁no": 284,
      "00": 285,
      "ard": 286,
      "▁man": 287,
      "all": 288,
      "ust": 289,
      "ther": 290,
      "▁said": 291,
      "▁ab": 292,
      "▁lo": 293,
      "▁india": 294,
      "▁ar": 295,
      "ction": 296,
      "▁un": 297,
      "▁also": 298,
      "▁minist": 299,
      "▁me": 300,
      "ry": 301,
      "▁can": 302,
      "ight": 303,
      "▁who": 304,
      "▁im": 305,
      "▁ag": 306,
      "▁ad": 307,
      "▁peop": 308,
      "▁their": 309,
      "ould": 310,
      "vern": 311,
      "▁people": 312,
      "▁ac": 313,
      "▁them": 314,
      "ated": 315,
      "'s": 316,
      "▁pl": 317,
      "ome": 318,
      "▁govern": 319,
      "ast": 320,
      "ong": 321,
      "ap": 322,
      "are": 323,
      "▁en": 324,
      "ous": 325,
      "hi": 326,
      "▁inc": 327,
      "ure": 328,
      "▁am": 329,
      "▁whe": 330,
      "▁how": 331,
      "ric": 332,
      "out": 333,
      "ime": 334,
      "▁res": 335,
      "▁police": 336,
      "ge": 337,
      "es.": 338,
      "pl": 339,
      "▁government": 340,
      "▁fil": 341,
      "▁had": 342,
      "▁one": 343,
      "ok": 344,
      "▁af": 345,
      "amil": 346,
      "▁int": 347,
      "ident": 348,
      "ans": 349,
      "▁part": 350,
      "very": 351,
      "▁us": 352,
      "ore": 353,
      "ble": 354,
      "ear": 355,
      "ru": 356,
      "▁minister": 357,
      "y.": 358,
      "▁up": 359,
      "▁him": 360,
      "our": 361,
      "ress": 362,
      "▁pr": 363,
      "ik": 364,
      "av": 365,
      "▁dis": 366,
      "pt": 367,
      "ov": 368,
      "ire": 369,
      "oug": 370,
      "ing.": 371,
      "du": 372,
      "one": 373,
      "▁new": 374,
      "▁out": 375,
      "▁god": 376,
      "ance": 377,
      "▁film": 378,
      "▁your": 379,
      "▁work": 380,
      "▁-": 381,
      "▁cont": 382,
      "▁per": 383,
      "ide": 384,
      "nder": 385,
      "▁off": 386,
      "▁tak": 387,
      "▁my": 388,
      "▁3": 389,
      "ater": 390,
      "▁comp": 391,
      "▁other": 392,
      "▁our": 393,
      "ical": 394,
      "ult": 395,
      "▁comm": 396,
      "▁its": 397,
      "age": 398,
      "ll": 399,
      "ary": 400,
      "\"\"\"": 401,
      "now": 402,
      "▁te": 403,
      "ose": 404,
      "▁app": 405,
      "▁under": 406,
      "▁tw": 407,
      "▁she": 408,
      "▁act": 409,
      "ich": 410,
      "▁about": 411,
      "▁ro": 412,
      "port": 413,
      "ish": 414,
      "▁je": 415,
      "ang": 416,
      "ild": 417,
      "▁co": 418,
      "▁inv": 419,
      "ind": 420,
      "ren": 421,
      "ase": 422,
      "ame": 423,
      "au": 424,
      "ber": 425,
      "▁ev": 426,
      "ine": 427,
      "▁reg": 428,
      "▁sc": 429,
      "▁20": 430,
      "per": 431,
      "▁cl": 432,
      "▁pres": 433,
      "vel": 434,
      "..": 435,
      "ition": 436,
      "es,": 437,
      "ath": 438,
      "ence": 439,
      "ia": 440,
      "ord": 441,
      "ound": 442,
      "▁know": 443,
      "▁over": 444,
      "▁tr": 445,
      "iz": 446,
      "ai": 447,
      "▁acc": 448,
      "cial": 449,
      "▁when": 450,
      "▁ser": 451,
      "ack": 452,
      "ial": 453,
      "▁more": 454,
      "ank": 455,
      "ace": 456,
      "hed": 457,
      "▁qu": 458,
      "ach": 459,
      "ff": 460,
      "▁any": 461,
      "▁tra": 462,
      "ck": 463,
      "▁day": 464,
      "▁did": 465,
      "▁fir": 466,
      "▁which": 467,
      "ue": 468,
      "▁mar": 469,
      "ep": 470,
      "▁rs.": 471,
      "▁cro": 472,
      "ail": 473,
      "orm": 474,
      "low": 475,
      "▁jeh": 476,
      "ations": 477,
      "▁say": 478,
      "ough": 479,
      "ovah": 480,
      "og": 481,
      "▁tamil": 482,
      "▁fe": 483,
      "able": 484,
      "▁jehovah": 485,
      "▁two": 486,
      "ree": 487,
      "▁year": 488,
      "▁some": 489,
      "ass": 490,
      "ign": 491,
      "▁state": 492,
      "▁then": 493,
      "▁again": 494,
      "▁many": 495,
      "▁5": 496,
      "▁world": 497,
      "▁her": 498,
      "▁would": 499,
      "▁mod": 500,
      "▁don": 501,
      "▁pre": 502,
      "▁count": 503,
      "▁spe": 504,
      "▁\"": 505,
      "▁dist": 506,
      "ood": 507,
      "▁after": 508,
      "▁first": 509,
      "▁should": 510,
      "▁po": 511,
      "reat": 512,
      "ike": 513,
      "ational": 514,
      "▁bec": 515,
      "ted": 516,
      "▁att": 517,
      "ual": 518,
      "ple": 519,
      "▁into": 520,
      "▁if": 521,
      "▁these": 522,
      "▁rec": 523,
      "▁bo": 524,
      "ctor": 525,
      "▁sec": 526,
      "we": 527,
      "▁cent": 528,
      "▁mad": 529,
      "▁it.": 530,
      "▁4": 531,
      "▁col": 532,
      "ions": 533,
      "way": 534,
      "▁invest": 535,
      "rit": 536,
      "ital": 537,
      "ens": 538,
      "ond": 539,
      "▁inf": 540,
      "a.": 541,
      "a,": 542,
      "▁indian": 543,
      "ub": 544,
      "▁time": 545,
      "arm": 546,
      "ible": 547,
      "ings": 548,
      "▁every": 549,
      "▁child": 550,
      "▁pra": 551,
      "▁rel": 552,
      "y,": 553,
      "lic": 554,
      "▁like": 555,
      "ious": 556,
      "e,": 557,
      "ever": 558,
      "ian": 559,
      "▁ind": 560,
      "▁dec": 561,
      "ram": 562,
      "▁need": 563,
      "ful": 564,
      "▁ele": 565,
      "ered": 566,
      "ip": 567,
      "▁mak": 568,
      "▁pers": 569,
      "▁lif": 570,
      "ities": 571,
      "▁bet": 572,
      "▁bl": 573,
      "▁being": 574,
      "rest": 575,
      "▁inter": 576,
      "▁cour": 577,
      "▁la": 578,
      "▁exp": 579,
      "▁those": 580,
      "▁than": 581,
      "▁add": 582,
      "▁against": 583,
      "ved": 584,
      "ward": 585,
      "ied": 586,
      "▁such": 587,
      "▁ear": 588,
      "▁only": 589,
      "sel": 590,
      "▁happ": 591,
      "▁stud": 592,
      "▁jo": 593,
      "▁mat": 594,
      "▁'": 595,
      "ons": 596,
      "ates": 597,
      "▁cong": 598,
      "▁med": 599,
      "▁prime": 600,
      "ief": 601,
      "fe": 602,
      "▁lead": 603,
      "▁gr": 604,
      "▁em": 605,
      "rict": 606,
      "ced": 607,
      "▁201": 608,
      "▁\"\"\"": 609,
      "uring": 610,
      "▁dire": 611,
      "▁prov": 612,
      "old": 613,
      "▁hig": 614,
      "act": 615,
      "▁19": 616,
      "▁good": 617,
      "▁investig": 618,
      "ion.": 619,
      "iss": 620,
      "▁however": 621,
      "▁hel": 622,
      "cc": 623,
      "oth": 624,
      "ile": 625,
      "▁crore": 626,
      "▁rem": 627,
      "te": 628,
      "vers": 629,
      "▁wom": 630,
      "▁just": 631,
      "▁br": 632,
      "ness": 633,
      "▁form": 634,
      "▁del": 635,
      "other": 636,
      "ject": 637,
      "ation.": 638,
      "▁said.": 639,
      "ell": 640,
      "akh": 641,
      "osp": 642,
      "▁however,": 643,
      "▁ph": 644,
      "aj": 645,
      "ating": 646,
      "the": 647,
      "arn": 648,
      "ents": 649,
      "ise": 650,
      "ink": 651,
      "▁help": 652,
      "▁why": 653,
      "▁che": 654,
      "rent": 655,
      "▁cons": 656,
      "▁district": 657,
      "▁get": 658,
      "▁dep": 659,
      "▁6": 660,
      "▁very": 661,
      "▁thr": 662,
      "adu": 663,
      "▁fin": 664,
      "wn": 665,
      "▁well": 666,
      "▁offic": 667,
      "▁made": 668,
      "ally": 669,
      "▁chr": 670,
      "▁famil": 671,
      "▁may": 672,
      "▁country": 673,
      "▁produ": 674,
      "velop": 675,
      "hip": 676,
      "lud": 677,
      "▁cor": 678,
      "ces": 679,
      "▁fol": 680,
      "▁modi": 681,
      "me": 682,
      "▁develop": 683,
      "▁resp": 684,
      "les": 685,
      "▁president": 686,
      "fore": 687,
      "urn": 688,
      "▁supp": 689,
      "▁water": 690,
      "▁court": 691,
      "▁car": 692,
      "▁sub": 693,
      "▁dont": 694,
      "han": 695,
      "▁hosp": 696,
      "oc": 697,
      "▁christ": 698,
      "▁hospital": 699,
      "▁serv": 700,
      "▁ke": 701,
      "▁tim": 702,
      "ased": 703,
      "▁even": 704,
      "▁lakh": 705,
      "▁ass": 706,
      "ause": 707,
      "▁during": 708,
      "▁giv": 709,
      "pe": 710,
      "▁way": 711,
      "▁chief": 712,
      "▁follow": 713,
      "rib": 714,
      "▁does": 715,
      "alth": 716,
      "▁see": 717,
      "20": 718,
      "▁right": 719,
      "day": 720,
      "▁bel": 721,
      "▁raj": 722,
      "▁des": 723,
      "▁ben": 724,
      "er.": 725,
      "cted": 726,
      "▁nadu": 727,
      "▁pow": 728,
      "▁num": 729,
      "ing,": 730,
      "▁gu": 731,
      "tain": 732,
      "▁sch": 733,
      "man": 734,
      "own": 735,
      "▁inst": 736,
      "ween": 737,
      "ite": 738,
      "ool": 739,
      "ket": 740,
      "▁through": 741,
      "▁between": 742,
      "ather": 743,
      "▁could": 744,
      "▁take": 745,
      "uth": 746,
      "ured": 747,
      "▁children": 748,
      "ly,": 749,
      "▁taken": 750,
      "ly.": 751,
      "get": 752,
      "int": 753,
      "gan": 754,
      "▁ent": 755,
      "▁here": 756,
      "▁dif": 757,
      "▁high": 758,
      "▁includ": 759,
      "000": 760,
      "▁fl": 761,
      "▁most": 762,
      "▁eng": 763,
      "▁case": 764,
      "ict": 765,
      "▁gen": 766,
      "ount": 767,
      "▁7": 768,
      "ited": 769,
      "▁report": 770,
      "li": 771,
      "ory": 772,
      "▁meet": 773,
      "▁mu": 774,
      "▁sing": 775,
      "jp": 776,
      "▁both": 777,
      "▁jes": 778,
      "▁ob": 779,
      "▁person": 780,
      "▁imp": 781,
      "▁ed": 782,
      "ost": 783,
      "▁par": 784,
      "▁let": 785,
      "▁fa": 786,
      "▁mon": 787,
      "▁10": 788,
      "▁sy": 789,
      "▁health": 790,
      "▁sin": 791,
      "oy": 792,
      "ash": 793,
      "sp": 794,
      "esh": 795,
      "▁sm": 796,
      "▁that.": 797,
      "▁sur": 798,
      "ed,": 799,
      "▁const": 800,
      "▁ask": 801,
      "con": 802,
      "▁dem": 803,
      "▁set": 804,
      "▁mem": 805,
      "er,": 806,
      "▁polit": 807,
      "▁play": 808,
      "▁bro": 809,
      "▁pub": 810,
      "▁incident": 811,
      "▁jesus": 812,
      "▁inj": 813,
      "▁national": 814,
      "▁bjp": 815,
      "▁school": 816,
      "▁this.": 817,
      "▁vi": 818,
      "cy": 819,
      "ral": 820,
      "uc": 821,
      "▁bu": 822,
      "▁ann": 823,
      "hing": 824,
      "▁call": 825,
      "▁make": 826,
      "▁arrest": 827,
      "▁where": 828,
      "led": 829,
      "eral": 830,
      "▁prog": 831,
      "▁pri": 832,
      "▁8": 833,
      "alk": 834,
      "▁prot": 835,
      "▁them.": 836,
      "▁pos": 837,
      "ific": 838,
      "med": 839,
      "xt": 840,
      "▁\"\"": 841,
      "ution": 842,
      "▁want": 843,
      "▁opp": 844,
      "ared": 845,
      "▁trans": 846,
      "ib": 847,
      "▁him.": 848,
      "▁life": 849,
      "ha": 850,
      "ving": 851,
      "▁bible": 852,
      "...": 853,
      "aug": 854,
      "ures": 855,
      "▁ref": 856,
      "),": 857,
      "▁iss": 858,
      "▁come": 859,
      "ural": 860,
      "▁back": 861,
      "▁number": 862,
      "▁aff": 863,
      "▁rep": 864,
      "ative": 865,
      "▁ter": 866,
      "▁three": 867,
      "▁inform": 868,
      "ged": 869,
      "'t": 870,
      "ph": 871,
      "ug": 872,
      "ft": 873,
      "▁contin": 874,
      "▁fur": 875,
      "ef": 876,
      "▁av": 877,
      "▁rs": 878,
      "up": 879,
      "har": 880,
      "ought": 881,
      "▁eff": 882,
      "ody": 883,
      "cept": 884,
      "read": 885,
      "▁read": 886,
      "der": 887,
      "▁start": 888,
      "ern": 889,
      "▁hum": 890,
      ".\"": 891,
      "▁hand": 892,
      "▁exam": 893,
      "und": 894,
      "▁must": 895,
      "▁women": 896,
      "▁det": 897,
      "▁cap": 898,
      "ors": 899,
      "ann": 900,
      "blem": 901,
      "ments": 902,
      "olog": 903,
      "▁happen": 904,
      "▁end": 905,
      "▁incre": 906,
      "▁further": 907,
      "▁var": 908,
      "▁before": 909,
      "ised": 910,
      "▁cur": 911,
      "▁given": 912,
      "▁quest": 913,
      ",000": 914,
      "ick": 915,
      "▁look": 916,
      "▁problem": 917,
      "▁kill": 918,
      "▁liv": 919,
      "ting": 920,
      "▁social": 921,
      "▁death": 922,
      "▁congress": 923,
      "ss": 924,
      "▁bus": 925,
      "▁vis": 926,
      "▁love": 927,
      "ten": 928,
      "▁later": 929,
      "▁present": 930,
      "▁now": 931,
      "iew": 932,
      "ism": 933,
      "▁development": 934,
      "▁delhi": 935,
      "▁import": 936,
      "▁last": 937,
      "ouse": 938,
      "ission": 939,
      "▁conf": 940,
      "ility": 941,
      "ular": 942,
      "▁adm": 943,
      "▁sou": 944,
      "▁election": 945,
      "▁too": 946,
      "▁son": 947,
      "▁15": 948,
      "▁among": 949,
      "▁great": 950,
      "row": 951,
      "▁down": 952,
      "▁mov": 953,
      "▁word": 954,
      "istan": 955,
      "ided": 956,
      "▁[": 957,
      "▁because": 958,
      "▁colle": 959,
      "rong": 960,
      "▁farm": 961,
      "▁going": 962,
      "ected": 963,
      "i,": 964,
      "▁shall": 965,
      "▁long": 966,
      "ange": 967,
      "▁allah": 968,
      "▁while": 969,
      "self": 970,
      "▁disc": 971,
      "▁partic": 972,
      "▁earth": 973,
      "▁yet": 974,
      "▁support": 975,
      "air": 976,
      "▁mus": 977,
      "▁intern": 978,
      "ndra": 979,
      "ock": 980,
      "▁sit": 981,
      "▁law": 982,
      "▁public": 983,
      "▁regard": 984,
      "▁rele": 985,
      "▁di": 986,
      "▁polic": 987,
      "▁stat": 988,
      "ation,": 989,
      "ave": 990,
      "▁est": 991,
      "▁test": 992,
      "▁ap": 993,
      "plain": 994,
      "▁9": 995,
      "▁diffe": 996,
      "▁place": 997,
      "▁show": 998,
      "▁sche": 999,
      "nn": 1000,
      "▁cas": 1001,
      "▁gl": 1002,
      "ers.": 1003,
      "▁sol": 1004,
      "ret": 1005,
      "▁cr": 1006,
      "ies.": 1007,
      "arent": 1008,
      "▁nare": 1009,
      "▁fore": 1010,
      "its": 1011,
      "▁wit": 1012,
      "▁writ": 1013,
      "▁op": 1014,
      "▁today": 1015,
      "▁tru": 1016,
      "ya": 1017,
      "▁narendra": 1018,
      "▁lord": 1019,
      "conom": 1020,
      "ne": 1021,
      "▁rece": 1022,
      "hes": 1023,
      "▁sal": 1024,
      "▁gods": 1025,
      "▁appro": 1026,
      "▁party": 1027,
      "▁family": 1028,
      "▁action": 1029,
      "▁conc": 1030,
      "▁ve": 1031,
      "▁met": 1032,
      "▁students": 1033,
      "▁king": 1034,
      "ment.": 1035,
      "▁spir": 1036,
      "rol": 1037,
      "▁thats": 1038,
      "▁belie": 1039,
      "▁lar": 1040,
      "ision": 1041,
      "ax": 1042,
      "▁another": 1043,
      "ves": 1044,
      "▁inte": 1045,
      "▁post": 1046,
      "▁cle": 1047,
      "▁loc": 1048,
      "▁house": 1049,
      "eng": 1050,
      "ines": 1051,
      "▁found": 1052,
      "▁war": 1053,
      "▁prom": 1054,
      "▁air": 1055,
      "▁matter": 1056,
      "▁land": 1057,
      "▁pass": 1058,
      "▁book": 1059,
      "▁ret": 1060,
      "▁pa": 1061,
      "▁art": 1062,
      "▁each": 1063,
      "▁econom": 1064,
      "▁12": 1065,
      "▁regist": 1066,
      "▁sim": 1067,
      "amp": 1068,
      "▁def": 1069,
      "▁comple": 1070,
      "▁never": 1071,
      "▁dr": 1072,
      "▁won": 1073,
      "▁spirit": 1074,
      "▁tem": 1075,
      "▁much": 1076,
      "▁arrested": 1077,
      "ason": 1078,
      "▁ext": 1079,
      "▁injured": 1080,
      "▁train": 1081,
      "▁fac": 1082,
      "oun": 1083,
      "▁educ": 1084,
      "▁jehovahs": 1085,
      "▁ful": 1086,
      "riend": 1087,
      "uss": 1088,
      "▁witness": 1089,
      "▁heav": 1090,
      "▁occ": 1091,
      "▁result": 1092,
      "ers,": 1093,
      "nnai": 1094,
      "▁depart": 1095,
      "▁organ": 1096,
      "-1": 1097,
      "cess": 1098,
      "▁nor": 1099,
      "▁bank": 1100,
      "▁father": 1101,
      "used": 1102,
      "▁years": 1103,
      "ity.": 1104,
      "▁pet": 1105,
      "▁chennai": 1106,
      "▁sever": 1107,
      "▁power": 1108,
      "ob": 1109,
      "▁own": 1110,
      "▁think": 1111,
      "vent": 1112,
      "▁dev": 1113,
      "▁india.": 1114,
      "▁benef": 1115,
      "▁official": 1116,
      "▁rev": 1117,
      "▁far": 1118,
      "▁several": 1119,
      "▁pak": 1120,
      "▁cre": 1121,
      "▁mil": 1122,
      "als": 1123,
      "▁same": 1124,
      "▁talk": 1125,
      "ians": 1126,
      "▁friend": 1127,
      "▁parent": 1128,
      "▁ministry": 1129,
      ").": 1130,
      "▁month": 1131,
      "▁sw": 1132,
      "▁head": 1133,
      "▁sign": 1134,
      "stem": 1135,
      "▁cond": 1136,
      "▁shri": 1137,
      "▁road": 1138,
      "▁program": 1139,
      "ploy": 1140,
      "▁char": 1141,
      "ys": 1142,
      "ivers": 1143,
      "▁special": 1144,
      "▁issu": 1145,
      "land": 1146,
      "▁gre": 1147,
      "▁ce": 1148,
      "▁z": 1149,
      "ute": 1150,
      "▁speak": 1151,
      "att": 1152,
      "ished": 1153,
      "mb": 1154,
      "▁pakistan": 1155,
      "▁requ": 1156,
      "▁union": 1157,
      "lf": 1158,
      "ried": 1159,
      "▁since": 1160,
      "▁soon": 1161,
      "arch": 1162,
      "uk": 1163,
      "▁home": 1164,
      "▁commit": 1165,
      "▁pur": 1166,
      "ized": 1167,
      "▁vir": 1168,
      "▁sent": 1169,
      "▁use": 1170,
      "▁project": 1171,
      "▁mah": 1172,
      "▁men": 1173,
      "umar": 1174,
      "▁director": 1175,
      "▁four": 1176,
      "▁important": 1177,
      "▁took": 1178,
      "▁team": 1179,
      "▁main": 1180,
      "▁200": 1181,
      "▁stand": 1182,
      "▁heart": 1183,
      "ix": 1184,
      "osed": 1185,
      "▁system": 1186,
      "ng": 1187,
      "▁food": 1188,
      "not": 1189,
      "▁pm": 1190,
      "▁win": 1191,
      "▁give": 1192,
      "▁following": 1193,
      "▁fire": 1194,
      "▁rain": 1195,
      "▁different": 1196,
      "▁still": 1197,
      "chn": 1198,
      "omet": 1199,
      "▁current": 1200,
      "▁fr": 1201,
      "▁11": 1202,
      "▁run": 1203,
      "ars": 1204,
      "oot": 1205,
      "▁lit": 1206,
      "ove": 1207,
      "orn": 1208,
      "form": 1209,
      "▁mal": 1210,
      "▁human": 1211,
      "▁former": 1212,
      "▁next": 1213,
      "ek": 1214,
      "▁used": 1215,
      "▁cer": 1216,
      "ati": 1217,
      "▁best": 1218,
      "dom": 1219,
      "ended": 1220,
      "▁el": 1221,
      "▁singh": 1222,
      "▁faith": 1223,
      "stand": 1224,
      "▁cost": 1225,
      "▁adv": 1226,
      "▁political": 1227,
      "▁gand": 1228,
      "▁keep": 1229,
      "az": 1230,
      "rat": 1231,
      "▁second": 1232,
      "▁due": 1233,
      "an,": 1234,
      "▁jud": 1235,
      "▁real": 1236,
      "▁states": 1237,
      "jay": 1238,
      "▁open": 1239,
      "gal": 1240,
      "▁ca": 1241,
      "▁accord": 1242,
      "▁name": 1243,
      "▁indust": 1244,
      "▁including": 1245,
      "s:": 1246,
      "iate": 1247,
      "▁mother": 1248,
      "▁prop": 1249,
      "▁away": 1250,
      "ent.": 1251,
      "▁techn": 1252,
      "▁&": 1253,
      "oup": 1254,
      "▁few": 1255,
      "▁maj": 1256,
      "ake": 1257,
      "▁vill": 1258,
      "▁attack": 1259,
      "ering": 1260,
      "ries": 1261,
      "▁commun": 1262,
      "▁particip": 1263,
      "▁laun": 1264,
      "bers": 1265,
      "▁international": 1266,
      "▁announ": 1267,
      "▁mill": 1268,
      "▁brother": 1269,
      "▁gandhi": 1270,
      "▁pop": 1271,
      "ants": 1272,
      "▁receiv": 1273,
      "udi": 1274,
      "▁tot": 1275,
      "▁care": 1276,
      "▁various": 1277,
      "▁continu": 1278,
      "▁list": 1279,
      "▁put": 1280,
      "▁exper": 1281,
      "ched": 1282,
      "▁group": 1283,
      "▁sk": 1284,
      "▁media": 1285,
      "▁build": 1286,
      "▁chang": 1287,
      "eric": 1288,
      "atch": 1289,
      "▁secret": 1290,
      "▁situ": 1291,
      "▁registered": 1292,
      "▁become": 1293,
      "▁called": 1294,
      "▁poss": 1295,
      "▁sen": 1296,
      "▁question": 1297,
      "▁val": 1298,
      "▁central": 1299,
      "ices": 1300,
      "▁14": 1301,
      "▁grow": 1302,
      "▁me.": 1303,
      "▁cannot": 1304,
      "▁sri": 1305,
      "▁came": 1306,
      "▁major": 1307,
      "ages": 1308,
      "▁big": 1309,
      "▁pan": 1310,
      "▁young": 1311,
      "umb": 1312,
      "ark": 1313,
      "ined": 1314,
      "▁things": 1315,
      "▁reason": 1316,
      "ways": 1317,
      "▁department": 1318,
      "▁turn": 1319,
      "▁gra": 1320,
      "▁sl": 1321,
      "mediate": 1322,
      "▁mot": 1323,
      "▁got": 1324,
      "▁succ": 1325,
      "▁near": 1326,
      "▁south": 1327,
      "▁others": 1328,
      "▁wif": 1329,
      "ection": 1330,
      "angu": 1331,
      "▁secur": 1332,
      "▁prad": 1333,
      "▁done": 1334,
      "▁interest": 1335,
      "erg": 1336,
      "▁sci": 1337,
      "▁bas": 1338,
      "▁vide": 1339,
      "▁gir": 1340,
      "ata": 1341,
      "ics": 1342,
      "▁18": 1343,
      "ired": 1344,
      "▁ans": 1345,
      "▁investigation": 1346,
      "▁trad": 1347,
      "▁immediate": 1348,
      "ists": 1349,
      "▁hist": 1350,
      "▁ram": 1351,
      "ross": 1352,
      "sh": 1353,
      "▁feel": 1354,
      "▁relig": 1355,
      "▁fun": 1356,
      "▁condu": 1357,
      "▁christian": 1358,
      "▁remain": 1359,
      "▁ins": 1360,
      "▁truth": 1361,
      "▁conn": 1362,
      "ship": 1363,
      "▁around": 1364,
      "▁according": 1365,
      "gest": 1366,
      "▁city": 1367,
      "▁lot": 1368,
      "reme": 1369,
      "▁award": 1370,
      "ty": 1371,
      "▁tel": 1372,
      "▁understand": 1373,
      "ror": 1374,
      "▁somet": 1375,
      "▁learn": 1376,
      "▁treat": 1377,
      "iness": 1378,
      "▁spot": 1379,
      "▁protest": 1380,
      "ven": 1381,
      "▁film.": 1382,
      "▁find": 1383,
      "▁13": 1384,
      "ning": 1385,
      "▁suff": 1386,
      "ides": 1387,
      "▁complain": 1388,
      "▁langu": 1389,
      "abl": 1390,
      "▁this,": 1391,
      "▁old": 1392,
      "thing": 1393,
      "▁level": 1394,
      "▁thir": 1395,
      "▁without": 1396,
      "▁died": 1397,
      "▁compan": 1398,
      "ield": 1399,
      "▁allow": 1400,
      "an.": 1401,
      "br": 1402,
      "▁view": 1403,
      "▁instit": 1404,
      "▁face": 1405,
      "▁coun": 1406,
      "com": 1407,
      "▁employ": 1408,
      "▁25": 1409,
      "▁ir": 1410,
      "▁job": 1411,
      "▁div": 1412,
      "▁girl": 1413,
      "▁market": 1414,
      "▁oper": 1415,
      "▁total": 1416,
      "▁vijay": 1417,
      "ts": 1418,
      "▁recent": 1419,
      "▁san": 1420,
      "▁mone": 1421,
      "▁actor": 1422,
      "ior": 1423,
      "aim": 1424,
      "tern": 1425,
      "itted": 1426,
      "▁nothing": 1427,
      "▁rest": 1428,
      "▁auth": 1429,
      "▁hospital.": 1430,
      "ature": 1431,
      "▁held": 1432,
      "ually": 1433,
      "▁order": 1434,
      "▁hin": 1435,
      "cent": 1436,
      "▁body": 1437,
      "▁univers": 1438,
      "iver": 1439,
      "▁avail": 1440,
      "eration": 1441,
      "▁tre": 1442,
      "▁security": 1443,
      "▁50": 1444,
      "▁live": 1445,
      "▁west": 1446,
      ".\"\"\"": 1447,
      "▁priv": 1448,
      "▁movie": 1449,
      "▁parents": 1450,
      "ruction": 1451,
      "ulture": 1452,
      "▁meeting": 1453,
      "▁working": 1454,
      "cl": 1455,
      "▁beg": 1456,
      "i.": 1457,
      "▁time.": 1458,
      "▁return": 1459,
      "semb": 1460,
      "▁accept": 1461,
      "▁engine": 1462,
      "bo": 1463,
      "▁ple": 1464,
      "▁equ": 1465,
      "▁nam": 1466,
      "▁medical": 1467,
      "▁constit": 1468,
      "▁left": 1469,
      "ruct": 1470,
      "▁pay": 1471,
      "ala": 1472,
      "▁hon": 1473,
      "▁eas": 1474,
      "ote": 1475,
      "ified": 1476,
      "▁killed": 1477,
      "▁hy": 1478,
      "▁farmers": 1479,
      "rael": 1480,
      "▁said:": 1481,
      "▁16": 1482,
      "▁ur": 1483,
      "▁beh": 1484,
      "▁across": 1485,
      "▁known": 1486,
      "wh": 1487,
      "▁large": 1488,
      "▁sab": 1489,
      "▁video": 1490,
      "▁arm": 1491,
      "▁role": 1492,
      "ium": 1493,
      "al.": 1494,
      "▁mess": 1495,
      "enc": 1496,
      "▁pradesh": 1497,
      "▁dri": 1498,
      "ats": 1499,
      "▁author": 1500,
      "augh": 1501,
      "▁incident.": 1502,
      "▁israel": 1503,
      "▁told": 1504,
      "▁account": 1505,
      "▁assemb": 1506,
      "▁upon": 1507,
      "▁general": 1508,
      "▁mean": 1509,
      "▁small": 1510,
      "▁information": 1511,
      "▁pun": 1512,
      "▁imple": 1513,
      "▁lank": 1514,
      "▁areas": 1515,
      "▁music": 1516,
      "▁alread": 1517,
      "▁aw": 1518,
      "▁sat": 1519,
      "▁hom": 1520,
      "▁pray": 1521,
      "▁along": 1522,
      "▁went": 1523,
      "▁peace": 1524,
      "▁example": 1525,
      "▁unt": 1526,
      "▁class": 1527,
      "ament": 1528,
      "▁assist": 1529,
      "▁elect": 1530,
      "orts": 1531,
      "▁kingdom": 1532,
      "▁police.": 1533,
      "ety": 1534,
      "▁you.": 1535,
      "gr": 1536,
      "▁fear": 1537,
      "▁kumar": 1538,
      "▁implement": 1539,
      "▁soci": 1540,
      "▁17": 1541,
      "▁ang": 1542,
      "▁bre": 1543,
      "▁stren": 1544,
      "▁express": 1545,
      "▁detail": 1546,
      "▁members": 1547,
      "tle": 1548,
      "▁decl": 1549,
      "-m": 1550,
      "201": 1551,
      "▁tell": 1552,
      "reg": 1553,
      "icle": 1554,
      "▁sam": 1555,
      "ention": 1556,
      "▁dra": 1557,
      "▁thank": 1558,
      "▁streng": 1559,
      "nes": 1560,
      "▁asked": 1561,
      "▁started": 1562,
      "▁clear": 1563,
      "▁es": 1564,
      "▁already": 1565,
      "▁paul": 1566,
      "▁100": 1567,
      "por": 1568,
      "▁people.": 1569,
      "▁believe": 1570,
      "▁fight": 1571,
      "▁prof": 1572,
      "aw": 1573,
      "▁chin": 1574,
      "▁directed": 1575,
      "▁rul": 1576,
      "app": 1577,
      "▁answ": 1578,
      "▁doing": 1579,
      "▁control": 1580,
      "ris": 1581,
      "▁point": 1582,
      "▁press": 1583,
      "▁united": 1584,
      "▁might": 1585,
      "▁said,": 1586,
      "▁americ": 1587,
      "ives": 1588,
      "▁toward": 1589,
      "ump": 1590,
      "▁toget": 1591,
      "▁together": 1592,
      "▁aut": 1593,
      "▁says": 1594,
      "▁week": 1595,
      "ortun": 1596,
      "inist": 1597,
      "oss": 1598,
      "ion,": 1599,
      "▁accident": 1600,
      "▁education": 1601,
      "amm": 1602,
      "anc": 1603,
      "▁respect": 1604,
      "rence": 1605,
      "▁hop": 1606,
      "ana": 1607,
      "▁mind": 1608,
      "▁persons": 1609,
      "▁thing": 1610,
      "▁activ": 1611,
      "ork": 1612,
      "▁wrong": 1613,
      "▁move": 1614,
      "▁technolog": 1615,
      "ality": 1616,
      "▁discuss": 1617,
      "▁visit": 1618,
      "▁respons": 1619,
      "▁bir": 1620,
      "▁rese": 1621,
      "▁received": 1622,
      "▁experi": 1623,
      "▁bh": 1624,
      "▁commission": 1625,
      "▁consid": 1626,
      "▁fund": 1627,
      "▁stop": 1628,
      "t.": 1629,
      "▁leaders": 1630,
      "ugu": 1631,
      "▁prin": 1632,
      "ying": 1633,
      "▁/": 1634,
      "▁effect": 1635,
      "▁true": 1636,
      "▁success": 1637,
      "▁investigating": 1638,
      "1.": 1639,
      "▁function": 1640,
      "▁agric": 1641,
      "▁30": 1642,
      "▁economic": 1643,
      "▁oil": 1644,
      "▁camp": 1645,
      "▁dest": 1646,
      "▁init": 1647,
      "▁hus": 1648,
      "▁based": 1649,
      "▁north": 1650,
      "▁hard": 1651,
      "▁rail": 1652,
      "▁oppos": 1653,
      "▁demand": 1654,
      "band": 1655,
      "▁addition": 1656,
      "▁rah": 1657,
      "aughter": 1658,
      "go": 1659,
      "▁scheme": 1660,
      "▁youth": 1661,
      "▁service": 1662,
      "af": 1663,
      "uv": 1664,
      "▁tax": 1665,
      "rying": 1666,
      "▁sup": 1667,
      "▁dead": 1668,
      "one.": 1669,
      "fic": 1670,
      "▁ey": 1671,
      "aring": 1672,
      "▁certain": 1673,
      "▁strong": 1674,
      "▁concern": 1675,
      "ency": 1676,
      "▁bring": 1677,
      "mk": 1678,
      "▁inde": 1679,
      "▁ever": 1680,
      "ration": 1681,
      "▁den": 1682,
      "▁leg": 1683,
      "▁country.": 1684,
      "▁five": 1685,
      "anth": 1686,
      "▁ut": 1687,
      "men": 1688,
      "▁sure": 1689,
      "▁life.": 1690,
      "eal": 1691,
      "▁peri": 1692,
      "▁change": 1693,
      "▁viol": 1694,
      "▁kind": 1695,
      "▁impro": 1696,
      "▁news": 1697,
      "▁bill": 1698,
      "oh": 1699,
      "▁glob": 1700,
      "▁establ": 1701,
      "▁har": 1702,
      "ousand": 1703,
      "▁temple": 1704,
      "▁condition": 1705,
      "ember": 1706,
      "▁invol": 1707,
      "▁wife": 1708,
      "▁thought": 1709,
      "▁thousand": 1710,
      "▁sum": 1711,
      "uro": 1712,
      "cu": 1713,
      "▁sector": 1714,
      "▁increas": 1715,
      "▁er": 1716,
      "▁seen": 1717,
      "▁telugu": 1718,
      "▁crore.": 1719,
      "▁times": 1720,
      "▁cand": 1721,
      "ies,": 1722,
      "ination": 1723,
      "rug": 1724,
      "acher": 1725,
      "▁blood": 1726,
      "▁don't": 1727,
      "ges": 1728,
      "▁finan": 1729,
      "▁didnt": 1730,
      "▁lab": 1731,
      "▁fre": 1732,
      "▁fut": 1733,
      "▁ord": 1734,
      "▁days": 1735,
      "ait": 1736,
      "▁ru": 1737,
      "▁husband": 1738,
      "▁administ": 1739,
      "▁mur": 1740,
      "▁dam": 1741,
      "ript": 1742,
      "▁milit": 1743,
      "▁full": 1744,
      "▁spok": 1745,
      "▁free": 1746,
      "sequ": 1747,
      "▁though": 1748,
      "body": 1749,
      "▁tri": 1750,
      "ke": 1751,
      "▁doctor": 1752,
      "▁available": 1753,
      "▁super": 1754,
      "▁occas": 1755,
      "50": 1756,
      "▁percent": 1757,
      "-p": 1758,
      "▁aust": 1759,
      "▁thus": 1760,
      "ush": 1761,
      "▁1.": 1762,
      "▁plac": 1763,
      "n't": 1764,
      "▁plan": 1765,
      "ached": 1766,
      "▁veh": 1767,
      "idence": 1768,
      "▁past": 1769,
      "▁opportun": 1770,
      "ated.": 1771,
      "▁cit": 1772,
      "▁india,": 1773,
      "-s": 1774,
      "▁us.": 1775,
      "ling": 1776,
      "▁record": 1777,
      "▁candid": 1778,
      "ither": 1779,
      "ici": 1780,
      "ples": 1781,
      "▁provided": 1782,
      "ily": 1783,
      "▁led": 1784,
      "ricket": 1785,
      "▁prep": 1786,
      "▁supreme": 1787,
      "▁marri": 1788,
      "▁low": 1789,
      "▁financial": 1790,
      "▁enc": 1791,
      "al,": 1792,
      "▁lost": 1793,
      "ani": 1794,
      "▁pric": 1795,
      "▁cricket": 1796,
      "▁ris": 1797,
      "▁making": 1798,
      "to": 1799,
      "ura": 1800,
      "▁period": 1801,
      "▁bud": 1802,
      "▁always": 1803,
      "ayal": 1804,
      "▁future": 1805,
      "▁perform": 1806,
      "inted": 1807,
      "▁hol": 1808,
      "▁woman": 1809,
      "age.": 1810,
      "▁keral": 1811,
      "▁karn": 1812,
      "▁fail": 1813,
      "▁better": 1814,
      "▁watch": 1815,
      "▁step": 1816,
      "▁bi": 1817,
      "▁top": 1818,
      "na": 1819,
      "▁became": 1820,
      "▁meas": 1821,
      "▁provide": 1822,
      "-l": 1823,
      "soci": 1824,
      "▁vict": 1825,
      "▁address": 1826,
      "▁lim": 1827,
      "▁currently": 1828,
      "▁cal": 1829,
      "▁light": 1830,
      "▁coop": 1831,
      "▁cause": 1832,
      "umbai": 1833,
      "atak": 1834,
      "▁trib": 1835,
      "▁field": 1836,
      "els": 1837,
      "▁bab": 1838,
      "less": 1839,
      "▁short": 1840,
      "▁everyone": 1841,
      "ushed": 1842,
      "▁event": 1843,
      "▁reported": 1844,
      "uge": 1845,
      "erv": 1846,
      "▁assembly": 1847,
      "▁witnesses": 1848,
      "ize": 1849,
      "▁cele": 1850,
      "▁daughter": 1851,
      "▁.": 1852,
      "▁claim": 1853,
      "▁terror": 1854,
      "▁decision": 1855,
      "o,": 1856,
      "▁fel": 1857,
      "▁deep": 1858,
      "▁often": 1859,
      "▁relations": 1860,
      "vid": 1861,
      "▁red": 1862,
      "▁situation": 1863,
      "▁ach": 1864,
      "▁parli": 1865,
      "▁associ": 1866,
      "▁tour": 1867,
      "oid": 1868,
      "▁bad": 1869,
      "▁host": 1870,
      "▁student": 1871,
      "ashm": 1872,
      "▁works": 1873,
      "▁pain": 1874,
      "▁secretary": 1875,
      "▁here.": 1876,
      "▁world.": 1877,
      "▁mumbai": 1878,
      "▁hold": 1879,
      "▁chall": 1880,
      "▁close": 1881,
      "2.": 1882,
      "ins": 1883,
      "ulation": 1884,
      "▁board": 1885,
      "▁day.": 1886,
      "▁warn": 1887,
      "ment,": 1888,
      "aching": 1889,
      "▁them,": 1890,
      "▁committe": 1891,
      "-b": 1892,
      "am,": 1893,
      "ar,": 1894,
      "▁mag": 1895,
      "▁complaint": 1896,
      "▁bod": 1897,
      "▁karnatak": 1898,
      "que": 1899,
      "▁ver": 1900,
      "▁local": 1901,
      "▁democ": 1902,
      "▁case.": 1903,
      "ma": 1904,
      "uck": 1905,
      "▁24": 1906,
      "uty": 1907,
      "▁so,": 1908,
      "▁business": 1909,
      "▁proper": 1910,
      "of": 1911,
      "▁fact": 1912,
      "▁dise": 1913,
      "▁austral": 1914,
      "ilar": 1915,
      "▁deb": 1916,
      "▁released": 1917,
      "▁schem": 1918,
      "▁crit": 1919,
      "▁redu": 1920,
      "ional": 1921,
      "▁research": 1922,
      "▁area": 1923,
      "▁term": 1924,
      "ashmir": 1925,
      "▁matter.": 1926,
      "selves": 1927,
      "▁ant": 1928,
      "▁cab": 1929,
      "▁private": 1930,
      "▁benefit": 1931,
      "▁ens": 1932,
      "▁teacher": 1933,
      "▁countries": 1934,
      "vi": 1935,
      "▁taking": 1936,
      "▁ill": 1937,
      "▁god.": 1938,
      "erc": 1939,
      "▁dou": 1940,
      "ilities": 1941,
      "▁congreg": 1942,
      "▁money": 1943,
      "ara": 1944,
      "▁within": 1945,
      "▁gave": 1946,
      "igh": 1947,
      "▁therefore": 1948,
      "on,": 1949,
      "▁process": 1950,
      "▁kashmir": 1951,
      "oura": 1952,
      "ending": 1953,
      "▁really": 1954,
      "ale": 1955,
      "▁pict": 1956,
      "▁office": 1957,
      "▁services": 1958,
      "aras": 1959,
      "inal": 1960,
      "amb": 1961,
      "▁having": 1962,
      "▁well.": 1963,
      "▁needs": 1964,
      "▁whats": 1965,
      "▁possible": 1966,
      "▁gold": 1967,
      "▁training": 1968,
      "▁you,": 1969,
      "▁spiritual": 1970,
      "▁citiz": 1971,
      "▁college": 1972,
      "▁centre": 1973,
      "▁similar": 1974,
      "▁million": 1975,
      "▁university": 1976,
      "▁continue": 1977,
      "▁fall": 1978,
      "ibility": 1979,
      "▁spec": 1980,
      "▁launched": 1981,
      "▁ty": 1982,
      "▁euro": 1983,
      "▁sug": 1984,
      "ont": 1985,
      "▁means": 1986,
      "▁announced": 1987,
      "▁manage": 1988,
      "▁less": 1989,
      "ate.": 1990,
      "bs": 1991,
      "▁night": 1992,
      "inet": 1993,
      "▁self": 1994,
      "▁centur": 1995,
      "▁rahul": 1996,
      "▁living": 1997,
      "▁coron": 1998,
      "rem": 1999,
      "idd": 2000,
      "▁expected": 2001,
      "▁himself": 2002,
      "▁sele": 2003,
      "whe": 2004,
      "▁there.": 2005,
      "ance.": 2006,
      "▁cov": 2007,
      "▁common": 2008,
      "▁achie": 2009,
      "▁199": 2010,
      "▁whom": 2011,
      "▁ident": 2012,
      "ations.": 2013,
      "▁pract": 2014,
      "▁phot": 2015,
      "uted": 2016,
      "▁lok": 2017,
      "▁little": 2018,
      "▁bengal": 2019,
      "▁brought": 2020,
      "▁something": 2021,
      "▁hous": 2022,
      "▁member": 2023,
      "▁ps": 2024,
      "ks": 2025,
      "▁bra": 2026,
      "▁celebr": 2027,
      "▁leader": 2028,
      "▁this?": 2029,
      "ner": 2030,
      "▁production": 2031,
      "▁port": 2032,
      "▁able": 2033,
      "ence.": 2034,
      "▁applic": 2035,
      "▁creat": 2036,
      "▁wro": 2037,
      "▁sabha": 2038,
      "ultural": 2039,
      "▁government.": 2040,
      "▁diffic": 2041,
      "ee": 2042,
      "ia,": 2043,
      "hn": 2044,
      "▁difficult": 2045,
      "▁attended": 2046,
      "ential": 2047,
      "bi": 2048,
      "▁dies": 2049,
      "▁reve": 2050,
      "▁officials": 2051,
      "bh": 2052,
      "ically": 2053,
      "▁enter": 2054,
      "▁it?": 2055,
      "▁1,": 2056,
      "▁village": 2057,
      "▁written": 2058,
      "ointed": 2059,
      "rodu": 2060,
      "▁0": 2061,
      "▁shoot": 2062,
      "▁stor": 2063,
      "▁spread": 2064,
      "▁six": 2065,
      "▁vot": 2066,
      "aught": 2067,
      "▁avoid": 2068,
      "ide.": 2069,
      "▁cabinet": 2070,
      "▁welf": 2071,
      "▁welfare": 2072,
      "▁workers": 2073,
      "cle": 2074,
      "ari": 2075,
      "▁disp": 2076,
      "▁tir": 2077,
      "arat": 2078,
      "▁affair": 2079,
      "▁immediately": 2080,
      "▁happy": 2081,
      "▁histor": 2082,
      "▁hal": 2083,
      "▁pati": 2084,
      "▁knowled": 2085,
      "▁estim": 2086,
      "▁afric": 2087,
      "▁consider": 2088,
      "▁x": 2089,
      "▁env": 2090,
      "▁star": 2091,
      "▁cant": 2092,
      "▁construction": 2093,
      "▁heavy": 2094,
      "▁hindi": 2095,
      "ira": 2096,
      "▁amount": 2097,
      "▁jan": 2098,
      "ored": 2099,
      "▁2018": 2100,
      "▁industry": 2101,
      "▁drink": 2102,
      "aram": 2103,
      "▁admitted": 2104,
      "▁building": 2105,
      "▁theres": 2106,
      "new": 2107,
      "rate": 2108,
      "▁once": 2109,
      "3.": 2110,
      "▁issue": 2111,
      "ec": 2112,
      "▁nat": 2113,
      "▁ste": 2114,
      "aster": 2115,
      "▁price": 2116,
      "▁song": 2117,
      "ream": 2118,
      "▁stay": 2119,
      "▁jour": 2120,
      "▁global": 2121,
      "▁entire": 2122,
      "▁too.": 2123,
      "ator": 2124,
      "▁mass": 2125,
      "▁match": 2126,
      "▁study": 2127,
      "▁command": 2128,
      "▁earli": 2129,
      "cer": 2130,
      "▁course": 2131,
      "▁john": 2132,
      "iding": 2133,
      "▁product": 2134,
      "ructure": 2135,
      "▁pal": 2136,
      "▁capital": 2137,
      "o.": 2138,
      "▁explain": 2139,
      "▁corpor": 2140,
      "▁ger": 2141,
      "▁foreign": 2142,
      "▁electric": 2143,
      "▁apost": 2144,
      "▁cir": 2145,
      "▁40": 2146,
      "▁increase": 2147,
      "▁conduct": 2148,
      "avir": 2149,
      "▁worship": 2150,
      "▁opposition": 2151,
      "▁rushed": 2152,
      "▁christians": 2153,
      "▁net": 2154,
      "▁stri": 2155,
      "htra": 2156,
      "ice.": 2157,
      "▁rural": 2158,
      "▁ones": 2159,
      "aged": 2160,
      "▁repres": 2161,
      "▁energ": 2162,
      "▁military": 2163,
      "c.": 2164,
      "▁time,": 2165,
      "▁prev": 2166,
      "▁poor": 2167,
      "▁force": 2168,
      "▁princi": 2169,
      "▁22": 2170,
      "▁cust": 2171,
      "araj": 2172,
      "▁lives": 2173,
      "▁complete": 2174,
      "yal": 2175,
      "▁object": 2176,
      "▁third": 2177,
      "▁hen": 2178,
      "▁filed": 2179,
      "on.": 2180,
      "▁li": 2181,
      "▁prevent": 2182,
      "▁civ": 2183,
      "▁mos": 2184,
      "rast": 2185,
      "▁began": 2186,
      "oor": 2187,
      "▁coming": 2188,
      "ences": 2189,
      "▁towards": 2190,
      "▁wrote": 2191,
      "sequent": 2192,
      "▁serious": 2193,
      "▁feat": 2194,
      "▁trust": 2195,
      "abad": 2196,
      "-f": 2197,
      "▁kar": 2198,
      "▁poll": 2199,
      "9.": 2200,
      "▁china": 2201,
      "▁birth": 2202,
      "▁mult": 2203,
      "▁exist": 2204,
      "▁parliament": 2205,
      "▁prophe": 2206,
      "▁soon.": 2207,
      "▁politic": 2208,
      "▁(m": 2209,
      "▁created": 2210,
      "▁hope": 2211,
      "▁direct": 2212,
      "ained": 2213,
      "▁seem": 2214,
      "▁enj": 2215,
      "▁\"the": 2216,
      "uram": 2217,
      "▁motor": 2218,
      "▁desc": 2219,
      "▁court.": 2220,
      "▁initi": 2221,
      "▁informed": 2222,
      "▁expect": 2223,
      "▁agree": 2224,
      ",\"\"": 2225,
      "work": 2226,
      "▁bal": 2227,
      "▁above": 2228,
      "ification": 2229,
      "ned": 2230,
      "▁alle": 2231,
      "▁obs": 2232,
      "▁article": 2233,
      "▁comes": 2234,
      "ims": 2235,
      "▁finance": 2236,
      "▁age": 2237,
      "▁purp": 2238,
      "▁miss": 2239,
      "▁deal": 2240,
      "wal": 2241,
      "▁it's": 2242,
      "▁justice": 2243,
      "▁21": 2244,
      "▁bless": 2245,
      "▁begin": 2246,
      "▁appre": 2247,
      "▁nation": 2248,
      "eous": 2249,
      "icket": 2250,
      "▁happened": 2251,
      "▁2020": 2252,
      "ension": 2253,
      "▁growth": 2254,
      "ung": 2255,
      "▁script": 2256,
      "▁sil": 2257,
      "be": 2258,
      "▁cop": 2259,
      "vere": 2260,
      "lish": 2261,
      "▁hit": 2262,
      "▁tur": 2263,
      "▁gener": 2264,
      "-c": 2265,
      "▁tor": 2266,
      "▁2.": 2267,
      "▁share": 2268,
      "▁compet": 2269,
      "▁river": 2270,
      "rupt": 2271,
      "▁coronavir": 2272,
      "ival": 2273,
      "▁eat": 2274,
      "▁said.\"": 2275,
      "▁town": 2276,
      "ones": 2277,
      "ization": 2278,
      "ipp": 2279,
      "▁east": 2280,
      "▁necess": 2281,
      "▁insp": 2282,
      "▁committee": 2283,
      "▁wis": 2284,
      "▁knowledge": 2285,
      "▁susp": 2286,
      "over": 2287,
      "en.": 2288,
      "▁cases": 2289,
      "▁words": 2290,
      "▁films.": 2291,
      "▁contrib": 2292,
      "empt": 2293,
      "▁pat": 2294,
      "ce,": 2295,
      "ify": 2296,
      "▁individ": 2297,
      "▁forg": 2298,
      "▁coll": 2299,
      "bel": 2300,
      "▁up.": 2301,
      "▁answer": 2302,
      "▁cho": 2303,
      "ference": 2304,
      "▁him,": 2305,
      "▁seek": 2306,
      "▁dav": 2307,
      "▁ide": 2308,
      "aff": 2309,
      "▁non": 2310,
      "▁expl": 2311,
      "ott": 2312,
      "de": 2313,
      "ring": 2314,
      "▁produced": 2315,
      "▁design": 2316,
      "▁state.": 2317,
      "▁rom": 2318,
      "▁inn": 2319,
      "se.": 2320,
      "▁likely": 2321,
      "▁god,": 2322,
      "▁leave": 2323,
      "ert": 2324,
      "▁encoura": 2325,
      "▁brit": 2326,
      "▁german": 2327,
      "▁efforts": 2328,
      "cil": 2329,
      "▁,": 2330,
      "▁huge": 2331,
      "5.": 2332,
      "▁bar": 2333,
      "▁eld": 2334,
      "▁cup": 2335,
      "▁details": 2336,
      "▁early": 2337,
      "▁budget": 2338,
      "▁personal": 2339,
      "arashtra": 2340,
      "▁final": 2341,
      "itter": 2342,
      "▁senior": 2343,
      "▁bur": 2344,
      "▁civil": 2345,
      "▁bang": 2346,
      "ron": 2347,
      "▁enjoy": 2348,
      "▁language": 2349,
      "ance,": 2350,
      "▁sist": 2351,
      "▁include": 2352,
      "▁anything": 2353,
      "▁regard.": 2354,
      "▁individual": 2355,
      "▁saying": 2356,
      "ped": 2357,
      "cing": 2358,
      "▁opt": 2359,
      "▁reveal": 2360,
      "imate": 2361,
      "ban": 2362,
      "▁technology": 2363,
      "▁pot": 2364,
      "▁until": 2365,
      "che": 2366,
      "▁studi": 2367,
      "▁guj": 2368,
      "▁media.": 2369,
      "▁injur": 2370,
      "▁strengthe": 2371,
      "▁indias": 2372,
      "icles": 2373,
      "▁%": 2374,
      "▁sex": 2375,
      "7.": 2376,
      "▁maharashtra": 2377,
      "▁activities": 2378,
      "ude": 2379,
      "▁series": 2380,
      "▁least": 2381,
      "imum": 2382,
      "▁sep": 2383,
      "▁problems": 2384,
      "▁tele": 2385,
      "ns": 2386,
      "ity,": 2387,
      "▁shock": 2388,
      "utions": 2389,
      "▁walk": 2390,
      "wood": 2391,
      "▁tal": 2392,
      "ps": 2393,
      "▁reached": 2394,
      "▁khan": 2395,
      "▁represent": 2396,
      "▁dom": 2397,
      "▁saf": 2398,
      "▁elections": 2399,
      "▁sour": 2400,
      "▁it,": 2401,
      "▁issued": 2402,
      "▁wait": 2403,
      "▁david": 2404,
      "▁bhar": 2405,
      "▁doub": 2406,
      "▁flow": 2407,
      "▁loss": 2408,
      "ogra": 2409,
      "▁luck": 2410,
      "iron": 2411,
      "▁ma": 2412,
      "ress.": 2413,
      "▁sac": 2414,
      "▁anim": 2415,
      "by": 2416,
      "▁mater": 2417,
      "▁accused": 2418,
      "▁lod": 2419,
      "▁saw": 2420,
      "▁single": 2421,
      "▁films": 2422,
      "ham": 2423,
      "▁then,": 2424,
      "ws": 2425,
      "▁cut": 2426,
      "▁everything": 2427,
      "▁fans": 2428,
      "atives": 2429,
      "6.": 2430,
      "▁cast": 2431,
      "ets": 2432,
      "▁suic": 2433,
      "▁disci": 2434,
      "itive": 2435,
      "▁whole": 2436,
      "ade": 2437,
      "▁programme": 2438,
      "▁search": 2439,
      "▁mount": 2440,
      "▁petrol": 2441,
      "▁caused": 2442,
      "▁getting": 2443,
      "mber": 2444,
      "▁nobody": 2445,
      "▁mis": 2446,
      "▁crores.": 2447,
      "▁phys": 2448,
      "ift": 2449,
      "▁crores": 2450,
      "▁protect": 2451,
      "oud": 2452,
      "▁rate": 2453,
      "▁prices": 2454,
      "▁connect": 2455,
      "▁arri": 2456,
      "mit": 2457,
      "▁cin": 2458,
      "▁ten": 2459,
      "hold": 2460,
      "▁mom": 2461,
      "▁environ": 2462,
      "ine.": 2463,
      "▁resol": 2464,
      "4.": 2465,
      "line": 2466,
      "▁trump": 2467,
      "▁standard": 2468,
      "▁agriculture": 2469,
      "aps": 2470,
      "ances": 2471,
      "▁mark": 2472,
      "rish": 2473,
      "▁green": 2474,
      "action": 2475,
      "itation": 2476,
      "▁participated": 2477,
      "▁transport": 2478,
      "▁ge": 2479,
      "ier": 2480,
      "▁scient": 2481,
      "▁till": 2482,
      "ony": 2483,
      "▁gujarat": 2484,
      "-t": 2485,
      "aries": 2486,
      "▁km": 2487,
      "▁decided": 2488,
      "-19": 2489,
      "▁(c": 2490,
      "gu": 2491,
      "▁vol": 2492,
      "▁panch": 2493,
      "et.": 2494,
      "overed": 2495,
      "▁fis": 2496,
      "▁children.": 2497,
      "▁management": 2498,
      "▁nag": 2499,
      "▁russ": 2500,
      "▁section": 2501,
      "▁position": 2502,
      "▁reject": 2503,
      "▁kerala": 2504,
      "▁mission": 2505,
      "▁surp": 2506,
      "▁threat": 2507,
      "▁grant": 2508,
      "▁europe": 2509,
      "▁maintain": 2510,
      "▁appreci": 2511,
      "▁army": 2512,
      "▁yet.": 2513,
      "▁dmk": 2514,
      "▁dh": 2515,
      "▁popular": 2516,
      "▁covid": 2517,
      "▁out.": 2518,
      "ger": 2519,
      "▁parts": 2520,
      "▁travel": 2521,
      "epend": 2522,
      "ops": 2523,
      "▁imm": 2524,
      "▁relationship": 2525,
      "▁wind": 2526,
      "▁districts": 2527,
      "▁improve": 2528,
      "▁distrib": 2529,
      "▁science": 2530,
      "▁occur": 2531,
      "▁using": 2532,
      "▁release": 2533,
      "iful": 2534,
      "▁american": 2535,
      "▁thousands": 2536,
      "ners": 2537,
      "ogn": 2538,
      "hood": 2539,
      "▁worth": 2540,
      "atic": 2541,
      "▁council": 2542,
      "▁history": 2543,
      "▁ground": 2544,
      "▁hour": 2545,
      "tar": 2546,
      "▁tar": 2547,
      "▁australia": 2548,
      "itor": 2549,
      "▁regarding": 2550,
      "▁railway": 2551,
      "▁played": 2552,
      "▁aware": 2553,
      "▁heaven": 2554,
      "▁belong": 2555,
      "▁diesel": 2556,
      "▁plant": 2557,
      "▁citizens": 2558,
      "▁except": 2559,
      "▁ran": 2560,
      "▁introdu": 2561,
      "▁behind": 2562,
      "▁vice": 2563,
      "les.": 2564,
      "us.": 2565,
      "▁accom": 2566,
      "nel": 2567,
      "▁ministers": 2568,
      "▁affected": 2569,
      "▁whether": 2570,
      "▁injured.": 2571,
      "thing.": 2572,
      "▁key": 2573,
      "▁deter": 2574,
      "▁schools": 2575,
      "8.": 2576,
      "▁ju": 2577,
      "▁successful": 2578,
      "ur,": 2579,
      "▁dece": 2580,
      "▁statement": 2581,
      "▁karnataka": 2582,
      "▁programm": 2583,
      "▁foc": 2584,
      "▁bes": 2585,
      "▁energy": 2586,
      "apt": 2587,
      "▁foot": 2588,
      "▁infrast": 2589,
      "uf": 2590,
      "▁fav": 2591,
      "▁fest": 2592,
      "▁english": 2593,
      "▁(s": 2594,
      "▁ban": 2595,
      "▁underway": 2596,
      "war": 2597,
      "ability": 2598,
      "lywood": 2599,
      "▁gar": 2600,
      "athi": 2601,
      "▁speaking": 2602,
      "▁profess": 2603,
      "▁that?": 2604,
      "▁recogn": 2605,
      "▁subsequent": 2606,
      "▁story": 2607,
      "▁et": 2608,
      "▁company": 2609,
      "▁resour": 2610,
      "▁lanka": 2611,
      "▁religious": 2612,
      "den": 2613,
      "▁fulf": 2614,
      "cell": 2615,
      "▁cinem": 2616,
      "▁panchay": 2617,
      "▁basis": 2618,
      "▁launch": 2619,
      "▁higher": 2620,
      "▁bea": 2621,
      "▁remember": 2622,
      "▁bol": 2623,
      "ames": 2624,
      "▁break": 2625,
      "ada": 2626,
      "▁particular": 2627,
      "▁colour": 2628,
      "alm": 2629,
      "▁home.": 2630,
      "▁\"\"\"i": 2631,
      "▁defence": 2632,
      "▁norm": 2633,
      "▁jap": 2634,
      "▁sharm": 2635,
      "pecial": 2636,
      "▁parties": 2637,
      "▁sle": 2638,
      "hra": 2639,
      "ches": 2640,
      "ging": 2641,
      "resh": 2642,
      "▁gone": 2643,
      "▁income": 2644,
      "▁assistance": 2645,
      "▁shah": 2646,
      "▁industri": 2647,
      "▁skill": 2648,
      "ilt": 2649,
      "▁yes,": 2650,
      "▁connection": 2651,
      "▁responsibility": 2652,
      "▁later,": 2653,
      "▁affect": 2654,
      "▁(p": 2655,
      "▁mob": 2656,
      "▁india's": 2657,
      "lu": 2658,
      "let": 2659,
      "▁harm": 2660,
      "ication": 2661,
      "ues": 2662,
      "▁progress": 2663,
      "-y": 2664,
      "▁work.": 2665,
      "▁unit": 2666,
      "▁seat": 2667,
      "a)": 2668,
      "▁chair": 2669,
      "▁recently": 2670,
      "▁infrastructure": 2671,
      "▁constitu": 2672,
      "▁enough": 2673,
      "▁forest": 2674,
      "▁attend": 2675,
      "▁half": 2676,
      "▁modern": 2677,
      "▁on.": 2678,
      "▁actress": 2679,
      "▁brothers": 2680,
      "ar.": 2681,
      "▁destro": 2682,
      "po": 2683,
      "bit": 2684,
      "▁societ": 2685,
      "▁chand": 2686,
      "▁establish": 2687,
      "▁kam": 2688,
      "▁listen": 2689,
      "▁musl": 2690,
      "▁increased": 2691,
      "▁material": 2692,
      "▁line": 2693,
      "yl": 2694,
      "▁fru": 2695,
      "▁no.": 2696,
      "▁coronavirus": 2697,
      "▁contain": 2698,
      "▁friends": 2699,
      "▁page": 2700,
      "▁conducted": 2701,
      "▁60": 2702,
      "▁married": 2703,
      "▁qual": 2704,
      "▁nadu.": 2705,
      "▁forward": 2706,
      "▁neg": 2707,
      "ech": 2708,
      "▁repl": 2709,
      "▁stars": 2710,
      "▁2017": 2711,
      "▁policy": 2712,
      "▁largest": 2713,
      "ising": 2714,
      "▁seed": 2715,
      "▁stated": 2716,
      "ract": 2717,
      "▁appear": 2718,
      "rop": 2719,
      "▁challeng": 2720,
      "rad": 2721,
      "▁request": 2722,
      "▁mer": 2723,
      "for": 2724,
      "nam": 2725,
      "▁family.": 2726,
      "▁example,": 2727,
      "▁area.": 2728,
      "▁questions": 2729,
      "▁front": 2730,
      "▁trade": 2731,
      "▁purpose": 2732,
      "▁rich": 2733,
      "ratic": 2734,
      "▁orig": 2735,
      "▁tit": 2736,
      "▁dail": 2737,
      "▁themselves": 2738,
      "ceed": 2739,
      "most": 2740,
      "▁lodged": 2741,
      "▁letter": 2742,
      "play": 2743,
      "▁clean": 2744,
      "▁marriage": 2745,
      "▁sust": 2746,
      "able.": 2747,
      "▁nav": 2748,
      "▁england": 2749,
      "▁shooting": 2750,
      "▁publ": 2751,
      "▁worked": 2752,
      "after": 2753,
      "le.": 2754,
      "▁independ": 2755,
      "▁becom": 2756,
      "▁looking": 2757,
      "▁respon": 2758,
      "▁memor": 2759,
      "▁sad": 2760,
      "iance": 2761,
      "▁serve": 2762,
      "▁needed": 2763,
      "▁subject": 2764,
      "▁tradition": 2765,
      "▁cover": 2766,
      "▁traff": 2767,
      "▁hero": 2768,
      "▁cooperation": 2769,
      "▁freed": 2770,
      "▁dig": 2771,
      "▁passeng": 2772,
      "▁affairs": 2773,
      "▁cert": 2774,
      "▁that,": 2775,
      "▁kann": 2776,
      "▁island": 2777,
      "pecially": 2778,
      "▁treatment": 2779,
      "▁heard": 2780,
      "▁jun": 2781,
      "▁sun": 2782,
      "▁rs.1": 2783,
      "-in": 2784,
      "ask": 2785,
      "▁try": 2786,
      "▁acted": 2787,
      "▁involved": 2788,
      "▁bat": 2789,
      "selv": 2790,
      "ammu": 2791,
      "▁region": 2792,
      "▁check": 2793,
      "▁experience": 2794,
      "ograph": 2795,
      "▁pand": 2796,
      "▁ess": 2797,
      "▁500": 2798,
      "▁declared": 2799,
      "▁23": 2800,
      "aign": 2801,
      "ufact": 2802,
      "▁deg": 2803,
      "▁natural": 2804,
      "uru": 2805,
      "▁makes": 2806,
      "▁water.": 2807,
      "lo": 2808,
      "▁text": 2809,
      "▁guid": 2810,
      "▁abs": 2811,
      "come": 2812,
      "▁required": 2813,
      "▁manufact": 2814,
      "▁decis": 2815,
      "bre": 2816,
      "ous.": 2817,
      "▁kid": 2818,
      "▁eg": 2819,
      "▁achieve": 2820,
      "▁cam": 2821,
      "▁holy": 2822,
      "▁especially": 2823,
      "undred": 2824,
      "▁campaign": 2825,
      "-e": 2826,
      "ure.": 2827,
      "ull": 2828,
      "ison": 2829,
      "▁date": 2830,
      "▁doctors": 2831,
      "▁charact": 2832,
      "▁side": 2833,
      "▁consum": 2834,
      "▁black": 2835,
      "▁population": 2836,
      "▁crim": 2837,
      "▁bow": 2838,
      "▁jammu": 2839,
      "▁viral": 2840,
      "ril": 2841,
      "▁hundred": 2842,
      "▁additional": 2843,
      "▁indeed": 2844,
      "isl": 2845,
      "▁chur": 2846,
      "▁yog": 2847,
      "rog": 2848,
      "▁regular": 2849,
      "▁please": 2850,
      "▁mention": 2851,
      "▁vari": 2852,
      "▁wel": 2853,
      "▁malayal": 2854,
      "▁respond": 2855,
      "▁phil": 2856,
      "▁righteous": 2857,
      "▁quality": 2858,
      "▁space": 2859,
      "▁wond": 2860,
      "ises": 2861,
      "▁far.": 2862,
      "▁ensure": 2863,
      "▁plann": 2864,
      "▁liter": 2865,
      "▁people,": 2866,
      "▁minor": 2867,
      "fer": 2868,
      "▁medic": 2869,
      "▁society": 2870,
      "▁fine": 2871,
      "lect": 2872,
      "irm": 2873,
      "side": 2874,
      "isation": 2875,
      "▁pen": 2876,
      "▁joint": 2877,
      "▁officers": 2878,
      "▁?": 2879,
      "▁prim": 2880,
      "▁others.": 2881,
      "s?": 2882,
      "▁circ": 2883,
      "▁ye": 2884,
      "emic": 2885,
      "though": 2886,
      "▁days.": 2887,
      "utes": 2888,
      "▁rather": 2889,
      "ating.": 2890,
      "▁else": 2891,
      "▁uttar": 2892,
      "rect": 2893,
      "▁flood": 2894,
      "▁value": 2895,
      "▁faithful": 2896,
      "▁review": 2897,
      "▁lat": 2898,
      "▁contest": 2899,
      "▁exec": 2900,
      "r.": 2901,
      "sec": 2902,
      "▁twitter": 2903,
      "▁factor": 2904,
      "▁deputy": 2905,
      "▁doesnt": 2906,
      "\"\".\"": 2907,
      "▁nations": 2908,
      "head": 2909,
      "▁families": 2910,
      "▁ml": 2911,
      "▁fulfill": 2912,
      "▁ira": 2913,
      "el,": 2914,
      "▁announce": 2915,
      "▁link": 2916,
      "▁freedom": 2917,
      "▁amb": 2918,
      "▁2019": 2919,
      "▁features": 2920,
      "▁hur": 2921,
      "▁integr": 2922,
      "▁psalm": 2923,
      "▁desp": 2924,
      "▁reven": 2925,
      "▁driver": 2926,
      "▁although": 2927,
      "▁releas": 2928,
      "▁measures": 2929,
      "ites": 2930,
      "▁dang": 2931,
      "▁grand": 2932,
      "▁surely": 2933,
      "nal": 2934,
      "0.": 2935,
      "where": 2936,
      "▁strength": 2937,
      "pal": 2938,
      "▁ded": 2939,
      "co": 2940,
      "▁ready": 2941,
      "▁appointed": 2942,
      "▁located": 2943,
      "▁commer": 2944,
      "▁governments": 2945,
      "▁leading": 2946,
      "ia.": 2947,
      "▁demon": 2948,
      "s)": 2949,
      "▁cy": 2950,
      "-year": 2951,
      "▁fal": 2952,
      "▁stre": 2953,
      "▁officer": 2954,
      "▁destroy": 2955,
      "▁signific": 2956,
      "▁either": 2957,
      "▁i'": 2958,
      "-d": 2959,
      "▁clos": 2960,
      "▁arr": 2961,
      "▁runs": 2962,
      "-old": 2963,
      "▁facilities": 2964,
      "▁therefore,": 2965,
      "hod": 2966,
      "▁below": 2967,
      "quir": 2968,
      "▁paid": 2969,
      "▁mor": 2970,
      "▁surv": 2971,
      "▁rights": 2972,
      "▁shiv": 2973,
      "▁allowed": 2974,
      "iy": 2975,
      "erve": 2976,
      "▁estimated": 2977,
      "▁personnel": 2978,
      "▁iraq": 2979,
      "asth": 2980,
      "unt": 2981,
      "▁card": 2982,
      "▁increasing": 2983,
      "▁candidates": 2984,
      "val": 2985,
      "▁traffic": 2986,
      "▁path": 2987,
      "▁supply": 2988,
      "▁(n": 2989,
      "▁bord": 2990,
      "▁jer": 2991,
      "icated": 2992,
      "▁related": 2993,
      "▁\"i": 2994,
      "▁congrat": 2995,
      "▁apostle": 2996,
      "ighb": 2997,
      "▁raised": 2998,
      "▁describ": 2999,
      "ge.": 3000,
      "▁knows": 3001,
      "▁drug": 3002,
      "▁block": 3003,
      "cient": 3004,
      "this": 3005,
      "▁max": 3006,
      "▁vers": 3007,
      "▁neighb": 3008,
      "▁legisl": 3009,
      "ively": 3010,
      "▁198": 3011,
      "adi": 3012,
      "▁that's": 3013,
      "-201": 3014,
      "-2": 3015,
      "hest": 3016,
      "▁lucky": 3017,
      "▁minister,": 3018,
      "▁congregation": 3019,
      "pect": 3020,
      "▁rajin": 3021,
      "eth": 3022,
      "▁ven": 3023,
      "▁spot.": 3024,
      "▁culture": 3025,
      "▁months": 3026,
      "▁shared": 3027,
      "▁separ": 3028,
      "▁ai": 3029,
      "▁leav": 3030,
      "▁subs": 3031,
      "▁sanction": 3032,
      "ev": 3033,
      "▁anyone": 3034,
      "▁forces": 3035,
      "▁conference": 3036,
      "rugg": 3037,
      "▁seven": 3038,
      "mi": 3039,
      "oms": 3040,
      "▁wicket": 3041,
      "▁cities": 3042,
      "▁countri": 3043,
      "▁attempt": 3044,
      "▁sound": 3045,
      "▁fast": 3046,
      "▁petition": 3047,
      "ore,": 3048,
      "▁strugg": 3049,
      "▁koh": 3050,
      "▁devote": 3051,
      "▁28": 3052,
      "ining": 3053,
      "▁exerc": 3054,
      "▁andhra": 3055,
      "▁sleep": 3056,
      "▁wick": 3057,
      "ler": 3058,
      "▁carrying": 3059,
      "▁response": 3060,
      "aired": 3061,
      "▁vo": 3062,
      "▁way.": 3063,
      "▁zeal": 3064,
      "▁severe": 3065,
      "▁shot": 3066,
      "▁industrial": 3067,
      "▁isnt": 3068,
      "uses": 3069,
      "▁hindu": 3070,
      "▁bollywood": 3071,
      "ess.": 3072,
      "imb": 3073,
      "▁capac": 3074,
      "▁airport": 3075,
      "▁suggest": 3076,
      "ees": 3077,
      "▁born": 3078,
      "▁judge": 3079,
      "▁necessary": 3080,
      "know": 3081,
      "well": 3082,
      "▁ak": 3083,
      "vey": 3084,
      "▁turned": 3085,
      "▁esc": 3086,
      "▁environment": 3087,
      "▁projects": 3088,
      "▁cred": 3089,
      "▁hands": 3090,
      "▁institute": 3091,
      "▁method": 3092,
      "▁eyes": 3093,
      "▁established": 3094,
      "▁3.": 3095,
      "▁appeal": 3096,
      "▁message": 3097,
      "▁tom": 3098,
      "▁recovered": 3099,
      "ense": 3100,
      "▁me,": 3101,
      "lad": 3102,
      "▁dr.": 3103,
      "aiah": 3104,
      "▁playing": 3105,
      "▁named": 3106,
      "belie": 3107,
      "▁soul": 3108,
      "enced": 3109,
      "▁kept": 3110,
      "▁promot": 3111,
      "going": 3112,
      "▁nar": 3113,
      "▁passed": 3114,
      "jab": 3115,
      "▁multi": 3116,
      "itude": 3117,
      "▁providing": 3118,
      "▁dream": 3119,
      "ile,": 3120,
      "▁soldi": 3121,
      "ness.": 3122,
      "▁morn": 3123,
      "▁vac": 3124,
      "urs": 3125,
      "▁previous": 3126,
      "▁couple": 3127,
      "▁q": 3128,
      "▁giving": 3129,
      "itha": 3130,
      "▁congratul": 3131,
      "▁mou": 3132,
      "▁problem.": 3133,
      "▁determ": 3134,
      "ery": 3135,
      "▁reports": 3136,
      "ran": 3137,
      "▁administration": 3138,
      "4,": 3139,
      "▁whose": 3140,
      "6,": 3141,
      "▁apart": 3142,
      "▁completed": 3143,
      "▁authorities": 3144,
      "▁meeting.": 3145,
      "fall": 3146,
      "oll": 3147,
      "▁docu": 3148,
      "▁spoke": 3149,
      "▁picture": 3150,
      "▁fem": 3151,
      "▁ic": 3152,
      "▁vehicles": 3153,
      "▁access": 3154,
      "▁recom": 3155,
      "▁seats": 3156,
      "▁economy": 3157,
      "▁effort": 3158,
      "▁day,": 3159,
      "▁captain": 3160,
      "▁stra": 3161,
      "▁sacri": 3162,
      "▁carried": 3163,
      "1,": 3164,
      "ened": 3165,
      "▁gri": 3166,
      "▁years.": 3167,
      "kind": 3168,
      "▁emp": 3169,
      "▁followed": 3170,
      "uel": 3171,
      "▁added": 3172,
      "▁kohli": 3173,
      "ters": 3174,
      "in,": 3175,
      "ved.": 3176,
      "▁station": 3177,
      "▁comb": 3178,
      "▁certainly": 3179,
      "▁sar": 3180,
      "▁hear": 3181,
      "▁aug": 3182,
      "▁4.": 3183,
      "▁all.": 3184,
      "▁contro": 3185,
      "▁cbi": 3186,
      "▁conv": 3187,
      "▁$": 3188,
      "▁earlier": 3189,
      "▁diseas": 3190,
      "▁target": 3191,
      "▁revealed": 3192,
      "pped": 3193,
      "uti": 3194,
      "▁expressed": 3195,
      "▁ara": 3196,
      "▁create": 3197,
      "▁moved": 3198,
      "▁community": 3199,
      "ry.": 3200,
      "▁disease": 3201,
      "▁lay": 3202,
      "▁tro": 3203,
      "▁ast": 3204,
      "mp": 3205,
      "▁ancient": 3206,
      "▁data": 3207,
      "▁agre": 3208,
      "▁evil": 3209,
      "▁suicide": 3210,
      "▁agricultural": 3211,
      "▁ep": 3212,
      "▁issues": 3213,
      "5,": 3214,
      "ary.": 3215,
      "▁evidence": 3216,
      "▁wanted": 3217,
      "ami": 3218,
      "▁itself": 3219,
      "▁punjab": 3220,
      "▁limited": 3221,
      "fect": 3222,
      "▁tou": 3223,
      "▁offer": 3224,
      "▁hence,": 3225,
      "pur": 3226,
      "▁houses": 3227,
      "▁\"\"\"the": 3228,
      "▁priz": 3229,
      "ead": 3230,
      "▁sea": 3231,
      "▁beaut": 3232,
      "d.": 3233,
      "▁staff": 3234,
      "ession": 3235,
      "▁today,": 3236,
      "▁urban": 3237,
      "itre": 3238,
      "▁anti": 3239,
      "▁amit": 3240,
      "ing?": 3241,
      "▁yourself": 3242,
      "▁continued": 3243,
      "▁na": 3244,
      "▁direction": 3245,
      "2,": 3246,
      "ires": 3247,
      "▁jail": 3248,
      "▁firm": 3249,
      "in.": 3250,
      "▁employment": 3251,
      "ie.": 3252,
      "▁milk": 3253,
      "view": 3254,
      "▁batt": 3255,
      "atever": 3256,
      "▁rap": 3257,
      "▁influ": 3258,
      "▁save": 3259,
      "▁do.": 3260,
      "aly": 3261,
      "ton": 3262,
      "▁cm": 3263,
      "▁places": 3264,
      "▁neither": 3265,
      "▁rajasth": 3266,
      "▁religion": 3267,
      "▁offered": 3268,
      "▁none": 3269,
      "mission": 3270,
      "▁governor": 3271,
      "gar": 3272,
      "▁legal": 3273,
      "▁again.": 3274,
      "▁teach": 3275,
      "▁steps": 3276,
      "▁vehicle": 3277,
      "▁jehovah.": 3278,
      "light": 3279,
      "▁impact": 3280,
      "▁corporation": 3281,
      "▁27": 3282,
      "▁speech": 3283,
      "▁greater": 3284,
      "▁democratic": 3285,
      "▁receive": 3286,
      "▁id": 3287,
      "ublic": 3288,
      "-w": 3289,
      "▁tend": 3290,
      "▁ay": 3291,
      "▁sir": 3292,
      "▁nort": 3293,
      "▁heat": 3294,
      "▁punish": 3295,
      "▁someone": 3296,
      "atory": 3297,
      "▁(t": 3298,
      "inary": 3299,
      "▁sud": 3300,
      "▁kap": 3301,
      "▁coast": 3302,
      "▁etc.": 3303,
      "▁fish": 3304,
      "▁whatever": 3305,
      "▁mankind": 3306,
      "▁certific": 3307,
      "rs": 3308,
      "▁cris": 3309,
      "lling": 3310,
      "▁felt": 3311,
      "▁inaug": 3312,
      "▁critic": 3313,
      "-litre": 3314,
      "▁application": 3315,
      "▁gradu": 3316,
      "▁trying": 3317,
      "▁krish": 3318,
      "▁require": 3319,
      "▁attention": 3320,
      "rench": 3321,
      "▁chem": 3322,
      "▁so.": 3323,
      "erous": 3324,
      "▁model": 3325,
      "ds": 3326,
      "▁squ": 3327,
      "▁(b": 3328,
      "▁kan": 3329,
      "▁opportunities": 3330,
      "vert": 3331,
      "▁her.": 3332,
      "ali": 3333,
      "▁panchayat": 3334,
      "▁us,": 3335,
      "▁march": 3336,
      "▁exc": 3337,
      "▁cell": 3338,
      "ower": 3339,
      "▁results": 3340,
      "hy": 3341,
      "hit": 3342,
      "30": 3343,
      "▁published": 3344,
      "▁(1": 3345,
      "ey": 3346,
      "▁chennai.": 3347,
      "▁300": 3348,
      "▁boy": 3349,
      "▁ment": 3350,
      "▁scre": 3351,
      "▁but,": 3352,
      "▁instead": 3353,
      "▁lakh.": 3354,
      "▁display": 3355,
      "▁added.": 3356,
      "▁treatment.": 3357,
      "▁revenue": 3358,
      "▁earth.": 3359,
      "▁joy": 3360,
      "▁lt": 3361,
      "▁helped": 3362,
      "▁church": 3363,
      "▁aid": 3364,
      "▁japan": 3365,
      "▁pap": 3366,
      "▁teams": 3367,
      "▁century": 3368,
      "500": 3369,
      "▁prem": 3370,
      "▁died.": 3371,
      "▁prepared": 3372,
      "▁gives": 3373,
      "▁journal": 3374,
      "▁false": 3375,
      "▁asked.": 3376,
      "idered": 3377,
      "▁sharma": 3378,
      "▁composed": 3379,
      "▁madh": 3380,
      "▁changes": 3381,
      "▁fellow": 3382,
      "▁teachers": 3383,
      "▁stal": 3384,
      "▁years,": 3385,
      "▁protection": 3386,
      "▁violence": 3387,
      "usal": 3388,
      "▁gas": 3389,
      "▁covid-19": 3390,
      "h,": 3391,
      "▁forth": 3392,
      "▁lock": 3393,
      "ables": 3394,
      "▁investment": 3395,
      "▁competition": 3396,
      "▁fill": 3397,
      "kar": 3398,
      "▁prior": 3399,
      "▁reach": 3400,
      "▁2016": 3401,
      "▁daily": 3402,
      "▁lakhs": 3403,
      "▁fig": 3404,
      "ode": 3405,
      "▁crisis": 3406,
      "▁occasion": 3407,
      "▁throughout": 3408,
      "▁focus": 3409,
      "▁comput": 3410,
      "▁opportunity": 3411,
      "istic": 3412,
      "▁event.": 3413,
      "ological": 3414,
      "▁mic": 3415,
      "oj": 3416,
      "▁politics": 3417,
      "▁audi": 3418,
      "▁you?": 3419,
      "3,": 3420,
      "▁pressure": 3421,
      "▁republic": 3422,
      "▁authority": 3423,
      "or.": 3424,
      "▁considered": 3425,
      "▁tv": 3426,
      "▁quick": 3427,
      "ikanth": 3428,
      "▁safe": 3429,
      "raft": 3430,
      "▁hes": 3431,
      "▁scen": 3432,
      "▁sr": 3433,
      "▁los": 3434,
      "▁british": 3435,
      "▁gree": 3436,
      "▁resign": 3437,
      "▁takes": 3438,
      "▁risk": 3439,
      "▁april": 3440,
      "▁kh": 3441,
      "▁significant": 3442,
      "▁wide": 3443,
      "▁emb": 3444,
      "▁death.": 3445,
      "oint": 3446,
      "ney": 3447,
      "▁essential": 3448,
      "gn": 3449,
      "▁schemes": 3450,
      "▁typ": 3451,
      "ah,": 3452,
      "▁rule": 3453,
      "endra": 3454,
      "ald": 3455,
      "▁chill": 3456,
      "▁party.": 3457,
      "▁counsel": 3458,
      "▁pleas": 3459,
      "▁apply": 3460,
      "▁away.": 3461,
      "▁bodies": 3462,
      "ably": 3463,
      "▁includes": 3464,
      "▁say,": 3465,
      "u,": 3466,
      "▁fell": 3467,
      "▁mix": 3468,
      "▁movie.": 3469,
      "▁committed": 3470,
      "▁safety": 3471,
      "▁developed": 3472,
      "hab": 3473,
      "▁jehovah,": 3474,
      "rateg": 3475,
      "▁reform": 3476,
      "ness,": 3477,
      "▁prophet": 3478,
      "▁5.": 3479,
      "▁highest": 3480,
      "asons": 3481,
      "▁house.": 3482,
      "ama": 3483,
      "▁emerg": 3484,
      "▁cooper": 3485,
      "▁investigating.": 3486,
      "▁autom": 3487,
      "ghan": 3488,
      "▁doubt": 3489,
      "▁mountain": 3490,
      "▁prob": 3491,
      "▁mahind": 3492,
      "▁white": 3493,
      "▁approved": 3494,
      "ently": 3495,
      "▁benefits": 3496,
      "▁gain": 3497,
      "▁physical": 3498,
      "ful.": 3499,
      "▁devotees": 3500,
      "dh": 3501,
      "▁times.": 3502,
      "iddle": 3503,
      "▁park": 3504,
      "▁bapt": 3505,
      "vention": 3506,
      "ive.": 3507,
      "▁draw": 3508,
      "ism.": 3509,
      "▁transl": 3510,
      "▁remov": 3511,
      "-year-old": 3512,
      "▁hall": 3513,
      "ages.": 3514,
      "bhp": 3515,
      "▁send": 3516,
      "▁seized": 3517,
      "▁girls": 3518,
      "▁26": 3519,
      "▁shar": 3520,
      "▁capacity": 3521,
      "amin": 3522,
      "▁relief": 3523,
      "fort": 3524,
      "ley": 3525,
      "▁alliance": 3526,
      "▁innov": 3527,
      "▁place.": 3528,
      "▁network": 3529,
      "▁fruit": 3530,
      "▁thereafter": 3531,
      "▁meanwh": 3532,
      "▁refer": 3533,
      "urance": 3534,
      "▁kore": 3535,
      "▁reward": 3536,
      "▁season": 3537,
      "▁almost": 3538,
      "▁yet,": 3539,
      "▁demonst": 3540,
      "▁resur": 3541,
      "▁european": 3542,
      "▁room": 3543,
      "▁basic": 3544,
      "▁strateg": 3545,
      "erved": 3546,
      "▁suffered": 3547,
      "miss": 3548,
      "▁rajinikanth": 3549,
      "icip": 3550,
      "▁nut": 3551,
      "▁joined": 3552,
      "▁ways": 3553,
      "down": 3554,
      "▁comment": 3555,
      "▁administr": 3556,
      "▁shank": 3557,
      "book": 3558,
      "▁madura": 3559,
      "▁peter": 3560,
      "eer": 3561,
      "▁condem": 3562,
      "▁interview": 3563,
      "▁one.": 3564,
      "▁jayal": 3565,
      "▁aver": 3566,
      "▁desire": 3567,
      "▁issue.": 3568,
      "ived": 3569,
      "am.": 3570,
      "ise.": 3571,
      "▁arch": 3572,
      "alitha": 3573,
      "▁2,": 3574,
      "▁mist": 3575,
      "▁mand": 3576,
      "▁knew": 3577,
      "▁anything.": 3578,
      "▁democra": 3579,
      "▁despite": 3580,
      "▁sn": 3581,
      "uary": 3582,
      "▁ball": 3583,
      "▁lord,": 3584,
      "▁sometim": 3585,
      "▁maximum": 3586,
      "▁beautiful": 3587,
      "▁tried": 3588,
      "▁defe": 3589,
      "▁extreme": 3590,
      "ply": 3591,
      "▁french": 3592,
      "isf": 3593,
      "▁thing.": 3594,
      "ore.": 3595,
      "▁implemented": 3596,
      "▁torque": 3597,
      "▁fan": 3598,
      "▁alone": 3599,
      "▁roads": 3600,
      "▁matthe": 3601,
      "nm": 3602,
      "▁pil": 3603,
      "▁territ": 3604,
      "▁recomm": 3605,
      "▁mun": 3606,
      "▁easy": 3607,
      "▁refused": 3608,
      "▁sons": 3609,
      "▁down.": 3610,
      "▁arrange": 3611,
      "▁hot": 3612,
      "▁70": 3613,
      "▁sense": 3614,
      "▁acts": 3615,
      "as,": 3616,
      "▁7.": 3617,
      "▁nearly": 3618,
      "▁speed": 3619,
      "▁oct": 3620,
      "▁muslim": 3621,
      "▁act,": 3622,
      "ault": 3623,
      "▁served": 3624,
      "▁middle": 3625,
      "▁wed": 3626,
      "ka": 3627,
      "▁siv": 3628,
      "▁salt": 3629,
      "▁fort": 3630,
      "admk": 3631,
      "▁corrupt": 3632,
      "▁jayalalitha": 3633,
      "▁ahead": 3634,
      "rage": 3635,
      "▁delhi.": 3636,
      "▁bom": 3637,
      "▁do?": 3638,
      "▁messeng": 3639,
      "▁positive": 3640,
      "▁sports": 3641,
      "▁contact": 3642,
      "9,": 3643,
      "▁revel": 3644,
      "▁jay": 3645,
      "▁built": 3646,
      "▁annual": 3647,
      "mitted": 3648,
      "▁fed": 3649,
      "▁matthew": 3650,
      "▁b)": 3651,
      "▁argu": 3652,
      "8,": 3653,
      "▁appe": 3654,
      "rown": 3655,
      "▁helps": 3656,
      "▁credit": 3657,
      "▁things.": 3658,
      "▁note": 3659,
      "ternal": 3660,
      "▁fire.": 3661,
      "▁murder": 3662,
      "▁wonder": 3663,
      "▁chines": 3664,
      "▁inaugur": 3665,
      "▁tamil,": 3666,
      "ally,": 3667,
      "▁growing": 3668,
      "▁plays": 3669,
      "ina": 3670,
      "▁goes": 3671,
      "▁motorcy": 3672,
      "▁nature": 3673,
      "▁result,": 3674,
      "▁od": 3675,
      "▁denied": 3676,
      "abor": 3677,
      "▁quite": 3678,
      ".e.": 3679,
      "▁complet": 3680,
      "▁31": 3681,
      "ution.": 3682,
      "use": 3683,
      "▁rout": 3684,
      "▁constitution": 3685,
      "▁says:": 3686,
      "▁organiz": 3687,
      "▁judg": 3688,
      "ladesh": 3689,
      "▁loan": 3690,
      "usion": 3691,
      "▁pul": 3692,
      "su": 3693,
      "▁resc": 3694,
      "put": 3695,
      "▁file": 3696,
      "▁implementation": 3697,
      "▁pred": 3698,
      "7,": 3699,
      "▁talking": 3700,
      "▁3:": 3701,
      "▁afghan": 3702,
      "▁forget": 3703,
      "▁cross": 3704,
      "▁camer": 3705,
      "us,": 3706,
      "▁bihar": 3707,
      "▁virat": 3708,
      "▁wisdom": 3709,
      "▁aiadmk": 3710,
      "▁reasons": 3711,
      "▁centres": 3712,
      "▁sept": 3713,
      "▁cerem": 3714,
      "usalem": 3715,
      "▁lankan": 3716,
      "▁provin": 3717,
      "▁wish": 3718,
      "▁responsible": 3719,
      "▁source": 3720,
      "▁magaz": 3721,
      "▁2:": 3722,
      "▁cash": 3723,
      "coming": 3724,
      "ators": 3725,
      "▁accident.": 3726,
      "▁online": 3727,
      "icial": 3728,
      "▁good.": 3729,
      "▁jerusalem": 3730,
      "ressed": 3731,
      "▁bharat": 3732,
      "▁weak": 3733,
      "▁occasion.": 3734,
      "mo": 3735,
      "▁meanwhile,": 3736,
      "▁employees": 3737,
      "▁aim": 3738,
      "▁maruti": 3739,
      "▁lets": 3740,
      "▁partners": 3741,
      "▁minister.": 3742,
      "▁loving": 3743,
      "▁say:": 3744,
      "ager": 3745,
      "ateg": 3746,
      "hib": 3747,
      "▁cult": 3748,
      "▁inquir": 3749,
      "▁perh": 3750,
      "▁lik": 3751,
      "▁agreement": 3752,
      "▁broad": 3753,
      "ese": 3754,
      "▁resident": 3755,
      "▁phone": 3756,
      "▁kamal": 3757,
      "ex": 3758,
      "▁rescue": 3759,
      "▁cru": 3760,
      "▁movement": 3761,
      "inent": 3762,
      "▁6.": 3763,
      "▁announcement": 3764,
      "▁acqu": 3765,
      "son": 3766,
      "▁mp": 3767,
      "▁challen": 3768,
      "▁mobile": 3769,
      "▁lad": 3770,
      "▁game": 3771,
      "▁rank": 3772,
      "▁street": 3773,
      "▁isl": 3774,
      "▁produce": 3775,
      "▁accepted": 3776,
      "▁primary": 3777,
      "▁write": 3778,
      "what": 3779,
      "or,": 3780,
      "▁eight": 3781,
      "ied.": 3782,
      "▁passengers": 3783,
      "inated": 3784,
      "iled": 3785,
      "▁iran": 3786,
      "▁custom": 3787,
      "▁underway.": 3788,
      "▁unto": 3789,
      "▁(in": 3790,
      "▁und": 3791,
      "▁africa": 3792,
      "wan": 3793,
      "derabad": 3794,
      "ii": 3795,
      "olution": 3796,
      "itate": 3797,
      "▁claimed": 3798,
      "▁35": 3799,
      "▁unf": 3800,
      "▁talks": 3801,
      "bed": 3802,
      "pri": 3803,
      "▁die": 3804,
      "▁buy": 3805,
      "▁chinese": 3806,
      "▁repe": 3807,
      "▁lack": 3808,
      "▁comfort": 3809,
      "▁prison": 3810,
      "▁co-": 3811,
      "▁emot": 3812,
      "▁bangladesh": 3813,
      "hu": 3814,
      "chan": 3815,
      "▁shif": 3816,
      "▁(f": 3817,
      "en,": 3818,
      "▁categ": 3819,
      "▁simple": 3820,
      "▁is.": 3821,
      "▁approach": 3822,
      "▁couldnt": 3823,
      "▁80": 3824,
      "▁disapp": 3825,
      "▁wont": 3826,
      "▁hyderabad": 3827,
      "▁excell": 3828,
      "▁included": 3829,
      "▁vit": 3830,
      "▁animal": 3831,
      "▁escap": 3832,
      "▁character": 3833,
      "▁billion": 3834,
      "▁elected": 3835,
      "▁nadu,": 3836,
      "▁late": 3837,
      "sc": 3838,
      "▁arrested.": 3839,
      "▁money.": 3840,
      "anch": 3841,
      "▁\"we": 3842,
      "▁adop": 3843,
      "as.": 3844,
      "▁150": 3845,
      "25": 3846,
      "▁sexual": 3847,
      "▁perhaps": 3848,
      "▁states.": 3849,
      "▁suffering": 3850,
      "ening": 3851,
      "▁institutions": 3852,
      "▁chop": 3853,
      "▁millions": 3854,
      "▁subsid": 3855,
      "▁enem": 3856,
      "▁banks": 3857,
      "▁solution": 3858,
      "▁majority": 3859,
      "▁ordered": 3860,
      "▁(d": 3861,
      "▁priest": 3862,
      "'.": 3863,
      "▁pack": 3864,
      "▁flight": 3865,
      "▁companies": 3866,
      "ant.": 3867,
      "▁arab": 3868,
      "▁twe": 3869,
      "▁candidate": 3870,
      "▁photo": 3871,
      "70": 3872,
      "▁box": 3873,
      "estic": 3874,
      "▁gets": 3875,
      "▁question.": 3876,
      "▁satisf": 3877,
      "▁resurre": 3878,
      "▁hor": 3879,
      "▁world,": 3880,
      "▁outside": 3881,
      "▁chairman": 3882,
      "cher": 3883,
      "▁york": 3884,
      "▁formed": 3885,
      "is,": 3886,
      "olic": 3887,
      "▁association": 3888,
      "▁festival": 3889,
      "▁wall": 3890,
      "▁students.": 3891,
      "▁failed": 3892,
      "▁weight": 3893,
      "▁countries.": 3894,
      "▁rise": 3895,
      "▁nit": 3896,
      "▁investigations": 3897,
      "▁alloc": 3898,
      "▁lond": 3899,
      "▁coal": 3900,
      "▁concerned": 3901,
      "aks": 3902,
      "▁mach": 3903,
      "▁teaching": 3904,
      "▁beat": 3905,
      "▁truth.": 3906,
      ".s.": 3907,
      "a's": 3908,
      "inth": 3909,
      "▁confidence": 3910,
      "▁understanding": 3911,
      "▁today.": 3912,
      "▁year.": 3913,
      "▁exch": 3914,
      "▁acad": 3915,
      "▁household": 3916,
      "ise,": 3917,
      "▁(the": 3918,
      "▁completely": 3919,
      "▁satan": 3920,
      "orrow": 3921,
      "▁thus,": 3922,
      "▁preaching": 3923,
      "▁units": 3924,
      "▁massive": 3925,
      "▁modi,": 3926,
      "lt": 3927,
      "▁ash": 3928,
      "iness.": 3929,
      "gh": 3930,
      "▁provides": 3931,
      "▁il": 3932,
      "iah": 3933,
      "cious": 3934,
      "40": 3935,
      "▁fully": 3936,
      "here": 3937,
      "▁temper": 3938,
      "▁labour": 3939,
      "▁attack.": 3940,
      "uled": 3941,
      "▁actually": 3942,
      "▁kings": 3943,
      "▁fisher": 3944,
      "▁assign": 3945,
      "▁groups": 3946,
      "▁besides": 3947,
      "lled": 3948,
      "jee": 3949,
      "▁malayalam": 3950,
      "vision": 3951,
      "▁charge": 3952,
      "'re": 3953,
      "ox": 3954,
      "▁done.": 3955,
      "▁plat": 3956,
      "▁auto": 3957,
      "\\\"\"": 3958,
      "▁indic": 3959,
      "-g": 3960,
      "alled": 3961,
      "▁10.": 3962,
      "▁ign": 3963,
      "▁swe": 3964,
      "▁condol": 3965,
      "▁looked": 3966,
      "▁initial": 3967,
      "▁encourage": 3968,
      "▁transfer": 3969,
      "▁pion": 3970,
      "▁limit": 3971,
      "vind": 3972,
      "▁round": 3973,
      "▁sometimes": 3974,
      "▁hearing": 3975,
      "▁shows": 3976,
      "▁8.": 3977,
      "60": 3978,
      "▁kol": 3979,
      "ine,": 3980,
      "▁opin": 3981,
      "▁kapoor": 3982,
      "▁rejected": 3983,
      "ends": 3984,
      "▁actors": 3985,
      "▁september": 3986,
      "ray": 3987,
      "▁summ": 3988,
      "▁correct": 3989,
      "ortem": 3990,
      "▁books": 3991,
      "▁pictures": 3992,
      "ras": 3993,
      "▁gard": 3994,
      "▁rains": 3995,
      "▁facing": 3996,
      "▁commercial": 3997,
      "▁patients": 3998,
      "▁mentioned": 3999,
      "▁feet": 4000,
      "▁garlic": 4001,
      "▁returned": 4002,
      "▁politics.": 4003,
      "▁slow": 4004,
      "▁suz": 4005,
      "▁roles.": 4006,
      "▁quar": 4007,
      "?\"": 4008,
      "▁veget": 4009,
      "▁dark": 4010,
      "▁zealand": 4011,
      "▁washing": 4012,
      "▁amaz": 4013,
      "▁loved": 4014,
      "▁fair": 4015,
      "ensive": 4016,
      "▁moses": 4017,
      "ober": 4018,
      "▁strengthen": 4019,
      "▁reb": 4020,
      "▁western": 4021,
      "▁provision": 4022,
      "▁educational": 4023,
      "▁smok": 4024,
      "▁digital": 4025,
      "▁indeed,": 4026,
      "▁murd": 4027,
      "▁suffer": 4028,
      "▁propos": 4029,
      "▁mut": 4030,
      "ism,": 4031,
      "▁bit": 4032,
      "▁happened.": 4033,
      "▁newsp": 4034,
      "▁changed": 4035,
      "▁wise": 4036,
      "▁life,": 4037,
      "char": 4038,
      "▁adj": 4039,
      "▁carry": 4040,
      "▁servants": 4041,
      "▁simply": 4042,
      "▁sens": 4043,
      "ucle": 4044,
      "▁together.": 4045,
      "▁pad": 4046,
      "▁is,": 4047,
      "agar": 4048,
      "▁hebre": 4049,
      "▁brid": 4050,
      "▁2014": 4051,
      "▁elections.": 4052,
      "▁inside": 4053,
      "ology": 4054,
      "▁didn't": 4055,
      "▁moment": 4056,
      "▁alleged": 4057,
      "▁average": 4058,
      "▁clas": 4059,
      "▁imag": 4060,
      "▁suzuk": 4061,
      "▁burn": 4062,
      "▁soldiers": 4063,
      "▁sustain": 4064,
      "▁ive": 4065,
      "apuram": 4066,
      "▁introduced": 4067,
      "pan": 4068,
      "▁peoples": 4069,
      "▁3,": 4070,
      "▁schol": 4071,
      "▁export": 4072,
      "▁killed.": 4073,
      "▁thou": 4074,
      "▁equal": 4075,
      "▁heavens": 4076,
      "▁cultural": 4077,
      "hel": 4078,
      "ika": 4079,
      "▁aj": 4080,
      "ground": 4081,
      "▁fam": 4082,
      "▁capt": 4083,
      "▁newspap": 4084,
      "▁discipl": 4085,
      "▁fat": 4086,
      "▁reduce": 4087,
      "▁4:": 4088,
      "▁valu": 4089,
      "ments.": 4090,
      "▁undert": 4091,
      "▁worlds": 4092,
      "▁nath": 4093,
      "▁longer": 4094,
      "ervation": 4095,
      "▁complex": 4096,
      "▁imper": 4097,
      "▁now,": 4098,
      "▁female": 4099,
      "ate,": 4100,
      "10": 4101,
      "irmed": 4102,
      "▁parad": 4103,
      "▁selected": 4104,
      "▁constituenc": 4105,
      "akk": 4106,
      "▁humans": 4107,
      "▁eastern": 4108,
      "ypt": 4109,
      "▁trou": 4110,
      "▁type": 4111,
      "▁voice": 4112,
      "▁critical": 4113,
      "▁proud": 4114,
      "ient": 4115,
      "▁5:": 4116,
      "▁problems.": 4117,
      "▁i'm": 4118,
      "▁plans": 4119,
      "▁regional": 4120,
      "ique": 4121,
      "▁wild": 4122,
      "▁december": 4123,
      "▁dele": 4124,
      "▁conflic": 4125,
      "▁soft": 4126,
      "ised.": 4127,
      "▁immediately.": 4128,
      "▁jew": 4129,
      "▁warm": 4130,
      "▁nucle": 4131,
      "▁chaired": 4132,
      "▁august": 4133,
      "▁pension": 4134,
      "ions.": 4135,
      "▁log": 4136,
      "kh": 4137,
      "▁1:": 4138,
      "▁merc": 4139,
      "oted": 4140,
      "▁women.": 4141,
      "road": 4142,
      "dy": 4143,
      "ots": 4144,
      "fully": 4145,
      "▁surpris": 4146,
      "▁bound": 4147,
      "▁sched": 4148,
      "▁testing": 4149,
      "▁earth,": 4150,
      "▁appropri": 4151,
      "▁chemical": 4152,
      "akumar": 4153,
      "jun": 4154,
      "▁bush": 4155,
      "▁hell": 4156,
      "▁meaning": 4157,
      "▁events": 4158,
      "▁29": 4159,
      "▁cook": 4160,
      "dra": 4161,
      "▁conditions": 4162,
      "▁nearby": 4163,
      "▁egypt": 4164,
      "▁boys": 4165,
      "▁learning": 4166,
      "▁investigation.": 4167,
      "used.": 4168,
      "▁biggest": 4169,
      "▁bengaluru": 4170,
      "raid": 4171,
      "▁perfect": 4172,
      "hern": 4173,
      "▁monitor": 4174,
      "rep": 4175,
      "▁myself": 4176,
      "▁crow": 4177,
      "rig": 4178,
      "▁ah": 4179,
      "▁pradesh,": 4180,
      "▁subst": 4181,
      "▁potential": 4182,
      "▁rainfall": 4183,
      "▁suzuki": 4184,
      "▁october": 4185,
      "▁opened": 4186,
      "▁generation": 4187,
      "▁recorded": 4188,
      "▁occup": 4189,
      "▁web": 4190,
      "▁ly": 4191,
      "▁measure": 4192,
      "▁then.": 4193,
      "▁arun": 4194,
      "▁separate": 4195,
      "▁reading": 4196,
      "uch": 4197,
      "onda": 4198,
      "ivity": 4199,
      "▁shifted": 4200,
      "▁muk": 4201,
      "▁str": 4202,
      "▁2015": 4203,
      "imbat": 4204,
      "▁amend": 4205,
      "▁join": 4206,
      "▁believed": 4207,
      "▁weap": 4208,
      "▁wicked": 4209,
      "▁wealth": 4210,
      "▁webs": 4211,
      "▁organization": 4212,
      "right": 4213,
      "▁afraid": 4214,
      "▁status": 4215,
      "▁sudden": 4216,
      "rated": 4217,
      "▁taught": 4218,
      "▁nay": 4219,
      "▁dut": 4220,
      "izing": 4221,
      "▁wid": 4222,
      "▁elder": 4223,
      "▁effective": 4224,
      "ai,": 4225,
      "▁window": 4226,
      "eness": 4227,
      "▁survey": 4228,
      "'ble": 4229,
      "ress,": 4230,
      "▁9.": 4231,
      "▁pud": 4232,
      "cast": 4233,
      "hen": 4234,
      "▁greek": 4235,
      "▁prover": 4236,
      "▁cry": 4237,
      "▁shown": 4238,
      "mar": 4239,
      "▁upd": 4240,
      "▁learned": 4241,
      "▁guard": 4242,
      "oned": 4243,
      "▁wants": 4244,
      "▁circum": 4245,
      "▁serving": 4246,
      "▁crime": 4247,
      "▁coimbat": 4248,
      "▁drinking": 4249,
      "▁hon'ble": 4250,
      "icient": 4251,
      "▁afghanistan": 4252,
      "▁alleg": 4253,
      "ateral": 4254,
      "▁master": 4255,
      "▁present.": 4256,
      "▁goal": 4257,
      "▁institution": 4258,
      "▁ruling": 4259,
      "back": 4260,
      "▁32": 4261,
      "io": 4262,
      "ammad": 4263,
      "▁sugar": 4264,
      "▁awards": 4265,
      "▁nove": 4266,
      "▁rapid": 4267,
      "▁normal": 4268,
      "▁donald": 4269,
      "▁running": 4270,
      "▁existing": 4271,
      "▁seeking": 4272,
      "le,": 4273,
      "▁signed": 4274,
      "▁\"\"\"we": 4275,
      "▁conclud": 4276,
      "▁sacrif": 4277,
      "▁bag": 4278,
      "▁active": 4279,
      "▁lived": 4280,
      "▁execut": 4281,
      "▁prayer": 4282,
      "▁northern": 4283,
      "▁november": 4284,
      "▁body.": 4285,
      "▁leadership": 4286,
      "▁performance": 4287,
      "ware": 4288,
      "▁abra": 4289,
      "▁powerful": 4290,
      "cul": 4291,
      "ces.": 4292,
      "▁thanks": 4293,
      "▁eth": 4294,
      "▁pu": 4295,
      "uke": 4296,
      "▁particularly": 4297,
      "▁areas.": 4298,
      "▁tear": 4299,
      "▁mohan": 4300,
      "icit": 4301,
      "▁benefici": 4302,
      "▁scriptures": 4303,
      "yond": 4304,
      "▁not.": 4305,
      "▁disaster": 4306,
      "▁indians": 4307,
      "▁wat": 4308,
      "▁acting": 4309,
      "▁nom": 4310,
      "▁points": 4311,
      "▁year,": 4312,
      "▁july": 4313,
      "eds": 4314,
      "▁champ": 4315,
      "dict": 4316,
      "▁remained": 4317,
      "i)": 4318,
      "▁bond": 4319,
      "▁powder": 4320,
      "▁products": 4321,
      "ato": 4322,
      "ays": 4323,
      "▁causes": 4324,
      "▁consult": 4325,
      "▁islam": 4326,
      "arters": 4327,
      "-spe": 4328,
      "▁controvers": 4329,
      "▁warning": 4330,
      "▁hundreds": 4331,
      "ously": 4332,
      "▁beyond": 4333,
      "▁january": 4334,
      "▁teas": 4335,
      "▁assistant": 4336,
      "nath": 4337,
      "▁back.": 4338,
      "▁smart": 4339,
      "▁obtain": 4340,
      "▁mid": 4341,
      "▁purch": 4342,
      "▁fact,": 4343,
      "▁isaiah": 4344,
      "▁bomb": 4345,
      "▁worldw": 4346,
      "ed:": 4347,
      "▁forgiv": 4348,
      "▁ship": 4349,
      "▁vision": 4350,
      "▁degree": 4351,
      "▁month.": 4352,
      "▁resources": 4353,
      "ij": 4354,
      "m.": 4355,
      "▁deliver": 4356,
      "▁appl": 4357,
      "▁error": 4358,
      "raj": 4359,
      "▁government,": 4360,
      "▁moreover": 4361,
      "▁sold": 4362,
      "▁remark": 4363,
      "gs": 4364,
      "▁item": 4365,
      "▁scheduled": 4366,
      "▁district.": 4367,
      "▁healthy": 4368,
      "ane": 4369,
      "▁shankar": 4370,
      "▁operations": 4371,
      "▁though,": 4372,
      "inate": 4373,
      "▁fix": 4374,
      "▁rupe": 4375,
      "▁victory": 4376,
      "ta": 4377,
      "▁angel": 4378,
      "-st": 4379,
      "ody.": 4380,
      "▁gather": 4381,
      "▁constant": 4382,
      "▁rob": 4383,
      "▁tata": 4384,
      "▁197": 4385,
      "▁know.": 4386,
      "▁touch": 4387,
      "▁scored": 4388,
      "▁handed": 4389,
      "▁protests": 4390,
      "▁guar": 4391,
      "ares": 4392,
      "▁mahindra": 4393,
      "200": 4394,
      "▁fra": 4395,
      "▁kal": 4396,
      "▁emph": 4397,
      "▁taluk": 4398,
      "▁range": 4399,
      "▁examin": 4400,
      "ories": 4401,
      "▁gram": 4402,
      "s.\"": 4403,
      "adav": 4404,
      "▁tweet": 4405,
      "▁mas": 4406,
      "▁june": 4407,
      "▁continues": 4408,
      "thern": 4409,
      "▁commissioner": 4410,
      "▁sund": 4411,
      "▁foundation": 4412,
      "do": 4413,
      "▁operation": 4414,
      "▁vik": 4415,
      "▁waiting": 4416,
      "-day": 4417,
      "▁conducting": 4418,
      "▁rohit": 4419,
      "▁thinking": 4420,
      "▁frequ": 4421,
      ".'": 4422,
      "aking": 4423,
      "▁sales": 4424,
      "▁distribution": 4425,
      "▁agreed": 4426,
      "▁story.": 4427,
      "▁fourth": 4428,
      "▁extremely": 4429,
      "ence,": 4430,
      "▁corinth": 4431,
      "▁visited": 4432,
      "▁wasnt": 4433,
      "▁nuclear": 4434,
      "▁track": 4435,
      "▁studying": 4436,
      "▁rajasthan": 4437,
      "▁dead.": 4438,
      "▁languages": 4439,
      "▁stopped": 4440,
      "anced": 4441,
      "▁micro": 4442,
      "▁confirmed": 4443,
      "▁rules": 4444,
      "▁bul": 4445,
      "▁importance": 4446,
      "▁instru": 4447,
      "▁technical": 4448,
      "▁convers": 4449,
      "▁radi": 4450,
      "▁ging": 4451,
      "▁promote": 4452,
      "ented": 4453,
      "▁produces": 4454,
      "▁difference": 4455,
      "▁true.": 4456,
      "▁extended": 4457,
      "▁gang": 4458,
      "▁202": 4459,
      "▁division": 4460,
      "▁appropriate": 4461,
      "▁specific": 4462,
      "▁seth": 4463,
      "▁exercise": 4464,
      "▁pick": 4465,
      "▁bail": 4466,
      "ilateral": 4467,
      "▁demanded": 4468,
      "▁revelation": 4469,
      "▁collabor": 4470,
      "▁southern": 4471,
      "▁anyone.": 4472,
      "▁phase": 4473,
      "▁platform": 4474,
      "▁gov": 4475,
      "▁194": 4476,
      "▁literature": 4477,
      "▁door": 4478,
      "▁detained": 4479,
      "▁mr.": 4480,
      "▁uk": 4481,
      "aging": 4482,
      "pr": 4483,
      "▁presented": 4484,
      "▁school.": 4485,
      "▁lower": 4486,
      "-up": 4487,
      "▁regul": 4488,
      "▁border": 4489,
      "▁baby": 4490,
      "▁sanctioned": 4491,
      "yan": 4492,
      "▁+": 4493,
      "▁laws": 4494,
      "▁injuries": 4495,
      "▁:": 4496,
      "▁transform": 4497,
      "▁principal": 4498,
      "▁defin": 4499,
      "▁domestic": 4500,
      "▁truly": 4501,
      "▁seems": 4502,
      "▁becomes": 4503,
      "▁6:": 4504,
      "aya": 4505,
      "abh": 4506,
      "round": 4507,
      "▁treated": 4508,
      "▁also,": 4509,
      "▁fishermen": 4510,
      "hammad": 4511,
      "▁external": 4512,
      "▁internet": 4513,
      "▁respective": 4514,
      "▁pandemic": 4515,
      "verse": 4516,
      "▁belief": 4517,
      "▁deaths": 4518,
      "▁willing": 4519,
      "▁seats.": 4520,
      "▁cultiv": 4521,
      "hered": 4522,
      "amy": 4523,
      "thy": 4524,
      "inder": 4525,
      "ae": 4526,
      "▁solar": 4527,
      "craft": 4528,
      "▁allah,": 4529,
      "▁creation": 4530,
      "pper": 4531,
      "▁facility": 4532,
      "▁stalin": 4533,
      "▁tree": 4534,
      "▁suc": 4535,
      "▁probe": 4536,
      "▁come.": 4537,
      "▁identified": 4538,
      "▁pregn": 4539,
      "▁thiruv": 4540,
      "▁citizenship": 4541,
      "▁behav": 4542,
      "▁gun": 4543,
      "▁haas": 4544,
      "▁400": 4545,
      "upathi": 4546,
      "▁sport": 4547,
      "▁kil": 4548,
      "▁france": 4549,
      "ic.": 4550,
      "▁meetings": 4551,
      "▁and,": 4552,
      "▁keeping": 4553,
      "▁challenge": 4554,
      "▁stock": 4555,
      "▁overse": 4556,
      "▁surf": 4557,
      "▁showed": 4558,
      "▁summit": 4559,
      "▁charges": 4560,
      "▁disbelie": 4561,
      "▁happens": 4562,
      "▁virt": 4563,
      "▁equip": 4564,
      "▁discussed": 4565,
      "-n": 4566,
      "ses": 4567,
      "▁ox": 4568,
      "▁numbers": 4569,
      "▁surpr": 4570,
      "aches": 4571,
      "▁servant": 4572,
      "▁90": 4573,
      "ellig": 4574,
      "▁highlight": 4575,
      "▁exact": 4576,
      "▁extra": 4577,
      "▁usually": 4578,
      "▁select": 4579,
      "▁altern": 4580,
      "ball": 4581,
      "using": 4582,
      "▁cra": 4583,
      "▁cath": 4584,
      "▁course,": 4585,
      "▁rock": 4586,
      "▁gst": 4587,
      "▁neighbour": 4588,
      "▁headqu": 4589,
      "▁happen.": 4590,
      "▁proposed": 4591,
      "acy": 4592,
      "▁gal": 4593,
      "▁programmes": 4594,
      "▁perman": 4595,
      "▁sonia": 4596,
      "▁chann": 4597,
      "▁wrong.": 4598,
      "p.": 4599,
      "▁illust": 4600,
      "▁rice": 4601,
      "▁bann": 4602,
      "phone": 4603,
      "▁onion": 4604,
      "▁appeared": 4605,
      "ary,": 4606,
      "▁fit": 4607,
      "▁fif": 4608,
      "▁pras": 4609,
      "▁resurrection": 4610,
      "▁jose": 4611,
      "▁bjp.": 4612,
      "▁approval": 4613,
      "ay,": 4614,
      "▁struggle": 4615,
      "▁withdra": 4616,
      "▁rescu": 4617,
      "no": 4618,
      "▁happy.": 4619,
      "▁deploy": 4620,
      "ry,": 4621,
      "▁emphas": 4622,
      "▁fle": 4623,
      "▁all,": 4624,
      "▁hill": 4625,
      "▁jos": 4626,
      "▁faced": 4627,
      "▁progress.": 4628,
      "▁hary": 4629,
      "udd": 4630,
      "▁mere": 4631,
      "▁hearts": 4632,
      "▁hours": 4633,
      "ayan": 4634,
      "▁rat": 4635,
      "▁wedd": 4636,
      "▁municip": 4637,
      "▁aspect": 4638,
      "▁health.": 4639,
      "iling": 4640,
      "▁expend": 4641,
      "▁pie": 4642,
      "▁terrorist": 4643,
      "▁gam": 4644,
      "itable": 4645,
      "▁manif": 4646,
      "▁promised": 4647,
      "▁royal": 4648,
      "▁partnership": 4649,
      "▁terms": 4650,
      "▁spent": 4651,
      "▁computer": 4652,
      "▁posted": 4653,
      "▁lands": 4654,
      "▁roman": 4655,
      "▁lie": 4656,
      "▁privile": 4657,
      "▁names": 4658,
      "▁electron": 4659,
      "▁well,": 4660,
      "▁happening": 4661,
      "▁elders": 4662,
      "▁all-": 4663,
      "▁33": 4664,
      "▁friends.": 4665,
      "99": 4666,
      "ooth": 4667,
      "pher": 4668,
      "▁choose": 4669,
      "▁unable": 4670,
      "▁broke": 4671,
      "▁songs": 4672,
      "ally.": 4673,
      "▁75": 4674,
      "▁facil": 4675,
      "▁sick": 4676,
      "arily": 4677,
      "▁session": 4678,
      "▁remains": 4679,
      "▁singh,": 4680,
      "▁lib": 4681,
      "▁12.": 4682,
      "▁madhya": 4683,
      "▁proverbs": 4684,
      "▁rej": 4685,
      "▁symb": 4686,
      "▁'s": 4687,
      "▁minimum": 4688,
      "▁intellig": 4689,
      "▁setting": 4690,
      "▁madurai": 4691,
      "▁disciples": 4692,
      "▁becoming": 4693,
      "▁bear": 4694,
      "▁night.": 4695,
      "▁spend": 4696,
      "equ": 4697,
      "▁mish": 4698,
      "▁spoken": 4699,
      "▁kolk": 4700,
      "k.": 4701,
      "▁compens": 4702,
      "▁industry.": 4703,
      "▁awareness": 4704,
      "▁seeing": 4705,
      "▁dismiss": 4706,
      "▁deli": 4707,
      "▁greet": 4708,
      "▁supported": 4709,
      "c)": 4710,
      "▁suresh": 4711,
      "▁district,": 4712,
      "lying": 4713,
      "▁hair": 4714,
      "▁facebook": 4715,
      "kash": 4716,
      "▁telang": 4717,
      "▁legislative": 4718,
      "▁notice": 4719,
      "▁yadav": 4720,
      "▁consequ": 4721,
      "▁liber": 4722,
      "▁vish": 4723,
      "▁strik": 4724,
      "▁james": 4725,
      "▁change.": 4726,
      "▁shut": 4727,
      "▁television": 4728,
      "▁arrived": 4729,
      "▁insurance": 4730,
      "▁shop": 4731,
      "▁can't": 4732,
      "▁them?": 4733,
      "▁children,": 4734,
      "▁favour": 4735,
      "▁45": 4736,
      "▁dedicated": 4737,
      "▁developing": 4738,
      "▁hand,": 4739,
      "ext": 4740,
      "▁din": 4741,
      "dia": 4742,
      "erson": 4743,
      "▁country,": 4744,
      "▁kov": 4745,
      "▁compared": 4746,
      "▁placed": 4747,
      "▁debut": 4748,
      "ini": 4749,
      "▁rajap": 4750,
      "▁first.": 4751,
      "▁accompan": 4752,
      "▁motorcycle": 4753,
      "iture": 4754,
      "▁feb": 4755,
      "▁flag": 4756,
      "▁collector": 4757,
      "▁planning": 4758,
      "▁railways": 4759,
      "▁idea": 4760,
      "last": 4761,
      "▁latest": 4762,
      "▁climate": 4763,
      "▁feed": 4764,
      "▁hurt": 4765,
      "▁kn": 4766,
      "▁sym": 4767,
      "▁signs": 4768,
      "▁labor": 4769,
      "▁wrote:": 4770,
      "▁11.": 4771,
      "▁flu": 4772,
      "▁sethupathi": 4773,
      "▁circumst": 4774,
      "▁s.": 4775,
      "at,": 4776,
      "▁selection": 4777,
      "▁off.": 4778,
      "▁branch": 4779,
      "▁fighting": 4780,
      "▁subsequently,": 4781,
      "▁bri": 4782,
      "▁cancer": 4783,
      "▁delhi,": 4784,
      "▁...": 4785,
      "▁upcoming": 4786,
      "▁possess": 4787,
      "▁reportedly": 4788,
      "▁described": 4789,
      "▁abroad": 4790,
      "his": 4791,
      "▁aad": 4792,
      "▁city.": 4793,
      "▁14.": 4794,
      "▁vent": 4795,
      "▁beginning": 4796,
      "▁happiness": 4797,
      "▁stage": 4798,
      "▁scientific": 4799,
      "▁moreover,": 4800,
      "▁man.": 4801,
      "▁b.": 4802,
      "▁rid": 4803,
      "▁table": 4804,
      "▁remaining": 4805,
      "▁gift": 4806,
      "▁reaction": 4807,
      "▁vital": 4808,
      "▁more.": 4809,
      "▁engineering": 4810,
      "my": 4811,
      "▁sought": 4812,
      "▁reflect": 4813,
      "▁dial": 4814,
      "▁love.": 4815,
      "▁tribal": 4816,
      "▁matters": 4817,
      "▁ravi": 4818,
      "▁dhan": 4819,
      "▁notification": 4820,
      "▁fram": 4821,
      "ings.": 4822,
      "▁opposed": 4823,
      "▁196": 4824,
      "▁mind.": 4825,
      "ities.": 4826,
      "ili": 4827,
      "▁organisation": 4828,
      "ague": 4829,
      "▁(r": 4830,
      "▁law.": 4831,
      "▁situation.": 4832,
      "hens": 4833,
      "▁popul": 4834,
      "▁195": 4835,
      "▁hyund": 4836,
      "▁vote": 4837,
      "▁practice": 4838,
      "▁surround": 4839,
      "isions": 4840,
      "▁promise": 4841,
      "▁resulted": 4842,
      "▁patient": 4843,
      "▁different.": 4844,
      "▁mel": 4845,
      "▁cat": 4846,
      "▁mistak": 4847,
      "▁havent": 4848,
      "▁decisions": 4849,
      "▁sty": 4850,
      "ties": 4851,
      "▁sister": 4852,
      "▁u.s.": 4853,
      "wered": 4854,
      "▁whos": 4855,
      "▁habit": 4856,
      "▁task": 4857,
      "▁sand": 4858,
      "▁(w": 4859,
      "▁receiving": 4860,
      "▁eye": 4861,
      "-h": 4862,
      "mohan": 4863,
      "rew": 4864,
      "▁feature": 4865,
      "▁prec": 4866,
      "▁counter": 4867,
      "▁chandra": 4868,
      "▁future.": 4869,
      "▁released.": 4870,
      "▁fee": 4871,
      "▁sett": 4872,
      "▁4,": 4873,
      "poon": 4874,
      "▁questions.": 4875,
      "▁colleges": 4876,
      "▁honda": 4877,
      "▁\"he": 4878,
      "▁boost": 4879,
      "▁joseph": 4880,
      "▁anointed": 4881,
      "▁welcom": 4882,
      "▁communication": 4883,
      "▁headed": 4884,
      "ashed": 4885,
      "▁--": 4886,
      "▁sid": 4887,
      "▁(g": 4888,
      "▁delay": 4889,
      "▁hung": 4890,
      "▁russia": 4891,
      "▁presence": 4892,
      "▁morning": 4893,
      "-20": 4894,
      "▁asia": 4895,
      "▁multiple": 4896,
      "▁'the": 4897,
      "▁dro": 4898,
      "ce.": 4899,
      "▁ka": 4900,
      "▁lak": 4901,
      "▁resist": 4902,
      "▁manufacturing": 4903,
      "▁hostel,": 4904,
      "▁oce": 4905,
      "▁produc": 4906,
      "▁liqu": 4907,
      "▁hyundai": 4908,
      "▁manifest": 4909,
      "lig": 4910,
      "▁site": 4911,
      "▁minister's": 4912,
      "▁annivers": 4913,
      "▁kannada": 4914,
      "▁no,": 4915,
      "▁cove": 4916,
      "▁directly": 4917,
      "▁peak": 4918,
      "▁ali": 4919,
      "▁color": 4920,
      "▁expand": 4921,
      "▁prepar": 4922,
      "▁individuals": 4923,
      "▁yoga": 4924,
      "▁image": 4925,
      "off": 4926,
      "▁divine": 4927,
      "▁same.": 4928,
      "▁hind": 4929,
      "▁accounts": 4930,
      "▁victim": 4931,
      "▁initiative": 4932,
      "ume": 4933,
      "▁advis": 4934,
      "▁studies": 4935,
      "▁backward": 4936,
      "▁attacks": 4937,
      "gress": 4938,
      "▁dram": 4939,
      "▁mig": 4940,
      "▁cinema.": 4941,
      "▁function.": 4942,
      "rim": 4943,
      "▁right.": 4944,
      "▁friends,": 4945,
      "▁traditional": 4946,
      "▁damage": 4947,
      "▁abraham": 4948,
      "▁action.": 4949,
      "▁occurred": 4950,
      "▁memorial": 4951,
      "▁organis": 4952,
      "▁glor": 4953,
      "▁wickets": 4954,
      "▁document": 4955,
      "▁dwell": 4956,
      "zz": 4957,
      "▁independent": 4958,
      "▁modi.": 4959,
      "▁associated": 4960,
      "▁lies": 4961,
      "▁bowl": 4962,
      "▁calls": 4963,
      "▁far,": 4964,
      "avan": 4965,
      "▁undergoing": 4966,
      "▁tb": 4967,
      "▁decad": 4968,
      "▁mechan": 4969,
      "set": 4970,
      "▁hyd": 4971,
      "▁chance": 4972,
      "▁other.": 4973,
      "▁mental": 4974,
      "oring": 4975,
      "▁convention": 4976,
      "▁invited": 4977,
      "▁compl": 4978,
      "xic": 4979,
      "▁blast": 4980,
      "▁examination": 4981,
      "▁greatest": 4982,
      "▁battle": 4983,
      "▁prakash": 4984,
      "▁dear": 4985,
      "▁praise": 4986,
      "▁proc": 4987,
      "you": 4988,
      "anda": 4989,
      "selves.": 4990,
      "▁welcome": 4991,
      "▁oly": 4992,
      "▁lose": 4993,
      "▁funds": 4994,
      "▁subsequently": 4995,
      "▁chennai,": 4996,
      "▁homes": 4997,
      "▁states,": 4998,
      "▁winning": 4999,
      "▁dispute": 5000,
      "▁administrative": 5001,
      "▁trains": 5002,
      "▁celebrated": 5003,
      "▁base": 5004,
      "▁entered": 5005,
      "▁der": 5006,
      "▁exchange": 5007,
      "▁strict": 5008,
      "▁forever": 5009,
      "▁urged": 5010,
      "▁caught": 5011,
      "▁bib": 5012,
      "▁taken.": 5013,
      "▁decision.": 5014,
      "▁olymp": 5015,
      "▁alc": 5016,
      "that": 5017,
      "▁laid": 5018,
      "▁job.": 5019,
      "▁center": 5020,
      "▁delight": 5021,
      "▁citizen": 5022,
      "▁loyal": 5023,
      "▁industries": 5024,
      "▁janata": 5025,
      "▁jobs": 5026,
      "▁unique": 5027,
      "▁duty": 5028,
      "▁noted": 5029,
      "▁screen": 5030,
      "▁functioning": 5031,
      "iction": 5032,
      "▁russian": 5033,
      "vest": 5034,
      "▁stress": 5035,
      "▁leng": 5036,
      "▁electricity": 5037,
      "▁fans.": 5038,
      "▁pursu": 5039,
      "▁awarded": 5040,
      "▁highly": 5041,
      "▁say?": 5042,
      "room": 5043,
      "▁vitamin": 5044,
      "▁inquiry": 5045,
      "▁brok": 5046,
      "▁name.": 5047,
      "▁lot.": 5048,
      "▁tourism": 5049,
      "▁honour": 5050,
      "rene": 5051,
      "▁crop": 5052,
      "▁heavenly": 5053,
      "▁villages": 5054,
      "rer": 5055,
      "▁tiruv": 5056,
      "uff": 5057,
      "▁telugu,": 5058,
      "tt": 5059,
      "▁(a)": 5060,
      "▁37": 5061,
      "▁unp": 5062,
      "▁lord.": 5063,
      "▁bangal": 5064,
      "▁scientists": 5065,
      "oured": 5066,
      "▁stone": 5067,
      "um,": 5068,
      "▁brand": 5069,
      "▁courage": 5070,
      "▁interrog": 5071,
      "▁colour:": 5072,
      "▁origin": 5073,
      "▁finally": 5074,
      "▁double": 5075,
      "▁similarly,": 5076,
      "▁opening": 5077,
      "▁strike": 5078,
      "▁lockdown": 5079,
      "▁silver": 5080,
      "▁ability": 5081,
      "▁unl": 5082,
      "▁challenges": 5083,
      "▁drive": 5084,
      "▁rajya": 5085,
      "▁socialist": 5086,
      "ena": 5087,
      "ellow": 5088,
      "▁police,": 5089,
      "rant": 5090,
      "▁prominent": 5091,
      "▁alcoh": 5092,
      "une": 5093,
      "▁remove": 5094,
      "-speed": 5095,
      "▁corinthians": 5096,
      "▁success.": 5097,
      "▁discussion": 5098,
      "la": 5099,
      "rd": 5100,
      "wise": 5101,
      "▁toll": 5102,
      "-0": 5103,
      "▁agency": 5104,
      "▁muse": 5105,
      "▁tast": 5106,
      "▁earn": 5107,
      "▁criminal": 5108,
      "imately": 5109,
      "resp": 5110,
      "▁doll": 5111,
      "▁clearly": 5112,
      "▁games": 5113,
      "▁says.": 5114,
      "▁collection": 5115,
      "▁13.": 5116,
      "ms": 5117,
      "▁toss": 5118,
      "▁prove": 5119,
      "▁sympt": 5120,
      "▁sides": 5121,
      "▁sort": 5122,
      "je": 5123,
      "▁photos": 5124,
      "▁property": 5125,
      "meric": 5126,
      "▁sush": 5127,
      "▁cars": 5128,
      "80": 5129,
      "ze": 5130,
      "▁earthqu": 5131,
      "▁constituency": 5132,
      "ils": 5133,
      "▁manmohan": 5134,
      "▁timoth": 5135,
      "▁background": 5136,
      "▁ms": 5137,
      "▁krishn": 5138,
      "▁offering": 5139,
      "▁aircraft": 5140,
      "▁non-": 5141,
      "▁granted": 5142,
      "▁mart": 5143,
      "ams": 5144,
      "▁spokes": 5145,
      "▁recommend": 5146,
      "▁trees": 5147,
      "▁%1": 5148,
      "▁refuge": 5149,
      "▁temperature": 5150,
      "gra": 5151,
      "▁moving": 5152,
      "les,": 5153,
      "▁numerous": 5154,
      "▁15.": 5155,
      "▁braz": 5156,
      "▁8,": 5157,
      "▁suv": 5158,
      "▁forms": 5159,
      "overy": 5160,
      "enant": 5161,
      "▁sale": 5162,
      "▁trial": 5163,
      "▁turmeric": 5164,
      "▁goods": 5165,
      "▁pate": 5166,
      "▁az": 5167,
      "▁proceed": 5168,
      "▁trave": 5169,
      "▁van": 5170,
      "▁geor": 5171,
      "▁accompl": 5172,
      "▁decide": 5173,
      "▁catholic": 5174,
      "▁suppl": 5175,
      "▁father,": 5176,
      "▁war.": 5177,
      "▁profit": 5178,
      "▁isol": 5179,
      "▁punishment": 5180,
      "▁febru": 5181,
      "ates.": 5182,
      "▁cold": 5183,
      "▁tool": 5184,
      "▁america": 5185,
      "▁leads": 5186,
      "\"\",": 5187,
      "▁contribution": 5188,
      "is.": 5189,
      "▁awake": 5190,
      "▁shap": 5191,
      "▁mlas": 5192,
      "▁incl": 5193,
      "▁collect": 5194,
      "▁influence": 5195,
      "▁answered": 5196,
      "▁shocked": 5197,
      "enty": 5198,
      "▁context": 5199,
      "▁assault": 5200,
      "▁pros": 5201,
      "▁mainten": 5202,
      "▁mam": 5203,
      "▁standing": 5204,
      "▁verdict": 5205,
      "▁truck": 5206,
      "▁rajnath": 5207,
      "▁organized": 5208,
      "▁journey": 5209,
      "hem": 5210,
      "▁inspired": 5211,
      "▁it!": 5212,
      "▁further,": 5213,
      "▁advant": 5214,
      "▁sight": 5215,
      "▁confident": 5216,
      "▁renew": 5217,
      "▁power.": 5218,
      "▁week.": 5219,
      "▁compos": 5220,
      "dp": 5221,
      "▁thoughts": 5222,
      "▁destruction": 5223,
      "▁spl": 5224,
      "19": 5225,
      "▁height": 5226,
      "▁enhan": 5227,
      "arya": 5228,
      "▁coord": 5229,
      "▁guidance": 5230,
      "▁print": 5231,
      "▁compound": 5232,
      "▁writing": 5233,
      "▁begun": 5234,
      "▁integrated": 5235,
      "cles": 5236,
      "ula": 5237,
      "▁son.": 5238,
      "▁subsidy": 5239,
      "▁dy": 5240,
      "akar": 5241,
      "iting": 5242,
      "hing.": 5243,
      "▁birthday": 5244,
      "▁sheep": 5245,
      "▁supporting": 5246,
      "▁agenc": 5247,
      "▁mant": 5248,
      "▁ok": 5249,
      "▁times,": 5250,
      "ti": 5251,
      "▁sell": 5252,
      "ue.": 5253,
      "▁britain": 5254,
      "▁)": 5255,
      "at.": 5256,
      "crib": 5257,
      "astic": 5258,
      "▁son,": 5259,
      "▁victims": 5260,
      "▁over.": 5261,
      "▁hospitals": 5262,
      "▁farmers.": 5263,
      "▁motiv": 5264,
      "▁washington": 5265,
      "▁food.": 5266,
      "▁250": 5267,
      "da": 5268,
      "aced": 5269,
      "▁virus": 5270,
      "▁animals": 5271,
      "▁appoint": 5272,
      "▁vacc": 5273,
      "▁treas": 5274,
      "▁mouth": 5275,
      "employ": 5276,
      "▁fles": 5277,
      "athy": 5278,
      "▁post-m": 5279,
      "▁entertain": 5280,
      "▁trip": 5281,
      "▁depos": 5282,
      "▁destroyed": 5283,
      "▁mr": 5284,
      "▁luke": 5285,
      "aji": 5286,
      "▁tests": 5287,
      "▁watcht": 5288,
      "▁compon": 5289,
      "▁say.": 5290,
      "▁classes": 5291,
      "▁youths": 5292,
      "shi": 5293,
      "▁in.": 5294,
      "▁everything.": 5295,
      "▁notes": 5296,
      "▁consist": 5297,
      "▁approves": 5298,
      "▁penal": 5299,
      "▁nirm": 5300,
      "▁powd": 5301,
      "▁ended": 5302,
      "▁hence": 5303,
      "▁municipal": 5304,
      "▁society.": 5305,
      "▁contains": 5306,
      "▁waste": 5307,
      "▁help.": 5308,
      "▁proved": 5309,
      "▁worry": 5310,
      "▁bible.": 5311,
      "▁16.": 5312,
      "iqu": 5313,
      "▁sav": 5314,
      "▁mann": 5315,
      "less,": 5316,
      "ite.": 5317,
      "▁scholars": 5318,
      "▁crowd": 5319,
      "known": 5320,
      "▁mercy": 5321,
      "▁chap": 5322,
      "▁players": 5323,
      "▁sisters": 5324,
      "▁asian": 5325,
      "▁sith": 5326,
      "▁enable": 5327,
      "▁co-op": 5328,
      "ga": 5329,
      "iet": 5330,
      "iya": 5331,
      "▁fuel": 5332,
      "▁tow": 5333,
      "▁!": 5334,
      "▁witnesses.": 5335,
      "▁interests": 5336,
      "▁helping": 5337,
      "▁important.": 5338,
      "rel": 5339,
      "min": 5340,
      "ors.": 5341,
      "▁kg": 5342,
      "/-": 5343,
      "agn": 5344,
      "▁examples": 5345,
      "▁permanent": 5346,
      "▁housing": 5347,
      "▁length": 5348,
      "ized.": 5349,
      "▁executive": 5350,
      "▁anx": 5351,
      "▁meant": 5352,
      "▁manufacture": 5353,
      "▁bilateral": 5354,
      "▁dub": 5355,
      "▁colom": 5356,
      "▁interested": 5357,
      "▁suspect": 5358,
      "▁expenditure": 5359,
      "▁ourselves": 5360,
      "claim": 5361,
      "▁(l": 5362,
      "och": 5363,
      "▁act.": 5364,
      "▁communic": 5365,
      "ous,": 5366,
      "▁nab": 5367,
      "▁prosper": 5368,
      "ada,": 5369,
      "hibition": 5370,
      "▁objective": 5371,
      "▁species": 5372,
      "▁adult": 5373,
      "▁skin": 5374,
      "▁standards": 5375,
      "rences": 5376,
      "▁reply": 5377,
      "▁way,": 5378,
      "▁naid": 5379,
      "▁\"s": 5380,
      "alf": 5381,
      "▁ec": 5382,
      "▁solom": 5383,
      "▁detailed": 5384,
      "▁strongly": 5385,
      "▁wonderful": 5386,
      "▁nine": 5387,
      "▁jews": 5388,
      "▁everyone.": 5389,
      "reprene": 5390,
      "▁eating": 5391,
      "ury": 5392,
      "cont": 5393,
      "▁advice": 5394,
      "▁judgment": 5395,
      "iment": 5396,
      "▁raman": 5397,
      "▁fert": 5398,
      "orter": 5399,
      "?\"\"\"": 5400,
      "▁stood": 5401,
      "but": 5402,
      "▁number:": 5403,
      "▁systems": 5404,
      "▁emergency": 5405,
      "▁ton": 5406,
      "rap": 5407,
      "▁confirm": 5408,
      "▁hindi,": 5409,
      "▁permission": 5410,
      "▁sharing": 5411,
      "▁everlast": 5412,
      "▁deleg": 5413,
      "▁kovind": 5414,
      "▁go.": 5415,
      "▁bed": 5416,
      "▁vell": 5417,
      "▁sitharam": 5418,
      "▁lives.": 5419,
      "▁made.": 5420,
      "▁levels": 5421,
      "rises": 5422,
      "▁concept": 5423,
      "▁cancell": 5424,
      "▁symbol": 5425,
      "▁wash": 5426,
      "▁casual": 5427,
      "▁famous": 5428,
      "ja": 5429,
      "iced": 5430,
      "▁submitted": 5431,
      "▁favor": 5432,
      "▁singap": 5433,
      "▁wound": 5434,
      "▁scared": 5435,
      "▁sacrifice": 5436,
      "▁prasad": 5437,
      "▁rajiv": 5438,
      "ster": 5439,
      "▁prize": 5440,
      "▁title": 5441,
      "▁covered": 5442,
      "▁concl": 5443,
      "▁trig": 5444,
      "u.": 5445,
      "iant": 5446,
      "ester": 5447,
      "▁organised": 5448,
      "▁ital": 5449,
      "▁entreprene": 5450,
      "▁runs.": 5451,
      "▁tank": 5452,
      "▁parents.": 5453,
      "▁post-mortem": 5454,
      "▁36": 5455,
      "▁libr": 5456,
      "iri": 5457,
      "▁straight": 5458,
      "▁patel": 5459,
      "▁guest": 5460,
      "▁version": 5461,
      "▁revolution": 5462,
      "rid": 5463,
      "▁jag": 5464,
      "▁5,": 5465,
      "▁honor": 5466,
      "▁alone.": 5467,
      "ament.": 5468,
      "▁first,": 5469,
      "▁votes": 5470,
      "▁offers": 5471,
      "▁util": 5472,
      "▁heres": 5473,
      "anged": 5474,
      "▁initiatives": 5475,
      "▁mira": 5476,
      "▁negative": 5477,
      "▁dal": 5478,
      "▁buildings": 5479,
      "▁divided": 5480,
      "-based": 5481,
      "va": 5482,
      "unel": 5483,
      "▁17.": 5484,
      "▁cau": 5485,
      "▁pradesh.": 5486,
      "▁politician": 5487,
      "iter": 5488,
      "ed.\"": 5489,
      "▁troops": 5490,
      "▁govt": 5491,
      "▁1.5": 5492,
      "▁rad": 5493,
      "▁content": 5494,
      "gered": 5495,
      "▁floor": 5496,
      "▁establishment": 5497,
      "▁2011": 5498,
      "▁initiated": 5499,
      "▁democracy": 5500,
      "▁payment": 5501,
      "isha": 5502,
      "▁daughter.": 5503,
      "▁hasnt": 5504,
      "▁remind": 5505,
      "hes.": 5506,
      "ructed": 5507,
      "▁ille": 5508,
      "elled": 5509,
      "▁performed": 5510,
      "▁storage": 5511,
      "abet": 5512,
      "▁champions": 5513,
      "▁contract": 5514,
      "▁weather": 5515,
      "▁parliamentary": 5516,
      "▁delive": 5517,
      "▁band": 5518,
      "▁armed": 5519,
      "▁persec": 5520,
      "▁entry": 5521,
      "▁recall": 5522,
      "idamb": 5523,
      "▁sain": 5524,
      "▁also.": 5525,
      "▁alt": 5526,
      "▁ras": 5527,
      "▁concerning": 5528,
      "▁original": 5529,
      "cy.": 5530,
      "▁lic": 5531,
      "▁business.": 5532,
      "▁amendment": 5533,
      "ych": 5534,
      "▁aud": 5535,
      "ure,": 5536,
      "rah": 5537,
      "',": 5538,
      "oz": 5539,
      "under": 5540,
      "▁reduced": 5541,
      "oti": 5542,
      "90": 5543,
      "pet": 5544,
      "▁belongs": 5545,
      "▁fundament": 5546,
      "-r": 5547,
      "▁arjun": 5548,
      "apur": 5549,
      "▁proof": 5550,
      "▁depend": 5551,
      "▁historical": 5552,
      "▁timothy": 5553,
      "▁apolog": 5554,
      "▁solid": 5555,
      "▁alcohol": 5556,
      "▁changed.": 5557,
      "▁irrig": 5558,
      "▁danger": 5559,
      "▁rejo": 5560,
      "ores": 5561,
      "ices.": 5562,
      "▁presidential": 5563,
      "▁resolution": 5564,
      "▁condolences": 5565,
      "▁maintenance": 5566,
      "ana,": 5567,
      "▁germany": 5568,
      "▁gat": 5569,
      "▁saudi": 5570,
      "osen": 5571,
      "▁him?": 5572,
      "▁marg": 5573,
      "▁professor": 5574,
      "ces,": 5575,
      "▁mort": 5576,
      "▁volunt": 5577,
      "▁killing": 5578,
      "▁score": 5579,
      "▁medium": 5580,
      "▁pakistani": 5581,
      "▁possible.": 5582,
      "unelvel": 5583,
      "▁region.": 5584,
      "▁closed": 5585,
      "▁babyl": 5586,
      "▁widely": 5587,
      "▁determined": 5588,
      "▁rising": 5589,
      "▁everlasting": 5590,
      "▁careful": 5591,
      "ile.": 5592,
      "▁proced": 5593,
      "oe": 5594,
      "▁guide": 5595,
      "▁history.": 5596,
      "▁system.": 5597,
      "▁feeling": 5598,
      "▁abd": 5599,
      "▁everybody": 5600,
      "▁haasan": 5601,
      "....": 5602,
      "▁pakistan.": 5603,
      "▁worldwide": 5604,
      "▁2013": 5605,
      "▁wa": 5606,
      "▁addressing": 5607,
      "▁cinema": 5608,
      "▁elig": 5609,
      "▁participate": 5610,
      "▁restrict": 5611,
      "ted.": 5612,
      "▁sang": 5613,
      "▁sovere": 5614,
      "▁attitude": 5615,
      "aded": 5616,
      "▁chidamb": 5617,
      "▁friendship": 5618,
      "▁mumbai.": 5619,
      "▁resear": 5620,
      "ines.": 5621,
      "▁raise": 5622,
      "▁soil": 5623,
      "▁referred": 5624,
      "▁monitoring": 5625,
      "▁feelings": 5626,
      "usive": 5627,
      "▁nirmala": 5628,
      "▁later.": 5629,
      "▁me?": 5630,
      "▁injuries.": 5631,
      "▁a.": 5632,
      "▁shak": 5633,
      "▁advance": 5634,
      "▁dani": 5635,
      "arian": 5636,
      "▁film,": 5637,
      "▁pages": 5638,
      "▁inhab": 5639,
      "standing": 5640,
      "▁assured": 5641,
      "▁theat": 5642,
      "▁prabh": 5643,
      "▁salem": 5644,
      "▁distributed": 5645,
      "▁actions": 5646,
      "▁cb": 5647,
      "oph": 5648,
      "▁highway": 5649,
      "▁dialog": 5650,
      "▁brazil": 5651,
      "atma": 5652,
      "plom": 5653,
      "▁lawy": 5654,
      "▁rav": 5655,
      "▁courts": 5656,
      "▁warned": 5657,
      "▁principles": 5658,
      "▁festiv": 5659,
      "ced.": 5660,
      "jav": 5661,
      "▁gh": 5662,
      "▁install": 5663,
      "spect": 5664,
      "▁older": 5665,
      "ancing": 5666,
      "▁married.": 5667,
      "▁magn": 5668,
      "▁honest": 5669,
      "▁independence": 5670,
      "▁que": 5671,
      "▁types": 5672,
      "▁eyes.": 5673,
      "ulf": 5674,
      "▁work,": 5675,
      "▁18.": 5676,
      "▁delivered": 5677,
      "▁via": 5678,
      "arked": 5679,
      "▁men.": 5680,
      "▁absol": 5681,
      "▁conflict": 5682,
      "▁atm": 5683,
      "w.": 5684,
      "asc": 5685,
      "hance": 5686,
      "▁191": 5687,
      "▁headquarters": 5688,
      "▁\\\"\"": 5689,
      "▁anniversary": 5690,
      "▁daught": 5691,
      "▁child.": 5692,
      "▁believer": 5693,
      "▁much.": 5694,
      "],": 5695,
      "▁compare": 5696,
      "▁scheme.": 5697,
      "pm": 5698,
      "▁activity": 5699,
      "jri": 5700,
      "▁instruction": 5701,
      "▁aband": 5702,
      "▁women,": 5703,
      "▁movies.": 5704,
      "▁london": 5705,
      "▁jaw": 5706,
      "▁enhance": 5707,
      "▁c.e.": 5708,
      "▁creating": 5709,
      "▁thy": 5710,
      "▁\"it": 5711,
      "▁settle": 5712,
      "▁compre": 5713,
      "▁israelites": 5714,
      "▁news.": 5715,
      "▁coach": 5716,
      "▁blind": 5717,
      "▁tong": 5718,
      "▁explained": 5719,
      "▁p.": 5720,
      "itud": 5721,
      "▁powers": 5722,
      "▁photograph": 5723,
      "ist.": 5724,
      "where.": 5725,
      "▁afford": 5726,
      "▁tab": 5727,
      "▁father.": 5728,
      "▁eventually": 5729,
      "▁increase.": 5730,
      "▁constructed": 5731,
      "▁wife.": 5732,
      "▁dad": 5733,
      "ression": 5734,
      "▁state,": 5735,
      "▁museum": 5736,
      "▁trouble": 5737,
      "▁corruption": 5738,
      "▁gear": 5739,
      "▁orders": 5740,
      "▁anal": 5741,
      "▁studied": 5742,
      "▁loans": 5743,
      "▁scheme,": 5744,
      "mod": 5745,
      "▁choice": 5746,
      "▁bringing": 5747,
      "▁odi": 5748,
      "▁fresh": 5749,
      "urb": 5750,
      "▁baner": 5751,
      "knowled": 5752,
      "▁structure": 5753,
      "alu": 5754,
      "▁producer": 5755,
      "▁extent": 5756,
      "▁judicial": 5757,
      "▁kerala.": 5758,
      "▁dhon": 5759,
      "▁intens": 5760,
      "▁kejri": 5761,
      "▁awake!": 5762,
      "▁worst": 5763,
      "▁prayers": 5764,
      "▁tirunelvel": 5765,
      "▁miles": 5766,
      "▁angels": 5767,
      "▁vs": 5768,
      "▁engaged": 5769,
      "▁succeed": 5770,
      "▁34": 5771,
      "▁sources": 5772,
      "het": 5773,
      "▁fold": 5774,
      "▁spo": 5775,
      "▁acid": 5776,
      "▁months.": 5777,
      "▁6,": 5778,
      "▁obey": 5779,
      "▁incom": 5780,
      "▁storm": 5781,
      "▁adam": 5782,
      "▁yellow": 5783,
      "▁role.": 5784,
      "▁tens": 5785,
      "▁inher": 5786,
      "▁party,": 5787,
      "▁moral": 5788,
      "▁african": 5789,
      "▁water,": 5790,
      "▁parliament.": 5791,
      "▁approx": 5792,
      "▁brief": 5793,
      "▁stands": 5794,
      "▁compass": 5795,
      "▁claims": 5796,
      "▁case,": 5797,
      "▁rs.2": 5798,
      "▁karun": 5799,
      "elines": 5800,
      "▁experienced": 5801,
      "▁pac": 5802,
      "▁surface": 5803,
      "▁rare": 5804,
      "▁drugs": 5805,
      "▁whoever": 5806,
      "▁indones": 5807,
      "▁sky": 5808,
      "udh": 5809,
      "ulated": 5810,
      "jan": 5811,
      "▁cauvery": 5812,
      "▁brings": 5813,
      "▁sustained": 5814,
      "oles": 5815,
      "mark": 5816,
      "icted": 5817,
      "how": 5818,
      "west": 5819,
      "iles": 5820,
      "certain": 5821,
      "▁bs": 5822,
      "▁answers": 5823,
      "▁pas": 5824,
      "▁swit": 5825,
      "▁relatives": 5826,
      "▁victor": 5827,
      "▁certificate": 5828,
      "▁\"this": 5829,
      "▁behalf": 5830,
      "▁holding": 5831,
      "▁tempor": 5832,
      "▁sustainable": 5833,
      "▁cow": 5834,
      "▁asp": 5835,
      "▁verily": 5836,
      "▁inaugurated": 5837,
      "onic": 5838,
      "▁rang": 5839,
      "▁person.": 5840,
      "▁us?": 5841,
      "▁department,": 5842,
      "▁alternative": 5843,
      "▁arvind": 5844,
      "▁before.": 5845,
      "▁vikram": 5846,
      "verty": 5847,
      "▁two.": 5848,
      "▁mahatma": 5849,
      "▁ipl": 5850,
      "▁poverty": 5851,
      "▁movies": 5852,
      "▁vid": 5853,
      "▁easily": 5854,
      "▁february": 5855,
      "ping": 5856,
      "▁click": 5857,
      "heast": 5858,
      "▁wife,": 5859,
      "▁bharati": 5860,
      "▁removed": 5861,
      "▁death,": 5862,
      "▁heart.": 5863,
      "▁blessed": 5864,
      "▁code": 5865,
      "▁diplom": 5866,
      "▁nagar": 5867,
      "35": 5868,
      "▁pure": 5869,
      "▁wishes": 5870,
      "▁clot": 5871,
      "▁muslims": 5872,
      "▁metro": 5873,
      "▁elim": 5874,
      "▁evident": 5875,
      "▁bench": 5876,
      "▁slave": 5877,
      "▁chapter": 5878,
      "▁ji": 5879,
      "▁quit": 5880,
      "▁quarter": 5881,
      "▁achieved": 5882,
      "▁observed": 5883,
      "▁yoj": 5884,
      "▁addition,": 5885,
      "▁strengthening": 5886,
      "▁raja": 5887,
      "▁another.": 5888,
      "▁speaker": 5889,
      "▁ho": 5890,
      "▁registration": 5891,
      "ished.": 5892,
      "▁ginger": 5893,
      "▁filled": 5894,
      "▁psych": 5895,
      "▁philos": 5896,
      "▁representatives": 5897,
      "▁philipp": 5898,
      "erative": 5899,
      "▁ceremon": 5900,
      "▁definite": 5901,
      "▁divor": 5902,
      "▁searching": 5903,
      "▁bridge": 5904,
      "ides,": 5905,
      "▁jayalalithaa": 5906,
      "▁wood": 5907,
      "rition": 5908,
      "yot": 5909,
      "▁a)": 5910,
      "▁researcher": 5911,
      "▁arrangements": 5912,
      "▁options": 5913,
      "stood": 5914,
      "▁thanjav": 5915,
      "▁professional": 5916,
      "▁poet": 5917,
      "▁grate": 5918,
      "achal": 5919,
      "▁followers": 5920,
      "▁bible,": 5921,
      "▁flesh": 5922,
      "▁obed": 5923,
      "▁diwal": 5924,
      "▁development.": 5925,
      "▁pione": 5926,
      "▁k.": 5927,
      "uls": 5928,
      "▁paradise": 5929,
      "▁ahmed": 5930,
      "▁frame": 5931,
      "▁absolute": 5932,
      "▁chh": 5933,
      "ately": 5934,
      "▁acknowled": 5935,
      "].": 5936,
      "▁districts.": 5937,
      "▁edition": 5938,
      "▁decre": 5939,
      "▁leaves": 5940,
      "▁emer": 5941,
      "▁15,": 5942,
      "▁undertak": 5943,
      "ered.": 5944,
      "▁secondary": 5945,
      "▁vig": 5946,
      "▁glad": 5947,
      "ium,": 5948,
      "▁bor": 5949,
      "▁dign": 5950,
      "▁genes": 5951,
      "▁thereafter,": 5952,
      "▁ult": 5953,
      "▁cocon": 5954,
      "▁coconut": 5955,
      "ages,": 5956,
      "▁designed": 5957,
      "▁forced": 5958,
      "▁unve": 5959,
      "box": 5960,
      "▁guarant": 5961,
      "asi": 5962,
      "▁adequ": 5963,
      "▁sena": 5964,
      "▁blessings": 5965,
      "▁wear": 5966,
      "▁venk": 5967,
      "▁0.": 5968,
      "▁squad": 5969,
      "▁applications": 5970,
      "▁ward": 5971,
      "cp": 5972,
      "▁assess": 5973,
      "▁ceremony": 5974,
      "▁rescued": 5975,
      "▁interact": 5976,
      "▁earlier,": 5977,
      "▁yogi": 5978,
      "▁shops": 5979,
      "oke": 5980,
      "▁asking": 5981,
      "-led": 5982,
      "▁residents": 5983,
      "▁requires": 5984,
      "▁korea": 5985,
      "aid": 5986,
      "ibilities": 5987,
      "▁125": 5988,
      "▁knowing": 5989,
      "▁liveli": 5990,
      "force": 5991,
      "▁jewish": 5992,
      "arsh": 5993,
      "▁jack": 5994,
      "osh": 5995,
      "▁roles": 5996,
      "▁harvest": 5997,
      "▁chilli": 5998,
      "▁gathered": 5999,
      "▁unemploy": 6000,
      "▁places.": 6001,
      "▁%s": 6002,
      "▁be.": 6003,
      "▁delhi:": 6004,
      "▁states:": 6005,
      "▁wedding": 6006,
      "▁dravid": 6007,
      "▁idol": 6008,
      "▁producing": 6009,
      "▁appreciate": 6010,
      "75": 6011,
      "▁pin": 6012,
      "▁livelihood": 6013,
      "anis": 6014,
      "▁tig": 6015,
      "ption": 6016,
      "▁explos": 6017,
      "▁diabet": 6018,
      "▁covenant": 6019,
      "▁cum": 6020,
      "▁anand": 6021,
      "▁conver": 6022,
      "▁starting": 6023,
      "grad": 6024,
      "ra,": 6025,
      "s...": 6026,
      "▁channel": 6027,
      "▁demands": 6028,
      "▁writer": 6029,
      "▁male": 6030,
      "▁land.": 6031,
      "▁react": 6032,
      "▁chosen": 6033,
      "▁relative": 6034,
      "▁forgive": 6035,
      "▁t20": 6036,
      "▁vast": 6037,
      "▁comments": 6038,
      "▁veter": 6039,
      "▁younger": 6040,
      "anish": 6041,
      "▁dil": 6042,
      "▁attract": 6043,
      "▁software": 6044,
      "▁rates": 6045,
      "▁showing": 6046,
      "▁resolve": 6047,
      "▁plants": 6048,
      "▁mothers": 6049,
      "▁uncle": 6050,
      "▁plus": 6051,
      "▁\"\"\",": 6052,
      "▁devil": 6053,
      "▁government's": 6054,
      "nic": 6055,
      "▁overall": 6056,
      "▁anger": 6057,
      "mm": 6058,
      "▁teen": 6059,
      "▁election.": 6060,
      "▁resource": 6061,
      "▁2017-1": 6062,
      "▁romans": 6063,
      "kumar": 6064,
      "▁ric": 6065,
      "▁repeated": 6066,
      "▁ber": 6067,
      "ations,": 6068,
      "▁provid": 6069,
      "▁known.": 6070,
      "▁size": 6071,
      "▁up,": 6072,
      "▁weeks": 6073,
      "▁deployed": 6074,
      "▁accompanied": 6075,
      "ikh": 6076,
      "aves": 6077,
      "▁sections": 6078,
      "▁quickly": 6079,
      "ines,": 6080,
      "ctv": 6081,
      "▁terrorism": 6082,
      "▁chopped": 6083,
      "person": 6084,
      "idhi": 6085,
      "▁what's": 6086,
      "▁chidambaram": 6087,
      "▁rum": 6088,
      "upp": 6089,
      "asw": 6090,
      "ifying": 6091,
      "idden": 6092,
      "▁tric": 6093,
      "▁ba": 6094,
      "▁unbelie": 6095,
      "▁congress.": 6096,
      "bon": 6097,
      "ky": 6098,
      "iday": 6099,
      "▁inspect": 6100,
      "▁ongoing": 6101,
      "agram": 6102,
      "▁fathers": 6103,
      "iring": 6104,
      "▁2000": 6105,
      "▁let's": 6106,
      "▁participation": 6107,
      "▁europ": 6108,
      "▁navy": 6109,
      "▁world's": 6110,
      "▁prote": 6111,
      "▁offices": 6112,
      "▁coalition": 6113,
      "▁unity": 6114,
      "▁begins": 6115,
      "ji": 6116,
      "15": 6117,
      "▁behold": 6118,
      "▁stake": 6119,
      "▁tamiln": 6120,
      "▁tbsp": 6121,
      "▁engage": 6122,
      "▁parties.": 6123,
      "▁medal": 6124,
      "▁trem": 6125,
      "▁cctv": 6126,
      "▁mary": 6127,
      "▁road.": 6128,
      "▁karth": 6129,
      "▁accordingly,": 6130,
      "▁affected.": 6131,
      "▁trained": 6132,
      "▁involve": 6133,
      "▁repent": 6134,
      "erted": 6135,
      "▁believers": 6136,
      "▁copy": 6137,
      "▁football": 6138,
      "▁willi": 6139,
      "▁powered": 6140,
      "▁faith.": 6141,
      "▁sacred": 6142,
      "-6": 6143,
      "▁man,": 6144,
      "▁pann": 6145,
      "▁days,": 6146,
      "▁syri": 6147,
      "ender": 6148,
      "▁education.": 6149,
      "▁magazine": 6150,
      "▁beneficiaries": 6151,
      "▁missing": 6152,
      "▁nayanth": 6153,
      "▁colombo": 6154,
      "▁degre": 6155,
      "cript": 6156,
      "▁surviv": 6157,
      "wise,": 6158,
      "▁expression": 6159,
      "▁youre": 6160,
      "▁deeply": 6161,
      "▁country's": 6162,
      "▁blue": 6163,
      "▁infect": 6164,
      "▁self-": 6165,
      "▁website": 6166,
      "▁identify": 6167,
      "▁twitter.": 6168,
      "ander": 6169,
      "▁fundamental": 6170,
      "▁members.": 6171,
      "▁corporate": 6172,
      "▁planned": 6173,
      "osphere": 6174,
      "▁srin": 6175,
      "ists.": 6176,
      "▁dangerous": 6177,
      "▁programme.": 6178,
      "▁sor": 6179,
      "▁rear": 6180,
      "▁doesn't": 6181,
      "▁cycl": 6182,
      "ips": 6183,
      "gent": 6184,
      "▁school,": 6185,
      "▁allah.": 6186,
      "▁hospital,": 6187,
      "anka": 6188,
      "▁dhanush": 6189,
      "▁education,": 6190,
      "▁imposed": 6191,
      "▁neverthe": 6192,
      "▁diseases": 6193,
      "):": 6194,
      "▁mit": 6195,
      "rics": 6196,
      "▁service.": 6197,
      "▁stir": 6198,
      "▁department.": 6199,
      "▁welcomed": 6200,
      "▁7,": 6201,
      "▁unknown": 6202,
      "▁pit": 6203,
      "▁ii": 6204,
      "▁china.": 6205,
      "▁\"\"\"it": 6206,
      "▁australian": 6207,
      "▁illegal": 6208,
      "▁reporters": 6209,
      "▁incidents": 6210,
      "▁damaged": 6211,
      "▁seeds": 6212,
      "▁pradhan": 6213,
      "▁reserv": 6214,
      "▁discussions": 6215,
      "▁coimbatore": 6216,
      "▁haryana": 6217,
      "-ch": 6218,
      "▁lev": 6219,
      "▁hebrew": 6220,
      "▁quant": 6221,
      "▁madras": 6222,
      "▁remem": 6223,
      "▁lines": 6224,
      "▁family,": 6225,
      "▁debt": 6226,
      "▁understood": 6227,
      "▁clar": 6228,
      "▁provisions": 6229,
      "▁others,": 6230,
      "ache": 6231,
      "▁encouraged": 6232,
      "respond": 6233,
      "▁internal": 6234,
      "bar": 6235,
      "▁tamilnadu": 6236,
      "iot": 6237,
      "▁pending": 6238,
      "▁thor": 6239,
      "▁christ.": 6240,
      "ences.": 6241,
      "oney": 6242,
      "comm": 6243,
      "▁kilomet": 6244,
      "iff": 6245,
      "▁eager": 6246,
      "▁managed": 6247,
      "▁stead": 6248,
      "▁griev": 6249,
      "▁advised": 6250,
      "▁academ": 6251,
      "▁upto": 6252,
      "▁impl": 6253,
      "▁historic": 6254,
      "▁sitharaman": 6255,
      "wa": 6256,
      "▁shr": 6257,
      "oses": 6258,
      "▁trail": 6259,
      "▁dharm": 6260,
      "▁jail.": 6261,
      "▁cooperative": 6262,
      "amal": 6263,
      "▁commitment": 6264,
      "▁pattern": 6265,
      "▁fruits": 6266,
      "▁novel": 6267,
      "▁rahman": 6268,
      "se,": 6269,
      "▁holds": 6270,
      "▁articles": 6271,
      "▁station.": 6272,
      "▁rivers": 6273,
      "▁palanis": 6274,
      "▁1/": 6275,
      "▁20.": 6276,
      "▁connection.": 6277,
      "▁priy": 6278,
      "▁12:": 6279,
      "▁condemn": 6280,
      "▁completed.": 6281,
      "▁looks": 6282,
      "▁square": 6283,
      "ples.": 6284,
      "▁fault": 6285,
      "▁too,": 6286,
      "▁concent": 6287,
      "▁driving": 6288,
      "▁paper": 6289,
      "▁e-": 6290,
      "▁kids": 6291,
      "▁newspaper": 6292,
      "vis": 6293,
      "▁38": 6294,
      "▁bird": 6295,
      "khand": 6296,
      "agers": 6297,
      "▁mans": 6298,
      "▁transp": 6299,
      "11": 6300,
      "▁terri": 6301,
      "▁promises": 6302,
      "▁medicine": 6303,
      "▁war,": 6304,
      "▁communities": 6305,
      "akrish": 6306,
      "▁successfully": 6307,
      "▁65": 6308,
      "▁allocated": 6309,
      "▁sas": 6310,
      "▁jac": 6311,
      "▁motors": 6312,
      "▁terrorists": 6313,
      "▁ruled": 6314,
      "▁fixed": 6315,
      "▁c.": 6316,
      "▁19.": 6317,
      "▁harmony": 6318,
      "etic": 6319,
      "▁advert": 6320,
      "▁cloud": 6321,
      "▁poly": 6322,
      "▁departments": 6323,
      "▁costs": 6324,
      "▁tells": 6325,
      "▁enterp": 6326,
      "▁outl": 6327,
      "▁godly": 6328,
      "▁academic": 6329,
      "▁currently,": 6330,
      "▁du": 6331,
      "▁eve": 6332,
      "eper": 6333,
      "▁manner": 6334,
      "▁correspond": 6335,
      "▁items": 6336,
      "▁negoti": 6337,
      "ess,": 6338,
      "ists,": 6339,
      "▁here,": 6340,
      "c,": 6341,
      "▁herit": 6342,
      "▁surprised": 6343,
      "onom": 6344,
      "▁there's": 6345,
      "▁disrupt": 6346,
      "▁acres": 6347,
      "▁imposs": 6348,
      "▁alive": 6349,
      "▁(h": 6350,
      "▁salv": 6351,
      "▁himself.": 6352,
      "▁comprehens": 6353,
      "▁practical": 6354,
      "▁st.": 6355,
      "▁league": 6356,
      "led.": 6357,
      "▁answer.": 6358,
      "▁prepare": 6359,
      "▁watching": 6360,
      "▁debate": 6361,
      "▁dance": 6362,
      "▁telangana": 6363,
      "%.": 6364,
      "aman": 6365,
      "▁31.": 6366,
      "▁buses": 6367,
      "▁addressed": 6368,
      "▁naidu": 6369,
      "▁implementing": 6370,
      "▁religion.": 6371,
      "▁marketing": 6372,
      "▁malays": 6373,
      "▁messenger": 6374,
      "▁analys": 6375,
      "▁not,": 6376,
      "▁superst": 6377,
      "▁scal": 6378,
      "▁men,": 6379,
      "▁languages.": 6380,
      "▁documents": 6381,
      "▁genu": 6382,
      "▁coastal": 6383,
      "▁imagine": 6384,
      "▁vive": 6385,
      "▁193": 6386,
      "▁witnesses,": 6387,
      "▁merciful": 6388,
      "▁forb": 6389,
      "▁city,": 6390,
      "▁disease.": 6391,
      "ures.": 6392,
      "bert": 6393,
      "▁ocean": 6394,
      "urg": 6395,
      "▁glory": 6396,
      "cal": 6397,
      "k,": 6398,
      "chin": 6399,
      "▁long.": 6400,
      "ounder": 6401,
      "▁entr": 6402,
      "▁policies": 6403,
      "ias": 6404,
      "▁fought": 6405,
      "▁appreciation": 6406,
      "▁regret": 6407,
      "▁jesus,": 6408,
      "▁closed.": 6409,
      "▁600": 6410,
      "▁sacrific": 6411,
      "yar": 6412,
      "▁proclaim": 6413,
      "▁manual": 6414,
      "oked": 6415,
      "▁pollution": 6416,
      "pping": 6417,
      "▁compensation": 6418,
      "▁recovery": 6419,
      "▁weapons": 6420,
      "▁kolkata": 6421,
      "▁drop": 6422,
      "▁ja": 6423,
      "▁2012": 6424,
      "▁mustard": 6425,
      "▁bats": 6426,
      "▁values": 6427,
      "▁connected": 6428,
      "▁things,": 6429,
      "▁distance": 6430,
      "▁48": 6431,
      "▁nation.": 6432,
      "▁proces": 6433,
      "▁bure": 6434,
      "ified.": 6435,
      "▁watchtower": 6436,
      "ancy": 6437,
      "▁students,": 6438,
      "▁opinion": 6439,
      "▁purchase": 6440,
      "▁intelligence": 6441,
      "▁reserve": 6442,
      "▁falls": 6443,
      "▁mishap": 6444,
      "▁rajapaks": 6445,
      "▁10,000": 6446,
      "▁garden": 6447,
      "▁on,": 6448,
      "▁account.": 6449,
      "▁japanese": 6450,
      "▁reforms": 6451,
      "▁jon": 6452,
      "▁talked": 6453,
      "▁reality": 6454,
      "▁prospect": 6455,
      "▁breath": 6456,
      "▁proposal": 6457,
      "▁saying,": 6458,
      "▁r.": 6459,
      "▁drawn": 6460,
      "▁given.": 6461,
      "▁breast": 6462,
      "▁domin": 6463,
      "▁daughters": 6464,
      "▁fertil": 6465,
      "▁ts": 6466,
      "▁collaboration": 6467,
      "▁toil": 6468,
      "▁10:": 6469,
      "▁harass": 6470,
      "▁enjoyed": 6471,
      "▁province": 6472,
      "▁vel": 6473,
      "▁cent.": 6474,
      "▁situated": 6475,
      "▁nad": 6476,
      "board": 6477,
      "▁hath": 6478,
      "atell": 6479,
      "▁mother.": 6480,
      "▁language.": 6481,
      "▁generally": 6482,
      "▁ath": 6483,
      "▁shepher": 6484,
      "▁advoc": 6485,
      "▁evening": 6486,
      "▁actual": 6487,
      "▁leaving": 6488,
      "▁daniel": 6489,
      "-se": 6490,
      "▁ticket": 6491,
      "isher": 6492,
      "▁engineer": 6493,
      "▁jhar": 6494,
      "▁chol": 6495,
      "▁ves": 6496,
      "abled": 6497,
      "▁automatic": 6498,
      "▁abund": 6499,
      "ices,": 6500,
      "▁yuv": 6501,
      "▁secure": 6502,
      "▁mi": 6503,
      "▁extend": 6504,
      "▁impossible": 6505,
      "▁9,": 6506,
      "▁stad": 6507,
      "istics": 6508,
      "▁totally": 6509,
      "▁saved": 6510,
      "▁player": 6511,
      "▁bharatiya": 6512,
      "tery": 6513,
      "▁newly": 6514,
      "ipped": 6515,
      "cel": 6516,
      "▁marks": 6517,
      "▁calling": 6518,
      "▁bureau": 6519,
      "▁mexic": 6520,
      "▁forgot": 6521,
      "▁panic": 6522,
      "▁mamata": 6523,
      "▁farmer": 6524,
      "▁karnataka.": 6525,
      "▁polls": 6526,
      "▁ajith": 6527,
      "▁adequate": 6528,
      "▁1st": 6529,
      "ha.": 6530,
      "ience": 6531,
      "▁=": 6532,
      "alli": 6533,
      "▁preach": 6534,
      "▁markets": 6535,
      "▁experience.": 6536,
      "▁krishna": 6537,
      "▁tomato": 6538,
      "▁crucial": 6539,
      "▁dog": 6540,
      "▁upgrad": 6541,
      "▁communist": 6542,
      "▁hat": 6543,
      "▁\"\"\"this": 6544,
      "▁team.": 6545,
      "▁lear": 6546,
      "▁occasion,": 6547,
      "owed": 6548,
      "▁buddh": 6549,
      "▁participated.": 6550,
      "▁procure": 6551,
      "▁god?": 6552,
      "▁oblig": 6553,
      "▁kejriwal": 6554,
      "▁requested": 6555,
      "▁nil": 6556,
      "▁temple.": 6557,
      "▁learnt": 6558,
      "▁submit": 6559,
      "▁2019-20": 6560,
      "▁powder,": 6561,
      "▁blow": 6562,
      "asing": 6563,
      "▁meal": 6564,
      "▁root": 6565,
      "12": 6566,
      "▁peaceful": 6567,
      "▁strategic": 6568,
      "▁equipment": 6569,
      "▁sant": 6570,
      "▁(j": 6571,
      "ants.": 6572,
      "▁career": 6573,
      "▁kumar,": 6574,
      "who": 6575,
      "▁dat": 6576,
      "ives.": 6577,
      "▁\"they": 6578,
      "▁scale": 6579,
      "▁assum": 6580,
      "can": 6581,
      "▁plain": 6582,
      "▁innovation": 6583,
      "▁ago.": 6584,
      "▁information,": 6585,
      "▁dry": 6586,
      "▁enth": 6587,
      "▁excellent": 6588,
      "▁rally": 6589,
      "▁mineral": 6590,
      "▁immen": 6591,
      "▁word.": 6592,
      "▁obser": 6593,
      "▁saying:": 6594,
      "▁flour": 6595,
      "▁one,": 6596,
      "ruck": 6597,
      "▁lesson": 6598,
      "pro": 6599,
      "aker": 6600,
      "▁pill": 6601,
      "▁satell": 6602,
      "oo": 6603,
      "▁diss": 6604,
      "able,": 6605,
      "anche": 6606,
      "▁variety": 6607,
      "▁neh": 6608,
      "▁appears": 6609,
      "▁priority": 6610,
      "vant": 6611,
      "▁views": 6612,
      "▁transferred": 6613,
      "agon": 6614,
      "▁interesting": 6615,
      "▁option": 6616,
      "▁deny": 6617,
      "▁\"and": 6618,
      "▁word,": 6619,
      "45": 6620,
      "▁crops": 6621,
      "▁tough": 6622,
      "▁dhoni": 6623,
      "▁fled": 6624,
      "▁surve": 6625,
      "▁advanced": 6626,
      "▁reduction": 6627,
      "▁realize": 6628,
      "▁rather,": 6629,
      "aged.": 6630,
      "▁user": 6631,
      "▁crash": 6632,
      "▁teaspoon": 6633,
      "ged.": 6634,
      "▁allot": 6635,
      "▁11:": 6636,
      "▁appreciated": 6637,
      "▁_": 6638,
      "▁load": 6639,
      "▁here?": 6640,
      "it.": 6641,
      "▁consequent": 6642,
      "▁bread": 6643,
      "▁grown": 6644,
      "▁ago,": 6645,
      "▁devot": 6646,
      "▁nic": 6647,
      "▁approximately": 6648,
      "▁stick": 6649,
      "▁exhibition": 6650,
      "▁congratulated": 6651,
      "▁da": 6652,
      "▁to.": 6653,
      "▁exactly": 6654,
      "pi": 6655,
      "▁sed": 6656,
      "wor": 6657,
      "▁models": 6658,
      "▁tiruch": 6659,
      "body.": 6660,
      "▁aksh": 6661,
      "oration": 6662,
      "▁tomorrow": 6663,
      "▁register": 6664,
      "▁experts": 6665,
      "govern": 6666,
      "▁indies": 6667,
      "▁obama": 6668,
      "ances.": 6669,
      "▁congregation.": 6670,
      "▁severely": 6671,
      "▁wr": 6672,
      "▁(a": 6673,
      "just": 6674,
      "▁passing": 6675,
      "▁electronic": 6676,
      "▁ramesh": 6677,
      "▁kingdom.": 6678,
      "▁moham": 6679,
      "▁labou": 6680,
      "▁rao": 6681,
      "▁consci": 6682,
      "▁christ,": 6683,
      "▁gandhi,": 6684,
      "▁karnataka,": 6685,
      "▁improvement": 6686,
      "▁convin": 6687,
      "lif": 6688,
      "▁there,": 6689,
      "▁pris": 6690,
      "▁cricketer": 6691,
      "ming": 6692,
      "▁matches": 6693,
      "▁trend": 6694,
      "▁available.": 6695,
      "▁distin": 6696,
      "▁seriously": 6697,
      "▁argument": 6698,
      "▁worshi": 6699,
      "▁42": 6700,
      "ighter": 6701,
      "▁stories": 6702,
      "▁suicide.": 6703,
      "▁environmental": 6704,
      "▁harsh": 6705,
      "▁chain": 6706,
      "▁sincere": 6707,
      "adh": 6708,
      "um.": 6709,
      "▁differently": 6710,
      "▁construct": 6711,
      "300": 6712,
      "▁stream": 6713,
      "▁salman": 6714,
      "ed?": 6715,
      "▁estimates": 6716,
      "▁probably": 6717,
      "▁bach": 6718,
      "▁120": 6719,
      "▁women's": 6720,
      "▁sitting": 6721,
      "▁swaraj": 6722,
      "▁stopp": 6723,
      "▁kashmir.": 6724,
      "▁balance": 6725,
      "▁ones.": 6726,
      "▁anna": 6727,
      "▁baptized": 6728,
      "▁nepal": 6729,
      "▁cool": 6730,
      "▁busy": 6731,
      "▁pace": 6732,
      "▁instance,": 6733,
      "ucher": 6734,
      "▁cul": 6735,
      "▁vin": 6736,
      "▁race": 6737,
      "▁colon": 6738,
      "▁behavior": 6739,
      "lor": 6740,
      "ux": 6741,
      "▁mich": 6742,
      "▁ago": 6743,
      "▁jerem": 6744,
      "▁valid": 6745,
      "▁expert": 6746,
      "▁mantri": 6747,
      "▁iron": 6748,
      "▁co-operative": 6749,
      "▁sasik": 6750,
      "▁sess": 6751,
      "▁hyp": 6752,
      "▁pauls": 6753,
      "▁alert": 6754,
      "▁baj": 6755,
      "▁heads": 6756,
      "▁tension": 6757,
      "▁symptoms": 6758,
      "▁dim": 6759,
      "dian": 6760,
      "n,": 6761,
      "▁moon": 6762,
      "▁param": 6763,
      "▁bangalore": 6764,
      "ardhan": 6765,
      "▁regime": 6766,
      "▁7:": 6767,
      "▁internet.": 6768,
      "▁definitely": 6769,
      "▁apparent": 6770,
      "▁babylon": 6771,
      "rain": 6772,
      "▁seg": 6773,
      "▁canad": 6774,
      "▁jharkhand": 6775,
      "▁examination.": 6776,
      "▁bid": 6777,
      "▁gif": 6778,
      "▁(2": 6779,
      "▁regularly": 6780,
      "▁kaj": 6781,
      "▁failure": 6782,
      "▁1,000": 6783,
      "▁21.": 6784,
      "▁courses": 6785,
      "▁surger": 6786,
      "▁telling": 6787,
      "▁improving": 6788,
      "araoh": 6789,
      "▁empower": 6790,
      "▁throw": 6791,
      "▁processing": 6792,
      "▁besides,": 6793,
      "▁societies": 6794,
      "▁accur": 6795,
      "▁recently.": 6796,
      "▁israel,": 6797,
      "▁earthquake": 6798,
      "icious": 6799,
      "▁yield": 6800,
      "▁goals": 6801,
      "▁peace.": 6802,
      "▁files": 6803,
      "▁out,": 6804,
      "▁puducher": 6805,
      "opal": 6806,
      "▁office.": 6807,
      "▁condemned": 6808,
      "▁tag": 6809,
      "▁theyre": 6810,
      "▁impart": 6811,
      "▁continuing": 6812,
      "▁walking": 6813,
      "ious.": 6814,
      "▁scoot": 6815,
      "▁anym": 6816,
      "▁palanisw": 6817,
      "▁clash": 6818,
      "▁ga": 6819,
      "▁grateful": 6820,
      "▁economy.": 6821,
      "▁genuine": 6822,
      "pay": 6823,
      "▁dated": 6824,
      "▁immense": 6825,
      "anded": 6826,
      "▁plane": 6827,
      "ila": 6828,
      "▁spain": 6829,
      "habil": 6830,
      "▁emotional": 6831,
      "ita": 6832,
      "▁10,": 6833,
      "eerselv": 6834,
      "uting": 6835,
      "▁spect": 6836,
      "▁development,": 6837,
      "▁ministry.": 6838,
      "▁promotion": 6839,
      "▁territory": 6840,
      "p)": 6841,
      "▁marry": 6842,
      "▁\"\"the": 6843,
      "▁irrigation": 6844,
      "ingu": 6845,
      "esty": 6846,
      "inam": 6847,
      "▁home,": 6848,
      "▁wins": 6849,
      "▁guidelines": 6850,
      "▁clin": 6851,
      "break": 6852,
      "▁stations": 6853,
      "▁bott": 6854,
      "▁excl": 6855,
      "▁ltte": 6856,
      "oir": 6857,
      "▁ende": 6858,
      "▁eligible": 6859,
      "▁pond": 6860,
      "▁pioneer": 6861,
      "▁hebrews": 6862,
      "ene": 6863,
      "wing": 6864,
      "▁gur": 6865,
      "▁reddy": 6866,
      "▁thorough": 6867,
      "prit": 6868,
      "▁cudd": 6869,
      "▁judges": 6870,
      "▁atmosphere": 6871,
      "-le": 6872,
      "▁rub": 6873,
      "▁rape": 6874,
      "▁level.": 6875,
      "▁effects": 6876,
      "arl": 6877,
      "t,": 6878,
      "▁catch": 6879,
      "ent,": 6880,
      "▁needed.": 6881,
      "▁hand.": 6882,
      "▁contribute": 6883,
      "ultan": 6884,
      "▁spr": 6885,
      "attis": 6886,
      "▁complaint.": 6887,
      "▁burden": 6888,
      "▁advantage": 6889,
      "▁ape": 6890,
      "▁mir": 6891,
      "ist,": 6892,
      "▁alm": 6893,
      "▁closely": 6894,
      "▁college,": 6895,
      "▁prevail": 6896,
      "▁store": 6897,
      "antly": 6898,
      "▁sanct": 6899,
      "▁mild": 6900,
      "▁about.": 6901,
      "▁director,": 6902,
      "god": 6903,
      "▁uses": 6904,
      "▁waters": 6905,
      "▁skills": 6906,
      "▁territor": 6907,
      "wadi": 6908,
      "▁will.": 6909,
      "▁grat": 6910,
      "▁bah": 6911,
      "▁aggress": 6912,
      "▁mutual": 6913,
      "▁bibles": 6914,
      "▁genesis": 6915,
      "oral": 6916,
      "▁diet": 6917,
      "▁directorate": 6918,
      "▁convent": 6919,
      "▁attending": 6920,
      "▁end.": 6921,
      "▁greatly": 6922,
      "▁congratulations": 6923,
      "▁convey": 6924,
      "selves,": 6925,
      "▁transmission": 6926,
      "▁qualities": 6927,
      "▁panneerselv": 6928,
      "▁fool": 6929,
      "▁so?": 6930,
      "▁tea": 6931,
      "▁principle": 6932,
      "▁policemen": 6933,
      "▁stol": 6934,
      "▁spreading": 6935,
      "▁titled": 6936,
      "▁consumer": 6937,
      "▁triggered": 6938,
      "▁incident,": 6939,
      "▁countries,": 6940,
      "enn": 6941,
      "▁rehabil": 6942,
      "▁camera": 6943,
      "▁replace": 6944,
      "attisgar": 6945,
      "▁foret": 6946,
      "d,": 6947,
      "eless": 6948,
      "▁muhammad": 6949,
      "▁seemed": 6950,
      "▁constituted": 6951,
      "▁appealed": 6952,
      "▁nevertheless,": 6953,
      "▁attacked": 6954,
      "▁commerce": 6955,
      "van": 6956,
      "▁again,": 6957,
      "▁11,": 6958,
      "▁prince": 6959,
      "▁privilege": 6960,
      "▁ren": 6961,
      "▁endeav": 6962,
      "▁coronavirus.": 6963,
      "iation": 6964,
      "▁skipp": 6965,
      "▁heritage": 6966,
      "▁nep": 6967,
      "▁sea.": 6968,
      "▁outstanding": 6969,
      "ishw": 6970,
      "athan": 6971,
      "▁ease": 6972,
      "▁else.": 6973,
      "▁haz": 6974,
      "▁instagram": 6975,
      "▁road,": 6976,
      "▁secretary,": 6977,
      "▁ties": 6978,
      "▁did.": 6979,
      "▁comprehensive": 6980,
      "▁pron": 6981,
      "▁fear.": 6982,
      "▁noah": 6983,
      "ishing": 6984,
      "▁grew": 6985,
      "▁upper": 6986,
      "▁monso": 6987,
      "▁applied": 6988,
      "▁naz": 6989,
      "▁1000": 6990,
      "▁contrast": 6991,
      "▁rupees": 6992,
      "▁adopt": 6993,
      "▁law,": 6994,
      "▁stayed": 6995,
      "▁oath": 6996,
      "▁800": 6997,
      "▁amongst": 6998,
      "▁figure": 6999,
      "▁g.": 7000,
      "emon": 7001,
      "▁infection": 7002,
      "▁frequent": 7003,
      "▁[the": 7004,
      "▁pilgr": 7005,
      "▁fifth": 7006,
      "▁solomon": 7007,
      "▁innings": 7008,
      "▁precious": 7009,
      "ography": 7010,
      "▁survived": 7011,
      "andum": 7012,
      "▁index": 7013,
      "ty.": 7014,
      "tty": 7015,
      "ments,": 7016,
      "▁conce": 7017,
      "▁rans": 7018,
      "▁overcome": 7019,
      "▁violence.": 7020,
      "▁pointed": 7021,
      "▁banerjee": 7022,
      "▁gan": 7023,
      "▁returns": 7024,
      "▁merely": 7025,
      "▁tables": 7026,
      "▁editor": 7027,
      "▁narayan": 7028,
      "▁worried": 7029,
      "▁congress,": 7030,
      "▁12,": 7031,
      "▁13:": 7032,
      "▁celebrate": 7033,
      "▁dar": 7034,
      "▁reported.": 7035,
      "▁practices": 7036,
      "▁adity": 7037,
      "▁themselves.": 7038,
      "▁thrill": 7039,
      "▁condition.": 7040,
      "▁grief": 7041,
      "▁nothing.": 7042,
      "▁starred": 7043,
      "▁22,": 7044,
      "▁empire": 7045,
      "▁bright": 7046,
      "▁tower": 7047,
      "el.": 7048,
      "▁\"but": 7049,
      "▁featured": 7050,
      "▁changing": 7051,
      "▁aspects": 7052,
      "▁shel": 7053,
      "▁mainly": 7054,
      "▁catt": 7055,
      "▁panchayats": 7056,
      "▁users": 7057,
      "▁defeat": 7058,
      "▁xi": 7059,
      "▁dischar": 7060,
      "▁apostles": 7061,
      "▁facilitate": 7062,
      "▁laugh": 7063,
      "unk": 7064,
      "▁marriage.": 7065,
      "▁purpose.": 7066,
      "▁b.c.": 7067,
      "▁thee": 7068,
      "▁celebrations": 7069,
      "▁karunan": 7070,
      "ifies": 7071,
      "▁devast": 7072,
      "▁kerala,": 7073,
      "▁federal": 7074,
      "▁beneficial": 7075,
      "▁university.": 7076,
      "nament": 7077,
      "▁still,": 7078,
      "▁ensuring": 7079,
      "▁pip": 7080,
      "▁location": 7081,
      "▁abuse": 7082,
      "▁divers": 7083,
      "▁causing": 7084,
      "▁blam": 7085,
      "▁present,": 7086,
      "▁tam": 7087,
      "▁qur": 7088,
      "▁afterward": 7089,
      "▁speaks": 7090,
      "▁sweet": 7091,
      "▁apex": 7092,
      "▁witnessed": 7093,
      "▁circumstances": 7094,
      "▁cuddal": 7095,
      "ottai": 7096,
      "▁true,": 7097,
      "▁truth,": 7098,
      "▁nurs": 7099,
      "▁presently": 7100,
      "▁support.": 7101,
      "▁islamic": 7102,
      "mal": 7103,
      "▁excess": 7104,
      "▁recon": 7105,
      "▁womens": 7106,
      "▁health,": 7107,
      "▁posts": 7108,
      "▁2018-19": 7109,
      "▁putting": 7110,
      "▁collaps": 7111,
      "▁kul": 7112,
      "▁contesting": 7113,
      "▁akshay": 7114,
      "▁aspir": 7115,
      "▁clust": 7116,
      "▁memorandum": 7117,
      "field": 7118,
      "point": 7119,
      "▁ped": 7120,
      "▁he's": 7121,
      "▁control.": 7122,
      "▁sho": 7123,
      "▁persons.": 7124,
      "▁mete": 7125,
      "▁replied": 7126,
      "olit": 7127,
      "▁vul": 7128,
      "▁turning": 7129,
      "▁2016-1": 7130,
      "▁adopted": 7131,
      "▁output": 7132,
      "▁larger": 7133,
      "▁rain.": 7134,
      "arr": 7135,
      "nan": 7136,
      "▁ol": 7137,
      "▁imran": 7138,
      "▁won't": 7139,
      "▁blessing": 7140,
      "▁heal": 7141,
      "▁exceed": 7142,
      "▁these,": 7143,
      "▁example.": 7144,
      "▁inhabit": 7145,
      "▁aishw": 7146,
      "▁expens": 7147,
      "▁keer": 7148,
      "▁happening.": 7149,
      "▁damaged.": 7150,
      "▁brain": 7151,
      "▁55": 7152,
      "▁impris": 7153,
      "▁visiting": 7154,
      "▁plea": 7155,
      "▁violent": 7156,
      "▁deceased": 7157,
      "▁schedu": 7158,
      "▁nan": 7159,
      "▁nutrition": 7160,
      "▁woman.": 7161,
      "ors,": 7162,
      "inton": 7163,
      "▁centuries": 7164,
      "▁beauty": 7165,
      "▁gent": 7166,
      "▁losing": 7167,
      "▁fer": 7168,
      "ve.": 7169,
      "▁film's": 7170,
      "▁highways": 7171,
      "▁sanjay": 7172,
      "▁custody": 7173,
      "▁university,": 7174,
      "▁promoting": 7175,
      "▁yes": 7176,
      "▁cloth": 7177,
      "ning.": 7178,
      "▁recover": 7179,
      "▁birds": 7180,
      "▁pregnant": 7181,
      "ates,": 7182,
      "▁chose": 7183,
      "▁closer": 7184,
      "▁mode": 7185,
      "▁george": 7186,
      "▁discovered": 7187,
      "▁morning.": 7188,
      "▁liquid": 7189,
      "▁ti": 7190,
      "▁rose": 7191,
      "▁love,": 7192,
      "cs": 7193,
      "▁render": 7194,
      "▁goog": 7195,
      "▁petro": 7196,
      "ctions": 7197,
      "▁phas": 7198,
      "▁todays": 7199,
      "▁priced": 7200,
      "▁mt": 7201,
      "allur": 7202,
      "▁revised": 7203,
      "▁technology,": 7204,
      "ois": 7205,
      "▁entrepreneur": 7206,
      "with": 7207,
      "▁explan": 7208,
      "apatt": 7209,
      "▁issues.": 7210,
      "▁broken": 7211,
      "▁toler": 7212,
      "ership": 7213,
      "▁identity": 7214,
      "▁parents,": 7215,
      "▁opposite": 7216,
      "▁see.": 7217,
      "▁tempt": 7218,
      "▁music.": 7219,
      "line.": 7220,
      "▁theme": 7221,
      "▁faces": 7222,
      "▁linked": 7223,
      "▁allegedly": 7224,
      "care": 7225,
      "▁uns": 7226,
      "▁pharaoh": 7227,
      "▁suddenly": 7228,
      "▁possibility": 7229,
      "▁dismissed": 7230,
      "▁wing": 7231,
      "resident": 7232,
      "▁winners": 7233,
      "lected": 7234,
      "▁syn": 7235,
      "▁spirit.": 7236,
      "▁considering": 7237,
      "▁improved": 7238,
      "▁jam": 7239,
      "▁monthly": 7240,
      "▁sector.": 7241,
      "▁scene": 7242,
      "▁scholarship": 7243,
      "hal": 7244,
      "▁isn't": 7245,
      "▁reign": 7246,
      "▁sets": 7247,
      "iciency": 7248,
      "vious": 7249,
      "▁pump": 7250,
      "▁expans": 7251,
      "▁power,": 7252,
      "▁repair": 7253,
      "▁shout": 7254,
      "▁them:": 7255,
      "eep": 7256,
      "▁lake": 7257,
      "ounced": 7258,
      "▁increases": 7259,
      "▁summer": 7260,
      "▁mukher": 7261,
      "▁taste": 7262,
      "lex": 7263,
      "▁sachin": 7264,
      "place": 7265,
      "▁creator": 7266,
      "b.": 7267,
      "▁approached": 7268,
      "▁recognized": 7269,
      "▁olympic": 7270,
      "▁nayanthara": 7271,
      "▁23.": 7272,
      "44": 7273,
      "itect": 7274,
      "▁unions": 7275,
      "▁order.": 7276,
      "▁century,": 7277,
      "▁mail": 7278,
      "▁championship": 7279,
      "▁lal": 7280,
      "▁canada": 7281,
      "▁club": 7282,
      "▁started.": 7283,
      "▁flock": 7284,
      "▁face.": 7285,
      "▁viz": 7286,
      "▁blame": 7287,
      "▁sufficient": 7288,
      "▁wheel": 7289,
      "▁guil": 7290,
      "▁retire": 7291,
      "▁arms": 7292,
      "▁childhood": 7293,
      "ipur": 7294,
      "▁walked": 7295,
      "▁raw": 7296,
      "▁expo": 7297,
      "▁supposed": 7298,
      "▁adjust": 7299,
      "▁deed": 7300,
      "▁jump": 7301,
      "▁showc": 7302,
      "▁aadha": 7303,
      "▁researchers": 7304,
      "▁struct": 7305,
      "▁twice": 7306,
      "▁kit": 7307,
      "-sh": 7308,
      "▁earned": 7309,
      "▁map": 7310,
      "▁extension": 7311,
      "▁chhattisgar": 7312,
      "▁prophecy": 7313,
      "km": 7314,
      "▁rak": 7315,
      "▁gandhi.": 7316,
      "▁architect": 7317,
      "▁series.": 7318,
      "▁golden": 7319,
      "asa": 7320,
      "▁commits": 7321,
      "▁land,": 7322,
      "▁sectors": 7323,
      "▁\"\"\"what": 7324,
      "▁formation": 7325,
      "▁book.": 7326,
      "▁reason.": 7327,
      "▁recently,": 7328,
      "▁circu": 7329,
      "look": 7330,
      "▁delivery": 7331,
      "ius": 7332,
      "ily,": 7333,
      "▁malayalam,": 7334,
      "▁china,": 7335,
      "▁vegetables": 7336,
      "▁islands": 7337,
      "▁meteor": 7338,
      "agiri": 7339,
      "omin": 7340,
      "ortic": 7341,
      "▁assigned": 7342,
      "hil": 7343,
      "▁wake": 7344,
      "▁statement.": 7345,
      "▁methods": 7346,
      "pread": 7347,
      "load": 7348,
      "▁fortun": 7349,
      "▁semi": 7350,
      "isted": 7351,
      "▁'m": 7352,
      "▁aishwarya": 7353,
      "uts": 7354,
      "and,": 7355,
      "▁countrys": 7356,
      "▁elderly": 7357,
      "▁salary": 7358,
      "▁pride": 7359,
      "▁useful": 7360,
      "▁wides": 7361,
      "▁purs": 7362,
      "▁maharashtra,": 7363,
      "▁tun": 7364,
      "-ter": 7365,
      "▁native": 7366,
      "▁conven": 7367,
      "▁families.": 7368,
      "▁organisations": 7369,
      "▁vessel": 7370,
      "▁mla": 7371,
      "▁sel": 7372,
      "▁falling": 7373,
      "▁univer": 7374,
      "▁widespread": 7375,
      "ope": 7376,
      "▁unfortun": 7377,
      "gen": 7378,
      "▁conservation": 7379,
      "--": 7380,
      "▁m.": 7381,
      "▁installed": 7382,
      "▁voc": 7383,
      "▁palest": 7384,
      "▁inherit": 7385,
      "elt": 7386,
      "▁participating": 7387,
      "▁date.": 7388,
      "▁comed": 7389,
      "▁fields": 7390,
      "▁agencies": 7391,
      "▁fine.": 7392,
      "▁christs": 7393,
      "▁bay": 7394,
      "▁disappoint": 7395,
      "▁roll": 7396,
      "▁ways.": 7397,
      "▁producers": 7398,
      "▁dust": 7399,
      "▁jacob": 7400,
      "▁investigated.": 7401,
      "▁kindness": 7402,
      "▁ayush": 7403,
      "!\"": 7404,
      "▁deeds": 7405,
      "▁mond": 7406,
      "▁statue": 7407,
      "▁fishing": 7408,
      "▁polling": 7409,
      "▁compar": 7410,
      "▁capable": 7411,
      "▁house,": 7412,
      "▁threatened": 7413,
      "▁collected": 7414,
      "▁pair": 7415,
      "▁framework": 7416,
      "organ": 7417,
      "▁unless": 7418,
      "alam": 7419,
      "▁44": 7420,
      "▁imperial": 7421,
      "kan": 7422,
      "▁mask": 7423,
      "▁mac": 7424,
      "▁organizations": 7425,
      "▁radio": 7426,
      "/h": 7427,
      "▁adi": 7428,
      "▁beach": 7429,
      "▁outs": 7430,
      "▁autops": 7431,
      "▁cens": 7432,
      "▁vad": 7433,
      "▁empt": 7434,
      "▁schools.": 7435,
      "▁starring": 7436,
      "▁crore,": 7437,
      "▁smith": 7438,
      "▁burnt": 7439,
      "▁skipper": 7440,
      "▁anush": 7441,
      "▁says,": 7442,
      "▁experiences": 7443,
      "▁priyanka": 7444,
      "▁ransom": 7445,
      "▁relax": 7446,
      "▁custody.": 7447,
      "▁prizes": 7448,
      "▁category": 7449,
      "▁tirunelveli": 7450,
      "▁formal": 7451,
      "▁differences": 7452,
      "▁information.": 7453,
      "▁device": 7454,
      "▁emerged": 7455,
      "▁tob": 7456,
      "▁are.": 7457,
      "▁manager": 7458,
      "lets": 7459,
      "▁pakistan,": 7460,
      "▁obtained": 7461,
      "anath": 7462,
      "▁finished": 7463,
      "▁samaj": 7464,
      "▁substant": 7465,
      "heart": 7466,
      "▁infl": 7467,
      "▁certificates": 7468,
      "▁ministerial": 7469,
      "▁ordinary": 7470,
      "▁observe": 7471,
      "▁singapore": 7472,
      "▁43": 7473,
      "▁universities": 7474,
      "▁gearbox": 7475,
      "▁tiruchira": 7476,
      ",'": 7477,
      "ael": 7478,
      "▁regions": 7479,
      "▁lanka.": 7480,
      "▁observ": 7481,
      "▁bc": 7482,
      "aptain": 7483,
      "▁tamil.": 7484,
      "re.": 7485,
      "▁perc": 7486,
      "▁perspect": 7487,
      "▁package": 7488,
      "▁aam": 7489,
      "▁israel.": 7490,
      "▁mostly": 7491,
      "▁questioned.": 7492,
      "aked": 7493,
      "▁widow": 7494,
      "▁spirit,": 7495,
      "▁respectively.": 7496,
      "▁yojana": 7497,
      "uri": 7498,
      "▁winter": 7499,
      "▁gm": 7500,
      "▁period.": 7501,
      "▁continuous": 7502,
      "▁easy.": 7503,
      "▁kills": 7504,
      "g.": 7505,
      "▁arent": 7506,
      "▁pilot": 7507,
      "▁aar": 7508,
      "▁vas": 7509,
      "▁enough.": 7510,
      "16": 7511,
      "inals": 7512,
      "ya,": 7513,
      "▁tort": 7514,
      "▁sushma": 7515,
      "▁either.": 7516,
      "▁consequences": 7517,
      "▁assembly.": 7518,
      "ives,": 7519,
      "▁pran": 7520,
      "▁som": 7521,
      "▁butter": 7522,
      "18": 7523,
      "▁keeps": 7524,
      "▁kajal": 7525,
      "hm": 7526,
      "▁boil": 7527,
      "▁conversation": 7528,
      "▁ud": 7529,
      "▁rot": 7530,
      "▁fishe": 7531,
      "▁strategy": 7532,
      "▁fertiliz": 7533,
      "bu": 7534,
      "gi": 7535,
      "▁aims": 7536,
      "▁fiscal": 7537,
      "▁chast": 7538,
      "▁'p": 7539,
      "▁hardship": 7540,
      "▁laksh": 7541,
      "mon": 7542,
      "▁eu": 7543,
      "▁transf": 7544,
      "viet": 7545,
      "-200": 7546,
      "water": 7547,
      "abilities": 7548,
      "▁rival": 7549,
      "▁continue.": 7550,
      "▁wives": 7551,
      "▁factors": 7552,
      "▁ephes": 7553,
      "▁wage": 7554,
      "▁temples": 7555,
      "▁struck": 7556,
      "▁350": 7557,
      "▁diagn": 7558,
      "▁faith,": 7559,
      "▁exempt": 7560,
      "▁passes": 7561,
      "-time": 7562,
      "▁maintaining": 7563,
      "▁stopped.": 7564,
      "▁formula": 7565,
      "ught": 7566,
      "▁14,": 7567,
      "ily.": 7568,
      "▁ez": 7569,
      "▁prompt": 7570,
      "▁system,": 7571,
      "▁reasons.": 7572,
      "▁explo": 7573,
      "▁democracy.": 7574,
      "32": 7575,
      "▁valley": 7576,
      "▁voting": 7577,
      "▁banned": 7578,
      "▁ori": 7579,
      "▁thankful": 7580,
      "▁24.": 7581,
      "▁handle": 7582,
      "anna": 7583,
      "▁gad": 7584,
      "▁8:": 7585,
      "▁partner": 7586,
      "▁yourselves": 7587,
      "▁personality": 7588,
      "▁arts": 7589,
      "▁records": 7590,
      "▁healthcare": 7591,
      "▁jin": 7592,
      "▁(v": 7593,
      "▁afflic": 7594,
      "▁operating": 7595,
      "▁juice": 7596,
      "▁lots": 7597,
      "rier": 7598,
      "▁22.": 7599,
      "▁charged": 7600,
      "▁bhag": 7601,
      "▁stab": 7602,
      "▁accommod": 7603,
      "bal": 7604,
      "cr": 7605,
      "▁analy": 7606,
      "racted": 7607,
      "▁aids": 7608,
      "▁weapon": 7609,
      "iar": 7610,
      "▁stret": 7611,
      "▁jait": 7612,
      "▁artist": 7613,
      "▁videos": 7614,
      "▁minority": 7615,
      "▁convict": 7616,
      "▁mohammed": 7617,
      "itating": 7618,
      "▁suspended": 7619,
      "▁sunday": 7620,
      "'ve": 7621,
      "▁cub": 7622,
      "iny": 7623,
      "icate": 7624,
      "▁apple": 7625,
      "▁distress": 7626,
      "▁hands.": 7627,
      "▁words,": 7628,
      "▁age.": 7629,
      "▁elector": 7630,
      "▁hindi.": 7631,
      "▁b.c.e.": 7632,
      "▁wearing": 7633,
      "▁incor": 7634,
      "▁39": 7635,
      "▁recru": 7636,
      "▁cs": 7637,
      "▁fever": 7638,
      "▁obvious": 7639,
      "▁affairs,": 7640,
      "▁allegations": 7641,
      "ake.": 7642,
      "riya": 7643,
      "▁selling": 7644,
      "ront": 7645,
      "▁belonging": 7646,
      "itary": 7647,
      "▁angry": 7648,
      "▁sword": 7649,
      "▁hate": 7650,
      "▁49": 7651,
      "▁painful": 7652,
      "when": 7653,
      "▁reservoir": 7654,
      "haw": 7655,
      "▁scriptural": 7656,
      "word": 7657,
      "▁amid": 7658,
      "▁outbreak": 7659,
      "▁justice.": 7660,
      "▁recognize": 7661,
      "▁deliber": 7662,
      "ite,": 7663,
      "▁governing": 7664,
      "▁evening.": 7665,
      "▁integrity": 7666,
      "▁reaching": 7667,
      "▁head.": 7668,
      "▁input": 7669,
      "▁bank,": 7670,
      "▁finding": 7671,
      "▁visible": 7672,
      "▁mountains": 7673,
      "ha,": 7674,
      "▁categor": 7675,
      "▁hide": 7676,
      "▁mathem": 7677,
      "▁transaction": 7678,
      "▁retired": 7679,
      "ashi": 7680,
      "▁assets": 7681,
      "▁innoc": 7682,
      "roid": 7683,
      "▁2,000": 7684,
      "▁disord": 7685,
      "▁project.": 7686,
      "▁what?": 7687,
      "▁outrage": 7688,
      "▁hospitals.": 7689,
      "▁accidents": 7690,
      "n.": 7691,
      "▁security.": 7692,
      "▁component": 7693,
      "42": 7694,
      "▁rent": 7695,
      "imal": 7696,
      "ards": 7697,
      "▁starts": 7698,
      "cribed": 7699,
      "agan": 7700,
      "▁images": 7701,
      "▁amazing": 7702,
      "▁compassion": 7703,
      "▁(k": 7704,
      "izes": 7705,
      "▁\"in": 7706,
      "▁demanding": 7707,
      "▁taxes": 7708,
      "▁unlike": 7709,
      "▁public.": 7710,
      "▁expectations": 7711,
      "▁contem": 7712,
      "▁coff": 7713,
      "▁covering": 7714,
      "▁procurement": 7715,
      "▁pursue": 7716,
      "▁worksh": 7717,
      "fast": 7718,
      "s.\"\"\"": 7719,
      "▁rajesh": 7720,
      "▁immig": 7721,
      "▁passenger": 7722,
      "▁enhanced": 7723,
      "▁aadhaar": 7724,
      "▁further.": 7725,
      "▁tested": 7726,
      "▁solutions": 7727,
      "▁listed": 7728,
      "▁match.": 7729,
      "▁guru": 7730,
      "▁indira": 7731,
      "▁here's": 7732,
      "▁frust": 7733,
      "▁congregations": 7734,
      "▁variant": 7735,
      "▁sharp": 7736,
      "▁president,": 7737,
      "▁hortic": 7738,
      "▁overt": 7739,
      "-produ": 7740,
      "▁style": 7741,
      "▁2nd": 7742,
      "▁residence": 7743,
      "▁follows:": 7744,
      "▁explains": 7745,
      "▁sind": 7746,
      "▁we're": 7747,
      "▁roy": 7748,
      "▁satur": 7749,
      "▁shortly": 7750,
      "-match": 7751,
      "▁game.": 7752,
      "remes": 7753,
      "▁righteousness": 7754,
      "pa": 7755,
      "▁onward": 7756,
      "▁connectivity": 7757,
      "▁escape": 7758,
      "▁neck": 7759,
      "iast": 7760,
      "▁atom": 7761,
      "▁tears": 7762,
      "ba": 7763,
      "▁cad": 7764,
      "▁furn": 7765,
      "▁combined": 7766,
      "▁degrees": 7767,
      "▁sidd": 7768,
      "ention.": 7769,
      "▁52": 7770,
      "raman": 7771,
      "▁remote": 7772,
      "▁swift": 7773,
      "-gen": 7774,
      "▁cher": 7775,
      "▁hub": 7776,
      "▁desires": 7777,
      "▁firef": 7778,
      "▁puduk": 7779,
      "▁karunanidhi": 7780,
      "▁guilty": 7781,
      "▁tobac": 7782,
      "▁nations.": 7783,
      "▁eli": 7784,
      "▁jav": 7785,
      "▁operational": 7786,
      "▁functions": 7787,
      "nu": 7788,
      "▁sod": 7789,
      "inghe": 7790,
      "▁entit": 7791,
      "▁africa,": 7792,
      "▁graduate": 7793,
      "▁broadcast": 7794,
      "▁overs": 7795,
      "▁carbon": 7796,
      "▁involving": 7797,
      "ah.": 7798,
      "▁accused.": 7799,
      "▁enterprises": 7800,
      "gir": 7801,
      "▁memory": 7802,
      "▁whereas": 7803,
      "ures,": 7804,
      "▁deficit": 7805,
      "iran": 7806,
      "▁interp": 7807,
      "▁ideas": 7808,
      "▁translation": 7809,
      "▁concluded": 7810,
      "born": 7811,
      "▁tight": 7812,
      "ic,": 7813,
      "▁examine": 7814,
      "hin": 7815,
      "khar": 7816,
      "mas": 7817,
      "▁snow": 7818,
      "▁thereof": 7819,
      "▁participants": 7820,
      "▁stadium": 7821,
      "▁vulner": 7822,
      "▁shame": 7823,
      "▁canc": 7824,
      "▁ib": 7825,
      "▁(to": 7826,
      "▁elements": 7827,
      "▁meeting,": 7828,
      "▁hang": 7829,
      "te.": 7830,
      "▁daily.": 7831,
      "▁publisher": 7832,
      "▁aside": 7833,
      "▁rit": 7834,
      "▁thereby": 7835,
      "iness,": 7836,
      "esterday": 7837,
      "▁humble": 7838,
      "▁words.": 7839,
      "▁whenever": 7840,
      "▁farmers,": 7841,
      "▁jeremiah": 7842,
      "▁keerthy": 7843,
      "▁reference": 7844,
      "deep": 7845,
      "▁preparation": 7846,
      "▁(o": 7847,
      "▁moves": 7848,
      "▁food,": 7849,
      "▁involves": 7850,
      "▁audit": 7851,
      "▁gross": 7852,
      "▁infected": 7853,
      "▁activities.": 7854,
      "▁recognition": 7855,
      "▁previously": 7856,
      "▁audience": 7857,
      "▁prost": 7858,
      "▁directors": 7859,
      "why": 7860,
      "▁brown": 7861,
      "▁captured": 7862,
      "iest": 7863,
      "▁loves": 7864,
      "▁technologies": 7865,
      "▁enthus": 7866,
      "▁meets": 7867,
      "▁mother,": 7868,
      "▁responsibilities": 7869,
      "▁elev": 7870,
      "▁bike": 7871,
      "ayam": 7872,
      "▁conqu": 7873,
      "▁slog": 7874,
      "▁murder.": 7875,
      "▁volume": 7876,
      "▁aimed": 7877,
      "▁telugu.": 7878,
      "▁steel": 7879,
      "▁protesters": 7880,
      "▁marty": 7881,
      "▁sparked": 7882,
      "▁enforce": 7883,
      "▁pain.": 7884,
      "▁maintained": 7885,
      "▁shad": 7886,
      "ela": 7887,
      "▁dedication": 7888,
      "▁retain": 7889,
      "▁prefer": 7890,
      "▁consists": 7891,
      "▁planet": 7892,
      "▁about?": 7893,
      "▁affection": 7894,
      "▁defeated": 7895,
      "▁accomplish": 7896,
      "▁eleph": 7897,
      "▁assam": 7898,
      "▁found.": 7899,
      "▁library": 7900,
      "upt": 7901,
      "▁sevent": 7902,
      "▁varan": 7903,
      "▁discern": 7904,
      "▁soviet": 7905,
      "▁aggar": 7906,
      "▁responded": 7907,
      "13": 7908,
      "▁post-mortem.": 7909,
      "o-": 7910,
      "▁secretari": 7911,
      "▁declar": 7912,
      "▁president.": 7913,
      "▁life?": 7914,
      "na,": 7915,
      "▁mps": 7916,
      "▁revol": 7917,
      "▁cod": 7918,
      "▁prevention": 7919,
      "▁politicians": 7920,
      "▁below:": 7921,
      "▁imitate": 7922,
      "▁solve": 7923,
      "▁allows": 7924,
      "▁icc": 7925,
      "ises.": 7926,
      "▁alarm": 7927,
      "▁incent": 7928,
      "▁rebell": 7929,
      "▁thanjavur": 7930,
      "▁bethel": 7931,
      "▁informed.": 7932,
      "▁universal": 7933,
      "▁satans": 7934,
      "▁calci": 7935,
      "▁sride": 7936,
      "▁yesterday": 7937,
      "▁jai": 7938,
      "▁rati": 7939,
      "▁diwali": 7940,
      "▁absolutely": 7941,
      "▁google": 7942,
      "▁15:": 7943,
      "▁2.0": 7944,
      "▁paying": 7945,
      "▁philosop": 7946,
      "▁anushka": 7947,
      "▁bought": 7948,
      "▁jesus.": 7949,
      "▁die.": 7950,
      "▁default": 7951,
      "▁portion": 7952,
      "▁discipline": 7953,
      "▁unveiled": 7954,
      "otal": 7955,
      "▁foods": 7956,
      "▁corona": 7957,
      "▁disob": 7958,
      "▁zone": 7959,
      "▁30.": 7960,
      "aur": 7961,
      "▁peace,": 7962,
      "▁(i": 7963,
      "▁legend": 7964,
      "▁conclusion": 7965,
      "▁organic": 7966,
      "▁represented": 7967,
      "▁immun": 7968,
      "▁contributed": 7969,
      "▁ari": 7970,
      "▁bot": 7971,
      "▁brig": 7972,
      "▁initially": 7973,
      "▁dual": 7974,
      "▁lying": 7975,
      "▁collap": 7976,
      "▁allocation": 7977,
      "▁ceremony.": 7978,
      "▁v.": 7979,
      "▁context,": 7980,
      "▁element": 7981,
      "whel": 7982,
      "▁monsoon": 7983,
      "▁side.": 7984,
      "▁config": 7985,
      "oom": 7986,
      "▁rs.3": 7987,
      "▁attrib": 7988,
      "ibly": 7989,
      "▁spiritually": 7990,
      "cond": 7991,
      "ikk": 7992,
      "▁high.": 7993,
      "▁trailer": 7994,
      "ancheep": 7995,
      "17": 7996,
      "mer": 7997,
      "iforn": 7998,
      "▁expansion": 7999,
      "▁traveling": 8000,
      "▁gathering": 8001,
      "▁tremend": 8002,
      "ana.": 8003,
      "▁israeli": 8004,
      "▁kannada,": 8005,
      "▁medicines": 8006,
      "ulam": 8007,
      "arer": 8008,
      "▁conscious": 8009,
      "▁defend": 8010,
      "▁mighty": 8011,
      "▁encouraging": 8012,
      "▁travelling": 8013,
      "▁raising": 8014,
      "▁intense": 8015,
      "▁email": 8016,
      "▁suggested": 8017,
      "▁route": 8018,
      "▁troub": 8019,
      "▁officer,": 8020,
      "▁obst": 8021,
      "▁regard,": 8022,
      "ancheepuram": 8023,
      "▁server": 8024,
      "▁company.": 8025,
      "▁he,": 8026,
      "▁schedule": 8027,
      "65": 8028,
      "▁wave": 8029,
      "▁(of": 8030,
      "▁federation": 8031,
      "▁it.\"\"\"": 8032,
      "▁viewed": 8033,
      "rising": 8034,
      "'ll": 8035,
      "▁wal": 8036,
      "ida": 8037,
      "rase": 8038,
      "ounter": 8039,
      "▁nehru": 8040,
      "/s": 8041,
      "ignt": 8042,
      "▁accurate": 8043,
      "▁tap": 8044,
      "inc": 8045,
      "▁indig": 8046,
      "▁9:": 8047,
      "ant,": 8048,
      "▁intel": 8049,
      "ception": 8050,
      "▁ashok": 8051,
      "▁anymore.": 8052,
      "uz": 8053,
      "▁tn": 8054,
      "▁i.e.": 8055,
      "age,": 8056,
      "indig": 8057,
      "▁californ": 8058,
      "▁venture": 8059,
      "▁heed": 8060,
      "▁ethnic": 8061,
      "ocol": 8062,
      "h.": 8063,
      "roll": 8064,
      "▁spin": 8065,
      "antic": 8066,
      "▁push": 8067,
      "▁nice": 8068,
      "rers": 8069,
      "erate": 8070,
      "▁interaction": 8071,
      "▁why?": 8072,
      "▁smil": 8073,
      "▁left.": 8074,
      "▁instead,": 8075,
      "▁ahmedabad": 8076,
      "▁actor.": 8077,
      "▁constantly": 8078,
      "▁mk": 8079,
      "▁ham": 8080,
      "osing": 8081,
      "▁intention": 8082,
      "▁tsun": 8083,
      "isition": 8084,
      "▁fired": 8085,
      "eshwar": 8086,
      "▁associate": 8087,
      "▁william": 8088,
      "rip": 8089,
      "▁sole": 8090,
      "▁overwhel": 8091,
      "▁curren": 8092,
      "ukudi": 8093,
      "▁slight": 8094,
      "▁utter": 8095,
      "▁tournament": 8096,
      "▁sovereignt": 8097,
      "▁undertaken": 8098,
      "▁karthik": 8099,
      "ulate": 8100,
      "▁47": 8101,
      "▁investigated": 8102,
      "▁25.": 8103,
      "▁edapp": 8104,
      "▁earthly": 8105,
      "▁clear.": 8106,
      "▁ble": 8107,
      "▁physic": 8108,
      "isc": 8109,
      "▁ford": 8110,
      "umn": 8111,
      "▁adding": 8112,
      "▁turns": 8113,
      "▁understand.": 8114,
      "▁complaints": 8115,
      "▁wrongdo": 8116,
      "▁discl": 8117,
      "▁seal": 8118,
      "▁failed.": 8119,
      "▁foretold": 8120,
      "14": 8121,
      "▁letters": 8122,
      "▁caste": 8123,
      "remesinghe": 8124,
      "▁dair": 8125,
      "▁ascertain": 8126,
      "▁questioned": 8127,
      "▁rajapaksa": 8128,
      "ued": 8129,
      "▁sib": 8130,
      "▁spending": 8131,
      "▁primarily": 8132,
      "▁process.": 8133,
      "▁own.": 8134,
      "▁materials": 8135,
      "▁flights": 8136,
      "▁voters": 8137,
      "▁split": 8138,
      "▁upl": 8139,
      "▁you're": 8140,
      "ish.": 8141,
      "▁abroad.": 8142,
      "▁rab": 8143,
      "▁percent.": 8144,
      "ourge": 8145,
      "▁substantial": 8146,
      "indigul": 8147,
      "▁|": 8148,
      "ero": 8149,
      "▁13,": 8150,
      "brid": 8151,
      "▁attempts": 8152,
      "don": 8153,
      "▁opportunity.": 8154,
      "▁rehabilitation": 8155,
      "secut": 8156,
      "▁recommended": 8157,
      "▁outcome": 8158,
      "▁fraud": 8159,
      "▁alex": 8160,
      "▁kancheepuram": 8161,
      "apped": 8162,
      "▁customs": 8163,
      "tm": 8164,
      "▁managing": 8165,
      "▁pool": 8166,
      "▁24:": 8167,
      "▁requirements": 8168,
      "▁know?": 8169,
      "assad": 8170,
      "▁shares": 8171,
      "▁secular": 8172,
      "▁fallen": 8173,
      "▁sasikala": 8174,
      "▁gall": 8175,
      "▁'we": 8176,
      "▁telephone": 8177,
      "▁naval": 8178,
      "▁ax": 8179,
      "▁nig": 8180,
      "▁injust": 8181,
      "▁france,": 8182,
      "▁edappadi": 8183,
      "▁fab": 8184,
      "ima": 8185,
      "▁month,": 8186,
      "▁surrounding": 8187,
      "▁lo!": 8188,
      "▁firing": 8189,
      "▁await": 8190,
      "▁tourist": 8191,
      "▁wickremesinghe": 8192,
      "▁demonstr": 8193,
      "akumari": 8194,
      "▁cha": 8195,
      "▁forgiveness": 8196,
      "uction": 8197,
      "eria": 8198,
      "ad,": 8199,
      "▁therein": 8200,
      "▁postp": 8201,
      "▁shocking": 8202,
      "▁gardens": 8203,
      "-to": 8204,
      "100": 8205,
      "▁stamp": 8206,
      "▁64": 8207,
      "▁successful.": 8208,
      "▁translated": 8209,
      "▁2014-1": 8210,
      "▁puj": 8211,
      "▁decades": 8212,
      "ges.": 8213,
      "met": 8214,
      "▁sark": 8215,
      "▁pharm": 8216,
      "▁factory": 8217,
      "▁guarantee": 8218,
      "▁bitter": 8219,
      "usted": 8220,
      "cycl": 8221,
      "▁sworn": 8222,
      "▁concerns": 8223,
      "▁car.": 8224,
      "▁hostel": 8225,
      "▁vellore": 8226,
      "▁mahinda": 8227,
      "▁circuit": 8228,
      "-j": 8229,
      "▁interview.": 8230,
      "▁crack": 8231,
      "cy,": 8232,
      "▁court,": 8233,
      "▁ltd.": 8234,
      "▁\"\"\"\"": 8235,
      "▁admon": 8236,
      "▁temporary": 8237,
      "▁dindigul": 8238,
      "▁lemon": 8239,
      "▁quoted": 8240,
      "▁sins": 8241,
      "▁win.": 8242,
      "▁shocked.": 8243,
      "▁palaniswami": 8244,
      "▁petrole": 8245,
      "aren": 8246,
      "▁christend": 8247,
      "ay.": 8248,
      "▁saving": 8249,
      "▁intervention": 8250,
      "▁dealing": 8251,
      "▁release.": 8252,
      "▁renewable": 8253,
      "▁unjust": 8254,
      "▁schools,": 8255,
      "▁online.": 8256,
      "▁calcul": 8257,
      "▁voted": 8258,
      "▁rumour": 8259,
      "hend": 8260,
      "key": 8261,
      "▁commanded": 8262,
      "▁commod": 8263,
      "▁twenty": 8264,
      "oothukudi": 8265,
      "▁spanish": 8266,
      "▁girl.": 8267,
      "▁siris": 8268,
      "▁kath": 8269,
      "▁rs.5": 8270,
      "▁tongue": 8271,
      "▁forgotten": 8272,
      "▁michael": 8273,
      "85": 8274,
      "ett": 8275,
      "▁encounter": 8276,
      "▁cope": 8277,
      "▁saul": 8278,
      "▁folk": 8279,
      "▁tender": 8280,
      "▁was.": 8281,
      "soever": 8282,
      "▁me!": 8283,
      "▁reducing": 8284,
      "enth": 8285,
      "▁many.": 8286,
      "▁preparing": 8287,
      "▁gujarat,": 8288,
      "▁criticism": 8289,
      "▁dollar": 8290,
      "▁1.2": 8291,
      "▁academy": 8292,
      "▁vardhan": 8293,
      "▁permit": 8294,
      "▁heart,": 8295,
      "▁anticip": 8296,
      "▁bad.": 8297,
      "▁imperfect": 8298,
      "▁preca": 8299,
      "▁ramanath": 8300,
      "aptain),": 8301,
      "era": 8302,
      "▁cham": 8303,
      "▁goa": 8304,
      "▁\"so": 8305,
      "▁attitud": 8306,
      "▁moment.": 8307,
      "▁mixed": 8308,
      "▁greetings": 8309,
      "lin": 8310,
      "▁assass": 8311,
      "▁worship.": 8312,
      "400": 8313,
      "▁va": 8314,
      "▁superior": 8315,
      "▁egg": 8316,
      "95": 8317,
      "▁pled": 8318,
      "▁strive": 8319,
      "▁cells": 8320,
      "37": 8321,
      "▁sout": 8322,
      "▁thom": 8323,
      "▁workers.": 8324,
      "▁preced": 8325,
      "▁refused.": 8326,
      "▁admit": 8327,
      "▁writes": 8328,
      "ez": 8329,
      "aries.": 8330,
      "▁suitable": 8331,
      "▁satisfaction": 8332,
      "▁rapidly": 8333,
      "▁evalu": 8334,
      "▁odisha": 8335,
      "exp": 8336,
      "▁scooter": 8337,
      "inating": 8338,
      "▁do,": 8339,
      "▁distingu": 8340,
      "▁potato": 8341,
      "▁ranil": 8342,
      "▁fluid": 8343,
      "▁finally,": 8344,
      "▁priests": 8345,
      "▁mated": 8346,
      "▁jobs.": 8347,
      "▁16,": 8348,
      "▁yuvan": 8349,
      "lim": 8350,
      "▁fing": 8351,
      "▁jewell": 8352,
      "▁singh.": 8353,
      "▁celebration": 8354,
      "▁ambassad": 8355,
      "aswamy": 8356,
      "▁kur": 8357,
      "▁plenty": 8358,
      "▁maharashtra.": 8359,
      "▁piv": 8360,
      "▁myan": 8361,
      "iban": 8362,
      "ances,": 8363,
      "▁calm": 8364,
      "▁farming": 8365,
      "▁society,": 8366,
      "▁pleasure": 8367,
      "▁enemy": 8368,
      "▁plastic": 8369,
      "▁equality": 8370,
      "▁femal": 8371,
      "▁down,": 8372,
      "▁poster": 8373,
      "▁elite": 8374,
      "▁hydro": 8375,
      "▁bath": 8376,
      "▁abled": 8377,
      "▁two-": 8378,
      "▁oldest": 8379,
      "▁ice": 8380,
      "▁relevant": 8381,
      "▁stated:": 8382,
      "▁naw": 8383,
      "▁stun": 8384,
      "▁permitted": 8385,
      "▁protest.": 8386,
      "▁pour": 8387,
      "unch": 8388,
      "▁samuel": 8389,
      "▁touched": 8390,
      "▁370": 8391,
      "▁guided": 8392,
      "▁place,": 8393,
      "▁enemies": 8394,
      "▁gap": 8395,
      "▁works.": 8396,
      "▁herself": 8397,
      "upuram": 8398,
      "▁sharma,": 8399,
      "isan": 8400,
      "aran": 8401,
      "▁alongside": 8402,
      "▁inspir": 8403,
      "▁population.": 8404,
      "▁rend": 8405,
      "▁hab": 8406,
      "unal": 8407,
      "▁constituencies": 8408,
      "▁theatre": 8409,
      "ental": 8410,
      "▁simpl": 8411,
      "▁17:": 8412,
      "▁babu": 8413,
      "22": 8414,
      "▁core": 8415,
      "▁blood.": 8416,
      "▁turbo": 8417,
      "▁deterior": 8418,
      "-president": 8419,
      "▁paint": 8420,
      "▁bajaj": 8421,
      "▁smooth": 8422,
      "▁tourists": 8423,
      "▁enquir": 8424,
      "▁teachings": 8425,
      "▁entering": 8426,
      "▁million.": 8427,
      "▁draft": 8428,
      "▁casualties": 8429,
      "bers,": 8430,
      "▁better.": 8431,
      "▁tsp": 8432,
      "▁mole": 8433,
      "▁grants": 8434,
      "▁areas,": 8435,
      "ination.": 8436,
      "▁mud": 8437,
      "▁raid": 8438,
      "▁completion": 8439,
      "▁fighter": 8440,
      "ushan": 8441,
      "▁sabha.": 8442,
      "▁iraqi": 8443,
      "▁picked": 8444,
      "▁row": 8445,
      "▁challenging": 8446,
      "▁destroyed.": 8447,
      "rie": 8448,
      "▁fulfilled": 8449,
      "father": 8450,
      "▁happen?": 8451,
      "▁minds": 8452,
      "▁kinds": 8453,
      "fit": 8454,
      "▁commiss": 8455,
      "▁14:": 8456,
      "▁cott": 8457,
      "▁oh": 8458,
      "▁deposit": 8459,
      "36": 8460,
      "▁people's": 8461,
      "▁incon": 8462,
      "▁largely": 8463,
      "orted": 8464,
      "▁books.": 8465,
      "▁terrible": 8466,
      "alle": 8467,
      "▁lect": 8468,
      "▁(or": 8469,
      "▁realized": 8470,
      "▁pranab": 8471,
      "atically": 8472,
      "▁gaz": 8473,
      "igar": 8474,
      "▁upset": 8475,
      "▁thoothukudi": 8476,
      "▁english.": 8477,
      "▁ambul": 8478,
      "▁fash": 8479,
      "uration": 8480,
      "akes": 8481,
      "▁decline": 8482,
      "▁strengthened": 8483,
      "▁inse": 8484,
      "▁sabar": 8485,
      "▁murug": 8486,
      "▁africa.": 8487,
      "▁anil": 8488,
      "omach": 8489,
      "▁sem": 8490,
      "▁friendly": 8491,
      "▁ladakh": 8492,
      "▁allotted": 8493,
      "▁honey": 8494,
      "▁archae": 8495,
      "▁surprise": 8496,
      "3)": 8497,
      "▁traged": 8498,
      "▁smaller": 8499,
      "▁engines": 8500,
      "▁\"\"i": 8501,
      "▁officials.": 8502,
      "▁athlet": 8503,
      "▁wouldnt": 8504,
      "▁shortage": 8505,
      "▁marked": 8506,
      "ca": 8507,
      "f)": 8508,
      "ive,": 8509,
      "▁46": 8510,
      "▁examined": 8511,
      "land,": 8512,
      "▁kumar.": 8513,
      "▁focused": 8514,
      "▁spring": 8515,
      "▁well-": 8516,
      "▁rights.": 8517,
      "▁programs": 8518,
      "▁50,000": 8519,
      "▁palm": 8520,
      "▁2015-1": 8521,
      "▁plot": 8522,
      "▁indicated": 8523,
      "▁award.": 8524,
      "guard": 8525,
      "▁missionary": 8526,
      "▁wages": 8527,
      "▁attain": 8528,
      "▁everyday": 8529,
      "▁facts": 8530,
      "▁fasc": 8531,
      "▁\"\"\"he": 8532,
      "▁hereafter": 8533,
      "▁viet": 8534,
      "▁motion": 8535,
      "▁borrow": 8536,
      "omen": 8537,
      "▁christians,": 8538,
      "▁week,": 8539,
      "▁resolved": 8540,
      "▁messengers": 8541,
      "▁customers": 8542,
      "▁cases,": 8543,
      "▁smoking": 8544,
      "▁myself.": 8545,
      "▁oxy": 8546,
      "▁tremendous": 8547,
      "▁boat": 8548,
      "▁investments": 8549,
      "▁nagapatt": 8550,
      "▁introduction": 8551,
      "▁130": 8552,
      "▁mechanism": 8553,
      "▁jal": 8554,
      "▁usual": 8555,
      "▁relating": 8556,
      "▁friend.": 8557,
      "▁electrical": 8558,
      "▁mosqu": 8559,
      "▁astron": 8560,
      "▁valuable": 8561,
      "oon": 8562,
      "▁otherwise": 8563,
      "▁services.": 8564,
      "▁resigned": 8565,
      "▁protesting": 8566,
      "▁represents": 8567,
      "-k": 8568,
      "▁sequ": 8569,
      "▁29.": 8570,
      "▁each.": 8571,
      "ultaneous": 8572,
      "iform": 8573,
      "▁(se": 8574,
      "▁tributes": 8575,
      "▁entirely": 8576,
      "ole": 8577,
      "▁singer": 8578,
      "ergy": 8579,
      "▁meteorological": 8580,
      "▁gained": 8581,
      "▁notified": 8582,
      "▁together,": 8583,
      "▁troph": 8584,
      "▁cattle": 8585,
      "▁name,": 8586,
      "▁journe": 8587,
      "▁declare": 8588,
      "▁1.5-litre": 8589,
      "▁intellect": 8590,
      "▁bell": 8591,
      "ated,": 8592,
      "▁impress": 8593,
      "▁oppose": 8594,
      "▁kids.": 8595,
      "▁electoral": 8596,
      "▁ratio": 8597,
      "▁kong": 8598,
      "▁quot": 8599,
      "▁potass": 8600,
      "celer": 8601,
      "▁(e": 8602,
      "▁simultaneous": 8603,
      "▁messages": 8604,
      "▁vehic": 8605,
      "▁injury": 8606,
      "▁analysis": 8607,
      "▁bon": 8608,
      "▁likes": 8609,
      "more,": 8610,
      "▁beast": 8611,
      "aved": 8612,
      "bl": 8613,
      "▁are:": 8614,
      "▁religion,": 8615,
      "▁australia,": 8616,
      "▁devi": 8617,
      "▁fulfillment": 8618,
      "▁strang": 8619,
      "▁required.": 8620,
      "ges,": 8621,
      "▁fly": 8622,
      "▁minutes": 8623,
      "▁wars": 8624,
      "▁tribes": 8625,
      "▁tendul": 8626,
      "▁superstar": 8627,
      "▁si": 8628,
      "▁interven": 8629,
      "▁thanked": 8630,
      "▁hypoc": 8631,
      "▁pacific": 8632,
      "-level": 8633,
      "ocratic": 8634,
      "▁list.": 8635,
      "▁settled": 8636,
      "▁hatred": 8637,
      "writ": 8638,
      "▁villagers": 8639,
      "▁camps": 8640,
      "▁suggestions": 8641,
      "▁tall": 8642,
      "▁encycl": 8643,
      "▁report.": 8644,
      "▁drag": 8645,
      "▁petroleum": 8646,
      "part": 8647,
      "▁km]": 8648,
      "▁achievement": 8649,
      "▁jaish": 8650,
      "98": 8651,
      "▁tack": 8652,
      "rolled": 8653,
      "▁villupuram": 8654,
      "▁availability": 8655,
      "eter": 8656,
      "▁54": 8657,
      "▁ground.": 8658,
      "▁mour": 8659,
      "▁hidden": 8660,
      "2020": 8661,
      "▁referring": 8662,
      "▁imprison": 8663,
      "/d": 8664,
      "▁contr": 8665,
      "▁added.\"": 8666,
      "ime.": 8667,
      "▁itself.": 8668,
      "▁batsman": 8669,
      "▁korean": 8670,
      "▁crown": 8671,
      "less.": 8672,
      "▁pivotal": 8673,
      "ching": 8674,
      "▁roof": 8675,
      "▁descend": 8676,
      "▁acceler": 8677,
      "bir": 8678,
      "▁asks": 8679,
      "▁now.": 8680,
      "▁facult": 8681,
      "▁khan,": 8682,
      "▁fisheries": 8683,
      "▁entitled": 8684,
      "▁premium": 8685,
      "▁pv": 8686,
      "▁weve": 8687,
      "▁market.": 8688,
      "▁crimes": 8689,
      "▁knock": 8690,
      "▁fad": 8691,
      "▁stability": 8692,
      "▁percentage": 8693,
      "▁agend": 8694,
      "▁700": 8695,
      "▁etc.,": 8696,
      "▁stolen": 8697,
      "bour": 8698,
      "gov": 8699,
      "▁thail": 8700,
      "▁her,": 8701,
      "▁signing": 8702,
      "▁roads.": 8703,
      "▁coverage": 8704,
      "▁italian": 8705,
      "ened.": 8706,
      "▁spokesman": 8707,
      "▁encyclop": 8708,
      "bered": 8709,
      "pass": 8710,
      "▁sard": 8711,
      "lection": 8712,
      "▁invitation": 8713,
      "▁only.": 8714,
      "▁religions": 8715,
      "▁consideration": 8716,
      "▁civilian": 8717,
      "▁direction.": 8718,
      "rolog": 8719,
      "▁defense": 8720,
      "▁crime.": 8721,
      "mn": 8722,
      "itt": 8723,
      "▁hunt": 8724,
      "▁anybody.": 8725,
      "▁bull": 8726,
      "ctr": 8727,
      "▁stones": 8728,
      "▁anybody": 8729,
      "▁emotion": 8730,
      "▁there?": 8731,
      "cked": 8732,
      "▁figures": 8733,
      "▁bin": 8734,
      "▁people?": 8735,
      "ugg": 8736,
      "▁cases.": 8737,
      "▁you!": 8738,
      "▁sees": 8739,
      "▁keen": 8740,
      "▁class.": 8741,
      "▁supplied": 8742,
      "za": 8743,
      "▁commence": 8744,
      "▁quiet": 8745,
      "▁50%": 8746,
      "▁honoured": 8747,
      "▁ashw": 8748,
      "▁culprit": 8749,
      "▁founder": 8750,
      "▁marvel": 8751,
      "▁equival": 8752,
      "▁28.": 8753,
      "ities,": 8754,
      "24": 8755,
      "ford": 8756,
      "et,": 8757,
      "▁ragh": 8758,
      "▁brut": 8759,
      "▁pepper": 8760,
      "▁ups": 8761,
      "▁regulation": 8762,
      "▁considerable": 8763,
      "▁existence": 8764,
      "▁abandoned": 8765,
      "ushing": 8766,
      "▁replaced": 8767,
      "▁arrangement": 8768,
      "akshi": 8769,
      "▁manner.": 8770,
      "▁away,": 8771,
      "▁mobil": 8772,
      "▁instrument": 8773,
      "▁commonly": 8774,
      "▁portal": 8775,
      "▁resulting": 8776,
      "▁banking": 8777,
      "▁inner": 8778,
      "▁drown": 8779,
      "▁funding": 8780,
      "▁board.": 8781,
      "▁knowledge.": 8782,
      "▁horse": 8783,
      "yam": 8784,
      "▁@": 8785,
      "▁onion,": 8786,
      "▁visits": 8787,
      "▁samples": 8788,
      "▁holiday": 8789,
      "▁recommendations": 8790,
      "▁palestin": 8791,
      "urt": 8792,
      "▁ken": 8793,
      "▁preparations": 8794,
      "fire": 8795,
      "elling": 8796,
      "▁consol": 8797,
      "▁corrid": 8798,
      "hara": 8799,
      "▁glass": 8800,
      "▁extensive": 8801,
      "▁satellite": 8802,
      "▁saturday": 8803,
      "▁nod": 8804,
      "▁that!": 8805,
      "▁110": 8806,
      "▁celeb": 8807,
      "▁uttarakh": 8808,
      "eries": 8809,
      "▁locals": 8810,
      "▁launches": 8811,
      "▁increasingly": 8812,
      "▁myth": 8813,
      "▁\"that": 8814,
      "▁discrim": 8815,
      "▁updates": 8816,
      "rants": 8817,
      "▁tobacco": 8818,
      "hik": 8819,
      "▁metal": 8820,
      "▁urge": 8821,
      "▁predict": 8822,
      "▁rein": 8823,
      "▁workers,": 8824,
      "▁hotel": 8825,
      "▁categories": 8826,
      "▁vaccine": 8827,
      "cot": 8828,
      "jah": 8829,
      "▁chart": 8830,
      "▁returning": 8831,
      "▁patt": 8832,
      "▁supporters": 8833,
      "▁policy.": 8834,
      "▁carefully": 8835,
      "fare": 8836,
      "▁for.": 8837,
      "▁congratulate": 8838,
      "yas": 8839,
      "▁vaj": 8840,
      "▁yourself.": 8841,
      "odh": 8842,
      "▁was,": 8843,
      "▁exal": 8844,
      "▁panel": 8845,
      "▁spokesperson": 8846,
      "pur,": 8847,
      "will": 8848,
      "▁jain": 8849,
      "▁exh": 8850,
      "▁cards": 8851,
      "▁dreams": 8852,
      "▁neighbours": 8853,
      "▁dropped": 8854,
      "▁retail": 8855,
      "▁increased.": 8856,
      "▁innovative": 8857,
      "▁behold,": 8858,
      "▁ramanathapuram": 8859,
      "▁equipped": 8860,
      "edia": 8861,
      "oda": 8862,
      "▁president's": 8863,
      "▁history,": 8864,
      "▁australia.": 8865,
      "wheel": 8866,
      "ingly": 8867,
      "▁crushed": 8868,
      "▁batting": 8869,
      "▁cori": 8870,
      "▁serves": 8871,
      "▁criticised": 8872,
      "▁supplies": 8873,
      "-off": 8874,
      "▁combat": 8875,
      "▁kany": 8876,
      "▁autopsy.": 8877,
      "▁reporter": 8878,
      "▁motorcycles": 8879,
      "▁persecution": 8880,
      "log": 8881,
      "▁temple,": 8882,
      "▁sleep.": 8883,
      "▁disbelieve": 8884,
      "▁isolated": 8885,
      "▁evac": 8886,
      "▁reasonable": 8887,
      "▁anti-": 8888,
      "▁virtual": 8889,
      "zy": 8890,
      "▁germany,": 8891,
      "tr": 8892,
      "▁gate": 8893,
      "eline": 8894,
      "rich": 8895,
      "▁scar": 8896,
      "▁cinemat": 8897,
      "▁outlay": 8898,
      "hibit": 8899,
      "▁marathi": 8900,
      "▁study.": 8901,
      "▁bjps": 8902,
      "▁determine": 8903,
      "▁constituency.": 8904,
      "▁rejoice": 8905,
      "gre": 8906,
      "▁gosp": 8907,
      "▁protected": 8908,
      "▁insight": 8909,
      "▁doctor.": 8910,
      "▁forum": 8911,
      "▁aged": 8912,
      "▁ministry,": 8913,
      "▁groups.": 8914,
      "▁dispos": 8915,
      "▁towns": 8916,
      "▁latin": 8917,
      "▁laug": 8918,
      "▁will,": 8919,
      "▁format": 8920,
      "▁conserv": 8921,
      "▁bhut": 8922,
      "▁staying": 8923,
      "▁loss.": 8924,
      "▁lady": 8925,
      "▁vigil": 8926,
      "▁pent": 8927,
      "▁sew": 8928,
      "▁requirement": 8929,
      "mc": 8930,
      "▁investors": 8931,
      "ology,": 8932,
      "▁21:": 8933,
      "▁listening": 8934,
      "ystem": 8935,
      "▁ire": 8936,
      "▁field.": 8937,
      "▁personally": 8938,
      "▁owner": 8939,
      "▁video.": 8940,
      "▁machine": 8941,
      "▁joshu": 8942,
      "▁forever.": 8943,
      "▁nilgir": 8944,
      "▁viz.": 8945,
      "▁contrad": 8946,
      "▁depress": 8947,
      "▁trials": 8948,
      "dha": 8949,
      "▁lakh,": 8950,
      "▁propag": 8951,
      "▁introduce": 8952,
      "▁conference.": 8953,
      "▁unpre": 8954,
      "77": 8955,
      "▁fib": 8956,
      "▁hike": 8957,
      "▁comprom": 8958,
      "▁end,": 8959,
      "▁heavily": 8960,
      "▁past.": 8961,
      "▁mumbai,": 8962,
      "▁maith": 8963,
      "▁stakehold": 8964,
      "▁tsunami": 8965,
      "▁doctr": 8966,
      "▁maybe": 8967,
      "▁problem?": 8968,
      "ica": 8969,
      "▁gamb": 8970,
      "▁isa": 8971,
      "▁metres": 8972,
      "▁booked": 8973,
      "▁studies.": 8974,
      "▁adityanath": 8975,
      "▁*": 8976,
      "▁wherever": 8977,
      "▁upro": 8978,
      "▁properties": 8979,
      "▁gujarat.": 8980,
      "▁mankind.": 8981,
      "▁paris": 8982,
      "▁85": 8983,
      "▁describe": 8984,
      "▁premier": 8985,
      "▁41": 8986,
      "▁torment": 8987,
      "▁neighbor": 8988,
      "▁wickets.": 8989,
      "▁aggarwal": 8990,
      "any": 8991,
      "▁stressed": 8992,
      "▁surre": 8993,
      "▁demise": 8994,
      "▁swach": 8995,
      "▁democrat": 8996,
      "▁inhabitants": 8997,
      "▁village.": 8998,
      "▁kingdom,": 8999,
      "▁recovered.": 9000,
      "dr": 9001,
      "has": 9002,
      "▁shift": 9003,
      "asters": 9004,
      "▁vice-president": 9005,
      "▁tensions": 9006,
      "▁sham": 9007,
      "▁shell": 9008,
      "▁good,": 9009,
      "▁office,": 9010,
      "▁dialogue": 9011,
      "government": 9012,
      "▁56": 9013,
      "▁manufacturer": 9014,
      "▁driven": 9015,
      "▁empow": 9016,
      "▁gro": 9017,
[...]
